{
  "version": "1.0",
  "truncation": null,
  "padding": null,
  "added_tokens": [
    {
      "id": 0,
      "content": "<|endoftext|>",
      "single_word": false,
      "lstrip": false,
      "rstrip": false,
      "normalized": false,
      "special": true
    },
    {
      "id": 1,
      "content": "<|pad|>",
      "single_word": false,
      "lstrip": false,
      "rstrip": false,
      "normalized": false,
      "special": true
    },
    {
      "id": 2,
      "content": "<|im_start|>",
      "single_word": false,
      "lstrip": false,
      "rstrip": false,
      "normalized": false,
      "special": true
    },
    {
      "id": 3,
      "content": "<|im_end|>",
      "single_word": false,
      "lstrip": false,
      "rstrip": false,
      "normalized": false,
      "special": true
    }
  ],
  "normalizer": null,
  "pre_tokenizer": {
    "type": "ByteLevel",
    "add_prefix_space": true,
    "trim_offsets": true,
    "use_regex": true
  },
  "post_processor": {
    "type": "TemplateProcessing",
    "single": [
      {
        "Sequence": {
          "id": "A",
          "type_id": 0
        }
      }
    ],
    "pair": [
      {
        "Sequence": {
          "id": "A",
          "type_id": 0
        }
      },
      {
        "Sequence": {
          "id": "B",
          "type_id": 1
        }
      }
    ],
    "special_tokens": {}
  },
  "decoder": {
    "type": "ByteLevel",
    "add_prefix_space": true,
    "trim_offsets": true,
    "use_regex": true
  },
  "model": {
    "type": "BPE",
    "dropout": null,
    "unk_token": null,
    "continuing_subword_prefix": null,
    "end_of_word_suffix": null,
    "fuse_unk": false,
    "byte_fallback": false,
    "ignore_merges": false,
    "vocab": {
      "<|endoftext|>": 0,
      "<|pad|>": 1,
      "<|im_start|>": 2,
      "<|im_end|>": 3,
      "!": 4,
      "\"": 5,
      "#": 6,
      "$": 7,
      "%": 8,
      "&": 9,
      "'": 10,
      "(": 11,
      ")": 12,
      "*": 13,
      "+": 14,
      ",": 15,
      "-": 16,
      ".": 17,
      "/": 18,
      "0": 19,
      "1": 20,
      "2": 21,
      "3": 22,
      "4": 23,
      "5": 24,
      "6": 25,
      "7": 26,
      "8": 27,
      "9": 28,
      ":": 29,
      ";": 30,
      "<": 31,
      "=": 32,
      ">": 33,
      "?": 34,
      "@": 35,
      "A": 36,
      "B": 37,
      "C": 38,
      "D": 39,
      "E": 40,
      "F": 41,
      "G": 42,
      "H": 43,
      "I": 44,
      "J": 45,
      "K": 46,
      "L": 47,
      "M": 48,
      "N": 49,
      "O": 50,
      "P": 51,
      "Q": 52,
      "R": 53,
      "S": 54,
      "T": 55,
      "U": 56,
      "V": 57,
      "W": 58,
      "X": 59,
      "Y": 60,
      "Z": 61,
      "[": 62,
      "\\": 63,
      "]": 64,
      "^": 65,
      "_": 66,
      "`": 67,
      "a": 68,
      "b": 69,
      "c": 70,
      "d": 71,
      "e": 72,
      "f": 73,
      "g": 74,
      "h": 75,
      "i": 76,
      "j": 77,
      "k": 78,
      "l": 79,
      "m": 80,
      "n": 81,
      "o": 82,
      "p": 83,
      "q": 84,
      "r": 85,
      "s": 86,
      "t": 87,
      "u": 88,
      "v": 89,
      "w": 90,
      "x": 91,
      "y": 92,
      "z": 93,
      "{": 94,
      "|": 95,
      "}": 96,
      "~": 97,
      "¡": 98,
      "¢": 99,
      "£": 100,
      "¤": 101,
      "¥": 102,
      "¦": 103,
      "§": 104,
      "¨": 105,
      "©": 106,
      "ª": 107,
      "«": 108,
      "¬": 109,
      "®": 110,
      "¯": 111,
      "°": 112,
      "±": 113,
      "²": 114,
      "³": 115,
      "´": 116,
      "µ": 117,
      "¶": 118,
      "·": 119,
      "¸": 120,
      "¹": 121,
      "º": 122,
      "»": 123,
      "¼": 124,
      "½": 125,
      "¾": 126,
      "¿": 127,
      "À": 128,
      "Á": 129,
      "Â": 130,
      "Ã": 131,
      "Ä": 132,
      "Å": 133,
      "Æ": 134,
      "Ç": 135,
      "È": 136,
      "É": 137,
      "Ê": 138,
      "Ë": 139,
      "Ì": 140,
      "Í": 141,
      "Î": 142,
      "Ï": 143,
      "Ð": 144,
      "Ñ": 145,
      "Ò": 146,
      "Ó": 147,
      "Ô": 148,
      "Õ": 149,
      "Ö": 150,
      "×": 151,
      "Ø": 152,
      "Ù": 153,
      "Ú": 154,
      "Û": 155,
      "Ü": 156,
      "Ý": 157,
      "Þ": 158,
      "ß": 159,
      "à": 160,
      "á": 161,
      "â": 162,
      "ã": 163,
      "ä": 164,
      "å": 165,
      "æ": 166,
      "ç": 167,
      "è": 168,
      "é": 169,
      "ê": 170,
      "ë": 171,
      "ì": 172,
      "í": 173,
      "î": 174,
      "ï": 175,
      "ð": 176,
      "ñ": 177,
      "ò": 178,
      "ó": 179,
      "ô": 180,
      "õ": 181,
      "ö": 182,
      "÷": 183,
      "ø": 184,
      "ù": 185,
      "ú": 186,
      "û": 187,
      "ü": 188,
      "ý": 189,
      "þ": 190,
      "ÿ": 191,
      "Ā": 192,
      "ā": 193,
      "Ă": 194,
      "ă": 195,
      "Ą": 196,
      "ą": 197,
      "Ć": 198,
      "ć": 199,
      "Ĉ": 200,
      "ĉ": 201,
      "Ċ": 202,
      "ċ": 203,
      "Č": 204,
      "č": 205,
      "Ď": 206,
      "ď": 207,
      "Đ": 208,
      "đ": 209,
      "Ē": 210,
      "ē": 211,
      "Ĕ": 212,
      "ĕ": 213,
      "Ė": 214,
      "ė": 215,
      "Ę": 216,
      "ę": 217,
      "Ě": 218,
      "ě": 219,
      "Ĝ": 220,
      "ĝ": 221,
      "Ğ": 222,
      "ğ": 223,
      "Ġ": 224,
      "ġ": 225,
      "Ģ": 226,
      "ģ": 227,
      "Ĥ": 228,
      "ĥ": 229,
      "Ħ": 230,
      "ħ": 231,
      "Ĩ": 232,
      "ĩ": 233,
      "Ī": 234,
      "ī": 235,
      "Ĭ": 236,
      "ĭ": 237,
      "Į": 238,
      "į": 239,
      "İ": 240,
      "ı": 241,
      "Ĳ": 242,
      "ĳ": 243,
      "Ĵ": 244,
      "ĵ": 245,
      "Ķ": 246,
      "ķ": 247,
      "ĸ": 248,
      "Ĺ": 249,
      "ĺ": 250,
      "Ļ": 251,
      "ļ": 252,
      "Ľ": 253,
      "ľ": 254,
      "Ŀ": 255,
      "ŀ": 256,
      "Ł": 257,
      "ł": 258,
      "Ń": 259,
      "ä¸": 260,
      "çļ": 261,
      "çļĦ": 262,
      "ï¼": 263,
      "äº": 264,
      "ï¼Į": 265,
      "ãĢ": 266,
      "ĠĠ": 267,
      "åı": 268,
      "æľ": 269,
      "åħ": 270,
      "ä»": 271,
      "å®": 272,
      "åĪ": 273,
      "å¤": 274,
      "è¿": 275,
      "ä½": 276,
      "çĶ": 277,
      "åĲ": 278,
      "åľ": 279,
      "åĬ": 280,
      "æĺ": 281,
      "ãĢĤ": 282,
      "ç»": 283,
      "ä¹": 284,
      "æĸ": 285,
      "åĽ": 286,
      "ĠĠĠĠ": 287,
      "æĪ": 288,
      "åŃ": 289,
      "è¯": 290,
      "è®": 291,
      "Ġt": 292,
      "ä¸Ģ": 293,
      "in": 294,
      "Ġa": 295,
      "æĺ¯": 296,
      "å¹": 297,
      "ä¼": 298,
      "æĹ": 299,
      "ãĢģ": 300,
      "å°": 301,
      "re": 302,
      "åį": 303,
      "æĿ": 304,
      "åº": 305,
      "åľ¨": 306,
      "äºº": 307,
      "æľī": 308,
      "éĩ": 309,
      "æķ": 310,
      "he": 311,
      "å¼": 312,
      "èĢ": 313,
      "åĮ": 314,
      "on": 315,
      "è¡": 316,
      "åĨ": 317,
      "ä¸į": 318,
      "æī": 319,
      "å¯": 320,
      "ä¸Ń": 321,
      "åĴ": 322,
      "å·": 323,
      "å¸": 324,
      "åĴĮ": 325,
      "--": 326,
      "éĢ": 327,
      "at": 328,
      "æĢ": 329,
      "è§": 330,
      "ä¸º": 331,
      "åĩ": 332,
      "çĽ": 333,
      "âĢ": 334,
      "å¾": 335,
      "è´": 336,
      "ç§": 337,
      "æł": 338,
      "æĶ": 339,
      "ĥ½": 340,
      "åŃ¦": 341,
      "æĬ": 342,
      "å±": 343,
      "æ°": 344,
      "åĽ½": 345,
      "en": 346,
      "æ³": 347,
      "çĶŁ": 348,
      "çİ": 349,
      "äºĨ": 350,
      "ä»¥": 351,
      "er": 352,
      "å¤§": 353,
      "¦ģ": 354,
      "ĠĠĠĠĠĠĠĠ": 355,
      "è¦ģ": 356,
      "Ġo": 357,
      "å½": 358,
      "éĻ": 359,
      "Ġs": 360,
      "çī": 361,
      "çĶ¨": 362,
      "Ġthe": 363,
      "èµ": 364,
      "åıĳ": 365,
      "al": 366,
      "Ġc": 367,
      "æŃ": 368,
      "ä¿": 369,
      "ä¸ļ": 370,
      "éĹ": 371,
      "å¿": 372,
      "éĿ": 373,
      "æŀ": 374,
      "çĲ": 375,
      "çŃ": 376,
      "æİ": 377,
      "ed": 378,
      "èĩ": 379,
      "èĥ½": 380,
      "çº": 381,
      "åİ": 382,
      "å¹´": 383,
      "è¡Į": 384,
      "æµ": 385,
      "ä¸ª": 386,
      "æĹ¶": 387,
      "Ġp": 388,
      "ä½ľ": 389,
      "å¯¹": 390,
      "é¢": 391,
      "ä¸Ĭ": 392,
      "ä¼ļ": 393,
      "es": 394,
      "æĪĲ": 395,
      "Ġin": 396,
      "åŁ": 397,
      "çĲĨ": 398,
      "it": 399,
      "or": 400,
      "Ġw": 401,
      "åĳ": 402,
      "Ġan": 403,
      "æĮ": 404,
      "è¿Ļ": 405,
      "æ³ķ": 406,
      "äºİ": 407,
      "åı¯": 408,
      "is": 409,
      "ion": 410,
      "æ²": 411,
      "ic": 412,
      "åľ°": 413,
      "Ġof": 414,
      "å·¥": 415,
      "åĩº": 416,
      "æĸ¹": 417,
      "an": 418,
      "å¥": 419,
      "è¾": 420,
      "åĪĨ": 421,
      "åĬ¨": 422,
      "åĮĸ": 423,
      "æ¯": 424,
      "å®ŀ": 425,
      "åĪ°": 426,
      "ç®": 427,
      "å®ļ": 428,
      "æĿ¥": 429,
      "ä½ĵ": 430,
      "ä¾": 431,
      "æĥ": 432,
      "ç«": 433,
      "èĤ": 434,
      "è¿Ľ": 435,
      "Ġm": 436,
      "ä¸İ": 437,
      "----": 438,
      "ç¨": 439,
      "ro": 440,
      "æĢ§": 441,
      "æĦ": 442,
      "Ġd": 443,
      "æĪĳ": 444,
      "æ±": 445,
      "Ġf": 446,
      "çİ°": 447,
      "é«": 448,
      "Ġand": 449,
      "åĵ": 450,
      "çŃī": 451,
      "é«ĺ": 452,
      "èĩª": 453,
      "æĭ": 454,
      "äº§": 455,
      "ç»ı": 456,
      "éĺ": 457,
      "å®¶": 458,
      "ar": 459,
      "åĬĽ": 460,
      "è½": 461,
      "è¿ĩ": 462,
      "Ġb": 463,
      "å¤ļ": 464,
      "å¦": 465,
      "as": 466,
      "æı": 467,
      "åī": 468,
      "ent": 469,
      "åĲĪ": 470,
      "å»": 471,
      "âĢľ": 472,
      "åĲĮ": 473,
      "âĢĿ": 474,
      "çľ": 475,
      "åħ¨": 476,
      "ä¹ĭ": 477,
      "éĥ": 478,
      "ing": 479,
      "ä¸»": 480,
      "åĲİ": 481,
      "åºĶ": 482,
      "ç½": 483,
      "ç¬": 484,
      "åĪ¶": 485,
      "æľ¬": 486,
      "ä¸ĭ": 487,
      "åħ¶": 488,
      "æ´": 489,
      "æĸ°": 490,
      "ä»¬": 491,
      "å°±": 492,
      "åħ³": 493,
      "èĢĮ": 494,
      "ç¤": 495,
      "éĩį": 496,
      "éĿ¢": 497,
      "èĢħ": 498,
      "æķĻ": 499,
      "éģ": 500,
      "æĸĩ": 501,
      "éĥ¨": 502,
      "éķ": 503,
      "å±ķ": 504,
      "åº¦": 505,
      "ä¹Ł": 506,
      "ct": 507,
      "åģ": 508,
      "å»º": 509,
      "æľº": 510,
      "æį": 511,
      "æ¸": 512,
      "çĤ": 513,
      "çŁ": 514,
      "å¢": 515,
      "åħ¬": 516,
      "å¦Ĥ": 517,
      "20": 518,
      "é¡": 519,
      "le": 520,
      "æīĢ": 521,
      "åŃĲ": 522,
      "Ġ(": 523,
      "è°": 524,
      "æ¬": 525,
      "æĽ": 526,
      "ç³": 527,
      "æ°ĳ": 528,
      "è®¾": 529,
      "æıĲ": 530,
      "ä»ĸ": 531,
      "ç§į": 532,
      "å¼Ģ": 533,
      "éĢļ": 534,
      "çī©": 535,
      "Ġre": 536,
      "åĬł": 537,
      "ç©": 538,
      "æķ°": 539,
      "ĠĠĠĠĠĠĠĠĠĠĠĠĠĠĠĠ": 540,
      "èµĦ": 541,
      "éĩı": 542,
      "åĢ": 543,
      "çł": 544,
      "Ġto": 545,
      "äºĭ": 546,
      "ç®¡": 547,
      "åĨħ": 548,
      "åĬ¡": 549,
      "ä¿Ŀ": 550,
      "æĶ¿": 551,
      "ç¬¬": 552,
      "èģ": 553,
      "åıĬ": 554,
      "éļ": 555,
      "è·": 556,
      "ç¨ĭ": 557,
      "éķ¿": 558,
      "ç³»": 559,
      "å¿ĥ": 560,
      "å¾Ĺ": 561,
      "ç¡": 562,
      "å¸Ĥ": 563,
      "å½ĵ": 564,
      "åĿ": 565,
      "è¶": 566,
      "æŁ": 567,
      "el": 568,
      "èī": 569,
      "æĪĸ": 570,
      "çĽ¸": 571,
      "æ°´": 572,
      "åĽł": 573,
      "éĹ´": 574,
      "åŁº": 575,
      "åīį": 576,
      "Ġe": 577,
      "é£": 578,
      "æĻ": 579,
      "è§Ħ": 580,
      "çĤ¹": 581,
      "ç¾": 582,
      "ä¸ī": 583,
      "é¢ĺ": 584,
      "æľŁ": 585,
      "ä»£": 586,
      "åĮº": 587,
      "ation": 588,
      "éĽ": 589,
      "us": 590,
      "ç±": 591,
      "åħ¥": 592,
      "èĬ": 593,
      "å°ı": 594,
      "æ¶": 595,
      "ä»İ": 596,
      "æĺİ": 597,
      "çķ": 598,
      "éľ": 599,
      "åıĳå±ķ": 600,
      "çĿ": 601,
      "çĹ": 602,
      "å¹³": 603,
      "00": 604,
      "å¥½": 605,
      "è®¡": 606,
      "çĶµ": 607,
      "åĵģ": 608,
      "æĦı": 609,
      "çĦ": 610,
      "çĽ®": 611,
      "ä½¿": 612,
      "çĸ": 613,
      "å¹¶": 614,
      "æĥħ": 615,
      "æľĢ": 616,
      "ä½į": 617,
      "om": 618,
      "è§£": 619,
      "å¤ĸ": 620,
      "å¼ı": 621,
      "éĥ½": 622,
      "åĪ©": 623,
      "è¯´": 624,
      "ï¼ļ": 625,
      "æĹ¥": 626,
      "ä¿¡": 627,
      "è¡¨": 628,
      "å°Ĩ": 629,
      "ç»ĵ": 630,
      "ç´": 631,
      "iv": 632,
      "Ġth": 633,
      "æģ": 634,
      "ç§ĳ": 635,
      "ç¤¾": 636,
      "æľ¯": 637,
      "ç»Ł": 638,
      "æį®": 639,
      "ul": 640,
      "æĬĢ": 641,
      "Ġh": 642,
      "ä¸Ģä¸ª": 643,
      "äºĮ": 644,
      "ç¼": 645,
      "æ¡": 646,
      "Ġn": 647,
      "å§": 648,
      "æĽ´": 649,
      "et": 650,
      "æ´»": 651,
      "çī¹": 652,
      "è´¨": 653,
      "ig": 654,
      "çĻ": 655,
      "èĲ": 656,
      "ä¸ŃåĽ½": 657,
      "å¼º": 658,
      "èĤ²": 659,
      "æŀľ": 660,
      "im": 661,
      "åı¯ä»¥": 662,
      "åĳĺ": 663,
      "æĹł": 664,
      "éĩĳ": 665,
      "çĦ¶": 666,
      "--------": 667,
      "å¸¸": 668,
      "æŃ¤": 669,
      "çłĶ": 670,
      "èĥ": 671,
      "éĹ®": 672,
      "æº": 673,
      "å®ī": 674,
      "Ġ1": 675,
      "çĶ±": 676,
      "ur": 677,
      "å½¢": 678,
      "æŃ£": 679,
      "æłĩ": 680,
      "äºĽ": 681,
      "å·¥ä½ľ": 682,
      "éģĵ": 683,
      "æľĪ": 684,
      "ç²": 685,
      "æ¯Ķ": 686,
      "åľº": 687,
      "os": 688,
      "ç«ĭ": 689,
      "éĶ": 690,
      "è¿ĺ": 691,
      "éħ": 692,
      "èĭ": 693,
      "ĠT": 694,
      "å¯¼": 695,
      "æ·": 696,
      "ä½Ĩ": 697,
      "ä»¶": 698,
      "id": 699,
      "éľĢ": 700,
      "æ±Ĥ": 701,
      "å¤©": 702,
      "èµ·": 703,
      "ol": 704,
      "ï¼ī": 705,
      "åĲĳ": 706,
      "åŀ": 707,
      "åįģ": 708,
      "æĪĳä»¬": 709,
      "åıĺ": 710,
      "Ġl": 711,
      "ï¼Ī": 712,
      "åĲĦ": 713,
      "è¢": 714,
      "ä¼ģ": 715,
      "éª": 716,
      "æ²»": 717,
      "åİŁ": 718,
      "èį": 719,
      "ç»Ħ": 720,
      "ç¥": 721,
      "æĮģ": 722,
      "==": 723,
      "æŀĦ": 724,
      "å¤Ħ": 725,
      "il": 726,
      "æĿ¡": 727,
      "çŁ¥": 728,
      "çĿĢ": 729,
      "un": 730,
      "ç±»": 731,
      "ut": 732,
      "æĿĥ": 733,
      "æİ¥": 734,
      "ä»»": 735,
      "å¢ŀ": 736,
      "æµģ": 737,
      "åħ·": 738,
      "æķĪ": 739,
      "æ¬¡": 740,
      "èĪ": 741,
      "ä¼ģä¸ļ": 742,
      "éĵ": 743,
      "æĮĩ": 744,
      "èĢĥ": 745,
      "ä¹ł": 746,
      "çĥ": 747,
      "ith": 748,
      "è¿Ľè¡Į": 749,
      "åĪĽ": 750,
      "ot": 751,
      "äº¤": 752,
      "åįķ": 753,
      "ç¤¾ä¼ļ": 754,
      "å£": 755,
      "ç½ĳ": 756,
      "çģ": 757,
      "éĴ": 758,
      "ere": 759,
      "é¡¹": 760,
      "ra": 761,
      "éĢł": 762,
      "ce": 763,
      "è¢«": 764,
      "ä¼ł": 765,
      "è°ĥ": 766,
      "ç©¶": 767,
      "ç®¡çĲĨ": 768,
      "ä¹¦": 769,
      "èĦ": 770,
      "Ġst": 771,
      "ãĢĭ": 772,
      "ãĢĬ": 773,
      "åħ±": 774,
      "æĶ¹": 775,
      "å¸Ī": 776,
      "æºĲ": 777,
      "æł·": 778,
      "Ġwith": 779,
      "ä¸ĵ": 780,
      "Ĥ£": 781,
      "ç¾İ": 782,
      "è®¤": 783,
      "è®º": 784,
      "æ®": 785,
      "ä¹ī": 786,
      "ly": 787,
      "æľį": 788,
      "è¿Ĳ": 789,
      "æĶ¶": 790,
      "ç¡®": 791,
      "å¾Ī": 792,
      "åĲį": 793,
      "éĻ¢": 794,
      "èĮ": 795,
      "åģļ": 796,
      "æµİ": 797,
      "åŀĭ": 798,
      "éĹ®é¢ĺ": 799,
      "åħĥ": 800,
      "çľĭ": 801,
      "ä¸¤": 802,
      "è¯Ĩ": 803,
      "åıĹ": 804,
      "åķ": 805,
      "æ°Ķ": 806,
      "çĹħ": 807,
      "çº§": 808,
      "ï¼Ľ": 809,
      "Ġg": 810,
      "è¯ģ": 811,
      "æĦŁ": 812,
      "ä¹Ī": 813,
      "æķĻèĤ²": 814,
      "æĸ½": 815,
      "åĸ": 816,
      "Ġfor": 817,
      "éĹ¨": 818,
      "é¦": 819,
      "if": 820,
      "èº": 821,
      "æİ¨": 822,
      "çİ¯": 823,
      "çłĶç©¶": 824,
      "ä»·": 825,
      "ç»ıæµİ": 826,
      "åŃ¦çĶŁ": 827,
      "æĥ³": 828,
      "ĠA": 829,
      "éĩĮ": 830,
      "åĩĨ": 831,
      "é£İ": 832,
      "æĢĿ": 833,
      "æł¡": 834,
      "åı¸": 835,
      "èĬĤ": 836,
      "åıĸ": 837,
      "æ¨": 838,
      "æĬĢæľ¯": 839,
      "çĬ": 840,
      "ĠC": 841,
      "åĽ½å®¶": 842,
      "èī²": 843,
      "åĽĽ": 844,
      "æ²¡": 845,
      "æĢ»": 846,
      "èº«": 847,
      "å·²": 848,
      "ect": 849,
      "åĪĻ": 850,
      "res": 851,
      "è·¯": 852,
      "ow": 853,
      "å°ĳ": 854,
      "é©": 855,
      "ch": 856,
      "ä¸ĸ": 857,
      "å·±": 858,
      "Ġcon": 859,
      "æĬ¥": 860,
      "åħĪ": 861,
      "çº¿": 862,
      "æīĭ": 863,
      "è¾ĥ": 864,
      "åķĨ": 865,
      "è£": 866,
      "èĩ³": 867,
      "Ġpro": 868,
      "æ£": 869,
      "å®Į": 870,
      "æ¡Ī": 871,
      "è§Ĥ": 872,
      "èģĶ": 873,
      "åĨ³": 874,
      "åĨľ": 875,
      "è®°": 876,
      "æģ¯": 877,
      "å®¹": 878,
      "åĻ": 879,
      "ç¦": 880,
      "é¢Ĩ": 881,
      "æĶ¾": 882,
      "åİ»": 883,
      "æł¼": 884,
      "å¢ĥ": 885,
      "çĪ": 886,
      "åĪ«": 887,
      "è¥": 888,
      "ä¾Ľ": 889,
      "Ġis": 890,
      "èĻ": 891,
      "st": 892,
      "åıª": 893,
      "åħļ": 894,
      "è½¬": 895,
      "èĩªå·±": 896,
      "åı£": 897,
      "æĢģ": 898,
      "ä½ł": 899,
      "è¾¾": 900,
      "ç¤º": 901,
      "æĶ¯": 902,
      "æĬ¤": 903,
      "éĢļè¿ĩ": 904,
      "è¥¿": 905,
      "ĠI": 906,
      "æ»": 907,
      "åħ»": 908,
      "åıį": 909,
      "ĠS": 910,
      "åŃĺ": 911,
      "å¤ĩ": 912,
      "æķ´": 913,
      "ter": 914,
      "æ¨¡": 915,
      "Ġv": 916,
      "æŃ¥": 917,
      "èĢģ": 918,
      "Ġas": 919,
      "åŁİ": 920,
      "è´¹": 921,
      "æµ·": 922,
      "19": 923,
      "çİĩ": 924,
      "éĽĨ": 925,
      "å½±": 926,
      "æĪĺ": 927,
      "åĻ¨": 928,
      "æīį": 929,
      "åĮ»": 930,
      "å¤į": 931,
      "Ġbe": 932,
      "å¼ķ": 933,
      "éĢī": 934,
      "æĸĻ": 935,
      "éªĮ": 936,
      "ment": 937,
      "è¯¥": 938,
      "æľįåĬ¡": 939,
      "è½¦": 940,
      "æ¯ı": 941,
      "å±±": 942,
      "è±": 943,
      "ä¸ľ": 944,
      "å»ºè®¾": 945,
      "è®©": 946,
      "æ³¨": 947,
      "10": 948,
      "ä¸ĩ": 949,
      "éĺ²": 950,
      "æ·±": 951,
      "éĿŀ": 952,
      "çħ": 953,
      "å®ĥ": 954,
      "æł¹": 955,
      "ç²¾": 956,
      "am": 957,
      "æŁ¥": 958,
      "å²": 959,
      "[@": 960,
      "å¿ħ": 961,
      "æĬĬ": 962,
      "æ¸ħ": 963,
      "od": 964,
      "åŃĹ": 965,
      "éĻħ": 966,
      "çķĮ": 967,
      "éľĢè¦ģ": 968,
      "çĽ´": 969,
      "åįĹ": 970,
      "ç´ł": 971,
      "åĽ¾": 972,
      "ä½İ": 973,
      "ç»Ļ": 974,
      "åĮħ": 975,
      "è¯Ń": 976,
      "æ²¡æľī": 977,
      "ab": 978,
      "è¯¾": 979,
      "æĺĵ": 980,
      "è¿ĳ": 981,
      "è¯ķ": 982,
      "åĢ¼": 983,
      "è´£": 984,
      "ĠĠĠĠĠĠĠĠĠĠĠĠĠĠĠĠĠĠĠĠĠĠĠĠĠĠĠĠĠĠĠĠ": 985,
      "Ġthat": 986,
      "ä½ķ": 987,
      "æĬķ": 988,
      "um": 989,
      "èĲ¥": 990,
      "èģĮ": 991,
      "ä¼ĺ": 992,
      "æĿĳ": 993,
      "åı°": 994,
      "èĮĥ": 995,
      "åħ¬åı¸": 996,
      "ag": 997,
      "ç©º": 998,
      "è§ģ": 999,
      "å¸¦": 1000,
      "äºĶ": 1001,
      "åĬŁ": 1002,
      "ä½¿çĶ¨": 1003,
      "Ġex": 1004,
      "åĨµ": 1005,
      "éĤ£": 1006,
      "åĬŀ": 1007,
      "è®®": 1008,
      "åı²": 1009,
      "ç³»ç»Ł": 1010,
      "åĮĹ": 1011,
      "ä¾ĭ": 1012,
      "äººæ°ĳ": 1013,
      "éĻ©": 1014,
      "ç®Ĺ": 1015,
      "åİĨ": 1016,
      "åıĤ": 1017,
      "å°±æĺ¯": 1018,
      "æľª": 1019,
      "æĸŃ": 1020,
      "ĊĠ": 1021,
      "éĩįè¦ģ": 1022,
      "æ¶Ī": 1023,
      "å¾ĭ": 1024,
      "ä¸»è¦ģ": 1025,
      "å¹¿": 1026,
      "Ġon": 1027,
      "é»": 1028,
      "op": 1029,
      "æİ§": 1030,
      "ud": 1031,
      "æµĭ": 1032,
      "ated": 1033,
      "oc": 1034,
      "çŃĸ": 1035,
      "Ġwas": 1036,
      "åĵį": 1037,
      "ĠP": 1038,
      "å¸Ĥåľº": 1039,
      "è§Ĩ": 1040,
      "ive": 1041,
      "ç¥ŀ": 1042,
      "ir": 1043,
      "åĽŀ": 1044,
      "èİ": 1045,
      "ity": 1046,
      "åŁŁ": 1047,
      "ç§¯": 1048,
      "çľģ": 1049,
      "æŀģ": 1050,
      "èŀ": 1051,
      "çĽĳ": 1052,
      "åŃ¦ä¹ł": 1053,
      "Ġ2": 1054,
      "çľŁ": 1055,
      "ell": 1056,
      "ç»Ń": 1057,
      "åĪĴ": 1058,
      "åĶ": 1059,
      "éļ¾": 1060,
      "Ġde": 1061,
      "åħī": 1062,
      "th": 1063,
      "åĦ": 1064,
      "se": 1065,
      "ĠM": 1066,
      "..": 1067,
      "éĩĩ": 1068,
      "åįĩ": 1069,
      "ant": 1070,
      "å®īåħ¨": 1071,
      "å¸ĥ": 1072,
      "ä¿¡æģ¯": 1073,
      "åĨĽ": 1074,
      "åį³": 1075,
      "pe": 1076,
      "å±Ĥ": 1077,
      "è±¡": 1078,
      "ĠThe": 1079,
      "ical": 1080,
      "æĪ·": 1081,
      "ç»ĩ": 1082,
      "ç»´": 1083,
      "çĬ¶": 1084,
      "Ġal": 1085,
      "æĸ¹éĿ¢": 1086,
      "ä¾Ŀ": 1087,
      "éĢŁ": 1088,
      "åĬ©": 1089,
      "ç§°": 1090,
      "æķ°æį®": 1091,
      "ç½®": 1092,
      "åºľ": 1093,
      "åı¯èĥ½": 1094,
      "åĨį": 1095,
      "æ£Ģ": 1096,
      "çº¦": 1097,
      "åĳĬ": 1098,
      "æĹ¶éĹ´": 1099,
      "èĥ½åĬĽ": 1100,
      "ib": 1101,
      "å¤´": 1102,
      "æ®µ": 1103,
      "å±Ģ": 1104,
      "up": 1105,
      "è¨": 1106,
      "é£Ł": 1107,
      "çĽĬ": 1108,
      "åıĪ": 1109,
      "Ġwere": 1110,
      "åĳ½": 1111,
      "è¦ģæ±Ĥ": 1112,
      "ay": 1113,
      "èĩ´": 1114,
      "ate": 1115,
      "201": 1116,
      "çª": 1117,
      ").": 1118,
      "çİ¯å¢ĥ": 1119,
      "her": 1120,
      "æĺ¾": 1121,
      "å¹²": 1122,
      "è¨Ģ": 1123,
      "æĸĩåĮĸ": 1124,
      "èŀį": 1125,
      "åŁ¹": 1126,
      "å¿«": 1127,
      "éĻ¤": 1128,
      "æł¸": 1129,
      "å½±åĵį": 1130,
      "åĦ¿": 1131,
      "è¯Ħ": 1132,
      "èħ": 1133,
      "ç»Ĩ": 1134,
      "éĢĤ": 1135,
      "æ¢": 1136,
      "æīĵ": 1137,
      "é¢Ħ": 1138,
      "éĿ©": 1139,
      "çħ§": 1140,
      "ient": 1141,
      "å¦Ĥæŀľ": 1142,
      "éŁ": 1143,
      "ist": 1144,
      "è§Ħå®ļ": 1145,
      "æĥħåĨµ": 1146,
      "ä¸ŃçļĦ": 1147,
      "ç»Ħç»ĩ": 1148,
      "åľŁ": 1149,
      "ä»Ģ": 1150,
      "è¶Ĭ": 1151,
      "æĮī": 1152,
      "----------------": 1153,
      "çĭ": 1154,
      "og": 1155,
      "est": 1156,
      "å§ĭ": 1157,
      "ä»Ĭ": 1158,
      "Ġor": 1159,
      "çĶŁæ´»": 1160,
      "åŃ©": 1161,
      "ä¸įåĲĮ": 1162,
      "====": 1163,
      "è¯»": 1164,
      "çĸĹ": 1165,
      "åĬ¿": 1166,
      "ï¼Ł": 1167,
      "ä»ĸä»¬": 1168,
      "éĻĲ": 1169,
      "ç¢": 1170,
      "æ´»åĬ¨": 1171,
      "ä»Ģä¹Ī": 1172,
      "ĠH": 1173,
      "èį¯": 1174,
      "ve": 1175,
      "åįİ": 1176,
      "Ġpat": 1177,
      "ial": 1178,
      "ver": 1179,
      "çĥŃ": 1180,
      "ä¸Ķ": 1181,
      "å§Ķ": 1182,
      "çĶŁäº§": 1183,
      "æĸ¹æ³ķ": 1184,
      "åİĭ": 1185,
      "æĶ¿åºľ": 1186,
      "æĪ¿": 1187,
      "æŀĲ": 1188,
      "Ġcom": 1189,
      "è¿ĩç¨ĭ": 1190,
      "å¾·": 1191,
      "éħį": 1192,
      "çĻ½": 1193,
      "Ġ3": 1194,
      "ad": 1195,
      "æĿĲ": 1196,
      "è£ħ": 1197,
      "å¤±": 1198,
      "\",": 1199,
      "åĨĻ": 1200,
      "åįı": 1201,
      "è¯·": 1202,
      "Ġby": 1203,
      "ac": 1204,
      "æĴ": 1205,
      "ure": 1206,
      "ä¸¥": 1207,
      "ç¡Ģ": 1208,
      "åŁºç¡Ģ": 1209,
      "æī¿": 1210,
      "åĳ¨": 1211,
      "åĸĦ": 1212,
      "ç¾¤": 1213,
      "åı·": 1214,
      "ä¼Ĺ": 1215,
      "å±ŀ": 1216,
      "è¶³": 1217,
      "åĩł": 1218,
      "é¦ĸ": 1219,
      "),": 1220,
      "æıĲä¾Ľ": 1221,
      "æĸ¹å¼ı": 1222,
      "ç¦»": 1223,
      "rom": 1224,
      "äºī": 1225,
      "åĪĹ": 1226,
      "æĪĸèĢħ": 1227,
      "æ¼": 1228,
      "ess": 1229,
      "è¿Ļä¸ª": 1230,
      "å®¡": 1231,
      "ort": 1232,
      "åĲĮæĹ¶": 1233,
      "é¥": 1234,
      "ç«ł": 1235,
      "æİĴ": 1236,
      "åŃ©åŃĲ": 1237,
      "äººçļĦ": 1238,
      "å®ŀçİ°": 1239,
      "çĲĥ": 1240,
      "é¡¹çĽ®": 1241,
      "æķħ": 1242,
      "qu": 1243,
      "ä¸Ģç§į": 1244,
      "Ġr": 1245,
      "ä½ľä¸º": 1246,
      "em": 1247,
      "éļı": 1248,
      "åģ¥": 1249,
      "æ¬¾": 1250,
      "ä»¥åıĬ": 1251,
      "æ¹": 1252,
      "æĤ": 1253,
      "ĠD": 1254,
      "Ġare": 1255,
      "æıĲé«ĺ": 1256,
      "çĻ¾": 1257,
      "éĥ¨åĪĨ": 1258,
      "è¿ĻäºĽ": 1259,
      "ers": 1260,
      "éĻį": 1261,
      "è¯Ŀ": 1262,
      "äº§åĵģ": 1263,
      "ç§ĳåŃ¦": 1264,
      "åĩı": 1265,
      "æħ": 1266,
      "äººåĳĺ": 1267,
      "å¡": 1268,
      "äºĴ": 1269,
      "èĬ±": 1270,
      "è®¾è®¡": 1271,
      "ies": 1272,
      "è´¢": 1273,
      "çı": 1274,
      "12": 1275,
      "ç¨İ": 1276,
      "å¾Ģ": 1277,
      "è¡Ģ": 1278,
      "åħ¶ä»ĸ": 1279,
      "ç¬¬ä¸Ģ": 1280,
      "åĿļ": 1281,
      "ä¸ĸçķĮ": 1282,
      "èĳ": 1283,
      "çĽ¸åħ³": 1284,
      "ä¿®": 1285,
      "åı¤": 1286,
      "äº§ä¸ļ": 1287,
      "Ġ\\": 1288,
      "ä»ħ": 1289,
      "æĳ": 1290,
      "å¼ł": 1291,
      "è¶ħ": 1292,
      "èĲ½": 1293,
      "åħħ": 1294,
      "åĽ´": 1295,
      "åĽ¢": 1296,
      "ä½ľçĶ¨": 1297,
      "åħ·æľī": 1298,
      "è´Ł": 1299,
      "å¿µ": 1300,
      "åİ¿": 1301,
      "æĻº": 1302,
      "æł¹æį®": 1303,
      "è®¸": 1304,
      "èİ·": 1305,
      "Ġres": 1306,
      "Ġ0": 1307,
      "éĥ¨éĹ¨": 1308,
      "åĿĩ": 1309,
      "ip": 1310,
      "é¡»": 1311,
      "åĪĽæĸ°": 1312,
      "ä¾¿": 1313,
      "Ġhe": 1314,
      "Ġat": 1315,
      "çİĭ": 1316,
      "åĨħå®¹": 1317,
      "åĪĨæŀĲ": 1318,
      "æĹı": 1319,
      "å¤ª": 1320,
      "çŁ¥è¯Ĩ": 1321,
      "éĺŁ": 1322,
      "æĭ¬": 1323,
      "åĥ": 1324,
      "åŁºæľ¬": 1325,
      "Ġ*": 1326,
      "é©¬": 1327,
      "åºı": 1328,
      "æĪĲä¸º": 1329,
      "æłĩåĩĨ": 1330,
      "èµĦæºĲ": 1331,
      "âĢĶ": 1332,
      "åĽłä¸º": 1333,
      "åĪĩ": 1334,
      "æķĻåŃ¦": 1335,
      "åº·": 1336,
      "ore": 1337,
      "act": 1338,
      "Ġwh": 1339,
      "çŁ³": 1340,
      "èīº": 1341,
      "Ġim": 1342,
      "ain": 1343,
      "å£«": 1344,
      "åħ³ç³»": 1345,
      "ĠB": 1346,
      "çļĦäºº": 1347,
      "ä¸ĵä¸ļ": 1348,
      "æ¸¸": 1349,
      "å¤Ł": 1350,
      "ä¸ĢäºĽ": 1351,
      "Ġus": 1352,
      "å¯¹äºİ": 1353,
      "çĮ": 1354,
      "ä¸įèĥ½": 1355,
      "Ġsu": 1356,
      "æ±Ł": 1357,
      "ff": 1358,
      "å®³": 1359,
      "èı": 1360,
      "åıĳçĶŁ": 1361,
      "åħ´": 1362,
      "ä¿ĿæĬ¤": 1363,
      "åħĭ": 1364,
      "ç»ľ": 1365,
      "åĭ": 1366,
      "ine": 1367,
      "Ġpatient": 1368,
      "æĪĳåĽ½": 1369,
      "è¡Įä¸º": 1370,
      "å¾ģ": 1371,
      "ãĢĢ": 1372,
      "å¥³": 1373,
      "åŃ¦æł¡": 1374,
      "ĠF": 1375,
      "ç±³": 1376,
      "åĪ¶åº¦": 1377,
      "æĻ¯": 1378,
      "åĬ³": 1379,
      "å·ŀ": 1380,
      "æ»¡": 1381,
      "æ¸©": 1382,
      "çīĩ": 1383,
      "200": 1384,
      ".\"": 1385,
      "å·¥ç¨ĭ": 1386,
      "åįķä½į": 1387,
      "æĶ¿çŃĸ": 1388,
      "è¿ŀ": 1389,
      "ress": 1390,
      "æŁĲ": 1391,
      "è¿°": 1392,
      "åł": 1393,
      "åºĶçĶ¨": 1394,
      "æī§": 1395,
      "ase": 1396,
      "æľºæŀĦ": 1397,
      "å®¢": 1398,
      "pl": 1399,
      "ult": 1400,
      "åİĨåı²": 1401,
      "ä½ı": 1402,
      "ĠN": 1403,
      "æĬķèµĦ": 1404,
      "æļ": 1405,
      "Ġcell": 1406,
      "åĪĿ": 1407,
      "å±ħ": 1408,
      "ä¹¡": 1409,
      "Ġch": 1410,
      "å¯Ĩ": 1411,
      "èµ°": 1412,
      "ä¹Ĳ": 1413,
      "å¿Ĺ": 1414,
      "ĠR": 1415,
      "åĩºçİ°": 1416,
      "âĢĿï¼Į": 1417,
      "ä¸įæĺ¯": 1418,
      "åĮħæĭ¬": 1419,
      "Ġne": 1420,
      "è®²": 1421,
      "11": 1422,
      "æ²³": 1423,
      "Ġ-": 1424,
      "çķ¥": 1425,
      "und": 1426,
      "ç»Ī": 1427,
      "ä¸»ä¹ī": 1428,
      "éļľ": 1429,
      "èĭ±": 1430,
      "è¿ľ": 1431,
      "æĸ¯": 1432,
      "ref": 1433,
      "ĠĠĠ": 1434,
      "å¤ĦçĲĨ": 1435,
      "æī¹": 1436,
      "Ġinc": 1437,
      "Ġse": 1438,
      "åħŃ": 1439,
      "å½¢æĪĲ": 1440,
      "æ³ķå¾ĭ": 1441,
      "å¤§åŃ¦": 1442,
      "Ġstud": 1443,
      "Ġfrom": 1444,
      "ç»ĵæŀĦ": 1445,
      "éĿĴ": 1446,
      "æīĢä»¥": 1447,
      "éŁ³": 1448,
      "ç®Ģ": 1449,
      "æĻ®": 1450,
      "åĢĻ": 1451,
      "è¿Ļç§į": 1452,
      "è¾¹": 1453,
      "åĽłæŃ¤": 1454,
      "15": 1455,
      "æĭħ": 1456,
      "ç½ĳç»ľ": 1457,
      "æĵ": 1458,
      "èĪ¬": 1459,
      "æŁĵ": 1460,
      "ç¼ĸ": 1461,
      "é¾": 1462,
      "è¿Ļæł·": 1463,
      "ĠE": 1464,
      "è´¨éĩı": 1465,
      "æ¿": 1466,
      "åĥı": 1467,
      "çļĦæĺ¯": 1468,
      "å¤§çļĦ": 1469,
      "è®Ń": 1470,
      "æŀĹ": 1471,
      "è¡¥": 1472,
      "åħį": 1473,
      "è®¤ä¸º": 1474,
      "æĭ©": 1475,
      "éĺ³": 1476,
      "ç¬¬äºĮ": 1477,
      "igh": 1478,
      "æŃ¢": 1479,
      "èĤ¡": 1480,
      "å·²ç»ı": 1481,
      "å¿ħé¡»": 1482,
      "are": 1483,
      "åŃĺåľ¨": 1484,
      "å¯Ł": 1485,
      "éĶĢ": 1486,
      "orm": 1487,
      "pt": 1488,
      "Ġ4": 1489,
      "å·®": 1490,
      "æĤ£": 1491,
      "åĲ¦": 1492,
      "ä¸Ģå®ļ": 1493,
      "çªģ": 1494,
      "çº¢": 1495,
      "ä¸¾": 1496,
      "å½ķ": 1497,
      "è§Ĵ": 1498,
      "å£°": 1499,
      "åĲ«": 1500,
      "åĽŃ": 1501,
      "çĪ±": 1502,
      "è§ī": 1503,
      "å®ŀæĸ½": 1504,
      "äº¬": 1505,
      "Ġad": 1506,
      "å¾®": 1507,
      "å»ºç«ĭ": 1508,
      "æİ§åĪ¶": 1509,
      "ç¾İåĽ½": 1510,
      "å¯Į": 1511,
      "ĠIn": 1512,
      "ä¸ĬçļĦ": 1513,
      "du": 1514,
      "èī¯": 1515,
      "åĽ½éĻħ": 1516,
      "çºª": 1517,
      "çģ«": 1518,
      "åıĳçİ°": 1519,
      "åºĶå½ĵ": 1520,
      "ä¸ĢèĪ¬": 1521,
      "ph": 1522,
      "å®¤": 1523,
      "æ¿Ģ": 1524,
      "æľĽ": 1525,
      "èĩªå·±çļĦ": 1526,
      "å°Ķ": 1527,
      "çĭ¬": 1528,
      "åıĮ": 1529,
      "è´£ä»»": 1530,
      "ç¨³": 1531,
      "æ¤": 1532,
      "Ġ5": 1533,
      "éĢīæĭ©": 1534,
      "art": 1535,
      "çĶ»": 1536,
      "Ġdis": 1537,
      "æĶ¹éĿ©": 1538,
      "è¯ī": 1539,
      "ä¿ĥ": 1540,
      "iz": 1541,
      "éĤ": 1542,
      "éĵ¶": 1543,
      "åŁİå¸Ĥ": 1544,
      "åĪ©çĶ¨": 1545,
      "ign": 1546,
      "ä¸Ńå¿ĥ": 1547,
      "æ¦": 1548,
      "åľ°åĮº": 1549,
      "å¦Ĥä½ķ": 1550,
      "æ²¹": 1551,
      "éĺ¶": 1552,
      "å¼Ģå§ĭ": 1553,
      "Ġcont": 1554,
      "çĶ±äºİ": 1555,
      "ys": 1556,
      "é¢Ŀ": 1557,
      "Ġle": 1558,
      "è§£åĨ³": 1559,
      "çĸ«": 1560,
      "ä½ĵç³»": 1561,
      "å®ĺ": 1562,
      "å¼Ĥ": 1563,
      "Ġsh": 1564,
      "æįŁ": 1565,
      "æľīåħ³": 1566,
      "è¾ĵ": 1567,
      "é»Ħ": 1568,
      "ä»½": 1569,
      "äº§çĶŁ": 1570,
      "çł´": 1571,
      "çĽ®æłĩ": 1572,
      "åĬłå¼º": 1573,
      "åºķ": 1574,
      "30": 1575,
      "æ°´å¹³": 1576,
      "ä¸įæĸŃ": 1577,
      "æıĲåĩº": 1578,
      "Ġcan": 1579,
      "ions": 1580,
      "æķĻå¸Ī": 1581,
      "æĲ": 1582,
      "è¯į": 1583,
      "ific": 1584,
      "å°½": 1585,
      "ä¹Łæĺ¯": 1586,
      "ä¸´": 1587,
      "æ¯Ĵ": 1588,
      "Ġpatients": 1589,
      "ç«Ļ": 1590,
      "Ġcomp": 1591,
      "ype": 1592,
      "Ġexp": 1593,
      "ä½Ĩæĺ¯": 1594,
      "ç§»": 1595,
      "è´§": 1596,
      "åħ«": 1597,
      "å¼Ģå±ķ": 1598,
      "çº³": 1599,
      "ous": 1600,
      "çĨ": 1601,
      "åĪ¤": 1602,
      "Ġper": 1603,
      "åį«": 1604,
      "å¨": 1605,
      "æĿ¡ä»¶": 1606,
      "æ¥": 1607,
      "æĹ©": 1608,
      "è¡Įä¸ļ": 1609,
      "åı¦": 1610,
      "ä»ĭ": 1611,
      "æľīæķĪ": 1612,
      "å®ŀéĻħ": 1613,
      "end": 1614,
      "æĬĹ": 1615,
      "ia": 1616,
      "age": 1617,
      "ä¸ªäºº": 1618,
      "åħ¨åĽ½": 1619,
      "åĲ¸": 1620,
      "åĤ": 1621,
      "Ġnot": 1622,
      "ä¹ĭéĹ´": 1623,
      "æİ¢": 1624,
      "åĬŁèĥ½": 1625,
      "vel": 1626,
      "Ġ\"": 1627,
      "çĶ³": 1628,
      "ç¼º": 1629,
      "çĹĩ": 1630,
      "æĢĿæĥ³": 1631,
      "å¥½çļĦ": 1632,
      "èĩªçĦ¶": 1633,
      "port": 1634,
      "ç²¾ç¥ŀ": 1635,
      "äº¿": 1636,
      "å¢ŀåĬł": 1637,
      "ç§ĳæĬĢ": 1638,
      "åįł": 1639,
      "ans": 1640,
      "Ġha": 1641,
      "ĠW": 1642,
      "çķĻ": 1643,
      "18": 1644,
      "able": 1645,
      "è¡ĮæĶ¿": 1646,
      "æ¯į": 1647,
      "è¯Ĺ": 1648,
      "ç«¯": 1649,
      "çĲĨè®º": 1650,
      "ost": 1651,
      "é¼": 1652,
      "èĥ½å¤Ł": 1653,
      "](": 1654,
      "è¿Ļä¸Ģ": 1655,
      "çıŃ": 1656,
      "é£İéĻ©": 1657,
      "çīĪ": 1658,
      "ge": 1659,
      "è®¡ç®Ĺ": 1660,
      "åģ¥åº·": 1661,
      "Â·": 1662,
      "Ġpre": 1663,
      "ä»·åĢ¼": 1664,
      "çŃĳ": 1665,
      "å¢ŀéķ¿": 1666,
      "**": 1667,
      "ç»§": 1668,
      "åįĥ": 1669,
      "è´Ń": 1670,
      "ç»¼": 1671,
      "Ġinf": 1672,
      "è½»": 1673,
      "ãĢĤâĢĿ": 1674,
      "æŃ»": 1675,
      "ä»ĺ": 1676,
      "è½½": 1677,
      "åĬ³åĬ¨": 1678,
      "ations": 1679,
      "çĽ®åīį": 1680,
      "\\]": 1681,
      "äº²": 1682,
      "ence": 1683,
      "ä¼¤": 1684,
      "ĠG": 1685,
      "ĠL": 1686,
      "åħ¶ä¸Ń": 1687,
      "nt": 1688,
      "and": 1689,
      "æĿ¿": 1690,
      "å¾Īå¤ļ": 1691,
      "ill": 1692,
      "æīĢæľī": 1693,
      "åĽº": 1694,
      "äºļ": 1695,
      "é¢ĨåŁŁ": 1696,
      "ä¸ĢæŃ¥": 1697,
      "ä»¥ä¸Ĭ": 1698,
      "è·µ": 1699,
      "Ġy": 1700,
      "åºŃ": 1701,
      "æĿĲæĸĻ": 1702,
      "æį¢": 1703,
      "ary": 1704,
      "000": 1705,
      "åħ¨éĿ¢": 1706,
      "çļĦä¸Ģ": 1707,
      "æ½": 1708,
      "æĶ¯æĮģ": 1709,
      "å¼Ģåıĳ": 1710,
      "ç¬¬ä¸ī": 1711,
      "æıĲåįĩ": 1712,
      "ast": 1713,
      "éĩĳèŀį": 1714,
      "æĭī": 1715,
      "ction": 1716,
      "åį°": 1717,
      "ug": 1718,
      "éĥ½æĺ¯": 1719,
      "åį´": 1720,
      "æ±ī": 1721,
      "çİ°ä»£": 1722,
      "çŁŃ": 1723,
      "13": 1724,
      "ç´¢": 1725,
      "åįĬ": 1726,
      "ç§¯æŀģ": 1727,
      "reat": 1728,
      "14": 1729,
      "éľĢæ±Ĥ": 1730,
      "å¤®": 1731,
      "æĹ¶ä»£": 1732,
      "Ġint": 1733,
      "åĲ¬": 1734,
      "50": 1735,
      "éĴĪ": 1736,
      "æİ¨è¿Ľ": 1737,
      "ä¸ĥ": 1738,
      "ther": 1739,
      "éķĩ": 1740,
      "ä¼łç»Ł": 1741,
      "16": 1742,
      "âĢĿãĢĤ": 1743,
      "è®¾å¤ĩ": 1744,
      "Ġ[": 1745,
      "Ġit": 1746,
      "çľ¼": 1747,
      "ç»ĵåĲĪ": 1748,
      "202": 1749,
      "ä½Ļ": 1750,
      "äºĳ": 1751,
      "Ġac": 1752,
      "one": 1753,
      "å¸®": 1754,
      "åıĺåĮĸ": 1755,
      "æĹ¶åĢĻ": 1756,
      "æĶ¿æ²»": 1757,
      "éĩįçĤ¹": 1758,
      "çŃĶ": 1759,
      "Ġtr": 1760,
      "Ġco": 1761,
      "èĨ": 1762,
      "åĩ»": 1763,
      "åŁ¹åħ»": 1764,
      "çĿ£": 1765,
      "åĪ°äºĨ": 1766,
      "åľ°æĸ¹": 1767,
      "å¹³åı°": 1768,
      "ä»¤": 1769,
      "æĿ¥çļĦ": 1770,
      "æİª": 1771,
      "é²": 1772,
      "ä¹Ŀ": 1773,
      "åį±": 1774,
      "æľĿ": 1775,
      "ä¸ºäºĨ": 1776,
      "Ġthis": 1777,
      "æĿİ": 1778,
      "çİ°åľ¨": 1779,
      "æĵį": 1780,
      "ç»ĥ": 1781,
      "æ¶Īè´¹": 1782,
      "æİ¨åĬ¨": 1783,
      "æĮ¥": 1784,
      "æ¯Ķè¾ĥ": 1785,
      "åĲĪä½ľ": 1786,
      "çĶŁæĢģ": 1787,
      "å®ĮæĪĲ": 1788,
      "ç»¼åĲĪ": 1789,
      "åºĶè¯¥": 1790,
      "å®ŀè·µ": 1791,
      "ors": 1792,
      "ç¿": 1793,
      "ç½ª": 1794,
      "Ġwe": 1795,
      "åĽ°": 1796,
      "æ¨¡å¼ı": 1797,
      "Ġ\\[": 1798,
      "åīĤ": 1799,
      "ä¿Ŀéļľ": 1800,
      "Ġhave": 1801,
      "äº«": 1802,
      "){": 1803,
      "æ¦Ĥ": 1804,
      "é¸": 1805,
      "äºĪ": 1806,
      "ä»£è¡¨": 1807,
      "æ¤į": 1808,
      "æľºåĪ¶": 1809,
      "åħ³äºİ": 1810,
      "è¿Ļæĺ¯": 1811,
      "è®¡åĪĴ": 1812,
      "ç»¿": 1813,
      "ens": 1814,
      "åĢº": 1815,
      "éĶ®": 1816,
      "è¿Ŀ": 1817,
      "éħ¸": 1818,
      "èĥĮ": 1819,
      "å¾ħ": 1820,
      "èĳĹ": 1821,
      "]\\]": 1822,
      "æĺŁ": 1823,
      "ç¯": 1824,
      "æ¶²": 1825,
      "æłĳ": 1826,
      "ç´§": 1827,
      "iff": 1828,
      "å°Ħ": 1829,
      "å®£": 1830,
      "âĳ": 1831,
      "å»ºçŃĳ": 1832,
      "ard": 1833,
      "Ġass": 1834,
      "æ¼Ķ": 1835,
      "äºĨè§£": 1836,
      "çĵ": 1837,
      "Ġme": 1838,
      "Ġcells": 1839,
      "å·¥ä¸ļ": 1840,
      "æĮīçħ§": 1841,
      "éĢĲ": 1842,
      "æ±¡": 1843,
      "çĽ´æİ¥": 1844,
      "å¯¼èĩ´": 1845,
      "æŃ¦": 1846,
      "ĠO": 1847,
      "Ġcl": 1848,
      "åħ¸": 1849,
      "éĶĻ": 1850,
      "ç¬¦": 1851,
      "ç»ıèĲ¥": 1852,
      "éĢłæĪĲ": 1853,
      "æĢ§çļĦ": 1854,
      "17": 1855,
      "æ²»çĸĹ": 1856,
      "èĹ": 1857,
      "é¢Ĩå¯¼": 1858,
      "ç»ĵæŀľ": 1859,
      "éĵģ": 1860,
      "å®Ŀ": 1861,
      "éĿŀå¸¸": 1862,
      "ffect": 1863,
      "æ³¢": 1864,
      "ich": 1865,
      "è¿ĺæĺ¯": 1866,
      "te": 1867,
      "è¡¨ç¤º": 1868,
      "çĶļ": 1869,
      "éĩĬ": 1870,
      "æĢ¥": 1871,
      "Ġ6": 1872,
      "ç£": 1873,
      "æī¾": 1874,
      "ä»į": 1875,
      "åįļ": 1876,
      "ä¹°": 1877,
      "æİĪ": 1878,
      "æĿĤ": 1879,
      "åı¥": 1880,
      "æīĺ": 1881,
      "å©": 1882,
      "åĲĪåĲĮ": 1883,
      "Ġstudy": 1884,
      "çĸ¾": 1885,
      "åĲĦç§į": 1886,
      "type": 1887,
      "åĪ»": 1888,
      "ely": 1889,
      "åĶ®": 1890,
      "èĻ½": 1891,
      "alth": 1892,
      "æĮģç»Ń": 1893,
      "æ³¨æĦı": 1894,
      "ç¦ı": 1895,
      "æĽ¾": 1896,
      "éĢģ": 1897,
      "ä¿ĥè¿Ľ": 1898,
      "Ġdi": 1899,
      "æī©": 1900,
      "è¿Ľä¸ĢæŃ¥": 1901,
      "èĴ": 1902,
      "åĵª": 1903,
      "\".": 1904,
      "èįī": 1905,
      "èĦĳ": 1906,
      "æī§è¡Į": 1907,
      "èİ·å¾Ĺ": 1908,
      "çĩ": 1909,
      "olog": 1910,
      "Ġab": 1911,
      "éĩĩçĶ¨": 1912,
      "åĨľä¸ļ": 1913,
      "åĿļæĮģ": 1914,
      "äººæīį": 1915,
      "ç»Ŀ": 1916,
      "ä»¥ä¸ĭ": 1917,
      "éĺ¶æ®µ": 1918,
      "ç«ŀ": 1919,
      "æĤ£èĢħ": 1920,
      "èģļ": 1921,
      "åħ·ä½ĵ": 1922,
      "é¢ĳ": 1923,
      "ä¸Ńå¤®": 1924,
      "å½¢å¼ı": 1925,
      "our": 1926,
      ",\"": 1927,
      "è§ĦåĪĴ": 1928,
      "æĦ¿": 1929,
      "æķ°åŃĹ": 1930,
      "èīºæľ¯": 1931,
      "éĢĢ": 1932,
      "è¿ĩç¨ĭä¸Ń": 1933,
      "çĪ¶": 1934,
      "å¸ģ": 1935,
      "æĢİ": 1936,
      "ep": 1937,
      "ance": 1938,
      "Ġsign": 1939,
      "Ġap": 1940,
      "èĮĥåĽ´": 1941,
      "åħ¨çĲĥ": 1942,
      "åıĭ": 1943,
      "Ġdiff": 1944,
      "æ°ĳæĹı": 1945,
      "èĭ¥": 1946,
      "æĺ¯åĲ¦": 1947,
      "æĴŃ": 1948,
      "èĥŀ": 1949,
      "å®Ī": 1950,
      "=\"": 1951,
      "Ġgro": 1952,
      "ä¿ĿéĻ©": 1953,
      "æĺ¥": 1954,
      "è¾¾åĪ°": 1955,
      "èĭı": 1956,
      "æĸ°çļĦ": 1957,
      "å²ģ": 1958,
      "æĺİç¡®": 1959,
      "çī¹åĪ«": 1960,
      "çĬ¯": 1961,
      "Ġsy": 1962,
      "ap": 1963,
      "](#": 1964,
      "éĵ¶è¡Į": 1965,
      "æľ¨": 1966,
      "åħ±åĲĮ": 1967,
      "éģ¿": 1968,
      "25": 1969,
      "ight": 1970,
      "\"}": 1971,
      "åĿĹ": 1972,
      "Ġ\\[[@": 1973,
      "åİŁåĽł": 1974,
      "ak": 1975,
      "ition": 1976,
      "åĢŁ": 1977,
      "å·¦": 1978,
      "å¹´çļĦ": 1979,
      "å¥¹": 1980,
      "éĵ¾": 1981,
      "æĪĲæľ¬": 1982,
      "Ġgen": 1983,
      "ĠU": 1984,
      "åĳ³": 1985,
      "äººä»¬": 1986,
      "ç½Ĺ": 1987,
      "ä¸ļåĬ¡": 1988,
      "è¿½": 1989,
      "èĽ": 1990,
      "æĬ¥åĳĬ": 1991,
      "è¡¨çİ°": 1992,
      "pro": 1993,
      "æı¡": 1994,
      "åĬ±": 1995,
      "__": 1996,
      "ä¼¼": 1997,
      "è¿ĲåĬ¨": 1998,
      "é£ŀ": 1999,
      "çĶ³è¯·": 2000,
      "æĹ¢": 2001,
      "ä¸¤ä¸ª": 2002,
      "æİªæĸ½": 2003,
      "å®ŀéªĮ": 2004,
      "ular": 2005,
      "ä¸įä»ħ": 2006,
      "ç©ºéĹ´": 2007,
      "åħ³éĶ®": 2008,
      "æĭĽ": 2009,
      "åıĤä¸İ": 2010,
      "ĠĠĠĠĠĠĠĠĠĠĠĠ": 2011,
      "åºĵ": 2012,
      "åģĩ": 2013,
      "éĨ": 2014,
      "åıĳå±ķçļĦ": 2015,
      "ç¬Ķ": 2016,
      "Ġk": 2017,
      "èģĮä¸ļ": 2018,
      "ĠĠĠĠĠĠĠĠĠĠĠĠĠĠĠĠĠĠĠĠĠĠĠĠĠĠĠĠĠĠĠĠĠĠĠĠĠĠĠĠĠĠĠĠĠĠĠĠĠĠĠĠĠĠĠĠĠĠĠĠĠĠĠĠ": 2019,
      "è½¯": 2020,
      "æĻºèĥ½": 2021,
      "çļ®": 2022,
      "è´«": 2023,
      "åı³": 2024,
      "è¿Ľåħ¥": 2025,
      "éģĹ": 2026,
      "ä¸°": 2027,
      "å®ĮåĸĦ": 2028,
      "ue": 2029,
      "æľīçļĦ": 2030,
      "åłĤ": 2031,
      "we": 2032,
      "Ġ=": 2033,
      "....": 2034,
      "è§ĦèĮĥ": 2035,
      "ong": 2036,
      "æ¶ī": 2037,
      "éģĩ": 2038,
      "éħĴ": 2039,
      "å®Ĺ": 2040,
      "é¾Ļ": 2041,
      "âĢ¦": 2042,
      "å½Ĵ": 2043,
      "========": 2044,
      "æĹħ": 2045,
      "åĨ³å®ļ": 2046,
      "ear": 2047,
      "åĲĥ": 2048,
      "èĻĳ": 2049,
      "ä¹ĭä¸Ģ": 2050,
      "èŃ": 2051,
      "éĤ£ä¹Ī": 2052,
      "åĽłç´ł": 2053,
      "çĶŁçī©": 2054,
      "åı¶": 2055,
      "åĮĹäº¬": 2056,
      "ub": 2057,
      "ç»Ĩèĥŀ": 2058,
      "vi": 2059,
      "æĸ¹æ¡Ī": 2060,
      "æķ£": 2061,
      "å¹¼": 2062,
      "è§Ħæ¨¡": 2063,
      "åģ¿": 2064,
      "èĪª": 2065,
      "ç¡®å®ļ": 2066,
      "all": 2067,
      "Ġbet": 2068,
      "éļıçĿĢ": 2069,
      "å»¶": 2070,
      "ased": 2071,
      "ç«¥": 2072,
      "å®¶åºŃ": 2073,
      "ï¼ģ": 2074,
      "é¦Ļ": 2075,
      "åĨ²": 2076,
      "æĽ²": 2077,
      "åĮ»çĸĹ": 2078,
      "ory": 2079,
      "çĻ»": 2080,
      "éĴ±": 2081,
      "èĢĮä¸Ķ": 2082,
      "ä¼°": 2083,
      "èµĦéĩĳ": 2084,
      "åģľ": 2085,
      "Ġwhich": 2086,
      "è°Ī": 2087,
      "èĢģå¸Ī": 2088,
      "åĤ¨": 2089,
      "æ±½": 2090,
      "åıªæľī": 2091,
      "è´·": 2092,
      "æĸĹ": 2093,
      "Ġind": 2094,
      "æĮĩå¯¼": 2095,
      "çĶ¨äºİ": 2096,
      "è¯¾ç¨ĭ": 2097,
      "æĶ¶åħ¥": 2098,
      "åħħåĪĨ": 2099,
      "å¿ĥçĲĨ": 2100,
      "å¸Į": 2101,
      "å¤«": 2102,
      "çĶļèĩ³": 2103,
      "ced": 2104,
      "çĹĽ": 2105,
      "çļĦåıĳå±ķ": 2106,
      "ç¨³å®ļ": 2107,
      "çĮ®": 2108,
      "40": 2109,
      "æĪĺçķ¥": 2110,
      "æĽ´å¤ļ": 2111,
      "åĮºåŁŁ": 2112,
      "åİŁåĪĻ": 2113,
      "ï¼ļâĢľ": 2114,
      "low": 2115,
      "æľºåħ³": 2116,
      "rol": 2117,
      "ä»»åĬ¡": 2118,
      "æĦıè¯Ĩ": 2119,
      "è¯¯": 2120,
      "uld": 2121,
      "æ³ķéĻ¢": 2122,
      "å¸Ŀ": 2123,
      "æł¸å¿ĥ": 2124,
      "åĨľæĿĳ": 2125,
      "è´Łè´£": 2126,
      "åŁ¹è®Ń": 2127,
      "ome": 2128,
      "ç¯ĩ": 2129,
      "CR": 2130,
      "ative": 2131,
      "äº¤æĺĵ": 2132,
      "ç¨ĭåºı": 2133,
      "èĦ±": 2134,
      "èµĦäº§": 2135,
      "çļĦéĩįè¦ģ": 2136,
      "çģµ": 2137,
      "æīįèĥ½": 2138,
      "æĵįä½ľ": 2139,
      "èŃ¦": 2140,
      "Ġpl": 2141,
      "ä¸Ńåįİ": 2142,
      "éĿł": 2143,
      "è®¨": 2144,
      "ual": 2145,
      "cl": 2146,
      "åĪ¶éĢł": 2147,
      "äººç±»": 2148,
      "å¤§å®¶": 2149,
      "ä¸¥éĩį": 2150,
      "å¸®åĬ©": 2151,
      "çĲĨè§£": 2152,
      "æ£ĢæŁ¥": 2153,
      "éº": 2154,
      "ä¿ĿæĮģ": 2155,
      "å¾ĹåĪ°": 2156,
      "å³": 2157,
      "Ġ[@": 2158,
      "æĦıä¹ī": 2159,
      "å¥Ĺ": 2160,
      "éĻĦ": 2161,
      "éĻĪ": 2162,
      "Ġdiffere": 2163,
      "ä¹ĭåĲİ": 2164,
      "è®¸å¤ļ": 2165,
      ":\"": 2166,
      "å¾Ħ": 2167,
      "Ġ7": 2168,
      "åĽ½åĨħ": 2169,
      "åĩıå°ĳ": 2170,
      "è¿ĺæľī": 2171,
      "Ġinter": 2172,
      "çŁ¥éģĵ": 2173,
      "Ġrec": 2174,
      "åıĬæĹ¶": 2175,
      "80": 2176,
      "é»ĳ": 2177,
      "åħµ": 2178,
      "é¡º": 2179,
      "åĳ¢": 2180,
      "è¶ħè¿ĩ": 2181,
      "æŀ¶": 2182,
      "æ´¾": 2183,
      "ç¢³": 2184,
      "çĶµåŃĲ": 2185,
      "--------------------------------": 2186,
      "æİĮ": 2187,
      "ord": 2188,
      "åĲ¯": 2189,
      "çī¹çĤ¹": 2190,
      "çĽĸ": 2191,
      "ä»»ä½ķ": 2192,
      "ose": 2193,
      "æķĳ": 2194,
      "æ¬§": 2195,
      "çī¹èī²": 2196,
      "ç¾¤ä¼Ĺ": 2197,
      "âĢĶâĢĶ": 2198,
      "æ¹ĸ": 2199,
      "ice": 2200,
      "The": 2201,
      "ide": 2202,
      "Ġev": 2203,
      "çłģ": 2204,
      "åŃ£": 2205,
      "ä»·æł¼": 2206,
      "åıĳæĮ¥": 2207,
      "èĥ½æºĲ": 2208,
      "##": 2209,
      "Ġact": 2210,
      "ression": 2211,
      "äº¤éĢļ": 2212,
      "çīĮ": 2213,
      "ç»©": 2214,
      "åĪĳ": 2215,
      "æ°§": 2216,
      "ç¥¨": 2217,
      "ç»ıéªĮ": 2218,
      "çļĦéĹ®é¢ĺ": 2219,
      "çĽĳçĿ£": 2220,
      "æĹ¶æľŁ": 2221,
      "æ¸¯": 2222,
      "Ġresp": 2223,
      "åºĬ": 2224,
      "çĶ¨æĪ·": 2225,
      "é½": 2226,
      "åī¯": 2227,
      "çĨŁ": 2228,
      "cer": 2229,
      "ind": 2230,
      "yp": 2231,
      "éĺħ": 2232,
      "60": 2233,
      "åį¡": 2234,
      "ä¸įä¼ļ": 2235,
      "åħ¬åħ±": 2236,
      "èģĶç½ĳ": 2237,
      "æĿ¥è¯´": 2238,
      "åĸľ": 2239,
      "lo": 2240,
      "ç¨ĭåº¦": 2241,
      "è¯Ńè¨Ģ": 2242,
      "ä¹ħ": 2243,
      "èĹı": 2244,
      "æĸ¹åĲĳ": 2245,
      "ç»į": 2246,
      "æ´²": 2247,
      "æ±ĩ": 2248,
      "100": 2249,
      "Ġsc": 2250,
      "æĪĲåĬŁ": 2251,
      "çĶ²": 2252,
      "Ġshow": 2253,
      "Ġwhe": 2254,
      "Ġob": 2255,
      "Ġanal": 2256,
      "åıĸå¾Ĺ": 2257,
      "'s": 2258,
      "æĶ»": 2259,
      "èµ·æĿ¥": 2260,
      "so": 2261,
      "åĨ·": 2262,
      "éª¨": 2263,
      "ç«ŀäºī": 2264,
      "çĶ°": 2265,
      "ï¼İ": 2266,
      "å§Ķåĳĺ": 2267,
      "éĩįå¤§": 2268,
      "åľŁåľ°": 2269,
      "çŃ¾": 2270,
      "èĸ": 2271,
      "24": 2272,
      "åħ°": 2273,
      "out": 2274,
      "æĹłæ³ķ": 2275,
      "ew": 2276,
      "èıĮ": 2277,
      "ç»Łä¸Ģ": 2278,
      "è·Ł": 2279,
      "æ¸Ĳ": 2280,
      "è®¤è¯Ĩ": 2281,
      "æķĪæŀľ": 2282,
      "ata": 2283,
      "è¡¡": 2284,
      "ä¸įå¾Ĺ": 2285,
      "NA": 2286,
      "çĤİ": 2287,
      "é¦Ĩ": 2288,
      "Ġeffect": 2289,
      "å°ģ": 2290,
      "å»ºè®®": 2291,
      "reatment": 2292,
      "ugh": 2293,
      "erv": 2294,
      "èĻļ": 2295,
      "oci": 2296,
      "è®¢": 2297,
      "åİĤ": 2298,
      "ä¸Ģæ¬¡": 2299,
      "åĪ¶å®ļ": 2300,
      "ach": 2301,
      "è®¾æĸ½": 2302,
      "Ġsub": 2303,
      "æľªæĿ¥": 2304,
      "è¯Ĭ": 2305,
      "è´¸": 2306,
      "å®¹æĺĵ": 2307,
      "å¥ĸ": 2308,
      "ä¹İ": 2309,
      "çļĦå¤§": 2310,
      "ĠTh": 2311,
      "éĢı": 2312,
      "é¥®": 2313,
      "Ġreg": 2314,
      "åĲĪçĲĨ": 2315,
      "Ġmay": 2316,
      "enc": 2317,
      "æ¯ķ": 2318,
      "æ¯Ľ": 2319,
      "èĮ¶": 2320,
      "åħļçļĦ": 2321,
      "æĿ¾": 2322,
      "éĻįä½İ": 2323,
      "Ġgroup": 2324,
      "ä¸įåı¯": 2325,
      "èĻ½çĦ¶": 2326,
      "æħ¢": 2327,
      "ween": 2328,
      "Ġhas": 2329,
      "Ġun": 2330,
      "éĴ¢": 2331,
      "æĺİæĺ¾": 2332,
      "æĽ´åĬł": 2333,
      "éķ¿æľŁ": 2334,
      "åª": 2335,
      "èĵ": 2336,
      "å·´": 2337,
      "23": 2338,
      "è°ĥæķ´": 2339,
      "é¼ĵ": 2340,
      "ç¬¦åĲĪ": 2341,
      "Ġpart": 2342,
      "ç¼©": 2343,
      "çĺ": 2344,
      "çĽ®çļĦ": 2345,
      "ple": 2346,
      "éĹ»": 2347,
      "ä»İèĢĮ": 2348,
      "ä¾µ": 2349,
      "è§¦": 2350,
      "ä½ĵçļĦ": 2351,
      "åº§": 2352,
      "ä¾§": 2353,
      "Ġsur": 2354,
      "Ġbetween": 2355,
      "æ²»çĲĨ": 2356,
      "ä¿Ŀè¯ģ": 2357,
      "è°ĥæŁ¥": 2358,
      "åį«çĶŁ": 2359,
      "åī§": 2360,
      "æĦıè§ģ": 2361,
      "è®¿": 2362,
      "æ¯Ķå¦Ĥ": 2363,
      "æŃĮ": 2364,
      "éĩıçļĦ": 2365,
      "åĮĸçļĦ": 2366,
      "Ġhealth": 2367,
      "åĪĽéĢł": 2368,
      "éĽ¶": 2369,
      "ç»§ç»Ń": 2370,
      "%,": 2371,
      "ari": 2372,
      "Ġmet": 2373,
      "çļĦæĹ¶åĢĻ": 2374,
      "fter": 2375,
      "æŃ£ç¡®": 2376,
      "Ġincre": 2377,
      "90": 2378,
      "åĪĺ": 2379,
      "äºĨä¸Ģ": 2380,
      "pec": 2381,
      "å®½": 2382,
      "ound": 2383,
      "è¯Ħä»·": 2384,
      "ä»ĭç»į": 2385,
      "è´µ": 2386,
      "è·Ŀ": 2387,
      "ä¸Ģæł·": 2388,
      "çĽĺ": 2389,
      "æľĢåĲİ": 2390,
      "éĴĪå¯¹": 2391,
      "éĿĻ": 2392,
      "ates": 2393,
      "å¼ĢæĶ¾": 2394,
      "åĶĲ": 2395,
      "åħ³æ³¨": 2396,
      "form": 2397,
      "Ġ10": 2398,
      "åĦ¿ç«¥": 2399,
      "æ··": 2400,
      "åıĹåĪ°": 2401,
      "ç¡¬": 2402,
      "ç¤¾ä¼ļä¸»ä¹ī": 2403,
      "Ġmore": 2404,
      "]\\].": 2405,
      "èĲ½å®ŀ": 2406,
      "æĺ¯åľ¨": 2407,
      "fig": 2408,
      "å®Įåħ¨": 2409,
      "Ġsignific": 2410,
      "éĺ¿": 2411,
      "22": 2412,
      "ä»ĸçļĦ": 2413,
      "å°±ä¸ļ": 2414,
      "Ġant": 2415,
      "ied": 2416,
      "è½®": 2417,
      "ç½ļ": 2418,
      "å±ŀäºİ": 2419,
      "èĢĥèĻĳ": 2420,
      "è°ĵ": 2421,
      "æĶ¹åıĺ": 2422,
      "Ġtrans": 2423,
      "å¨ģ": 2424,
      "éļĲ": 2425,
      "åŃ¦éĻ¢": 2426,
      "ä¸įè¦ģ": 2427,
      "çī©è´¨": 2428,
      "è¶£": 2429,
      "èµĦæĸĻ": 2430,
      "èĭ¦": 2431,
      "æ±½è½¦": 2432,
      "çĸĳ": 2433,
      "çĬ¶æĢģ": 2434,
      "åĬª": 2435,
      "å¼±": 2436,
      "cr": 2437,
      "é£Łåĵģ": 2438,
      "èĤī": 2439,
      "è¿Ĳè¡Į": 2440,
      "ä¾Ŀæ³ķ": 2441,
      "mun": 2442,
      "Ġalso": 2443,
      "ä¼ĺåĬ¿": 2444,
      "aus": 2445,
      "Ġtreatment": 2446,
      "å°¤": 2447,
      "çĸ¾çĹħ": 2448,
      "ç´¯": 2449,
      "ä»¥æĿ¥": 2450,
      "æ°¸": 2451,
      "å¼ķèµ·": 2452,
      "éŃ": 2453,
      "å·¨": 2454,
      "èĢĥè¯ķ": 2455,
      "cess": 2456,
      "æĪı": 2457,
      "Ġthan": 2458,
      "åį·": 2459,
      "æĺ¾ç¤º": 2460,
      "ç§Ģ": 2461,
      "ä½Ľ": 2462,
      "uc": 2463,
      "çŁ¿": 2464,
      "Ġdise": 2465,
      "æ³Ľ": 2466,
      "Ġresult": 2467,
      "æ±¡æŁĵ": 2468,
      "çĶŁåĳ½": 2469,
      "æ¬¢": 2470,
      "åĪ©çĽĬ": 2471,
      "çģ¾": 2472,
      "çĽĳç®¡": 2473,
      "å¹ħ": 2474,
      "èĥľ": 2475,
      "ç»ıè¿ĩ": 2476,
      "Ġph": 2477,
      "é¡¾": 2478,
      "èĨľ": 2479,
      "ä½ľèĢħ": 2480,
      "å®ĭ": 2481,
      "å®ľ": 2482,
      "Ġpres": 2483,
      "Ġbeen": 2484,
      "åªĴ": 2485,
      "Ġç¬¬": 2486,
      "åıĤåĬł": 2487,
      "å¾ª": 2488,
      "åĿı": 2489,
      "åĲĹ": 2490,
      "ä½ľåĵģ": 2491,
      "çļĦäºĭ": 2492,
      "ç¤¼": 2493,
      "æ¥¼": 2494,
      "Ġmed": 2495,
      "Ġtheir": 2496,
      "ç»ĦæĪĲ": 2497,
      "é¦ĸåħĪ": 2498,
      "åĬªåĬĽ": 2499,
      "ä¼ļè®®": 2500,
      "æĹ¥æľ¬": 2501,
      "åįĸ": 2502,
      "ection": 2503,
      "Ġmod": 2504,
      "èĦī": 2505,
      "æİ¥åıĹ": 2506,
      "å¹´æĿ¥": 2507,
      "èµĽ": 2508,
      "ä¸ĵå®¶": 2509,
      "çİ°è±¡": 2510,
      "ack": 2511,
      "æľŁéĹ´": 2512,
      "ç®Ģåįķ": 2513,
      "äº¡": 2514,
      "éĩĩåıĸ": 2515,
      "å¹¼åĦ¿": 2516,
      "å°ļ": 2517,
      "å¢ŀå¼º": 2518,
      "æĸĩæĺİ": 2519,
      "erm": 2520,
      "Ġcons": 2521,
      "æĺ¯ä¸Ģä¸ª": 2522,
      "Ġåľ¨": 2523,
      "Ġsignificant": 2524,
      "Ġother": 2525,
      "ä¸įåĲĮçļĦ": 2526,
      "æĸĩä»¶": 2527,
      "ç§ģ": 2528,
      "éĢĶ": 2529,
      "Ġ8": 2530,
      "Ġdet": 2531,
      "ç¼ĵ": 2532,
      "ases": 2533,
      "åıĳå¸ĥ": 2534,
      "éĻĨ": 2535,
      "åĪļ": 2536,
      "éī": 2537,
      "è¶ĭ": 2538,
      "ass": 2539,
      "è¡ĮåĬ¨": 2540,
      "å®ģ": 2541,
      "æĬĵ": 2542,
      "ç³ĸ": 2543,
      "éī´": 2544,
      "ä¸ĸçºª": 2545,
      "Ġincl": 2546,
      "éĩįè¦ģçļĦ": 2547,
      "å¼ķå¯¼": 2548,
      "çĦ¶åĲİ": 2549,
      "åıįåºĶ": 2550,
      "ren": 2551,
      "å®¶éķ¿": 2552,
      "Ġen": 2553,
      "ç§Ł": 2554,
      "éĺ»": 2555,
      "æ·±åħ¥": 2556,
      "æĪĲæŀľ": 2557,
      "äº¤æµģ": 2558,
      "ä»ª": 2559,
      "çĥĪ": 2560,
      "æŃ£å¸¸": 2561,
      "],": 2562,
      "æĭ¥": 2563,
      "æ´ĭ": 2564,
      "æĿŁ": 2565,
      "åĨĮ": 2566,
      "21": 2567,
      "Ġ9": 2568,
      "èģĶåĲĪ": 2569,
      "å½©": 2570,
      "ility": 2571,
      "rain": 2572,
      "èĽĭ": 2573,
      "åĺ": 2574,
      "ï¼ĮâĢľ": 2575,
      "ons": 2576,
      "æĺ¯æĮĩ": 2577,
      "æ±ł": 2578,
      "çī¹å¾ģ": 2579,
      "70": 2580,
      "ä¸»ä½ĵ": 2581,
      "Ġrel": 2582,
      "ä¸ĩåħĥ": 2583,
      "ç¦ģ": 2584,
      "éĿ©åĳ½": 2585,
      "çĽ¸å¯¹": 2586,
      "åĬŀæ³ķ": 2587,
      "åı«": 2588,
      "ang": 2589,
      "Ġlevel": 2590,
      "æĥ¯": 2591,
      "Ġall": 2592,
      "æıı": 2593,
      "ï¼īï¼Į": 2594,
      "å©ļ": 2595,
      "éģ¿åħį": 2596,
      "æĢİä¹Ī": 2597,
      "å´": 2598,
      "æĺ¯ä¸Ģ": 2599,
      "æ²Ļ": 2600,
      "èµĦæľ¬": 2601,
      "åºŁ": 2602,
      "èĩªèº«": 2603,
      "Ġthese": 2604,
      "åĬĽéĩı": 2605,
      "åŁºéĩĳ": 2606,
      "ä¸°å¯Į": 2607,
      "çĩĥ": 2608,
      "çľŁæŃ£": 2609,
      "äºĭä¸ļ": 2610,
      "äºĴèģĶç½ĳ": 2611,
      "å½ĵæĹ¶": 2612,
      "åĪĨåĪ«": 2613,
      "ile": 2614,
      "åŃĶ": 2615,
      "å¸ĮæľĽ": 2616,
      "éĶĢåĶ®": 2617,
      "ä¾ĭå¦Ĥ": 2618,
      "ail": 2619,
      "å¹²éĥ¨": 2620,
      "ents": 2621,
      "çļĦæĥħåĨµ": 2622,
      "tr": 2623,
      "è¯´æĺİ": 2624,
      "ĠV": 2625,
      "åľĨ": 2626,
      "å°±ä¼ļ": 2627,
      "æĮ¯": 2628,
      "åģļå¥½": 2629,
      "çĻĮ": 2630,
      "è´¦": 2631,
      "è¾ĳ": 2632,
      "éĴŁ": 2633,
      "è¯¸": 2634,
      "æģ¶": 2635,
      "ç¥ĸ": 2636,
      "çĸ«æĥħ": 2637,
      "åĬłå¿«": 2638,
      "è´¯": 2639,
      "ber": 2640,
      "ond": 2641,
      "è¯¢": 2642,
      "ysis": 2643,
      "Ġinclud": 2644,
      "å¥ĩ": 2645,
      "ç»¿èī²": 2646,
      "Ġman": 2647,
      "ree": 2648,
      "è¿ĲçĶ¨": 2649,
      "åŃ¦ç§ĳ": 2650,
      "éĽ¨": 2651,
      "æ£Ģæµĭ": 2652,
      "ric": 2653,
      "åħ¶å®ŀ": 2654,
      "Ġinv": 2655,
      "æĭŁ": 2656,
      "ork": 2657,
      "iss": 2658,
      "Fig": 2659,
      "ç¹": 2660,
      "å¹¶ä¸Ķ": 2661,
      "åĮ»éĻ¢": 2662,
      "Ġdata": 2663,
      "åģı": 2664,
      "Ġused": 2665,
      "äº¿åħĥ": 2666,
      "ild": 2667,
      "rap": 2668,
      "èľ": 2669,
      "åķĨä¸ļ": 2670,
      "æ»¡è¶³": 2671,
      "èıľ": 2672,
      "26": 2673,
      "åĳ¼": 2674,
      "éĺħè¯»": 2675,
      "åĨł": 2676,
      "æ®Ĭ": 2677,
      "èĶ": 2678,
      "åĳĪ": 2679,
      "Ġno": 2680,
      "mon": 2681,
      "éĽĨä¸Ń": 2682,
      "åİĭåĬĽ": 2683,
      "Ġ19": 2684,
      "èģĶç³»": 2685,
      "æī¿æĭħ": 2686,
      "é¡¶": 2687,
      "åıĬåħ¶": 2688,
      "ä¸Ĭæµ·": 2689,
      "è¿ĻéĩĮ": 2690,
      "27": 2691,
      "é²ľ": 2692,
      "èĭĹ": 2693,
      "ãĢĲ": 2694,
      "ulation": 2695,
      "æİĮæı¡": 2696,
      "ãĢĳ": 2697,
      "Ġout": 2698,
      "èĩªæĪĳ": 2699,
      "Ġtim": 2700,
      "ç³»åĪĹ": 2701,
      "æĶ¯ä»ĺ": 2702,
      "æĮĩåĩº": 2703,
      "æĹ§": 2704,
      "Ġusing": 2705,
      "å¼¹": 2706,
      "éĿ¢ç§¯": 2707,
      "Ġafter": 2708,
      "æľ«": 2709,
      "æĻļ": 2710,
      "ä¹±": 2711,
      "ä¸Ģèµ·": 2712,
      "Ġactiv": 2713,
      "æĪĳä»¬çļĦ": 2714,
      "éĢļå¸¸": 2715,
      "æĢĢ": 2716,
      "éľ²": 2717,
      "åŃ¦çĶŁçļĦ": 2718,
      "é±": 2719,
      "çľĭåĪ°": 2720,
      "çĭ¬ç«ĭ": 2721,
      "æ½ľ": 2722,
      "åĲİçļĦ": 2723,
      "çİī": 2724,
      "æĹħæ¸¸": 2725,
      "Ġam": 2726,
      "æĬĺ": 2727,
      "âĪ": 2728,
      "æĺł": 2729,
      "è¯Ħä¼°": 2730,
      "28": 2731,
      "éĢŁåº¦": 2732,
      "ç¹ģ": 2733,
      "æ®ĭ": 2734,
      "æ²ī": 2735,
      "ire": 2736,
      "Ġund": 2737,
      "ä¹Łæľī": 2738,
      "é±¼": 2739,
      "ç»´æĬ¤": 2740,
      "ä¸ĢçĽ´": 2741,
      "å§Ķåĳĺä¼ļ": 2742,
      "ä¹ĭéĹ´çļĦ": 2743,
      "å¤ı": 2744,
      "æİ¢ç´¢": 2745,
      "åİļ": 2746,
      "velop": 2747,
      "çī©çļĦ": 2748,
      "æ¡Īä»¶": 2749,
      "Ġag": 2750,
      "çĬ¯ç½ª": 2751,
      "äººåı£": 2752,
      "Ġbut": 2753,
      "çļĩ": 2754,
      "æķ´ä¸ª": 2755,
      "é¾Ħ": 2756,
      "Ġ{": 2757,
      "è´¥": 2758,
      "çº¸": 2759,
      "æĩ": 2760,
      "Ġpos": 2761,
      "æĸĩç«ł": 2762,
      "çĹħæ¯Ĵ": 2763,
      "æĤ¨": 2764,
      "Ġar": 2765,
      "åĪĨä¸º": 2766,
      "åĪ¸": 2767,
      "åĩĢ": 2768,
      "çĥŁ": 2769,
      "èĢħçļĦ": 2770,
      "è·¨": 2771,
      "æĭ¿": 2772,
      "å²Ĺ": 2773,
      "è´¢æĶ¿": 2774,
      "åĩºçļĦ": 2775,
      "çº·": 2776,
      "éģį": 2777,
      "ec": 2778,
      "ri": 2779,
      "Ġsup": 2780,
      "å®ĥä»¬": 2781,
      "æ¡¥": 2782,
      "æ°ı": 2783,
      "å°Ĭ": 2784,
      "æĳĦ": 2785,
      "è¯ģæĺİ": 2786,
      "å±ĭ": 2787,
      "35": 2788,
      "ä¼ĳ": 2789,
      "æĸĩåŃ¦": 2790,
      "å¯»": 2791,
      "é½Ĳ": 2792,
      "æĪĲç«ĭ": 2793,
      "éĩİ": 2794,
      "çļĦé«ĺ": 2795,
      "äº¦": 2796,
      "ater": 2797,
      "ä¼Ł": 2798,
      "åĮĸåŃ¦": 2799,
      "æľĢé«ĺ": 2800,
      "æ¹¿": 2801,
      "æī¶": 2802,
      "è®¾ç½®": 2803,
      "èĩªçĶ±": 2804,
      "æķĪçİĩ": 2805,
      "ru": 2806,
      "æĿĢ": 2807,
      "å®«": 2808,
      "lect": 2809,
      "è´´": 2810,
      "æ²Ł": 2811,
      "ms": 2812,
      "Ġqu": 2813,
      "å·¥åħ·": 2814,
      "åĩºçīĪ": 2815,
      "oth": 2816,
      "ath": 2817,
      "Ġcontrol": 2818,
      "å®¢æĪ·": 2819,
      "ç©¿": 2820,
      "è¦": 2821,
      "å®£ä¼ł": 2822,
      "ä¹¡æĿĳ": 2823,
      "Ġsp": 2824,
      "æ¦Ĥå¿µ": 2825,
      "Ġsam": 2826,
      "å½»": 2827,
      "æĻ®éĢļ": 2828,
      "åĳĺå·¥": 2829,
      "æľĢç»Ī": 2830,
      "ç§°ä¸º": 2831,
      "æ¡£": 2832,
      "å¥ĭ": 2833,
      "æħ§": 2834,
      "æŀĦå»º": 2835,
      "ä¹¦è®°": 2836,
      "çļĦå½±åĵį": 2837,
      "ating": 2838,
      "å¿«éĢŁ": 2839,
      "âĢ¦âĢ¦": 2840,
      "èĩªåĬ¨": 2841,
      "osis": 2842,
      "æĦŁæŁĵ": 2843,
      "æĬµ": 2844,
      "ne": 2845,
      "ä¸ĭéĻį": 2846,
      "åĢį": 2847,
      "çļĦæĸ°": 2848,
      "ert": 2849,
      "¤Ĳ": 2850,
      "åĩºäºĨ": 2851,
      "ym": 2852,
      "éĺ´": 2853,
      "å¤įæĿĤ": 2854,
      "ä»Ĭå¹´": 2855,
      "è½¯ä»¶": 2856,
      "æĿĥåĪ©": 2857,
      "çļĦåŁºç¡Ģ": 2858,
      "ject": 2859,
      "æ´Ĺ": 2860,
      "å·Ŀ": 2861,
      "åķĨåĵģ": 2862,
      "è¿ģ": 2863,
      "ç¡®ä¿Ŀ": 2864,
      "inal": 2865,
      "å°¼": 2866,
      "éĻ¤äºĨ": 2867,
      "å·¦åı³": 2868,
      "Ġtest": 2869,
      "ç¤¾åĮº": 2870,
      "ould": 2871,
      "è£ģ": 2872,
      "ä¸įè¶³": 2873,
      "ros": 2874,
      "ç²ī": 2875,
      "åĪº": 2876,
      "æ¯ıä¸ª": 2877,
      "çĦ¦": 2878,
      "åıªæĺ¯": 2879,
      "isk": 2880,
      "è§Ĥå¯Ł": 2881,
      "ä¾Ŀæį®": 2882,
      "è¡¨è¾¾": 2883,
      "å¿ħè¦ģ": 2884,
      "èĤ¥": 2885,
      "çĶ·": 2886,
      "èį£": 2887,
      "æľīéĻĲ": 2888,
      "æĢĿç»´": 2889,
      "è´¹çĶ¨": 2890,
      "yt": 2891,
      "ç»Łè®¡": 2892,
      "çĳ": 2893,
      "åĨľæ°ĳ": 2894,
      "åĨħéĥ¨": 2895,
      "æķħäºĭ": 2896,
      "è¸": 2897,
      "ä¸ºä¸»": 2898,
      "åĲĮåŃ¦": 2899,
      "æī¬": 2900,
      "æ¹¾": 2901,
      "Ġassoci": 2902,
      "Ġdisease": 2903,
      "å¯¹è±¡": 2904,
      "å±¥": 2905,
      "çİ°å®ŀ": 2906,
      "stem": 2907,
      "æķ´ä½ĵ": 2908,
      "ä¼´": 2909,
      "è¾ħ": 2910,
      "ä¸¥æł¼": 2911,
      "å¼ºè°ĥ": 2912,
      "èº«ä½ĵ": 2913,
      "çĪ¶æ¯į": 2914,
      "å±Ĭ": 2915,
      "çī¹æ®Ĭ": 2916,
      "å¹¿æ³Ľ": 2917,
      "æ¶¦": 2918,
      "ays": 2919,
      "çīĽ": 2920,
      "æ¯ķä¸ļ": 2921,
      "æĢĿèĢĥ": 2922,
      "Ġ20": 2923,
      "Ġyear": 2924,
      "è§£éĩĬ": 2925,
      "æ²¿": 2926,
      "wo": 2927,
      "ĠÂ": 2928,
      "ä¹ı": 2929,
      "å¡ĳ": 2930,
      "å°¤åħ¶": 2931,
      "è®°èĢħ": 2932,
      "ĠK": 2933,
      "inical": 2934,
      "å¹¶ä¸į": 2935,
      "Ġro": 2936,
      "æ¢°": 2937,
      "ä¼ĺåĮĸ": 2938,
      "å²Ľ": 2939,
      "Ġ{#": 2940,
      "ever": 2941,
      "åĩĿ": 2942,
      "æĮĳ": 2943,
      "å¤ľ": 2944,
      "èĪ¹": 2945,
      "æŀĦæĪĲ": 2946,
      "äº®": 2947,
      "uring": 2948,
      "è¶ĬæĿ¥": 2949,
      "å¸Ń": 2950,
      "ä¹łæĥ¯": 2951,
      "ik": 2952,
      "æļ´": 2953,
      "æ¸©åº¦": 2954,
      "ef": 2955,
      "å§ĵ": 2956,
      "åĩĨå¤ĩ": 2957,
      "29": 2958,
      "vent": 2959,
      "å¾Ģå¾Ģ": 2960,
      "ces": 2961,
      "åĽ°éļ¾": 2962,
      "è¶ĬæĿ¥è¶Ĭ": 2963,
      "ex": 2964,
      "èļ": 2965,
      "æ¥ļ": 2966,
      "è¦Ĩ": 2967,
      "Ġdevelop": 2968,
      "åĬĽçļĦ": 2969,
      "å¦Ī": 2970,
      "çŃ¹": 2971,
      "rad": 2972,
      "ä¸īä¸ª": 2973,
      "Ġwho": 2974,
      "ok": 2975,
      "æĬĢèĥ½": 2976,
      "agn": 2977,
      "ä¸ºä»Ģä¹Ī": 2978,
      "åŁºäºİ": 2979,
      "è¿Ļæł·çļĦ": 2980,
      "ç±»åŀĭ": 2981,
      "å±ħæ°ĳ": 2982,
      "æķ°éĩı": 2983,
      "æĶ¹åĸĦ": 2984,
      "åįıè®®": 2985,
      "ç½²": 2986,
      "èĢĮæĺ¯": 2987,
      "Ġunder": 2988,
      "ä½įç½®": 2989,
      "æĢ§åĴĮ": 2990,
      "Ġfol": 2991,
      "èµĶ": 2992,
      "æĸ½å·¥": 2993,
      "çļĦå·¥ä½ľ": 2994,
      "Ġdes": 2995,
      "ĠJ": 2996,
      "ä½ĵçİ°": 2997,
      "Ġdifferent": 2998,
      "çĽ¸åºĶ": 2999,
      "çģŃ": 3000,
      "éĩįè§Ĩ": 3001,
      "æŃ£åľ¨": 3002,
      "Ġprov": 3003,
      "éĥ½æľī": 3004,
      "äºĭä»¶": 3005,
      "Ġhigh": 3006,
      "cept": 3007,
      "Ġdo": 3008,
      "èĤº": 3009,
      "%)": 3010,
      "å³°": 3011,
      "æł¹æľ¬": 3012,
      "ç§ĭ": 3013,
      "è®¼": 3014,
      "ä¹ĭåīį": 3015,
      "çļĦä¸»è¦ģ": 3016,
      "çħ¤": 3017,
      "ract": 3018,
      "æ¾": 3019,
      "åĬłå·¥": 3020,
      "æ¶īåıĬ": 3021,
      "äºĮåįģ": 3022,
      "å®ļçļĦ": 3023,
      "æ´ģ": 3024,
      "æľĭ": 3025,
      "åºĹ": 3026,
      "è¯ļ": 3027,
      "é¹": 3028,
      "ics": 3029,
      "è¯ĳ": 3030,
      "åĿĲ": 3031,
      "Ġcol": 3032,
      "Ġ201": 3033,
      "å¤ļæķ°": 3034,
      "èĤĮ": 3035,
      "è´¸æĺĵ": 3036,
      "ace": 3037,
      "45": 3038,
      "èĦļ": 3039,
      "æĺ¯ä¸Ģç§į": 3040,
      "æ¨¡åŀĭ": 3041,
      "æķı": 3042,
      "éĽĦ": 3043,
      "å¼ºåĮĸ": 3044,
      "ä¿Ĺ": 3045,
      "è´§å¸ģ": 3046,
      "ures": 3047,
      "é©¾": 3048,
      "com": 3049,
      "ä¹īåĬ¡": 3050,
      "è´·æ¬¾": 3051,
      "Ġhad": 3052,
      "ä¸ľè¥¿": 3053,
      "ered": 3054,
      "æĮĩæłĩ": 3055,
      "ä¸»åĬ¨": 3056,
      "Ġone": 3057,
      "alu": 3058,
      "èĦĤ": 3059,
      "ized": 3060,
      "éļĶ": 3061,
      "ç¼ĺ": 3062,
      "Ġover": 3063,
      "åĽ¢éĺŁ": 3064,
      "æľĢå¤§": 3065,
      "Ġfact": 3066,
      "è¿ĳå¹³": 3067,
      "é¼ĵåĬ±": 3068,
      "Ġstudies": 3069,
      "ĠThis": 3070,
      "è¯īè®¼": 3071,
      "å¹³åĿĩ": 3072,
      "åıĤèĢĥ": 3073,
      "tein": 3074,
      "è®°å½ķ": 3075,
      "æĢ§èĥ½": 3076,
      "ared": 3077,
      "å¡«": 3078,
      "è¿ĩåİ»": 3079,
      "ä¼łæĴŃ": 3080,
      "èĤ¿": 3081,
      "ä¹łè¿ĳå¹³": 3082,
      "åı¦ä¸Ģ": 3083,
      "æķĻæİĪ": 3084,
      "Ġcancer": 3085,
      "ç¿»": 3086,
      "æīĭæ®µ": 3087,
      "Ġvari": 3088,
      "è®Ńç»ĥ": 3089,
      "cent": 3090,
      "çĽĽ": 3091,
      "éĢĤåºĶ": 3092,
      "éĿ¢çļĦ": 3093,
      "è°¢": 3094,
      "å·¥ä½ľçļĦ": 3095,
      "åħ¨éĥ¨": 3096,
      "æĪĲéķ¿": 3097,
      "åĵªäºĽ": 3098,
      "ä½łçļĦ": 3099,
      "çĻ»è®°": 3100,
      "Ġreport": 3101,
      "ox": 3102,
      "éĻĲåĪ¶": 3103,
      "ä¹Ļ": 3104,
      "ident": 3105,
      "ants": 3106,
      "åºĨ": 3107,
      "å®īæİĴ": 3108,
      "ç²®": 3109,
      "åĢĴ": 3110,
      "äºĭæķħ": 3111,
      "èŀįåĲĪ": 3112,
      "çĹĩçĬ¶": 3113,
      "éķľ": 3114,
      "æ®ĸ": 3115,
      "æľºä¼ļ": 3116,
      "int": 3117,
      "199": 3118,
      "å¸¦æĿ¥": 3119,
      "æ³ķè§Ħ": 3120,
      "çĦ¶èĢĮ": 3121,
      "é«ĺæł¡": 3122,
      "ä¸ĭçļĦ": 3123,
      "æŃ¤å¤ĸ": 3124,
      "åĪĽä¸ļ": 3125,
      "åĿĢ": 3126,
      "ä»Ĭå¤©": 3127,
      "è¿Ĳè¾ĵ": 3128,
      "Ġspec": 3129,
      "å¡ŀ": 3130,
      "åĲĽ": 3131,
      "å¹¸": 3132,
      "æ¯Ķä¾ĭ": 3133,
      "ç¼´": 3134,
      "Ġlow": 3135,
      "çīĻ": 3136,
      "dition": 3137,
      "æĿ¥æºĲ": 3138,
      "ery": 3139,
      "ç»ķ": 3140,
      "æ¢ģ": 3141,
      "Ġcor": 3142,
      "ç§ĳçłĶ": 3143,
      "æĻºæħ§": 3144,
      "36": 3145,
      "åľ°ä½į": 3146,
      "å¥¥": 3147,
      "éĹŃ": 3148,
      "ç»ª": 3149,
      "åģļåĪ°": 3150,
      "éģĵå¾·": 3151,
      "ä¸Ŀ": 3152,
      "çĲĨå¿µ": 3153,
      "ç¥ŀç»ı": 3154,
      "è´¡": 3155,
      "æľĭåıĭ": 3156,
      "ä¼ĺç§Ģ": 3157,
      "åĪĨå¸ĥ": 3158,
      "èĢĹ": 3159,
      "Ġpartic": 3160,
      "æĸ¹éĿ¢çļĦ": 3161,
      "æľīäºĽ": 3162,
      "ä¸´åºĬ": 3163,
      "èĴĻ": 3164,
      "å½ĵåīį": 3165,
      "ä»¥åĲİ": 3166,
      "çº¯": 3167,
      "å¤§éĩı": 3168,
      "ç¬¬åĽĽ": 3169,
      "å¦ĤæŃ¤": 3170,
      "ãĢĭï¼Į": 3171,
      "èĢĲ": 3172,
      "çĽ¸äºĴ": 3173,
      "ä¸½": 3174,
      "pit": 3175,
      "ä¸įè¿ĩ": 3176,
      "å°¿": 3177,
      "æī©å¤§": 3178,
      "Ġrisk": 3179,
      "é©¶": 3180,
      "æķ°åŃ¦": 3181,
      "åħ»èĢģ": 3182,
      "åĪĨç±»": 3183,
      "é«ĺçļĦ": 3184,
      "è§Ĵåº¦": 3185,
      "è£Ĥ": 3186,
      "éĿ¢å¯¹": 3187,
      "ä¼ļè®¡": 3188,
      "åıįæĺł": 3189,
      "çĥ§": 3190,
      "åªĴä½ĵ": 3191,
      "å¦ĩ": 3192,
      "Ġtime": 3193,
      "unction": 3194,
      "éĢĲæ¸Ĳ": 3195,
      "ç»ıå¸¸": 3196,
      "æĭ¥æľī": 3197,
      "ç»ĺ": 3198,
      "åħ¼": 3199,
      "ç²Ĵ": 3200,
      "åĩºæĿ¥": 3201,
      "Ġfollow": 3202,
      "éģĵè·¯": 3203,
      "33": 3204,
      "è´¢äº§": 3205,
      "æĭĵ": 3206,
      "æ¢¦": 3207,
      "çĶŁçļĦ": 3208,
      "åĽ½åĬ¡": 3209,
      "åįıè°ĥ": 3210,
      "æĬķåħ¥": 3211,
      "æĿ¥çľĭ": 3212,
      "æ¯«": 3213,
      "ä¾ĽåºĶ": 3214,
      "åŁºå±Ĥ": 3215,
      "Ġwill": 3216,
      "Ġanalysis": 3217,
      "è®¡ç®Ĺæľº": 3218,
      "éľĩ": 3219,
      "æĽ¿": 3220,
      "éĹ®é¢ĺçļĦ": 3221,
      "æµĭè¯ķ": 3222,
      "å®ŀè¡Į": 3223,
      "æĢ»ç»ĵ": 3224,
      "éģµ": 3225,
      "è¯¾åłĤ": 3226,
      "äºĭå®ŀ": 3227,
      "åŃĻ": 3228,
      "çĽŁ": 3229,
      "ä¹Łä¸į": 3230,
      "è§ĦåĪĻ": 3231,
      "èĤĿ": 3232,
      "åı¦å¤ĸ": 3233,
      "Ġexpression": 3234,
      "å½ĵåľ°": 3235,
      "äººå·¥": 3236,
      "æĿ¥èĩª": 3237,
      "å°ıæĹ¶": 3238,
      "Ġtwo": 3239,
      "æĿ¨": 3240,
      "arg": 3241,
      "ron": 3242,
      "Ġmon": 3243,
      "åŁºåľ°": 3244,
      "åĵģçīĮ": 3245,
      "Ġsuch": 3246,
      "è¾Ĩ": 3247,
      "è°ģ": 3248,
      "åĨħçļĦ": 3249,
      "åı¸æ³ķ": 3250,
      "cre": 3251,
      "ä½ĵèĤ²": 3252,
      "å½ĵçĦ¶": 3253,
      "èĪŀ": 3254,
      "é¤Ĳ": 3255,
      "åĬ¨çī©": 3256,
      "åĽ½åĬ¡éĻ¢": 3257,
      "ç´łè´¨": 3258,
      "éĽ·": 3259,
      "è¶ĭåĬ¿": 3260,
      "è¡£": 3261,
      "èĩªä¸»": 3262,
      "æµĵ": 3263,
      "æĥł": 3264,
      "ä¹³": 3265,
      "å·¥èīº": 3266,
      "çĿ¡": 3267,
      "av": 3268,
      "çģ¯": 3269,
      "ust": 3270,
      "lu": 3271,
      "ä»İäºĭ": 3272,
      "ä¸Ńå°ı": 3273,
      "Ġthey": 3274,
      "çĶ¨çļĦ": 3275,
      "âĪĴ": 3276,
      "åºĦ": 3277,
      "å¤ļç§į": 3278,
      "åįģåĪĨ": 3279,
      "ĠAl": 3280,
      "è¿İ": 3281,
      "éĿĴå¹´": 3282,
      "Ġ$": 3283,
      "ç¾İåħĥ": 3284,
      "è¯ķéªĮ": 3285,
      "åıĮæĸ¹": 3286,
      "è¿ħ": 3287,
      "å¤Ħäºİ": 3288,
      "åľ¨äºİ": 3289,
      "èħĲ": 3290,
      "é¡µ": 3291,
      "Ġprog": 3292,
      "Ġsystem": 3293,
      "å¹´ä»£": 3294,
      "ä¼ģä¸ļçļĦ": 3295,
      "åĬŀçĲĨ": 3296,
      "èĭ±åĽ½": 3297,
      "ively": 3298,
      "ft": 3299,
      "itive": 3300,
      "ç¢į": 3301,
      "yl": 3302,
      "èĢ³": 3303,
      "æįŁå¤±": 3304,
      "2021": 3305,
      "åĨ¬": 3306,
      "ä½³": 3307,
      "rit": 3308,
      "ä½ľä¸ļ": 3309,
      "Ġ([@": 3310,
      "çĬ¶åĨµ": 3311,
      "å¼ĥ": 3312,
      "çļĦæĸ¹å¼ı": 3313,
      "Ġä¸Ģ": 3314,
      "duced": 3315,
      "%.": 3316,
      "çĪĨ": 3317,
      "åıªè¦ģ": 3318,
      "tern": 3319,
      "Ġperform": 3320,
      "åĵ²": 3321,
      "ov": 3322,
      "è¡Ĺ": 3323,
      "Ġmeas": 3324,
      "æº¶": 3325,
      "Ġclinical": 3326,
      "åĪ©äºİ": 3327,
      "åĨ³çŃĸ": 3328,
      "éĽĨåĽ¢": 3329,
      "çĤ¼": 3330,
      "è®¨è®º": 3331,
      "çļĦåŁºæľ¬": 3332,
      "èĦı": 3333,
      "Ġresults": 3334,
      "Ġacc": 3335,
      "éŁ³ä¹Ĳ": 3336,
      "hed": 3337,
      "æľºæ¢°": 3338,
      "ç§ĺ": 3339,
      "æĹłè®º": 3340,
      "05": 3341,
      "ark": 3342,
      "èĤł": 3343,
      "äººæ°ĳæ³ķéĻ¢": 3344,
      "åĬ¨åĬĽ": 3345,
      "é¢Ħéĺ²": 3346,
      "èį¯çī©": 3347,
      "çºł": 3348,
      "ä¸»é¢ĺ": 3349,
      "æ¤įçī©": 3350,
      "åħ·å¤ĩ": 3351,
      "per": 3352,
      "åľĪ": 3353,
      "ĠSt": 3354,
      "çłĶåıĳ": 3355,
      "Ġnum": 3356,
      "æ´ŀ": 3357,
      "èĽĭçĻ½": 3358,
      "æĪĲç»©": 3359,
      "æ¬²": 3360,
      "ä¿¡åı·": 3361,
      "æ»ĳ": 3362,
      "æģ¢": 3363,
      "èħ¹": 3364,
      "ä»ĸä»¬çļĦ": 3365,
      "åĪ¤æĸŃ": 3366,
      "Ġem": 3367,
      "èĥ¶": 3368,
      "èª": 3369,
      "æĪĳçļĦ": 3370,
      "æµª": 3371,
      "åİħ": 3372,
      "è¿ŀæİ¥": 3373,
      "è¿«": 3374,
      "æĪĺäºī": 3375,
      "åħ±äº§": 3376,
      "2022": 3377,
      "çļĦæĸ¹æ³ķ": 3378,
      "åľ£": 3379,
      "ology": 3380,
      "ï¼īãĢĤ": 3381,
      "æ°§åĮĸ": 3382,
      "%ï¼Į": 3383,
      "è¿¹": 3384,
      "ç¬¬åįģ": 3385,
      "èĻ«": 3386,
      "ined": 3387,
      "é²ģ": 3388,
      "è¯¦": 3389,
      "ause": 3390,
      "æī£": 3391,
      "38": 3392,
      "çī¹åĪ«æĺ¯": 3393,
      "åŃ¦æľ¯": 3394,
      "owever": 3395,
      "å®ĥçļĦ": 3396,
      "æľīä¸Ģ": 3397,
      "ments": 3398,
      "å±¥è¡Į": 3399,
      "ä½ĵåĪ¶": 3400,
      "çĽ¾": 3401,
      "ä¸»ä»»": 3402,
      "è½´": 3403,
      "Ġcare": 3404,
      ".,": 3405,
      "çŀ": 3406,
      "å½ĵäºĭ": 3407,
      "oun": 3408,
      "è®ºæĸĩ": 3409,
      "åıªèĥ½": 3410,
      "æĬ½": 3411,
      "æ½®": 3412,
      "æĴĳ": 3413,
      "åħĪè¿Ľ": 3414,
      "æīĢè°ĵ": 3415,
      "æł·çļĦ": 3416,
      "å¯Ĵ": 3417,
      "ou": 3418,
      "Ġrese": 3419,
      "åĢ¾": 3420,
      "ä¿Ħ": 3421,
      "åĶ¯": 3422,
      "åĩłä¸ª": 3423,
      "ÃĹ": 3424,
      "çĽĳæµĭ": 3425,
      "å·§": 3426,
      "èĢĮè¨Ģ": 3427,
      "In": 3428,
      "éĿ¢ä¸´": 3429,
      "lood": 3430,
      "è°·": 3431,
      "çĺ¤": 3432,
      "Ġduring": 3433,
      "\",\"": 3434,
      "åĪĨåŃĲ": 3435,
      "ä¸įåĪ°": 3436,
      "2020": 3437,
      "Ġet": 3438,
      "è´Ńä¹°": 3439,
      "éĢļçŁ¥": 3440,
      "çİ©": 3441,
      "å¡Ķ": 3442,
      "é«ĺåº¦": 3443,
      "acter": 3444,
      "çİ¯èĬĤ": 3445,
      "å«": 3446,
      "Ġup": 3447,
      "Ġappro": 3448,
      "è§Ħå¾ĭ": 3449,
      "Ġfound": 3450,
      "Ġboth": 3451,
      "éĶĻè¯¯": 3452,
      "ry": 3453,
      "ational": 3454,
      "çļĦæĹ¶éĹ´": 3455,
      "å¿Ĩ": 3456,
      "åĴĮåĽ½": 3457,
      "Ġprotein": 3458,
      "éĻ·": 3459,
      "34": 3460,
      "ç±į": 3461,
      "çĽ¸åĲĮ": 3462,
      "75": 3463,
      "ç§¦": 3464,
      "plic": 3465,
      "pone": 3466,
      "Ġpe": 3467,
      "éº»": 3468,
      "CA": 3469,
      "Ġresear": 3470,
      "éĤ£äºĽ": 3471,
      "çī©çĲĨ": 3472,
      "æĸ°éĹ»": 3473,
      "ç©ºæ°Ķ": 3474,
      "atory": 3475,
      "çĽ¸å½ĵ": 3476,
      "ected": 3477,
      "åĩºåı£": 3478,
      "Ġpr": 3479,
      "æ¶¨": 3480,
      "åĲ´": 3481,
      "å¹´äºº": 3482,
      "æģ¢å¤į": 3483,
      "è§ĤçĤ¹": 3484,
      "å¢Ļ": 3485,
      "ç»ĻäºĪ": 3486,
      "éĨĴ": 3487,
      "åħ´è¶£": 3488,
      "è®¤çľŁ": 3489,
      "Ġpresent": 3490,
      "Ġinto": 3491,
      "Ġlevels": 3492,
      "åħ¬å¼Ģ": 3493,
      "çªģåĩº": 3494,
      "ç¤ºèĮĥ": 3495,
      "å¸¸è§ģ": 3496,
      "åĲĦç±»": 3497,
      "å¾ªçİ¯": 3498,
      "åı¬": 3499,
      "çĽĲ": 3500,
      "als": 3501,
      "ä¼į": 3502,
      "æľ¬èº«": 3503,
      "ç¼ºä¹ı": 3504,
      "gg": 3505,
      "æľºåĻ¨": 3506,
      "éĢĴ": 3507,
      "è§Ħå®ļçļĦ": 3508,
      "ä¸įå°ĳ": 3509,
      "æ³¥": 3510,
      "æĭį": 3511,
      "éĽª": 3512,
      "æĪª": 3513,
      "æĹ¥å¸¸": 3514,
      "\"\"": 3515,
      "ãĢģâĢľ": 3516,
      "rapy": 3517,
      "åĩĨç¡®": 3518,
      "ä¸¤ç§į": 3519,
      "å®ĩ": 3520,
      "çĶŁéķ¿": 3521,
      "çİ°åľº": 3522,
      "åĪ¶ä½ľ": 3523,
      "ï½": 3524,
      "Ġhyp": 3525,
      "è¿Ŀæ³ķ": 3526,
      "åĬŀåħ¬": 3527,
      "cc": 3528,
      "æĪĲåĳĺ": 3529,
      "åĬłå¤§": 3530,
      "ormal": 3531,
      "der": 3532,
      "çļĦçłĶç©¶": 3533,
      "ict": 3534,
      "Ġimmun": 3535,
      "Ġtum": 3536,
      "hen": 3537,
      "ian": 3538,
      "èµĭ": 3539,
      "ically": 3540,
      "now": 3541,
      "Ġour": 3542,
      "è¯º": 3543,
      "é©±": 3544,
      "å£ģ": 3545,
      "ä¸Ģä¸ĭ": 3546,
      "åĲī": 3547,
      "è¿Ľè¡ĮäºĨ": 3548,
      "åĭĩ": 3549,
      "å¤ļçļĦ": 3550,
      "ings": 3551,
      "çŁĽ": 3552,
      "èµĶåģ¿": 3553,
      "èī¯å¥½çļĦ": 3554,
      "èĥĮæĻ¯": 3555,
      "æ´¥": 3556,
      "ä¹Łä¼ļ": 3557,
      "]).": 3558,
      "ä¹Łåı¯ä»¥": 3559,
      "ram": 3560,
      "ä¸Ĭè¿°": 3561,
      "éĽĨä½ĵ": 3562,
      "æ¸ł": 3563,
      "Ġyears": 3564,
      "ible": 3565,
      "Ġ200": 3566,
      "èĭ±è¯Ń": 3567,
      "ĠÂ±": 3568,
      "å¹³è¡¡": 3569,
      "æľ±": 3570,
      "æĽ°": 3571,
      "å²¸": 3572,
      "æīĵéĢł": 3573,
      "äº§æĿĥ": 3574,
      "çľŁå®ŀ": 3575,
      "ç£ģ": 3576,
      "æ¶Īè´¹èĢħ": 3577,
      "ä¹ĺ": 3578,
      "æ¨ª": 3579,
      "hes": 3580,
      "éĢĲæŃ¥": 3581,
      "è¡¨éĿ¢": 3582,
      "æĬĳ": 3583,
      "Ġmodel": 3584,
      "ĠĠĠĠĠ": 3585,
      "æĹ¦": 3586,
      "è§īå¾Ĺ": 3587,
      "ise": 3588,
      "æ¡Īä¾ĭ": 3589,
      "åŁºåĽł": 3590,
      "ä½ĵéªĮ": 3591,
      "ãĢĤâĢľ": 3592,
      "å®īè£ħ": 3593,
      "ä¸Ģå®ļçļĦ": 3594,
      "31": 3595,
      "åĨ°": 3596,
      "ified": 3597,
      "ĠçļĦ": 3598,
      "ä¸Ģæĺ¯": 3599,
      "æ¶µ": 3600,
      "éļ¾ä»¥": 3601,
      "è®¯": 3602,
      "hem": 3603,
      "èŀįèµĦ": 3604,
      "Ġdr": 3605,
      "ä¸»ç®¡": 3606,
      "æµģç¨ĭ": 3607,
      "Ġmost": 3608,
      "åĪĬ": 3609,
      "æİ¥è§¦": 3610,
      "hod": 3611,
      "rel": 3612,
      "éĩĳå±ŀ": 3613,
      "åį±éĻ©": 3614,
      "ogen": 3615,
      "äºĮæĺ¯": 3616,
      "éĺ²æŃ¢": 3617,
      "èµı": 3618,
      "37": 3619,
      "Ġexper": 3620,
      "ä¼¦": 3621,
      "è´¢åĬ¡": 3622,
      "Ġident": 3623,
      "Ġchild": 3624,
      "ough": 3625,
      "irst": 3626,
      "éªĹ": 3627,
      "çªģçł´": 3628,
      "Ġuse": 3629,
      "è¡¨æĺİ": 3630,
      "ĠWe": 3631,
      "ood": 3632,
      "åĪĨéħį": 3633,
      "è¿ĲèĲ¥": 3634,
      "çļĦä¸Ģä¸ª": 3635,
      "å¢¨": 3636,
      "Ġaut": 3637,
      "è¿Ķ": 3638,
      "Ġage": 3639,
      "èģĮå·¥": 3640,
      "æŃ»äº¡": 3641,
      "eg": 3642,
      "è´¡çĮ®": 3643,
      "ved": 3644,
      "çŃīçŃī": 3645,
      "æľīæīĢ": 3646,
      "è°ĭ": 3647,
      "èĵĿ": 3648,
      "ä¸Ģå¹´": 3649,
      "ines": 3650,
      "çŁĽçĽ¾": 3651,
      "æİī": 3652,
      "æĶ¯æĴĳ": 3653,
      "è¦ĨçĽĸ": 3654,
      "åŃ¦ä¼ļ": 3655,
      "æ¸¸æĪı": 3656,
      "ä¿¡çĶ¨": 3657,
      "hib": 3658,
      "ob": 3659,
      "Ġthere": 3660,
      "ç½ĳç«Ļ": 3661,
      "æĮĳæĪĺ": 3662,
      "åħļåĳĺ": 3663,
      "ç»ıåİĨ": 3664,
      "Ġte": 3665,
      "äººæ°ĳæĶ¿åºľ": 3666,
      "SA": 3667,
      "æľīäºĨ": 3668,
      "å·¥èµĦ": 3669,
      "Ġonly": 3670,
      "ization": 3671,
      "æĪĲäºĨ": 3672,
      "2018": 3673,
      "è¿ĽæŃ¥": 3674,
      "Ġblood": 3675,
      "æĸĩåŃĹ": 3676,
      "ç£¨": 3677,
      "èĸĦ": 3678,
      "èĥĥ": 3679,
      "ained": 3680,
      "æľīæľº": 3681,
      "CT": 3682,
      "å²©": 3683,
      "æĽ´å¥½": 3684,
      "Ġexam": 3685,
      "Ġeach": 3686,
      "æıĲä¾ĽäºĨ": 3687,
      "åĸľæ¬¢": 3688,
      "ĠUn": 3689,
      "med": 3690,
      "çļĦè¯Ŀ": 3691,
      "çİ°ä»£åĮĸ": 3692,
      "æ°ĳä¸»": 3693,
      "Ġdiagn": 3694,
      "å°¾": 3695,
      "çŃĸçķ¥": 3696,
      "ä¹Łå°±æĺ¯": 3697,
      "sy": 3698,
      "æĢ»ä½ĵ": 3699,
      "éĩįæĸ°": 3700,
      "Ġpath": 3701,
      "åĲĦåľ°": 3702,
      "æĦŁè§ī": 3703,
      "å·®å¼Ĥ": 3704,
      "æ³¨åĨĮ": 3705,
      "è¿ŀç»Ń": 3706,
      "ç³»ç»ŁçļĦ": 3707,
      "å±Ĥæ¬¡": 3708,
      "æīĢåľ¨": 3709,
      "ute": 3710,
      "Ġbi": 3711,
      "æ£®": 3712,
      "æ¯ıå¤©": 3713,
      "åįģäºĮ": 3714,
      "åħ±äº«": 3715,
      "è·ĳ": 3716,
      "ä½ľåĩº": 3717,
      "Ġj": 3718,
      "min": 3719,
      "æľīäºº": 3720,
      "èĢĥçĶŁ": 3721,
      "Ġdef": 3722,
      "æĥħç»ª": 3723,
      "Ġassociated": 3724,
      "åľ°äº§": 3725,
      "èº«ä»½": 3726,
      "Ġend": 3727,
      "ities": 3728,
      "åħ±åĴĮåĽ½": 3729,
      "èµµ": 3730,
      "ä½¿å¾Ĺ": 3731,
      "Ġext": 3732,
      "ä¼¯": 3733,
      "èĲ¥åħ»": 3734,
      "æ¯ıå¹´": 3735,
      "çĲĨæĥ³": 3736,
      "æŃ£å¼ı": 3737,
      "çĴ": 3738,
      "æŁ±": 3739,
      "è¯ģæį®": 3740,
      "æİ¨å¹¿": 3741,
      "ont": 3742,
      "æķĻæĿĲ": 3743,
      "çļĦä½ľçĶ¨": 3744,
      "Ġwhen": 3745,
      "æĺ¯ä»Ģä¹Ī": 3746,
      "ite": 3747,
      "æı´": 3748,
      "ä¸ªæľĪ": 3749,
      "æĿĨ": 3750,
      "èĥ¡": 3751,
      "å¤ļå°ĳ": 3752,
      "å½ĵäºĭäºº": 3753,
      "è®¾ç«ĭ": 3754,
      "è½¬åŀĭ": 3755,
      "48": 3756,
      "ãĢĤ$": 3757,
      "æĢķ": 3758,
      "éģŃ": 3759,
      "å¤ļä¸ª": 3760,
      "ĠĠĠĠĠĠ": 3761,
      "æ·±åĮĸ": 3762,
      "ological": 3763,
      "çº¤": 3764,
      "å®ı": 3765,
      "æĩĤ": 3766,
      "49": 3767,
      "éĢĤçĶ¨": 3768,
      "ally": 3769,
      "åĢºåĬ¡": 3770,
      "Ġwork": 3771,
      "Ġhum": 3772,
      "å½¢è±¡": 3773,
      "åĩ¡": 3774,
      "æĿĥçĽĬ": 3775,
      "å®Įæķ´": 3776,
      "å¤§ä¼ļ": 3777,
      "é¥°": 3778,
      "cular": 3779,
      "Ġnon": 3780,
      "Ġobs": 3781,
      "ential": 3782,
      "åĮ»åŃ¦": 3783,
      "Ġdist": 3784,
      "ution": 3785,
      "åģ¥åħ¨": 3786,
      "æ³½": 3787,
      "39": 3788,
      "ç§»åĬ¨": 3789,
      "åİŁçĲĨ": 3790,
      "çĶĺ": 3791,
      "ĠHe": 3792,
      "æĶ¶çĽĬ": 3793,
      "Ġcompared": 3794,
      "è®¤å®ļ": 3795,
      "çĽ¸æ¯Ķ": 3796,
      "æ²ŁéĢļ": 3797,
      "æķ¢": 3798,
      ")ï¼Į": 3799,
      "2017": 3800,
      "èį·": 3801,
      "å£®": 3802,
      "è§Ĥå¿µ": 3803,
      "ä¹Į": 3804,
      "æ³¨éĩį": 3805,
      "åĽºå®ļ": 3806,
      "åĩŃ": 3807,
      "Ġrem": 3808,
      "32": 3809,
      "ran": 3810,
      "éĢ»": 3811,
      "å°º": 3812,
      "åĭ¤": 3813,
      "ä»įçĦ¶": 3814,
      "ãĢģãĢĬ": 3815,
      "æĢ§è´¨": 3816,
      "atic": 3817,
      "è²": 3818,
      "åĬĽåº¦": 3819,
      "æĮĤ": 3820,
      "æĸ°æĹ¶ä»£": 3821,
      "åı°æ¹¾": 3822,
      "55": 3823,
      "ĠÎ": 3824,
      "åĳ¨æľŁ": 3825,
      "Ġindic": 3826,
      "æµģåĬ¨": 3827,
      "èħº": 3828,
      "Ġfunction": 3829,
      "èĤ¯": 3830,
      "ä¹ĥ": 3831,
      "è½¨": 3832,
      "éĥ½ä¼ļ": 3833,
      "%ãĢĤ": 3834,
      "åħ¬éĩĮ": 3835,
      ")ãĢĤ": 3836,
      "bib": 3837,
      "ä¸ĢæĿ¡": 3838,
      "åįĩçº§": 3839,
      "Ġwell": 3840,
      "èķ": 3841,
      "ä¸Ģèĩ´": 3842,
      "Ġ.": 3843,
      "è°±": 3844,
      "Ġdep": 3845,
      "èµĸ": 3846,
      "åºĶå¯¹": 3847,
      "idence": 3848,
      "ä¸ŃåĽ½çļĦ": 3849,
      "æĻ®éģį": 3850,
      "é£Łçī©": 3851,
      "Ġsim": 3852,
      "å¼Ł": 3853,
      "çºµ": 3854,
      "ä¸ĢåĪĩ": 3855,
      "---": 3856,
      "è·Ŀç¦»": 3857,
      "æĹĹ": 3858,
      "ma": 3859,
      "æĿ¡ä¾ĭ": 3860,
      "çĶµæ±ł": 3861,
      "ency": 3862,
      "æļĹ": 3863,
      "é©¾é©¶": 3864,
      "é¢ľ": 3865,
      "ä¼¸": 3866,
      "ody": 3867,
      "ç®±": 3868,
      "æīİ": 3869,
      "rough": 3870,
      "çī¢": 3871,
      "çĵ¦": 3872,
      "ality": 3873,
      "ç«Ł": 3874,
      "æķ¬": 3875,
      "åĴ¨": 3876,
      "Ġits": 3877,
      "åĪĽä½ľ": 3878,
      "æģĲ": 3879,
      "å¯¿": 3880,
      "åĵĪ": 3881,
      "Ġâ": 3882,
      "æĪ¿å±ĭ": 3883,
      "åħ¸åŀĭ": 3884,
      "ubl": 3885,
      "ä½įäºİ": 3886,
      "é¦Ļæ¸¯": 3887,
      "ium": 3888,
      "è¡ĮçļĦ": 3889,
      "çĸı": 3890,
      "nal": 3891,
      "65": 3892,
      "Ġsugg": 3893,
      "Ġsm": 3894,
      "Ġsuggest": 3895,
      "è¿½æ±Ĥ": 3896,
      "æĹĭ": 3897,
      "ä¸Ĭåįĩ": 3898,
      "æ£Ģå¯Ł": 3899,
      "\"}).": 3900,
      "è°Ĳ": 3901,
      "åĲ¨": 3902,
      "ix": 3903,
      "èĢĥæł¸": 3904,
      "åĲĪæ³ķ": 3905,
      "ake": 3906,
      "çļĦè§Ħå®ļ": 3907,
      "è´¯å½»": 3908,
      "åĽ½æľī": 3909,
      "è½¬åĮĸ": 3910,
      "ä¸ĭåĪĹ": 3911,
      "åĶ±": 3912,
      "duction": 3913,
      "Ġ,": 3914,
      "åĽ½çļĦ": 3915,
      "å®ļä¹ī": 3916,
      "ä»ģ": 3917,
      "æ·»": 3918,
      "oint": 3919,
      "èĢķ": 3920,
      "å²Ĺä½į": 3921,
      "æīĢå¾Ĺ": 3922,
      "åĵ²åŃ¦": 3923,
      "æķĮ": 3924,
      "å¿½": 3925,
      "Ġser": 3926,
      "ĠCh": 3927,
      "ä¸ĭæĿ¥": 3928,
      "let": 3929,
      "Ġnumber": 3930,
      "åĲĮæł·": 3931,
      "ale": 3932,
      "ages": 3933,
      "éĢĤåĲĪ": 3934,
      "Ġrat": 3935,
      "Ġhig": 3936,
      "ipt": 3937,
      "å¹¿åĳĬ": 3938,
      "çªĹ": 3939,
      "æĭĶ": 3940,
      "éħįç½®": 3941,
      "èĥİ": 3942,
      "æĢģåº¦": 3943,
      "gen": 3944,
      "éĺµ": 3945,
      "èĥĨ": 3946,
      "åĪĨéĴŁ": 3947,
      "è¿ħéĢŁ": 3948,
      "urre": 3949,
      "åĲĦä¸ª": 3950,
      "ä¸ĵåĪ©": 3951,
      "ä¸»è¦ģæĺ¯": 3952,
      "ivid": 3953,
      "é«ĺè´¨éĩı": 3954,
      "æĬ¼": 3955,
      "æ¼ı": 3956,
      "Ġinform": 3957,
      "ited": 3958,
      "Ġnew": 3959,
      "Ġcould": 3960,
      "åı¯èĥ½ä¼ļ": 3961,
      "Ġmin": 3962,
      "åĴ¨è¯¢": 3963,
      "æĶ¹éĢł": 3964,
      "2019": 3965,
      "æ´ª": 3966,
      "åĳĬè¯ī": 3967,
      "æĻĭ": 3968,
      "äºİæĺ¯": 3969,
      "æī¹åĩĨ": 3970,
      "ink": 3971,
      "è¿ĺè¦ģ": 3972,
      "èģĮè´£": 3973,
      "åħįçĸ«": 3974,
      "____": 3975,
      "åĪĢ": 3976,
      "æī°": 3977,
      "æ·±åĪ»": 3978,
      "åıĳè¡¨": 3979,
      "Ġobserv": 3980,
      "è½¬ç§»": 3981,
      "è¡°": 3982,
      "Ġincreased": 3983,
      "çī©æµģ": 3984,
      "Ġabout": 3985,
      "èĪį": 3986,
      "åħĪçĶŁ": 3987,
      "æĹ¶çļĦ": 3988,
      "éĢ»è¾ĳ": 3989,
      "ä¼Ĭ": 3990,
      "åĪ°çļĦ": 3991,
      "ãĢĮ": 3992,
      "Ġmice": 3993,
      "ĠĠĠĠĠĠĠĠĠĠĠĠĠĠĠ": 3994,
      "èĥ¸": 3995,
      "è½¬åıĺ": 3996,
      "ock": 3997,
      "æĸ°åŀĭ": 3998,
      "å°¤åħ¶æĺ¯": 3999,
      "éŁ©": 4000,
      "æļĸ": 4001,
      "AP": 4002,
      "å¥¶": 4003,
      "ä¸ģ": 4004,
      "æµĻ": 4005,
      "è§Ĩé¢ĳ": 4006,
      "ä¼ı": 4007,
      "è¿ĳå¹´æĿ¥": 4008,
      "æĻ¶": 4009,
      "æģ©": 4010,
      "æįŁå®³": 4011,
      "èĩªæ²»": 4012,
      "Ġdifferen": 4013,
      "è½¦è¾Ĩ": 4014,
      "å¤ªéĺ³": 4015,
      "çļĨ": 4016,
      "åįĪ": 4017,
      "æĢ»ä¹¦è®°": 4018,
      "åŃķ": 4019,
      "å¿ł": 4020,
      "åį³ä½¿": 4021,
      "åºĶæĢ¥": 4022,
      "Ġï¼Į": 4023,
      "Ġfirst": 4024,
      "ç¬ĳ": 4025,
      "\\*": 4026,
      "çļĦå°ı": 4027,
      "ãĢį": 4028,
      "é¡¿": 4029,
      "è§Ī": 4030,
      "æļĤ": 4031,
      "èĤ¾": 4032,
      "å¤§å¤ļæķ°": 4033,
      "å¥ı": 4034,
      "].": 4035,
      "åĲİæĿ¥": 4036,
      "æıĴ": 4037,
      "åŃ©åŃĲçļĦ": 4038,
      "æľ¬æĸĩ": 4039,
      "é¸¡": 4040,
      "les": 4041,
      "ä»ĸäºº": 4042,
      "44": 4043,
      "anc": 4044,
      "çļĦåĨħå®¹": 4045,
      "é©¬åħĭ": 4046,
      "åħģ": 4047,
      "85": 4048,
      "æĤī": 4049,
      "å§ĭç»Ī": 4050,
      "ä¼Ļ": 4051,
      "éĽħ": 4052,
      "001": 4053,
      "åĲĦçº§": 4054,
      "åħ¬åı¸çļĦ": 4055,
      "èªī": 4056,
      "æ¡Ĩ": 4057,
      "Ġsome": 4058,
      "å¤Ħç½ļ": 4059,
      "ä¸Ģå®ļè¦ģ": 4060,
      "æµ®": 4061,
      "Ġ**": 4062,
      "éĢĤå½ĵ": 4063,
      "å½¢æĢģ": 4064,
      "Ġ([": 4065,
      "åı¤ä»£": 4066,
      "$$": 4067,
      "åĩ½": 4068,
      "å°ĳå¹´": 4069,
      "view": 4070,
      "å±ķç¤º": 4071,
      "åº¦çļĦ": 4072,
      "æīĭæľº": 4073,
      "èħĶ": 4074,
      "é¥Ń": 4075,
      "æ¬§æ´²": 4076,
      "Ġbl": 4077,
      "æĦıæĢĿ": 4078,
      "æİĴæĶ¾": 4079,
      "å¦Ĥä¸ĭ": 4080,
      "ç»ĵæĿŁ": 4081,
      "è·³": 4082,
      "èµŀ": 4083,
      "æĭĽçĶŁ": 4084,
      "åĩłä¹İ": 4085,
      "å¹´é¾Ħ": 4086,
      "Ġgener": 4087,
      "oid": 4088,
      "![": 4089,
      "çģ°": 4090,
      "erg": 4091,
      "åĿ¡": 4092,
      "Ġthose": 4093,
      "ĠĠĠĠĠĠĠ": 4094,
      "ness": 4095,
      "omen": 4096,
      "å®¡æŁ¥": 4097,
      "è¾ĸ": 4098,
      "é«ĺçŃī": 4099,
      "ä¸¹": 4100,
      "Ġmeasure": 4101,
      "urther": 4102,
      "ability": 4103,
      "ek": 4104,
      "æŀĿ": 4105,
      "æ¸ħæ¥ļ": 4106,
      "arly": 4107,
      "duct": 4108,
      "é»ĺ": 4109,
      "Ġneed": 4110,
      "æĦĪ": 4111,
      "éĢļä¿¡": 4112,
      "æĲľ": 4113,
      "åĮħåĲ«": 4114,
      "èĩ£": 4115,
      "old": 4116,
      "ination": 4117,
      "æĪ¿åľ°äº§": 4118,
      "æĳ©": 4119,
      "cript": 4120,
      "èĢĮä¸į": 4121,
      "åĽ½æ°ĳ": 4122,
      "æ¸łéģĵ": 4123,
      "95": 4124,
      "ration": 4125,
      "äººæ°ĳåħ±åĴĮåĽ½": 4126,
      "çŃĶæ¡Ī": 4127,
      "èİ«": 4128,
      "å°±åı¯ä»¥": 4129,
      "æµĭéĩı": 4130,
      "éĺŁä¼į": 4131,
      "éħįåĲĪ": 4132,
      "Ġimport": 4133,
      "è¾©": 4134,
      "åĽ´ç»ķ": 4135,
      "ature": 4136,
      "æĲŃ": 4137,
      "Ġmethod": 4138,
      "Ġtiss": 4139,
      "çļĦè¦ģæ±Ĥ": 4140,
      "its": 4141,
      "æ´Ľ": 4142,
      "æ·¡": 4143,
      "Ġrep": 4144,
      "éº¦": 4145,
      "æĦıåĳ³": 4146,
      "åŃĲçļĦ": 4147,
      "raph": 4148,
      "éĻ¶": 4149,
      "ole": 4150,
      "é¢Ħç®Ĺ": 4151,
      "åįļå£«": 4152,
      "Ġfind": 4153,
      "è¡¥åħħ": 4154,
      "01": 4155,
      "æĥĬ": 4156,
      "å®ª": 4157,
      "åħ¬ä¼Ĺ": 4158,
      "åĲĦé¡¹": 4159,
      "å¸ĥå±Ģ": 4160,
      "åĮ»çĶŁ": 4161,
      "ivers": 4162,
      "å¤§éĥ¨åĪĨ": 4163,
      "èģĺ": 4164,
      "æĥħåĨµä¸ĭ": 4165,
      "ä¸Ńåįİäººæ°ĳåħ±åĴĮåĽ½": 4166,
      "éĺ²æİ§": 4167,
      "46": 4168,
      "å¿ĺ": 4169,
      "Ġthrough": 4170,
      "æ³¡": 4171,
      "æĬĬæı¡": 4172,
      "è¥¿æĸ¹": 4173,
      "èįĲ": 4174,
      "èµĦæł¼": 4175,
      "åĲ¯åĬ¨": 4176,
      "over": 4177,
      "è¯ģåĪ¸": 4178,
      "çĸ«èĭĹ": 4179,
      "åĬłåħ¥": 4180,
      "æľĢå¤§çļĦ": 4181,
      "æĥħæĦŁ": 4182,
      "ism": 4183,
      "Ġmic": 4184,
      "åĪĽå»º": 4185,
      "Ġå¹´": 4186,
      "äººåľ¨": 4187,
      "çİ¯ä¿Ŀ": 4188,
      "äºĭé¡¹": 4189,
      "æłĩå¿Ĺ": 4190,
      "é¢Ĺ": 4191,
      "Ġins": 4192,
      "åįģåħ«": 4193,
      "Ġsa": 4194,
      "æľ¬ä¹¦": 4195,
      "è¦ģç´ł": 4196,
      "ral": 4197,
      "Ġconf": 4198,
      "éĵľ": 4199,
      "rib": 4200,
      "åįģä¸ī": 4201,
      "å°ıåŃ¦": 4202,
      "ä»¿": 4203,
      "æ¶Ĥ": 4204,
      "Ġ12": 4205,
      "æľīåĪ©äºİ": 4206,
      "åŃ¦èĢħ": 4207,
      "è¯ķçĤ¹": 4208,
      "æĺ¾èĳĹ": 4209,
      "è¯·æ±Ĥ": 4210,
      "ĠIt": 4211,
      "ãĢĤï¼Ī": 4212,
      "æĭĴ": 4213,
      "\"(": 4214,
      "åĪ·": 4215,
      "æ¢ħ": 4216,
      "åĲ§": 4217,
      "äººä½ĵ": 4218,
      "ospit": 4219,
      "èī¯å¥½": 4220,
      "ç»ĥä¹ł": 4221,
      "è¡Ģç®¡": 4222,
      "æī¾åĪ°": 4223,
      "ç§įæ¤į": 4224,
      "âĶ": 4225,
      "ä¸ĵéĹ¨": 4226,
      "çł´åĿı": 4227,
      "ä¸Ģä½ĵ": 4228,
      "pos": 4229,
      "ä¸ŃåĽ½çī¹èī²": 4230,
      "æĮĸ": 4231,
      "47": 4232,
      "ie": 4233,
      "ange": 4234,
      "âĢĿâĢľ": 4235,
      "åī²": 4236,
      "Ġstr": 4237,
      "Ġstat": 4238,
      "åĲĮæ¯Ķ": 4239,
      "å¾Ĵ": 4240,
      "åįģåĽĽ": 4241,
      "è´«åĽ°": 4242,
      "Ġparticip": 4243,
      "å£¤": 4244,
      "ruct": 4245,
      "æ·±åº¦": 4246,
      "æī§æ³ķ": 4247,
      "âĢĿãĢģâĢľ": 4248,
      "æ°ĶåĢĻ": 4249,
      "çıł": 4250,
      "æ³ķæ²»": 4251,
      "Ġprob": 4252,
      "å®ļä½į": 4253,
      "åĲ¸å¼ķ": 4254,
      "æĳĨ": 4255,
      "Ġyou": 4256,
      "ople": 4257,
      "åĲ¸æĶ¶": 4258,
      "åľ°çĲĨ": 4259,
      "Ġlik": 4260,
      "æĪĲçĨŁ": 4261,
      "amm": 4262,
      "ç¬¬äºĶ": 4263,
      "éĢĨ": 4264,
      "åĳ¼åĲ¸": 4265,
      "å¾Ĳ": 4266,
      "åĿ¦": 4267,
      "å°½ç®¡": 4268,
      "Ġform": 4269,
      "è±Ĩ": 4270,
      "Ġknow": 4271,
      "äº§çĶŁçļĦ": 4272,
      "èĥĢ": 4273,
      "Ġeffects": 4274,
      "ä¸ĵé¡¹": 4275,
      "å®ŀéĻħä¸Ĭ": 4276,
      "æ°ĳéĹ´": 4277,
      "åľ°çĲĥ": 4278,
      "éļľç¢į": 4279,
      "æĪ´": 4280,
      "æ§": 4281,
      "åĽ¾ä¹¦": 4282,
      "Ġresearch": 4283,
      "Ġpol": 4284,
      "äººçī©": 4285,
      "ĠHowever": 4286,
      "onse": 4287,
      "æģĴ": 4288,
      "Ġpop": 4289,
      "åĬ¨ä½ľ": 4290,
      "åħ±äº§åħļ": 4291,
      "çļĦèĥ½åĬĽ": 4292,
      "å¾Īå¤§": 4293,
      "nd": 4294,
      "æī«": 4295,
      "åĹ": 4296,
      "åŁ¹èĤ²": 4297,
      "å°Ŀ": 4298,
      "2016": 4299,
      "æīĭæľ¯": 4300,
      "ä¹ĭå¤ĸ": 4301,
      "Ġactivity": 4302,
      "æ³ī": 4303,
      "ç±»ä¼¼": 4304,
      "Ġassess": 4305,
      "å¿ĹæĦ¿": 4306,
      "å¯¹å¤ĸ": 4307,
      "Ġreported": 4308,
      "çŃīæĸ¹éĿ¢": 4309,
      "çļĦåİĨåı²": 4310,
      "çļĦåľ°æĸ¹": 4311,
      "åĬ¨æľº": 4312,
      "é¸Ł": 4313,
      "Ġpot": 4314,
      "æĥħå½¢": 4315,
      "Ġ\\<": 4316,
      "çĶµè§Ĩ": 4317,
      "ax": 4318,
      "çĤī": 4319,
      "ä¸ĢæĹ¦": 4320,
      "åĬ¨æĢģ": 4321,
      "ä¼Łå¤§": 4322,
      "æ¾³": 4323,
      "ä»ĵ": 4324,
      "åĳĪçİ°": 4325,
      "éĥ¨ç½²": 4326,
      "æĢİæł·": 4327,
      "åįµ": 4328,
      "Ġprovid": 4329,
      "é©¬åħĭæĢĿ": 4330,
      "Ġest": 4331,
      "Ġref": 4332,
      "åħ¬å®ī": 4333,
      "ize": 4334,
      "çļĦåīį": 4335,
      "åŀĥ": 4336,
      "etic": 4337,
      "Ġperformed": 4338,
      "åľ¾": 4339,
      "led": 4340,
      "éĢĥ": 4341,
      "Ġsignificantly": 4342,
      "åŀĥåľ¾": 4343,
      "ä¸Ĭå¸Ĥ": 4344,
      "99": 4345,
      "cul": 4346,
      "...": 4347,
      "ç»ŁçŃ¹": 4348,
      "plement": 4349,
      "åŁİä¹¡": 4350,
      "å®¢è§Ĥ": 4351,
      "æŃ£æĺ¯": 4352,
      "è¯ĬæĸŃ": 4353,
      "åĪ©çİĩ": 4354,
      "åľ¨æŃ¤": 4355,
      "ividual": 4356,
      "åĮºåĪ«": 4357,
      "chn": 4358,
      "åĵģç§į": 4359,
      "vious": 4360,
      "èĲ¥éĶĢ": 4361,
      "è²Į": 4362,
      "67": 4363,
      "çļĦæĥħåĨµä¸ĭ": 4364,
      "äºĨä¸Ģä¸ª": 4365,
      "çļĦä¸į": 4366,
      "âĢĻ": 4367,
      "äºķ": 4368,
      "æĶ¶éĽĨ": 4369,
      "str": 4370,
      "é«ĺæķĪ": 4371,
      "Ġbec": 4372,
      "å¹¿å¤§": 4373,
      "Ġdeterm": 4374,
      "ç²Ĺ": 4375,
      "Ġ15": 4376,
      "è¢«åĳĬ": 4377,
      "çº¹": 4378,
      "ç¨¿": 4379,
      "å¦»": 4380,
      "Ġimpro": 4381,
      "é¢Ħæµĭ": 4382,
      "æ°ĳäºĭ": 4383,
      "æ¿ĢåĬ±": 4384,
      "çıį": 4385,
      "åį±æľº": 4386,
      "çĮª": 4387,
      "åį±å®³": 4388,
      "è¾¨": 4389,
      "çº¦å®ļ": 4390,
      "è¾ĥå¤§": 4391,
      "Ġso": 4392,
      "RNA": 4393,
      "æ£ĢéªĮ": 4394,
      "è°ĥèĬĤ": 4395,
      "äºĪä»¥": 4396,
      "Ġinhib": 4397,
      "æ³°": 4398,
      "Ġaddition": 4399,
      "é¼»": 4400,
      "æĤ²": 4401,
      "ĠY": 4402,
      "åĴĮç¤¾ä¼ļ": 4403,
      "çĶ¨äºº": 4404,
      "æľĹ": 4405,
      "åĪĨäº«": 4406,
      "åĢ¼å¾Ĺ": 4407,
      "å°ıç»Ħ": 4408,
      "å±±ä¸ľ": 4409,
      "åľºæīĢ": 4410,
      "ç¡®è®¤": 4411,
      "Ġhuman": 4412,
      "å½¹": 4413,
      "åįıåĲĮ": 4414,
      "Ġhigher": 4415,
      "Ġrequ": 4416,
      "æĹ¨": 4417,
      "å¹ķ": 4418,
      "Ġfe": 4419,
      "å¤§åĬĽ": 4420,
      "èİ·åıĸ": 4421,
      "æĦŁåıĹ": 4422,
      "198": 4423,
      "ä»¥åīį": 4424,
      "åĸ·": 4425,
      "usion": 4426,
      "æĿĥçļĦ": 4427,
      "ç»ĦåĲĪ": 4428,
      "åĨĽäºĭ": 4429,
      "Ġcases": 4430,
      "Ġshould": 4431,
      "è¿Ŀåıį": 4432,
      "å°ĸ": 4433,
      "çļĦæľĢ": 4434,
      "çľł": 4435,
      "Ġmult": 4436,
      "Ġimp": 4437,
      "è¹": 4438,
      "æµ·æ´ĭ": 4439,
      "äº©": 4440,
      "åĨįæ¬¡": 4441,
      "Ġcar": 4442,
      "ä¸īå¹´": 4443,
      "âĳł": 4444,
      "éŀ": 4445,
      "æµħ": 4446,
      "ï½ŀ": 4447,
      "æİĺ": 4448,
      "æķ´åĲĪ": 4449,
      "æĺ¯ä¸į": 4450,
      "çļĦç¤¾ä¼ļ": 4451,
      "Ġatt": 4452,
      "val": 4453,
      "å¹´è½»": 4454,
      "èĳ£": 4455,
      "èĤ¤": 4456,
      "åħĥç´ł": 4457,
      "âĢĺ": 4458,
      "çĶµåĬĽ": 4459,
      "å°ĺ": 4460,
      "èį¯åĵģ": 4461,
      "çļĦåĲĮæĹ¶": 4462,
      "urrent": 4463,
      "âĦ": 4464,
      "åĴĮè°Ĳ": 4465,
      "è®¤çŁ¥": 4466,
      "åĪ©æ¶¦": 4467,
      "æĴ¤": 4468,
      "å¹¿ä¸ľ": 4469,
      "åħ¬å¹³": 4470,
      "å®ŀéªĮå®¤": 4471,
      "åı¯è§ģ": 4472,
      "è¯Ī": 4473,
      "ä¸ĢçĤ¹": 4474,
      "è¾ŀ": 4475,
      "Ġpost": 4476,
      "æŁĲäºĽ": 4477,
      "æĸ¹ä¾¿": 4478,
      "ptom": 4479,
      "ived": 4480,
      "ional": 4481,
      "è®°å¿Ĩ": 4482,
      "å±ı": 4483,
      "ĠAs": 4484,
      "åĽĽä¸ª": 4485,
      "è®¸åı¯": 4486,
      "æĪĲå°±": 4487,
      "rect": 4488,
      "æ¼«": 4489,
      "Ġsurg": 4490,
      "SC": 4491,
      "hel": 4492,
      "èĩ³å°ĳ": 4493,
      "æĹ©æľŁ": 4494,
      "æııè¿°": 4495,
      "æĦıåĳ³çĿĢ": 4496,
      "Ġ(*": 4497,
      "çº³åħ¥": 4498,
      "å¹´åº¦": 4499,
      "å§Ķæīĺ": 4500,
      "å¾·åĽ½": 4501,
      "æıĲåĩºäºĨ": 4502,
      "ä½ıæĪ¿": 4503,
      "ä¸ŃåĮ»": 4504,
      "åŃĲå¥³": 4505,
      "æĶ¾åľ¨": 4506,
      "Ġevalu": 4507,
      "è¿·": 4508,
      "èĥ½éĩı": 4509,
      "è¾Ľ": 4510,
      "åĵģè´¨": 4511,
      "æľ¬è´¨": 4512,
      "èĳĹåĲį": 4513,
      "mm": 4514,
      "ĠäºĮ": 4515,
      "éĩĮçļĦ": 4516,
      "ä¾Ľç»Ļ": 4517,
      "åĢ¡": 4518,
      "æ¶Īéĺ²": 4519,
      "éĵģè·¯": 4520,
      "åľºæĻ¯": 4521,
      "å¤©çĦ¶": 4522,
      "åŁºç¡Ģè®¾æĸ½": 4523,
      "æľīçĿĢ": 4524,
      "è·ĥ": 4525,
      "çĽ¸åºĶçļĦ": 4526,
      "çļĦåħ³ç³»": 4527,
      "æ°¢": 4528,
      "åŁİéķĩ": 4529,
      "Ġshowed": 4530,
      "çļĦä¸Ģç§į": 4531,
      "äººçĶŁ": 4532,
      "ily": 4533,
      "reated": 4534,
      "çº¢èī²": 4535,
      "Ġï¼Ī": 4536,
      "ç«¹": 4537,
      "Ġgroups": 4538,
      "æľīä¸Ģä¸ª": 4539,
      "IP": 4540,
      "ä»²": 4541,
      "å®ļæľŁ": 4542,
      "ãĢĭãĢģãĢĬ": 4543,
      "çķħ": 4544,
      "####": 4545,
      "æĸ°åĨł": 4546,
      "ç¾Ĭ": 4547,
      "ä¿®æĶ¹": 4548,
      "éĺ²æ²»": 4549,
      "ffic": 4550,
      "Ġmem": 4551,
      "äºĭæĥħ": 4552,
      "éĥĳ": 4553,
      "å¯¹æĸ¹": 4554,
      "ç»ıæµİåıĳå±ķ": 4555,
      "io": 4556,
      "Ġany": 4557,
      "ĠMed": 4558,
      "åįģä¹Ŀ": 4559,
      "å°Ĭéĩį": 4560,
      "crib": 4561,
      "åĸĿ": 4562,
      "Ġä¸ī": 4563,
      "åĵ¥": 4564,
      "æķĪçĽĬ": 4565,
      "uro": 4566,
      "ä¸įåĨį": 4567,
      "ental": 4568,
      "è£ħç½®": 4569,
      "éĢĶå¾Ħ": 4570,
      "å¥³æĢ§": 4571,
      "åĪ«äºº": 4572,
      "å¤§åŀĭ": 4573,
      "æĺ¯çĶ±": 4574,
      "Ġindividual": 4575,
      "åĩºåı°": 4576,
      "å¼ºçļĦ": 4577,
      "Ġinformation": 4578,
      "è¡¥åģ¿": 4579,
      "Ġloc": 4580,
      "åĪ¶éĢłä¸ļ": 4581,
      "Ġsupport": 4582,
      "åįģå¹´": 4583,
      "æµĻæ±Ł": 4584,
      "è´Ŀ": 4585,
      "åħ¬å¸ĥ": 4586,
      "78": 4587,
      "éĤ¦": 4588,
      "æĽ´å¤ļçļĦ": 4589,
      "æĺĮ": 4590,
      "å®ħ": 4591,
      "ç²ĺ": 4592,
      "å¥ī": 4593,
      "æİ¨èįĲ": 4594,
      "å¼ķåıĳ": 4595,
      "âĳ¡": 4596,
      "çĻ¾åĪĨ": 4597,
      "æķ°åŃĹåĮĸ": 4598,
      "ä»£çĲĨ": 4599,
      "Ġnormal": 4600,
      "Ġocc": 4601,
      "åĭĴ": 4602,
      "Ġval": 4603,
      "æ¢¯": 4604,
      "æĸĩçĮ®": 4605,
      "å¼ºåº¦": 4606,
      "æĮ¯åħ´": 4607,
      "ha": 4608,
      "é©»": 4609,
      "æĮĩæķ°": 4610,
      "è´Łè´£äºº": 4611,
      "ç¾¤ä½ĵ": 4612,
      "ĠĠĠĠĠĠĠĠĠĠĠĠĠĠĠĠĠĠĠĠĠĠĠĠ": 4613,
      "é¢Ī": 4614,
      "éļĨ": 4615,
      "å®¡è®¡": 4616,
      "å¥ĭæĸĹ": 4617,
      "æł¡åĽŃ": 4618,
      "æľŁéĻĲ": 4619,
      "Ġfactors": 4620,
      "æĶ¯åĩº": 4621,
      "Ġprocess": 4622,
      "å¯º": 4623,
      "2015": 4624,
      "çº²": 4625,
      "Ġprim": 4626,
      "çĽ¸åħ³çļĦ": 4627,
      "42": 4628,
      "åħģè®¸": 4629,
      "================": 4630,
      "ç²®é£Ł": 4631,
      "tal": 4632,
      "Ġthree": 4633,
      "stit": 4634,
      "ä¹ĭä¸Ń": 4635,
      "ç¼ĸåĪ¶": 4636,
      "å´ĩ": 4637,
      "Ġshown": 4638,
      "å¤©ä¸ĭ": 4639,
      "èĬ¯": 4640,
      "oma": 4641,
      "è¯ĨåĪ«": 4642,
      "ĠCD": 4643,
      "Ġincluding": 4644,
      "å¹¸ç¦ı": 4645,
      "Ġpeople": 4646,
      "çĶŁæĢģçİ¯å¢ĥ": 4647,
      "åĪĳäºĭ": 4648,
      "å»ºæĪĲ": 4649,
      "ç´«": 4650,
      "æķĻèĤ²çļĦ": 4651,
      "Ġwhere": 4652,
      "ĠâĢľ": 4653,
      "èĤ¡ç¥¨": 4654,
      ".(": 4655,
      "chan": 4656,
      "éĤ®": 4657,
      "æĿľ": 4658,
      "Ġphys": 4659,
      "çºłçº·": 4660,
      "Ġif": 4661,
      "å¿§": 4662,
      "åİĺ": 4663,
      "åŃ¦å®¶": 4664,
      "äººåĬĽ": 4665,
      "ç¡ķ": 4666,
      "æĭĨ": 4667,
      "å¤ļæł·": 4668,
      "åľŁå£¤": 4669,
      "Ġresponse": 4670,
      "åŀĤ": 4671,
      "69": 4672,
      "çļĦåŁºç¡Ģä¸Ĭ": 4673,
      "âĦĥ": 4674,
      "æĬ¢": 4675,
      "æķĪåºĶ": 4676,
      "ä½İäºİ": 4677,
      "CC": 4678,
      "æ¸¡": 4679,
      "ä¸įèī¯": 4680,
      "è¯»ä¹¦": 4681,
      "çĸĨ": 4682,
      "åįģäºĶ": 4683,
      "éĻ¢æł¡": 4684,
      "æ©": 4685,
      "å¤§æķ°æį®": 4686,
      "Ġrate": 4687,
      "å½¢åĬ¿": 4688,
      "æĮĩæĮ¥": 4689,
      "Ġ)": 4690,
      "Ġ30": 4691,
      "æĬķèµĦèĢħ": 4692,
      "table": 4693,
      "ld": 4694,
      "ä¸Ĭä¸ĭ": 4695,
      "èĤ¡ä¸ľ": 4696,
      "Ġlong": 4697,
      "çĽ¸ä¿¡": 4698,
      "],[@": 4699,
      "åĻ¨çļĦ": 4700,
      "ä¼ĺåħĪ": 4701,
      "çī¹æĢ§": 4702,
      "éĻµ": 4703,
      "Ġpar": 4704,
      "ish": 4705,
      "èµ¢": 4706,
      "aracter": 4707,
      "åłĨ": 4708,
      "AT": 4709,
      "é¢ĦæľŁ": 4710,
      "500": 4711,
      "å¿ħçĦ¶": 4712,
      "Ġdrug": 4713,
      "åıĺå¾Ĺ": 4714,
      "åĪºæ¿Ģ": 4715,
      "å¦Ĥä»Ĭ": 4716,
      "é¥®é£Ł": 4717,
      "Ġsym": 4718,
      "sec": 4719,
      "ä¸Ńåįİæ°ĳæĹı": 4720,
      "æ¡£æ¡Ī": 4721,
      "æĺ¯å¯¹": 4722,
      "Ġgl": 4723,
      "Ġconsid": 4724,
      "2000": 4725,
      "å¹³æĸ¹": 4726,
      "çļĦåİŁåĽł": 4727,
      "Ġcoun": 4728,
      "éĩĩè´Ń": 4729,
      "åķĨåĬ¡": 4730,
      "åħ¶æ¬¡": 4731,
      "åĽ½å®¶çļĦ": 4732,
      "çĶµè¯Ŀ": 4733,
      "èī°": 4734,
      "åŃ¦çļĦ": 4735,
      "68": 4736,
      "åĽŀçŃĶ": 4737,
      "å»ī": 4738,
      "æ»¤": 4739,
      "èĤ¿çĺ¤": 4740,
      "æľīéĻĲåħ¬åı¸": 4741,
      "åģ¶": 4742,
      "å¯¸": 4743,
      "æĳĺ": 4744,
      "å¼ķé¢Ĩ": 4745,
      "æ¯ıä¸Ģ": 4746,
      "IT": 4747,
      "ural": 4748,
      "åľ°çļĦ": 4749,
      "éĹ²": 4750,
      "æ¿Ģåıĳ": 4751,
      "çĶŁåŃĺ": 4752,
      "è¿Ľåı£": 4753,
      "Ġpubl": 4754,
      "ï¼īãĢģ": 4755,
      "Ġmonth": 4756,
      "ç½Ĺæĸ¯": 4757,
      "è¿Ļä¹Ī": 4758,
      "Ġchildren": 4759,
      "åŃĺåĤ¨": 4760,
      "åĨĻä½ľ": 4761,
      "çĶµè·¯": 4762,
      "æľīæķĪçļĦ": 4763,
      "çº¤ç»´": 4764,
      "Ġwould": 4765,
      "åĪĩå®ŀ": 4766,
      "èĴ¸": 4767,
      "åģļåĩº": 4768,
      "IV": 4769,
      "ograph": 4770,
      "æĤŁ": 4771,
      "å¾Īéļ¾": 4772,
      "Ġret": 4773,
      "åħ¶å®ĥ": 4774,
      "ick": 4775,
      "çļĦè¿ĩç¨ĭ": 4776,
      "è¿Ľç¨ĭ": 4777,
      "çĻ¾å§ĵ": 4778,
      "äººæ°ĳå¸ģ": 4779,
      "çļĦè¡Įä¸º": 4780,
      "43": 4781,
      "ç«ĭæ³ķ": 4782,
      "endent": 4783,
      "åľ¨ä¸ŃåĽ½": 4784,
      "Ġpotential": 4785,
      "aining": 4786,
      "æł¼å±Ģ": 4787,
      "CD": 4788,
      "äº«åıĹ": 4789,
      "æĬĢæľ¯çļĦ": 4790,
      "æľ¬ç§ĳ": 4791,
      "è·Į": 4792,
      "ting": 4793,
      "Ġav": 4794,
      "ĠThese": 4795,
      "éģĩåĪ°": 4796,
      "ä¸ĩäºº": 4797,
      "çĳŀ": 4798,
      "Ġobserved": 4799,
      "reg": 4800,
      "ted": 4801,
      "æľīæĹ¶": 4802,
      "1000": 4803,
      "AR": 4804,
      "å®¿": 4805,
      "åıĳè¡Į": 4806,
      "æĻ°": 4807,
      "åĲ«éĩı": 4808,
      "Ġimportant": 4809,
      "çģĮ": 4810,
      "å°ıçļĦ": 4811,
      "éī´å®ļ": 4812,
      "è¯±": 4813,
      "åľ¨è¿Ļ": 4814,
      "åįıä¼ļ": 4815,
      "é«ĺçº§": 4816,
      "åĲĮä¸Ģ": 4817,
      "å¾ĭå¸Ī": 4818,
      "èĢĮä¸įæĺ¯": 4819,
      "ospital": 4820,
      "åı¦ä¸Ģæĸ¹éĿ¢": 4821,
      "å¹¶ä¸įæĺ¯": 4822,
      "å¼Ĥå¸¸": 4823,
      "Ġvir": 4824,
      "Ġdecre": 4825,
      "èĲ¨": 4826,
      "300": 4827,
      "å¤ļå¹´": 4828,
      "Ġinvol": 4829,
      "äºĭåĬ¡": 4830,
      "è¯¦ç»Ĩ": 4831,
      "è¯´çļĦ": 4832,
      "åįķåħĥ": 4833,
      "ç¼ĸè¾ĳ": 4834,
      "ĠHealth": 4835,
      "æĢĿè·¯": 4836,
      "iven": 4837,
      "æĽ¹": 4838,
      "èĸª": 4839,
      "æ°¨": 4840,
      "å±ķå¼Ģ": 4841,
      "å¯Ħ": 4842,
      "å¤ļæ¬¡": 4843,
      "Ġbrain": 4844,
      "åı¯æĮģç»Ń": 4845,
      "Ġpred": 4846,
      "iqu": 4847,
      "ç§¯ç´¯": 4848,
      "çĶ±æŃ¤": 4849,
      "Ġchang": 4850,
      "estig": 4851,
      "ification": 4852,
      "ä¸ĭéĿ¢": 4853,
      "åħ¬æ°ĳ": 4854,
      "å·¡": 4855,
      "æĲŀ": 4856,
      "äººå·¥æĻºèĥ½": 4857,
      "ä¸ŃåĽ½çī¹èī²ç¤¾ä¼ļä¸»ä¹ī": 4858,
      "å®Ļ": 4859,
      "éĶ»": 4860,
      "æĿĳæ°ĳ": 4861,
      "å°±èĥ½": 4862,
      "éĺĶ": 4863,
      "Ġpers": 4864,
      "æ±¤": 4865,
      "æĭħä¿Ŀ": 4866,
      "Ġ+": 4867,
      "Ġç¬¬äºĮ": 4868,
      "é«ĺèĢĥ": 4869,
      "äº§åĵģçļĦ": 4870,
      "ores": 4871,
      "Ġtumor": 4872,
      "åĨĴ": 4873,
      "çº³ç¨İ": 4874,
      "ç»´æĮģ": 4875,
      "Ġdevelopment": 4876,
      "ired": 4877,
      "é½¿": 4878,
      "å¢ĵ": 4879,
      "è¿Ł": 4880,
      "ĠPro": 4881,
      "ä¸Ńæľī": 4882,
      "Ġwithin": 4883,
      "Ġwomen": 4884,
      "æĭľ": 4885,
      "æĽ´ä¸º": 4886,
      "ä¹łè¿ĳå¹³æĢ»ä¹¦è®°": 4887,
      "è¾ĵåħ¥": 4888,
      "å¤§åŃ¦çĶŁ": 4889,
      "æģ°": 4890,
      "é£İæł¼": 4891,
      "çĵ¶": 4892,
      "ç²¾åĩĨ": 4893,
      "åķĨæłĩ": 4894,
      "ä¸»å¸Ń": 4895,
      "çĶµå½±": 4896,
      "ues": 4897,
      "çļĦçĶŁæ´»": 4898,
      "53": 4899,
      "åŃ¤": 4900,
      "lex": 4901,
      "ç©·": 4902,
      "ä¸»ç®¡éĥ¨éĹ¨": 4903,
      "par": 4904,
      "lamm": 4905,
      "Ġtherapy": 4906,
      "åĲįç§°": 4907,
      "éĶģ": 4908,
      "çīµ": 4909,
      "æķ´çĲĨ": 4910,
      "ãĢĤãĢĬ": 4911,
      "çĶ¨äººåįķä½į": 4912,
      "Ġ18": 4913,
      "ä¹Łè¦ģ": 4914,
      "å°±è¦ģ": 4915,
      "äººå¤§": 4916,
      "ps": 4917,
      "å±ħä½ı": 4918,
      "éħ¬": 4919,
      "éĿŀæ³ķ": 4920,
      "åĬ©äºİ": 4921,
      "åĴĮåħ¶ä»ĸ": 4922,
      "å®¡æī¹": 4923,
      "éĨĩ": 4924,
      "imal": 4925,
      "çļĦæķ°æį®": 4926,
      "åİ»å¹´": 4927,
      "iversity": 4928,
      "âĶĢ": 4929,
      "åĲĪæł¼": 4930,
      "oph": 4931,
      "é©±åĬ¨": 4932,
      "çī§": 4933,
      "ardi": 4934,
      "56": 4935,
      "æ¯ģ": 4936,
      "çĽĪ": 4937,
      "Ġ11": 4938,
      "æĦŁåĪ°": 4939,
      "éĿ¢åĲĳ": 4940,
      "é«ĺéĢŁ": 4941,
      "åı¬å¼Ģ": 4942,
      "æĶ¹è¿Ľ": 4943,
      "åĩºåıĳ": 4944,
      "Ġantib": 4945,
      "98": 4946,
      "èĻİ": 4947,
      "çģµæ´»": 4948,
      "éŃı": 4949,
      "03": 4950,
      "å¾¡": 4951,
      "77": 4952,
      "Ġmean": 4953,
      "arget": 4954,
      "å®ĩå®Ļ": 4955,
      "æĬ¥éģĵ": 4956,
      "ä¸Ģæĸ¹éĿ¢": 4957,
      "Ġmy": 4958,
      "Ġdid": 4959,
      "åĬ³åĬ¨èĢħ": 4960,
      "Ġmain": 4961,
      "è£ħå¤ĩ": 4962,
      "tt": 4963,
      "æĬ±": 4964,
      ");": 4965,
      "åĮħè£ħ": 4966,
      "æķ°çļĦ": 4967,
      "åĿĽ": 4968,
      "ç»§æī¿": 4969,
      "ĠRes": 4970,
      "Ġamong": 4971,
      "Ġposs": 4972,
      "Ġprevious": 4973,
      "æ¸Ĺ": 4974,
      "çŁ¥è¯Ĩäº§æĿĥ": 4975,
      "ä¼ĺè´¨": 4976,
      "ç¨İåĬ¡": 4977,
      "åĲĮæĦı": 4978,
      "çĹħäºº": 4979,
      "å°½éĩı": 4980,
      "éª¤": 4981,
      "çŃ¾è®¢": 4982,
      "è¾ĥä¸º": 4983,
      "ä»°": 4984,
      "é«ĺä¸Ń": 4985,
      "åį³åı¯": 4986,
      "iod": 4987,
      "çĶŁæĪĲ": 4988,
      "å¤ĸéĥ¨": 4989,
      "å¦Īå¦Ī": 4990,
      "å¤ļåħĥ": 4991,
      "åĮºçļĦ": 4992,
      "è®°è½½": 4993,
      "æıŃ": 4994,
      "è¯¾é¢ĺ": 4995,
      "æįķ": 4996,
      "ç¤¾ä¼ļçļĦ": 4997,
      "âĢĲ": 4998,
      "ç®Ĺæ³ķ": 4999,
      "æ··åĲĪ": 5000,
      "æĪĲåĪĨ": 5001,
      "éĽķ": 5002,
      "èĪĴ": 5003,
      "æ¯ıä¸Ģä¸ª": 5004,
      "åıĳçĶµ": 5005,
      "ä¸ªä½ĵ": 5006,
      "cle": 5007,
      "åŃ¦ä½į": 5008,
      "å¤Ħç½®": 5009,
      "åıĻ": 5010,
      "ten": 5011,
      "ĠĠĠĠĠĠĠĠĠĠĠĠĠĠĠĠĠĠĠĠĠĠĠĠĠĠĠĠĠĠĠĠĠĠĠĠĠĠĠĠĠĠĠĠĠĠĠĠĠĠĠĠĠĠĠĠĠĠĠĠĠĠĠĠĠĠĠĠĠĠĠĠĠĠĠĠĠĠĠĠĠĠĠĠĠĠĠĠĠĠĠĠĠĠĠĠĠĠĠĠĠĠĠĠĠĠĠĠĠĠĠĠĠĠĠĠĠĠĠĠĠĠĠĠĠĠĠĠ": 5012,
      "å®¶çļĦ": 5013,
      "è¯ģä¹¦": 5014,
      "Ġcharacter": 5015,
      "å¦Ļ": 5016,
      "æ°Ľ": 5017,
      "å¸¦åĬ¨": 5018,
      "ĠãĢĬ": 5019,
      "é¦ĸæ¬¡": 5020,
      "cell": 5021,
      "ä¸įå¤Ł": 5022,
      "Ġtrial": 5023,
      "41": 5024,
      "ung": 5025,
      "AC": 5026,
      "ins": 5027,
      "å§Ķä¼ļ": 5028,
      "Ġcal": 5029,
      "å¤º": 5030,
      "Ġsymptom": 5031,
      "AS": 5032,
      "ç¨Ģ": 5033,
      "çļ®èĤ¤": 5034,
      "èĮĥåĽ´åĨħ": 5035,
      "ä»¥ä¸ĬçļĦ": 5036,
      "ove": 5037,
      "æĭĵå±ķ": 5038,
      "æĹ¥èµ·": 5039,
      "åĦĴ": 5040,
      "åĬłéĢŁ": 5041,
      "Ġmechan": 5042,
      "åıĳèĤ²": 5043,
      "çĤŃ": 5044,
      "æĺ¯ä»¥": 5045,
      "éĥ½è¦ģ": 5046,
      "çĤ¸": 5047,
      "èĳ¡": 5048,
      "æłª": 5049,
      "æ³ķå®ļ": 5050,
      "å¾½": 5051,
      "æĽ´æĸ°": 5052,
      "Ġinvestig": 5053,
      "ç«ĭåį³": 5054,
      "ĠFor": 5055,
      "è¯Ńæĸĩ": 5056,
      "ackage": 5057,
      "ä¸»å¼ł": 5058,
      "åĲĮå¿Ĺ": 5059,
      "ç¢İ": 5060,
      "ety": 5061,
      "Ġvis": 5062,
      "Ġel": 5063,
      "58": 5064,
      "åĺī": 5065,
      "è®©åŃ¦çĶŁ": 5066,
      "GF": 5067,
      "æĿ°": 5068,
      "eng": 5069,
      "å½¼": 5070,
      "ĠãĢĤ": 5071,
      "Ġlim": 5072,
      "ife": 5073,
      "æį·": 5074,
      "åħĪåĲİ": 5075,
      "ann": 5076,
      "å¯ĨåĪĩ": 5077,
      "éĵº": 5078,
      "Figure": 5079,
      "Ġmut": 5080,
      "è½¬æį¢": 5081,
      "æ·»åĬł": 5082,
      "åĽĬ": 5083,
      "Ġsubject": 5084,
      "å·¨å¤§": 5085,
      "èĿ": 5086,
      "gan": 5087,
      "Ġlead": 5088,
      "åĴĮå¹³": 5089,
      "èļĢ": 5090,
      "ä¼łæī¿": 5091,
      "å®Ŀå®Ŀ": 5092,
      "éĢļéģĵ": 5093,
      "ç¦ģæŃ¢": 5094,
      "å®ŀä½ĵ": 5095,
      "åħ¬è·¯": 5096,
      "ä¸¾åĬŀ": 5097,
      "ID": 5098,
      "çļĦåħ³éĶ®": 5099,
      "çļĩå¸Ŀ": 5100,
      "Ġexperim": 5101,
      "ices": 5102,
      "----------------------------------------------------------------": 5103,
      "Ġrespect": 5104,
      "Ġrole": 5105,
      "æĽ¾ç»ı": 5106,
      "ĠĠĠĠĠĠĠĠĠĠĠĠĠ": 5107,
      "æĪĴ": 5108,
      "çĭ¬çī¹": 5109,
      "åıĳè¾¾": 5110,
      "roph": 5111,
      "çļĦåŃ¦ä¹ł": 5112,
      "èĤ¯å®ļ": 5113,
      "æĽ´æĺ¯": 5114,
      "åįģåħŃ": 5115,
      "Ġset": 5116,
      "èĤĥ": 5117,
      "æºª": 5118,
      "è§£æĶ¾": 5119,
      "II": 5120,
      "çļĦäºĭæĥħ": 5121,
      "Ġcent": 5122,
      "æŁĶ": 5123,
      "å¸ĤåľºçļĦ": 5124,
      "Ġgene": 5125,
      "Ġanti": 5126,
      "çĦĬ": 5127,
      "ä¸ŃéĹ´": 5128,
      "æĸľ": 5129,
      "å¸¦æĿ¥çļĦ": 5130,
      "åĳ¨åĽ´": 5131,
      "ä¾Ŀçħ§": 5132,
      "äººç¾¤": 5133,
      "Ġincrease": 5134,
      "DP": 5135,
      "å¹¶æ²¡æľī": 5136,
      "éĤ»": 5137,
      "ç¨İæĶ¶": 5138,
      "çĶŁç´ł": 5139,
      "å¤§å°ı": 5140,
      "å£°éŁ³": 5141,
      "......": 5142,
      "å¤ĸçļĦ": 5143,
      "æ±Łèĭı": 5144,
      "02": 5145,
      "ä½¿çĶ¨çļĦ": 5146,
      "å¹¶éĿŀ": 5147,
      "ä¸Ńåħ±": 5148,
      "èĢĥå¯Ł": 5149,
      "Ġprot": 5150,
      "ä»¥ä¸º": 5151,
      "ä¸ŃåŃ¦": 5152,
      "æľĪä»½": 5153,
      "ilar": 5154,
      "æĹģ": 5155,
      "ER": 5156,
      "66": 5157,
      "éĺĲ": 5158,
      "è¾ī": 5159,
      "2014": 5160,
      "èĦ±è´«": 5161,
      "åıĳæĺİ": 5162,
      "ify": 5163,
      "Ġtechn": 5164,
      "æ²³åįĹ": 5165,
      "ç¾İæľ¯": 5166,
      "Ġhel": 5167,
      "ording": 5168,
      "æĸĩçī©": 5169,
      "ently": 5170,
      "éĥ½åľ¨": 5171,
      "Ġspecific": 5172,
      "åİĺç±³": 5173,
      "Ġtissue": 5174,
      "ç¨»": 5175,
      "ä¿¡æģ¯åĮĸ": 5176,
      "iver": 5177,
      "çļĦå¿ĥ": 5178,
      "Ġrad": 5179,
      "ished": 5180,
      "åĢºæĿĥ": 5181,
      "ä¾ĿçĦ¶": 5182,
      "æħİ": 5183,
      "ples": 5184,
      "æŃ¤æĹ¶": 5185,
      "requ": 5186,
      "Ġsec": 5187,
      "Ġinfection": 5188,
      "æĺ¯æľĢ": 5189,
      "çĶŁæ´»ä¸Ń": 5190,
      "åįļçī©": 5191,
      "çĶ¨æĿ¥": 5192,
      "ç§©": 5193,
      "å°Ĩåħ¶": 5194,
      "ists": 5195,
      "åı¯éĿł": 5196,
      "æ¸ħæĻ°": 5197,
      "å°ĳæķ°": 5198,
      "é«ĺäºİ": 5199,
      "åıĺæĪĲ": 5200,
      "ä¾Ŀèµĸ": 5201,
      "ä¼ļæľī": 5202,
      "Ġgrow": 5203,
      "æ¯ķä¸ļçĶŁ": 5204,
      "æĿĥåĬĽ": 5205,
      "Ġcommon": 5206,
      "è¯»èĢħ": 5207,
      "å©´": 5208,
      "Ġbas": 5209,
      "èĪªç©º": 5210,
      "éħ¶": 5211,
      "åĽĽå·Ŀ": 5212,
      "æ¸ħæ´ģ": 5213,
      "æĬļ": 5214,
      "éĥģ": 5215,
      "å®¡æł¸": 5216,
      "çŃīçº§": 5217,
      "åī©": 5218,
      "ç¡«": 5219,
      "çĽ¸ç»ĵåĲĪ": 5220,
      "PP": 5221,
      "ä¿¡å¿ĥ": 5222,
      "åı¯ä»¥åľ¨": 5223,
      "79": 5224,
      "ç®Ģç§°": 5225,
      "Ġweek": 5226,
      "çĻ¾å¹´": 5227,
      "æłĳç«ĭ": 5228,
      "èµģ": 5229,
      "åĶ¯ä¸Ģ": 5230,
      "ä¼Ĳ": 5231,
      "ç®¡çĲĨçļĦ": 5232,
      "é¢ĨåŁŁçļĦ": 5233,
      "Ġmicro": 5234,
      "Ġrece": 5235,
      "åĽ¢ç»ĵ": 5236,
      "CO": 5237,
      "åį°åº¦": 5238,
      "èĲĦ": 5239,
      "èŀº": 5240,
      "åĤ¬": 5241,
      "æĥ³è±¡": 5242,
      "ä»¤äºº": 5243,
      "çĸ¼": 5244,
      "å±ĤéĿ¢": 5245,
      "ä¿®å¤į": 5246,
      "oh": 5247,
      "pect": 5248,
      "æĬĳåĪ¶": 5249,
      "Ġdemon": 5250,
      "äºĴåĬ¨": 5251,
      "ç§Łèµģ": 5252,
      "å¹¶åľ¨": 5253,
      "çİ»": 5254,
      "æīĢæľīçļĦ": 5255,
      "æĬĢå·§": 5256,
      "èĩªè§ī": 5257,
      "æ¯įäº²": 5258,
      "èĳ¡èĲĦ": 5259,
      "tic": 5260,
      "Ġmedical": 5261,
      "itions": 5262,
      "Ġstim": 5263,
      "è¿Ļå°±æĺ¯": 5264,
      "ä½łä»¬": 5265,
      "air": 5266,
      "é©¬åħĭæĢĿä¸»ä¹ī": 5267,
      "ç¼Ŀ": 5268,
      "å¤§éĩıçļĦ": 5269,
      "åĽłèĢĮ": 5270,
      "å¼ºåĪ¶": 5271,
      "æ¡Ĩæŀ¶": 5272,
      "æĭ¼": 5273,
      "ä¸īæĺ¯": 5274,
      "Ġcaus": 5275,
      "åħ¬çĽĬ": 5276,
      "ä¸Ģæī¹": 5277,
      "éĩįå¤į": 5278,
      "èĥģ": 5279,
      "erest": 5280,
      "64": 5281,
      "å¼¯": 5282,
      "æ³ķåĽ½": 5283,
      "........": 5284,
      "æĿ¯": 5285,
      "è¾½": 5286,
      "å»·": 5287,
      "ä¸ŃåĽ½åħ±äº§åħļ": 5288,
      "æ°Ķä½ĵ": 5289,
      "Ġlower": 5290,
      "å¤§å¹ħ": 5291,
      "Ġtype": 5292,
      "å½¢æĪĲäºĨ": 5293,
      "æľªæĪĲ": 5294,
      "ç»ĵè®º": 5295,
      "åĪĨç¦»": 5296,
      "åħħæ»¡": 5297,
      "é¢ľèī²": 5298,
      "èĩ³ä»Ĭ": 5299,
      "æ¬£": 5300,
      "omet": 5301,
      "çĶŁæ´»çļĦ": 5302,
      "èµ°åĲĳ": 5303,
      "çľģçº§": 5304,
      "æī¶è´«": 5305,
      "usep": 5306,
      "çº¿ä¸Ĭ": 5307,
      "æĻĵ": 5308,
      "ool": 5309,
      "åĬłä¸Ĭ": 5310,
      "æıĲäº¤": 5311,
      "usepackage": 5312,
      "ä¸§": 5313,
      "Ġtotal": 5314,
      "ĠCom": 5315,
      "æıĲåīį": 5316,
      "çĴĥ": 5317,
      "ç¬¬åħŃ": 5318,
      "CP": 5319,
      "other": 5320,
      "äº¤æį¢": 5321,
      "ä¿Ħç½Ĺæĸ¯": 5322,
      "Ġç¬¬ä¸Ģ": 5323,
      "æłı": 5324,
      "åħ¨çľģ": 5325,
      "Ġdescrib": 5326,
      "Ġaffect": 5327,
      "cop": 5328,
      "ç½ĳä¸Ĭ": 5329,
      "éĥ¨ä½į": 5330,
      "éĶĭ": 5331,
      "çĪ¶äº²": 5332,
      "ç§ĳåŃ¦å®¶": 5333,
      "éķ¿çļĦ": 5334,
      "éĺ¶çº§": 5335,
      "æĸĩåĮĸçļĦ": 5336,
      "aterial": 5337,
      "åģľæŃ¢": 5338,
      "Ġcyt": 5339,
      "Ġdemonstr": 5340,
      "çĶµèĦĳ": 5341,
      "Â°": 5342,
      "ependent": 5343,
      "åĨ²çªģ": 5344,
      "Ġpopulation": 5345,
      "å¿Ļ": 5346,
      "ç´¯è®¡": 5347,
      "èĵĦ": 5348,
      "aj": 5349,
      "çĽĳæİ§": 5350,
      "æĬ¤çĲĨ": 5351,
      "æ®ĭçĸ¾": 5352,
      "æ´»åĬ¨çļĦ": 5353,
      "ä¼¤å®³": 5354,
      "Ġless": 5355,
      "ä¼łç»ŁçļĦ": 5356,
      "æľīåı¯èĥ½": 5357,
      "Ġsame": 5358,
      "andard": 5359,
      "red": 5360,
      "ĊĠĠĠ": 5361,
      "åŃ©åŃĲä»¬": 5362,
      "vention": 5363,
      "ogn": 5364,
      "ç»ıåħ¸": 5365,
      "æŃ£ç¡®çļĦ": 5366,
      "é¥²": 5367,
      "ä¼łè¾ĵ": 5368,
      "çļĦæĬĢæľ¯": 5369,
      "ç§©åºı": 5370,
      "çĩ¥": 5371,
      "æĥ©": 5372,
      "äººå£«": 5373,
      "Ġwithout": 5374,
      "57": 5375,
      "åĿļå®ļ": 5376,
      "èħ°": 5377,
      "åİ¿çº§": 5378,
      "Ġchanges": 5379,
      "èĦ¸": 5380,
      "è¸ª": 5381,
      "ç¬¬ä¸Ģä¸ª": 5382,
      "è¾ĵåĩº": 5383,
      "çĲ´": 5384,
      "------------": 5385,
      "ç¢ĳ": 5386,
      "ES": 5387,
      "acc": 5388,
      "æľĢå¥½": 5389,
      "åĲ¦åĪĻ": 5390,
      "åĪĿæŃ¥": 5391,
      "ç¿»è¯ĳ": 5392,
      "Ġdue": 5393,
      "æ³ķçļĦ": 5394,
      "Ġdisc": 5395,
      "è¿Ļæ¬¡": 5396,
      "å®ŀçİ°äºĨ": 5397,
      "å¹³çŃī": 5398,
      "æľĢè¿ĳ": 5399,
      "å¼ºçĥĪ": 5400,
      "æĸĹäºī": 5401,
      "ä»Ļ": 5402,
      "èµ¤": 5403,
      "ç»ıçĲĨ": 5404,
      "åĴĮåıĳå±ķ": 5405,
      "çĪ¸": 5406,
      "ke": 5407,
      "åĲĲ": 5408,
      "Ġmonths": 5409,
      "çī¹å®ļ": 5410,
      "èĢģå¹´äºº": 5411,
      "æİ¥ç§į": 5412,
      "ç»Ŀå¯¹": 5413,
      "å¤±è´¥": 5414,
      "å®¾": 5415,
      "æ»´": 5416,
      "å¯»æī¾": 5417,
      "è¶³å¤Ł": 5418,
      "åĲĦåĽ½": 5419,
      "è¾ħåĬ©": 5420,
      "ç¦»åŃĲ": 5421,
      "elf": 5422,
      "åı¥è¯Ŀ": 5423,
      "éĥ½ä¸į": 5424,
      "ially": 5425,
      "ount": 5426,
      "ci": 5427,
      "åįĹäº¬": 5428,
      "though": 5429,
      "åĨĽéĺŁ": 5430,
      "åĩºçīĪç¤¾": 5431,
      "Ġhist": 5432,
      "èįĴ": 5433,
      "ä¸ľåĮĹ": 5434,
      "âĹ": 5435,
      "ascular": 5436,
      "èĢģäºº": 5437,
      "ĠAn": 5438,
      "çļĦåıĺåĮĸ": 5439,
      "åĩī": 5440,
      "çĲĨçĶ±": 5441,
      "çİ°çĬ¶": 5442,
      "å·ŀå¸Ĥ": 5443,
      "åĪ°åºķ": 5444,
      "æ¡ĥ": 5445,
      "Ġmany": 5446,
      "æŀª": 5447,
      "åĪĻæĺ¯": 5448,
      "ior": 5449,
      "ä½Ĩåľ¨": 5450,
      "ately": 5451,
      "å¯¹æ¯Ķ": 5452,
      "çļĦæ°´": 5453,
      "çĶ³æĬ¥": 5454,
      "èĻļæĭŁ": 5455,
      "è·¯å¾Ħ": 5456,
      "Ġperiod": 5457,
      "ä¸Ģä»£": 5458,
      "åĨħæ¶µ": 5459,
      "å°ıè¯´": 5460,
      "åıĤæķ°": 5461,
      "hip": 5462,
      "ç¬¬ä¸Ģæ¬¡": 5463,
      "59": 5464,
      "å®ŀä¹ł": 5465,
      "äº§éĩı": 5466,
      "å½ķåıĸ": 5467,
      "Ġauth": 5468,
      "PS": 5469,
      "Ġep": 5470,
      "Ġtarget": 5471,
      "å¹¼åĦ¿åĽŃ": 5472,
      "çļĦæķĻèĤ²": 5473,
      "sych": 5474,
      "ival": 5475,
      "åıįå¯¹": 5476,
      "å®¡åĪ¤": 5477,
      "åŃĿ": 5478,
      "åĩºæĿ¥çļĦ": 5479,
      "Ġbased": 5480,
      "æĭħä»»": 5481,
      "way": 5482,
      "å¤±åİ»": 5483,
      "ç¨į": 5484,
      "Ġtra": 5485,
      "èĩªè¡Į": 5486,
      "åĢºåĪ¸": 5487,
      "Ġthen": 5488,
      "åĩºçİ°äºĨ": 5489,
      "è¾Ĳ": 5490,
      "å¥ĳ": 5491,
      "ä¸Ģç³»åĪĹ": 5492,
      "å¯¹æŃ¤": 5493,
      "èģĮèĥ½": 5494,
      "çİ°æľī": 5495,
      "ade": 5496,
      "iation": 5497,
      "ä»£çłģ": 5498,
      "ä¸Ģä½į": 5499,
      "è½¬è®©": 5500,
      "2013": 5501,
      "resent": 5502,
      "æ¨¡åĿĹ": 5503,
      "åĽ¾åĥı": 5504,
      "éĩĬæĶ¾": 5505,
      "å®ĹæķĻ": 5506,
      "OS": 5507,
      "Ġfam": 5508,
      "2012": 5509,
      "Ġcurrent": 5510,
      "è§Ĵèī²": 5511,
      "åĮ¹": 5512,
      "ivity": 5513,
      "åŁĥ": 5514,
      "åĲ«æľī": 5515,
      "Ġç¬¬ä¸ī": 5516,
      "é¡ºåĪ©": 5517,
      "éĩĳé¢Ŀ": 5518,
      "åĽ¾çīĩ": 5519,
      "itis": 5520,
      "æĢ»æĺ¯": 5521,
      "èµł": 5522,
      "éŁµ": 5523,
      "Ġwhile": 5524,
      "èĴĻåı¤": 5525,
      "è´Łæĭħ": 5526,
      "çĵľ": 5527,
      "èĭ¥å¹²": 5528,
      "ĠĠĠĠĠĠĠĠĠĠĠĠĠĠ": 5529,
      "mer": 5530,
      "æ³Ħ": 5531,
      "åīįçļĦ": 5532,
      "//": 5533,
      "]^": 5534,
      "ä¼ª": 5535,
      "èĶ¬": 5536,
      "^[@": 5537,
      "æĭ¨": 5538,
      "èĬĤèĥ½": 5539,
      "åıī": 5540,
      "ç¡®å®ŀ": 5541,
      "ç»©æķĪ": 5542,
      "åħ¬åħĥ": 5543,
      "æŃ¥éª¤": 5544,
      "æĸĳ": 5545,
      "Ġbecause": 5546,
      "08": 5547,
      "çĶ¨åľ°": 5548,
      "âĳ¢": 5549,
      "çĬ¹": 5550,
      "è¿Ī": 5551,
      "æľīåĬ©äºİ": 5552,
      "å¤§å¤§": 5553,
      "åħ»æ®ĸ": 5554,
      "çī©åĵģ": 5555,
      "éªĮè¯ģ": 5556,
      "åĬ²": 5557,
      "åºĻ": 5558,
      "ï¼ĮãĢĬ": 5559,
      "Ġheart": 5560,
      "å¯¹åºĶ": 5561,
      "åį«æĺŁ": 5562,
      "æīĵå¼Ģ": 5563,
      "52": 5564,
      "AI": 5565,
      "åľ°åĿĢ": 5566,
      "æķ°æį®åºĵ": 5567,
      "çļĦçī¹çĤ¹": 5568,
      "ä¾¯": 5569,
      "Ġ16": 5570,
      "åģļæ³ķ": 5571,
      "æĦ¿æĦı": 5572,
      "è´¤": 5573,
      "76": 5574,
      "Ġmark": 5575,
      "Ġpercent": 5576,
      "èį¡": 5577,
      "MP": 5578,
      "åıĺéĿ©": 5579,
      "ful": 5580,
      "å¢ŀåĢ¼": 5581,
      "æ±Ĺ": 5582,
      "åĽ½å¤ĸ": 5583,
      "ross": 5584,
      "æĤ¬": 5585,
      "ateg": 5586,
      "ä¹Łå°±": 5587,
      "Ġop": 5588,
      "èµ¶": 5589,
      "æĸ°èĥ½æºĲ": 5590,
      "æĹ¥çĽĬ": 5591,
      "è°ĥçłĶ": 5592,
      "Ġadd": 5593,
      "åīª": 5594,
      "éķ¿æ±Ł": 5595,
      "ä¸ªæĢ§": 5596,
      "åľ³": 5597,
      "çĽ®å½ķ": 5598,
      "å§»": 5599,
      "æ¨¡æĭŁ": 5600,
      "Ġfollowing": 5601,
      "çłĸ": 5602,
      "Ġ|": 5603,
      "çļĦåŃ¦çĶŁ": 5604,
      "éģĹäº§": 5605,
      "å¯¹åħ¶": 5606,
      "è¾ĥé«ĺ": 5607,
      "çłĶç©¶æīĢ": 5608,
      "æİ¥è¿ĳ": 5609,
      "mit": 5610,
      "æİ¢è®¨": 5611,
      "æ£®æŀĹ": 5612,
      "Th": 5613,
      "fore": 5614,
      "ä¸Ģæ®µ": 5615,
      "å½ĵä»£": 5616,
      "åĨ»": 5617,
      "æŁĲç§į": 5618,
      "çĥ¦": 5619,
      "éĽĨæĪĲ": 5620,
      "Ġprom": 5621,
      "å®ıè§Ĥ": 5622,
      "æī¿åĮħ": 5623,
      "å¹´çº§": 5624,
      "å°Ŀè¯ķ": 5625,
      "çļĦä¸»": 5626,
      "è°¨": 5627,
      "ç¢±": 5628,
      "æľīåħ³éĥ¨éĹ¨": 5629,
      "éĻķ": 5630,
      "äººä¸º": 5631,
      "çİ»çĴĥ": 5632,
      "éĺĢ": 5633,
      "è´¦æĪ·": 5634,
      "eren": 5635,
      "ronic": 5636,
      "havi": 5637,
      "åľ¨ä¸Ģèµ·": 5638,
      "éĺ²èĮĥ": 5639,
      "èĪªå¤©": 5640,
      "çºªå¿µ": 5641,
      "çĿĢåĬĽ": 5642,
      "å£³": 5643,
      "éħįå¥Ĺ": 5644,
      "åīĬ": 5645,
      "ç§įç±»": 5646,
      "Ġsever": 5647,
      "ients": 5648,
      "é¥±": 5649,
      "éĿĴå°ĳå¹´": 5650,
      "é¢Ħè®¡": 5651,
      "åıł": 5652,
      "arge": 5653,
      "è¡Ģåİĭ": 5654,
      ")ãĢģ": 5655,
      "];": 5656,
      "äºīè®®": 5657,
      "è¿Ľå±ķ": 5658,
      "å·¥ä½ľäººåĳĺ": 5659,
      "éĶ»çĤ¼": 5660,
      "æµģéĩı": 5661,
      "åĩ½æķ°": 5662,
      "onal": 5663,
      "æ·±åľ³": 5664,
      "ressed": 5665,
      "å°±åĥı": 5666,
      "ĠĠĠĠĠĠĠĠĠĠĠĠĠĠĠĠĠĠĠĠĠĠĠĠĠĠĠĠĠĠĠĠĠĠĠĠĠĠĠĠĠĠĠĠĠĠĠĠ": 5667,
      "æľīä»Ģä¹Ī": 5668,
      "æĭ³": 5669,
      "åħ³å¿ĥ": 5670,
      "ĠAd": 5671,
      "åĸ»": 5672,
      "æĥ³è¦ģ": 5673,
      "Ġcomb": 5674,
      "éĹ´çļĦ": 5675,
      "Ġsmall": 5676,
      "åĬ¨è½¦": 5677,
      "ä¹ĭè·¯": 5678,
      "ä¼¼ä¹İ": 5679,
      "å®¤åĨħ": 5680,
      "å·©": 5681,
      "è¾Ī": 5682,
      "è§£éĻ¤": 5683,
      "Ġcorrel": 5684,
      "æĺ¯ä¸ŃåĽ½": 5685,
      "çŁ³æ²¹": 5686,
      "aging": 5687,
      "æ»ŀ": 5688,
      "å»ºè®¾çļĦ": 5689,
      "åŃŁ": 5690,
      "åıįå¤į": 5691,
      "çĨŁæĤī": 5692,
      "åħħåĪĨåıĳæĮ¥": 5693,
      "Ġ100": 5694,
      "æĲº": 5695,
      "äº§ä¸ļéĵ¾": 5696,
      "ä½ĵä¼ļ": 5697,
      "è°ĥè§£": 5698,
      "ç»ıè´¹": 5699,
      "èħ¾": 5700,
      "çŃĭ": 5701,
      "ä¾µæĿĥ": 5702,
      "ç¥Ń": 5703,
      "é¼ł": 5704,
      "éģµå®Ī": 5705,
      "Ġinj": 5706,
      "å¸¸å¸¸": 5707,
      "ä¸Ĭæ¶¨": 5708,
      "å¢ŀéĢŁ": 5709,
      "å¡ĳæĸĻ": 5710,
      "2010": 5711,
      "åĬ³åĬ¨åĲĪåĲĮ": 5712,
      "æķĻèĤ²éĥ¨": 5713,
      "Ġsimilar": 5714,
      "Ġcrit": 5715,
      "èħ¿": 5716,
      "71": 5717,
      "æī¹è¯Ħ": 5718,
      "Ġsecond": 5719,
      "ä¸¾è¡Į": 5720,
      "çłĶç©¶çĶŁ": 5721,
      "åĲĪæĪĲ": 5722,
      "è¡¥è´´": 5723,
      "æıĲéĨĴ": 5724,
      "è®¤è¯ģ": 5725,
      "Ġcase": 5726,
      "æŁ³": 5727,
      "äººæķ°": 5728,
      "æľŁçļĦ": 5729,
      "Î²": 5730,
      "âĢ¢": 5731,
      "çº½": 5732,
      "éĥ¨éĺŁ": 5733,
      "çŁ©": 5734,
      "ajor": 5735,
      "88": 5736,
      "IS": 5737,
      "åľ°ä¸ĭ": 5738,
      "omy": 5739,
      "ç¡ķå£«": 5740,
      "æĿ¡ä»¶çļĦ": 5741,
      "ä¸°å¯ĮçļĦ": 5742,
      "Ġsens": 5743,
      "æĺİçĻ½": 5744,
      "æĪĳä»¬è¦ģ": 5745,
      "åķĬ": 5746,
      "Ġsurv": 5747,
      "åĬĽåĴĮ": 5748,
      "Ġ14": 5749,
      "own": 5750,
      "æĽ´å¥½åľ°": 5751,
      "åĨ²åĩ»": 5752,
      "æĭĴç»Ŀ": 5753,
      "è®©äºº": 5754,
      "å®ªæ³ķ": 5755,
      "å¤įä¹ł": 5756,
      "å¦Ĥæŀľä½ł": 5757,
      "äººåĬĽèµĦæºĲ": 5758,
      "ä½¿åĳ½": 5759,
      "å°Ĩä¼ļ": 5760,
      "ucle": 5761,
      "åħ³èĬĤ": 5762,
      "è¿ĽèĢĮ": 5763,
      "Ġreview": 5764,
      "AD": 5765,
      "ane": 5766,
      "Ġbody": 5767,
      "å¯¼åĲĳ": 5768,
      "æĶ»åĩ»": 5769,
      "oss": 5770,
      "Ġobt": 5771,
      "èī²å½©": 5772,
      "è¾Ĳå°Ħ": 5773,
      "ĠUniversity": 5774,
      "Ġprof": 5775,
      "Ġdel": 5776,
      "Ġbefore": 5777,
      "ck": 5778,
      "æĺ¯æľī": 5779,
      "åľ°åĮºçļĦ": 5780,
      "åįļçī©é¦Ĩ": 5781,
      "éĥŃ": 5782,
      "å²Ń": 5783,
      "ä¸Ģå¸¦": 5784,
      "æĳ¸": 5785,
      "åįıåķĨ": 5786,
      "ä¸ĸçķĮä¸Ĭ": 5787,
      "ä¿ĿåŃĺ": 5788,
      "è¿ĺåı¯ä»¥": 5789,
      "ä¸įçŁ¥": 5790,
      "åĬłä»¥": 5791,
      "Ġyour": 5792,
      "æµĵåº¦": 5793,
      "èĳĹä½ľ": 5794,
      "èĩ³äºİ": 5795,
      "Ġclass": 5796,
      "Ġben": 5797,
      "æ°ĳçĶŁ": 5798,
      "Ġbre": 5799,
      "åĬ£": 5800,
      "æ³µ": 5801,
      "Ġdays": 5802,
      "ĠĊ": 5803,
      "Ġfurther": 5804,
      "ç¢°": 5805,
      "ä¹¡æĿĳæĮ¯åħ´": 5806,
      "urs": 5807,
      "Ġconcent": 5808,
      "Ġpress": 5809,
      "Ġä¸ŃåĽ½": 5810,
      "å§¿": 5811,
      "å¤įåħ´": 5812,
      "Ġexpl": 5813,
      "éĺ²æĬ¤": 5814,
      "è¡Ķ": 5815,
      "Ġrespons": 5816,
      "ypes": 5817,
      "çļĦå®īåħ¨": 5818,
      "èĤ¡æĿĥ": 5819,
      "åħļä¸Ńå¤®": 5820,
      "çłĤ": 5821,
      "duce": 5822,
      "eration": 5823,
      "äº¿ç¾İåħĥ": 5824,
      "09": 5825,
      "ĠQ": 5826,
      "ä¸īè§Ĵ": 5827,
      "We": 5828,
      "ĠIL": 5829,
      "è¯Ĺäºº": 5830,
      "æİ¢ç©¶": 5831,
      "Ġra": 5832,
      "\"ãĢĤ": 5833,
      "æ¶ĪéĻ¤": 5834,
      "ä¹Łåľ¨": 5835,
      "åĬŀåħ¬å®¤": 5836,
      "Ġfindings": 5837,
      "Ġsymptoms": 5838,
      "62": 5839,
      "çĩķ": 5840,
      "):": 5841,
      "å¤įåĲĪ": 5842,
      "Ġdirect": 5843,
      "å·¥ä½ľä¸Ń": 5844,
      "éĵĿ": 5845,
      "æ¶Īæģ¯": 5846,
      "è®©æĪĳä»¬": 5847,
      "ĠâĪĴ": 5848,
      "é¦Ī": 5849,
      "itor": 5850,
      "æµģè¡Į": 5851,
      "æĵ¦": 5852,
      "ä»·åĢ¼è§Ĥ": 5853,
      "æ³Į": 5854,
      "lected": 5855,
      "æīĢéľĢ": 5856,
      "Ġfrequ": 5857,
      "Ġevidence": 5858,
      "æ°¸è¿ľ": 5859,
      "æĹłäºº": 5860,
      "æľįåĬ¡çļĦ": 5861,
      "å±Ī": 5862,
      "å©ļå§»": 5863,
      "æĽ¿ä»£": 5864,
      "èĤª": 5865,
      "Ġearly": 5866,
      "åŃ¦ä¹łçļĦ": 5867,
      "è¦ģæľī": 5868,
      "åŃ£åº¦": 5869,
      "54": 5870,
      "Ġhelp": 5871,
      "è´§çī©": 5872,
      "è®¿éĹ®": 5873,
      "æĥħèĬĤ": 5874,
      "æıĲç¤º": 5875,
      "çº¿çļĦ": 5876,
      "é£ŀæľº": 5877,
      "72": 5878,
      "cin": 5879,
      "ç»Łæ²»": 5880,
      "å¦ĩå¥³": 5881,
      "åı¯èĥ½æĺ¯": 5882,
      "é³": 5883,
      "å¨ģèĥģ": 5884,
      "Ġvit": 5885,
      "çĿ¡çľł": 5886,
      "iron": 5887,
      "åĩłå¹´": 5888,
      "Ġcond": 5889,
      "ator": 5890,
      "èĦĤèĤª": 5891,
      "Ġed": 5892,
      "Table": 5893,
      "ç»ıæµİç¤¾ä¼ļ": 5894,
      "ç§Ĵ": 5895,
      "æµĨ": 5896,
      "ç´§å¼ł": 5897,
      "è¢Ń": 5898,
      "Ġdiab": 5899,
      "åıĳçĹħ": 5900,
      "Ġdiagnosis": 5901,
      "åĲĮåŃ¦ä»¬": 5902,
      "èĤ©": 5903,
      "å±Ģéĥ¨": 5904,
      "Ġprimary": 5905,
      "çĪ·": 5906,
      "çĽĨ": 5907,
      "è¯´æ³ķ": 5908,
      "è¯ĪéªĹ": 5909,
      "Ġdifferences": 5910,
      "éĩįåºĨ": 5911,
      "Ġ50": 5912,
      "éģµå¾ª": 5913,
      "ä¹Łåı¯": 5914,
      "Ġpredict": 5915,
      "æ²Ī": 5916,
      "ä¼łæĦŁ": 5917,
      "Ġfib": 5918,
      "åįĬå¹´": 5919,
      "ET": 5920,
      "ĠĠĠĠĠĠĠĠĠĠ": 5921,
      "Ġinflamm": 5922,
      "åħļå§Ķ": 5923,
      "å¼¥": 5924,
      "ä¸²": 5925,
      "Ġsignal": 5926,
      "âĸ": 5927,
      "Ġcardi": 5928,
      "éĶħ": 5929,
      "Ġsamples": 5930,
      "73": 5931,
      "æ·Ģ": 5932,
      "çĵ·": 5933,
      "çĿĽ": 5934,
      "Ġparticipants": 5935,
      "æ°¯": 5936,
      "çļĦåİŁåĪĻ": 5937,
      "æī©å±ķ": 5938,
      "èĥľåĪ©": 5939,
      "Ġmajor": 5940,
      "æĴŀ": 5941,
      "åħ¨ä½ĵ": 5942,
      "æ¬º": 5943,
      "èī¾": 5944,
      "çļĦç®¡çĲĨ": 5945,
      "å·¨å¤§çļĦ": 5946,
      "å¤¹": 5947,
      "çĤ®": 5948,
      "MI": 5949,
      "çİ°éĩĳ": 5950,
      "èĤ¡ä»½": 5951,
      "çļĦç»ĵæŀľ": 5952,
      "acy": 5953,
      "ä¸ĢåĲį": 5954,
      "åıĳå°Ħ": 5955,
      "çĽ²": 5956,
      "æĳĩ": 5957,
      "51": 5958,
      "è¢ĭ": 5959,
      "ulated": 5960,
      "æľĢä½İ": 5961,
      "PC": 5962,
      "çļĦä¼ģä¸ļ": 5963,
      "kin": 5964,
      "æĦŁæĥħ": 5965,
      "yz": 5966,
      "æķħéļľ": 5967,
      "Ġpositive": 5968,
      "SD": 5969,
      "çļĦä¿¡æģ¯": 5970,
      "æįŁä¼¤": 5971,
      "vere": 5972,
      "æ¡Ĥ": 5973,
      "of": 5974,
      "86": 5975,
      "åĳ½è¿Ĳ": 5976,
      "Ġavail": 5977,
      "çĶµæµģ": 5978,
      "ä¼łéĢĴ": 5979,
      "é¸£": 5980,
      "yd": 5981,
      "ä¸ĺ": 5982,
      "Ġinit": 5983,
      "æµ¸": 5984,
      "åįģä¸ĥ": 5985,
      "Ġadv": 5986,
      "å¿į": 5987,
      "æł½": 5988,
      "è§£æŀĲ": 5989,
      "Ġ13": 5990,
      "æ¬ł": 5991,
      "è±ª": 5992,
      "ç¾½": 5993,
      "æĶ»åĿļ": 5994,
      "ç»ıæµİçļĦ": 5995,
      "å¿«ä¹Ĳ": 5996,
      "å¼ĺ": 5997,
      "æĸ¹çļĦ": 5998,
      "åıĺæĽ´": 5999,
      "åĪ¤åĨ³": 6000,
      "å¯Ĩåº¦": 6001,
      "åŃĺåľ¨çļĦ": 6002,
      "pat": 6003,
      "è¡Ģæ¶²": 6004,
      "ãĢĭãĢĬ": 6005,
      "çĽ´åĪ°": 6006,
      "è¿Ļå°±": 6007,
      "åİŁæĸĻ": 6008,
      "éŃĤ": 6009,
      "å·©åĽº": 6010,
      "ç®¡éģĵ": 6011,
      "çľĭæĿ¥": 6012,
      "äººä¸İ": 6013,
      "æ¶ĪåĮĸ": 6014,
      "alues": 6015,
      "âĢķ": 6016,
      "Ġthem": 6017,
      "ĠĠĠĠĠĠĠĠĠ": 6018,
      "ening": 6019,
      "Ġrecept": 6020,
      "æĸ¤": 6021,
      "å¤ĸåĽ½": 6022,
      "ward": 6023,
      "Ġä»İ": 6024,
      "Ġmal": 6025,
      "Ġ24": 6026,
      "ç¨ĭåº¦ä¸Ĭ": 6027,
      "ä¾ĿéĿł": 6028,
      "Ġcompar": 6029,
      "éĴĻ": 6030,
      "éĤĢ": 6031,
      "Ġgreat": 6032,
      "ĠRe": 6033,
      "è¸ı": 6034,
      "Ġdisord": 6035,
      "arm": 6036,
      "éĵ¸": 6037,
      "iot": 6038,
      "å¤§åĪ©": 6039,
      "åħĦ": 6040,
      "Ġcy": 6041,
      "æĶ¹éĿ©å¼ĢæĶ¾": 6042,
      "Ġrespectively": 6043,
      "ä»Ķ": 6044,
      "ä¸įç®¡": 6045,
      "éĴ»": 6046,
      "Ġproble": 6047,
      "èİ±": 6048,
      "ç¦»å©ļ": 6049,
      "Ġæľ¬": 6050,
      "ici": 6051,
      "ving": 6052,
      "Ġincluded": 6053,
      "å¤§èĦĳ": 6054,
      "èĩªä¿¡": 6055,
      "æ»ĭ": 6056,
      "äººæ°ĳç¾¤ä¼Ĺ": 6057,
      "åľ¨çº¿": 6058,
      "osed": 6059,
      "ences": 6060,
      "æĽ¼": 6061,
      "çº¦æĿŁ": 6062,
      "Ġhow": 6063,
      "âĨ": 6064,
      "åµ": 6065,
      "ç¦»å¼Ģ": 6066,
      "éĽ¾": 6067,
      "èĭ±éĽĦ": 6068,
      "ĠAll": 6069,
      "èĤ¢": 6070,
      "04": 6071,
      "fer": 6072,
      "èĬ¯çīĩ": 6073,
      "ults": 6074,
      "å·¥åİĤ": 6075,
      "åľ¨è¿Ļä¸ª": 6076,
      "åĩıè½»": 6077,
      "åĮĢ": 6078,
      "å¤§æ°Ķ": 6079,
      "æ±¡æ°´": 6080,
      "çļĦè¿ĩç¨ĭä¸Ń": 6081,
      "åĩ¤": 6082,
      "äºĶå¹´": 6083,
      "æĺ¯åĽłä¸º": 6084,
      "Ġstandard": 6085,
      "è§Ĩè§ī": 6086,
      "èĩªæ²»åĮº": 6087,
      "St": 6088,
      "æĺĨ": 6089,
      "Ġrele": 6090,
      "è¿ª": 6091,
      "çļĦç»ıæµİ": 6092,
      "å¾Īå¤§çļĦ": 6093,
      "æĴ°": 6094,
      "æľºåĻ¨äºº": 6095,
      "èĳ£äºĭ": 6096,
      "åħ¨å¸Ĥ": 6097,
      "uss": 6098,
      "å¸ĪçĶŁ": 6099,
      "é¢ĳçİĩ": 6100,
      "RI": 6101,
      "æ¯«ç±³": 6102,
      "æĬµæĬ¼": 6103,
      "ä»Ģä¹Īæĺ¯": 6104,
      "æľīåºı": 6105,
      "çļĦç²¾ç¥ŀ": 6106,
      "Ġpoint": 6107,
      "éĥ½èĥ½": 6108,
      "æĥĳ": 6109,
      "ç¥¥": 6110,
      "iple": 6111,
      "ä¸Ļ": 6112,
      "æĹ¶åĪ»": 6113,
      "çĤ¹çļĦ": 6114,
      "çĲĨæĢ§": 6115,
      "æīĭç»Ń": 6116,
      "æīĵåĩ»": 6117,
      "ä¸Ģä¸ªäºº": 6118,
      "æľīåĵªäºĽ": 6119,
      "æĪĺæĸĹ": 6120,
      "åĲĦèĩª": 6121,
      "åľ°éľĩ": 6122,
      "Ġcult": 6123,
      "Ġlo": 6124,
      "amet": 6125,
      "Î±": 6126,
      "æİĪæĿĥ": 6127,
      "ç¼´çº³": 6128,
      "ç»Ħç»ĩçļĦ": 6129,
      "å«Į": 6130,
      "å¤§äºİ": 6131,
      "èĲ¥éĢł": 6132,
      "åĬŀåŃ¦": 6133,
      "è´¢å¯Į": 6134,
      "åı¯ä»¥éĢļè¿ĩ": 6135,
      "çĶŁåĬ¨": 6136,
      "æ¸Ķ": 6137,
      "ä¸¾æİª": 6138,
      "æĻ®åıĬ": 6139,
      "Ġimprove": 6140,
      "èĥ½åĬĽçļĦ": 6141,
      "iel": 6142,
      "å¼ķè¿Ľ": 6143,
      "æĪĲæķĪ": 6144,
      "æĭĸ": 6145,
      "Ġgenes": 6146,
      "oper": 6147,
      "ocyt": 6148,
      "etes": 6149,
      "å¸¸è§ģçļĦ": 6150,
      "Ġtreated": 6151,
      "å½»åºķ": 6152,
      "æ··åĩĿ": 6153,
      "Ġbehavi": 6154,
      "ä¸ŃåĽ½äººæ°ĳ": 6155,
      "çľŁçļĦ": 6156,
      "æĪĲçļĦ": 6157,
      "Ġcontrib": 6158,
      "çĶµæºĲ": 6159,
      "æ¯ıæ¬¡": 6160,
      "ãĢĭãĢĤ": 6161,
      "éĤ£ä¸ª": 6162,
      "ning": 6163,
      "ouse": 6164,
      "çĽĳçĿ£ç®¡çĲĨ": 6165,
      "éļ¾é¢ĺ": 6166,
      "ä¿ĿçķĻ": 6167,
      "åĳ½ä»¤": 6168,
      "é¢ģ": 6169,
      "Ġsaid": 6170,
      "åĮºåĿĹ": 6171,
      "ä¾Ŀæīĺ": 6172,
      "ç¾İä¸½": 6173,
      "![](": 6174,
      "æŀ¶æŀĦ": 6175,
      "æħĪ": 6176,
      "åıĳåĩº": 6177,
      "round": 6178,
      "çĽ¸ä¼¼": 6179,
      "ç®ĢåįķçļĦ": 6180,
      "è£ķ": 6181,
      "ä¼łæŁĵ": 6182,
      "amin": 6183,
      "å¤©æ°Ķ": 6184,
      "Ġmedic": 6185,
      "èĶ¬èıľ": 6186,
      "æ®¿": 6187,
      "Ġpain": 6188,
      "æ¡Į": 6189,
      "MS": 6190,
      "ç®Ģä»ĭ": 6191,
      "èĢĮåľ¨": 6192,
      "å¼ķåħ¥": 6193,
      "ä¸¥éĩįçļĦ": 6194,
      "Ġlife": 6195,
      "è¥¿éĥ¨": 6196,
      "å½ĵä¸Ń": 6197,
      "äºĳåįĹ": 6198,
      "æĬ«": 6199,
      "çªģçĦ¶": 6200,
      "ä¸įå¥½": 6201,
      "Ġserv": 6202,
      "ĊĠĠ": 6203,
      "åĲ¹": 6204,
      "ä¸Ģè·¯": 6205,
      "æĸ°å¢ŀ": 6206,
      "é«ĺè´¨éĩıåıĳå±ķ": 6207,
      "ç£·": 6208,
      "ven": 6209,
      "éĩĳèŀįæľºæŀĦ": 6210,
      "è¿Ļç±»": 6211,
      "åĲĮæŃ¥": 6212,
      "ç¾İçļĦ": 6213,
      "åįıåĬ©": 6214,
      "çłĶç©¶éĻ¢": 6215,
      "å·¥åķĨ": 6216,
      "ä¸ĵé¢ĺ": 6217,
      "å¿ħè¦ģçļĦ": 6218,
      "uch": 6219,
      "ç¼ĵè§£": 6220,
      "ç©´": 6221,
      "çļĦçĽ®çļĦ": 6222,
      "è¾ĥä½İ": 6223,
      "æħ¢æĢ§": 6224,
      "èĽĭçĻ½è´¨": 6225,
      "Ġidentified": 6226,
      "Ġopt": 6227,
      "æľ¬äºº": 6228,
      "ä¸īå¤§": 6229,
      "Ġneg": 6230,
      "ste": 6231,
      "çĽĹ": 6232,
      "å®ĥæĺ¯": 6233,
      "ä¹¦æ³ķ": 6234,
      "æ³ķäºº": 6235,
      "èĤĮèĤī": 6236,
      "åĩºçĶŁ": 6237,
      "åĿļåĨ³": 6238,
      "åħ¬åĽŃ": 6239,
      "éªĳ": 6240,
      "æµģåŁŁ": 6241,
      "åŁºç¡Ģä¸Ĭ": 6242,
      "://": 6243,
      "ections": 6244,
      "çŃĽ": 6245,
      "åĲİæŀľ": 6246,
      "å®ŀè·µä¸Ń": 6247,
      "63": 6248,
      "æŃ¤æ¬¡": 6249,
      "ç»ĨèıĮ": 6250,
      "2008": 6251,
      "Ġdesign": 6252,
      "çļĦé£İéĻ©": 6253,
      "Ġcle": 6254,
      "æµ·å¤ĸ": 6255,
      "å¤§çº¦": 6256,
      "æķıæĦŁ": 6257,
      "Ġflu": 6258,
      "Ġvol": 6259,
      "æĸ°æĬĢæľ¯": 6260,
      "å¿ĥçļĦ": 6261,
      "åİŁå§ĭ": 6262,
      "ision": 6263,
      "2011": 6264,
      "action": 6265,
      "çļĦä½¿çĶ¨": 6266,
      "è¿ĳæĹ¥": 6267,
      "éļ¾åº¦": 6268,
      "çĶµåİĭ": 6269,
      "æ¬¢è¿İ": 6270,
      "Ġconditions": 6271,
      "çī©ä¸ļ": 6272,
      "çĥ¯": 6273,
      "è¯ŀ": 6274,
      "å¾Īå¿«": 6275,
      "æ´»åĬĽ": 6276,
      "è§Ĩä¸º": 6277,
      "å¾ģæĶ¶": 6278,
      "èģļçĦ¦": 6279,
      "æĪªèĩ³": 6280,
      "å®ŀçĶ¨": 6281,
      "å¾ĹåĪ°äºĨ": 6282,
      "æĺİçļĦ": 6283,
      "ä¸»æĮģ": 6284,
      "çģ¾å®³": 6285,
      "æīįæĺ¯": 6286,
      "å¸¸è§Ħ": 6287,
      "Ġbeing": 6288,
      "é¬": 6289,
      "å¹»": 6290,
      "èŀįåħ¥": 6291,
      "å¤§éĻĨ": 6292,
      "å¼Ħ": 6293,
      "çĸ²": 6294,
      "æ»¡æĦı": 6295,
      "çŁŃæľŁ": 6296,
      "ocial": 6297,
      "åĽŀæĶ¶": 6298,
      "ç§ĳæĬĢåĪĽæĸ°": 6299,
      "å¿ĥèĦı": 6300,
      "Ġneur": 6301,
      "Ġsurgery": 6302,
      "å¤©æ´¥": 6303,
      "ĠEx": 6304,
      "row": 6305,
      "èĬ½": 6306,
      "æĥ³æ³ķ": 6307,
      "æĢª": 6308,
      "åľ°éĿ¢": 6309,
      "å¼ıçļĦ": 6310,
      "æĲ¬": 6311,
      "æŀ¢": 6312,
      "æ²³åĮĹ": 6313,
      ":âĢľ": 6314,
      "Ġpract": 6315,
      "osph": 6316,
      "Ġsequ": 6317,
      "æ¹ĸåįĹ": 6318,
      "èĤºçĤİ": 6319,
      "åħ±æľī": 6320,
      "èĲ¥ä¸ļ": 6321,
      "set": 6322,
      "åĲįä¸º": 6323,
      "éĢĤçĶ¨äºİ": 6324,
      "âĶĢâĶĢ": 6325,
      "æĿŃ": 6326,
      "Ġday": 6327,
      "æĽ´å¥½çļĦ": 6328,
      "refore": 6329,
      "çļĦå½¢å¼ı": 6330,
      "ç´§å¯Ĩ": 6331,
      "å¥Ķ": 6332,
      "aw": 6333,
      "ä¸įçĶ¨": 6334,
      "ç»´çĶŁç´ł": 6335,
      "74": 6336,
      "ç´łåħ»": 6337,
      "åıĳçĶŁçļĦ": 6338,
      "oy": 6339,
      "èķ´": 6340,
      "åĻª": 6341,
      "olic": 6342,
      "ä¹Łè®¸": 6343,
      "åł¡": 6344,
      "çĶŁèĤ²": 6345,
      "ually": 6346,
      "ä¸¤å¹´": 6347,
      "åĨľäº§åĵģ": 6348,
      "æĮĸæİĺ": 6349,
      "ingle": 6350,
      "æīĢè¿°": 6351,
      "éĻĦè¿ĳ": 6352,
      "æĹłè®ºæĺ¯": 6353,
      "Ġmus": 6354,
      "AB": 6355,
      "cm": 6356,
      "åħ¬åĬ¡": 6357,
      "åİĭç¼©": 6358,
      "æĿ¡ä»¶ä¸ĭ": 6359,
      "å¾®ä¿¡": 6360,
      "æ¶Īæ¯Ĵ": 6361,
      "Ġwhether": 6362,
      "æĪĸæĺ¯": 6363,
      "æĿ¡æ¬¾": 6364,
      "äºĴçĽ¸": 6365,
      "çļĦå¥½": 6366,
      "éģĵçĲĨ": 6367,
      "Ġdec": 6368,
      "ä¼Ĺå¤ļ": 6369,
      "ä¸īç§į": 6370,
      "ĠHIV": 6371,
      "çľ¼çĿĽ": 6372,
      "åĲĪéĢĤ": 6373,
      "ä¹¦éĿ¢": 6374,
      "å¿Į": 6375,
      "å½ĵå¹´": 6376,
      "htt": 6377,
      "çıŃçº§": 6378,
      "çļĦéľĢæ±Ĥ": 6379,
      "äººæĸĩ": 6380,
      "ç¬¬ä¸ĥ": 6381,
      "èĪ°": 6382,
      "Ġfactor": 6383,
      "bl": 6384,
      "å¦¥": 6385,
      "æĥľ": 6386,
      "è¿ĺä¼ļ": 6387,
      "æĸ°åħ´": 6388,
      "2023": 6389,
      "åģļäºĨ": 6390,
      "æ¯ĶèµĽ": 6391,
      "å¤§ä¼Ĺ": 6392,
      "ä»£è°¢": 6393,
      "ä¹ĭå¤Ħ": 6394,
      "ç½©": 6395,
      "å¯¹è¯Ŀ": 6396,
      "æĶ¾å¼ĥ": 6397,
      "éĢłæĪĲçļĦ": 6398,
      "Ġ--": 6399,
      "minist": 6400,
      "ĠĠĠĠĠĠĠĠĠĠĠ": 6401,
      "å¹²æī°": 6402,
      "æĹ¥æľŁ": 6403,
      "è¡Įä¸ºçļĦ": 6404,
      "çĻ¾åĪĨçĤ¹": 6405,
      "±ä¹Ĳ": 6406,
      "éĩĮéĿ¢": 6407,
      "Ġpressure": 6408,
      "å¸ĪèĮĥ": 6409,
      "çĸ¼çĹĽ": 6410,
      "å±ķçİ°": 6411,
      "){#": 6412,
      "å¹¿å·ŀ": 6413,
      "ä¸Ģå¤©": 6414,
      "å½¢æĪĲçļĦ": 6415,
      "äºĭå®ŀä¸Ĭ": 6416,
      "æľīåĬĽ": 6417,
      "å±ŀæĢ§": 6418,
      "inu": 6419,
      "å¸¦é¢Ĩ": 6420,
      "ng": 6421,
      "å·²æľī": 6422,
      "+^": 6423,
      "ç¡ħ": 6424,
      "istics": 6425,
      "æľºçļĦ": 6426,
      "åıįæĢĿ": 6427,
      "æ°ĽåĽ´": 6428,
      "Ġagain": 6429,
      "éĥİ": 6430,
      "æ··åĩĿåľŁ": 6431,
      "åįłæ¯Ķ": 6432,
      "è®¤åı¯": 6433,
      "åĬŁçİĩ": 6434,
      "è·¯çº¿": 6435,
      "\\'": 6436,
      "å®¶æĹı": 6437,
      "åĽŀåĪ°": 6438,
      "åĨįçĶŁ": 6439,
      "å¾ħéģĩ": 6440,
      "çļĦçĽ®æłĩ": 6441,
      "ner": 6442,
      "ç»´ä¿®": 6443,
      "Ġchem": 6444,
      "æİ¥æĶ¶": 6445,
      "å±±è¥¿": 6446,
      "åľ°è´¨": 6447,
      "ç»ıæµİåŃ¦": 6448,
      "ç®Ń": 6449,
      "å§Ĩ": 6450,
      "ä¾ĭåŃĲ": 6451,
      "çķĻä¸ĭ": 6452,
      "Ġmemb": 6453,
      "éģ¥": 6454,
      "ç°": 6455,
      "äººåĴĮ": 6456,
      "å·®è·Ŀ": 6457,
      "å®ŀè´¨": 6458,
      "æī¿è¯º": 6459,
      "é«ĺæ¸©": 6460,
      "æįĲ": 6461,
      "ä½©": 6462,
      "æĪĳä»¬åľ¨": 6463,
      "åĢŁæ¬¾": 6464,
      "Ġä¸Ń": 6465,
      "è§£è¯»": 6466,
      "ä¸įåĬ¨": 6467,
      "åıĸå¾ĹäºĨ": 6468,
      "å®ŀæĹ¶": 6469,
      "Ġneuro": 6470,
      "ä¸ºæŃ¤": 6471,
      "è§£åĨ³æĸ¹æ¡Ī": 6472,
      "ä¸Ģé¡¹": 6473,
      "Ġproced": 6474,
      "åıĳæĶ¾": 6475,
      "åŁĭ": 6476,
      "äºĭçī©": 6477,
      "ç¡¬ä»¶": 6478,
      "æĿ¡è§Ħå®ļ": 6479,
      "ç§įåŃĲ": 6480,
      "Ġexperi": 6481,
      "ument": 6482,
      "Ġgrowth": 6483,
      "åīĳ": 6484,
      "ä¸Ģå®¶": 6485,
      "é¡ºåºı": 6486,
      "ams": 6487,
      "åħ³èģĶ": 6488,
      "ä¹¡éķĩ": 6489,
      "ission": 6490,
      "Ġcommun": 6491,
      "Ġestim": 6492,
      "åĨħåľ¨": 6493,
      "61": 6494,
      "Ġrepresent": 6495,
      "ier": 6496,
      "ina": 6497,
      "verage": 6498,
      "äºĭä¸ļåįķä½į": 6499,
      "Ġmg": 6500,
      "éĤ£æł·": 6501,
      "çĩĥæĸĻ": 6502,
      "æİ¨åĩº": 6503,
      "å¤§è§Ħæ¨¡": 6504,
      "åĳ¨è¾¹": 6505,
      "åĽŃåĮº": 6506,
      "çļĦçİ¯å¢ĥ": 6507,
      "ä¸ªçĻ¾åĪĨçĤ¹": 6508,
      "åı¯æĺ¯": 6509,
      "æ·ĭ": 6510,
      "èµ·åĪ°": 6511,
      "çºªå¾ĭ": 6512,
      "Ġacid": 6513,
      "Ġquest": 6514,
      "Al": 6515,
      "å·¥ä¼¤": 6516,
      "æ£ī": 6517,
      "ĠNo": 6518,
      "iat": 6519,
      "çĮ«": 6520,
      "æĽ´é«ĺ": 6521,
      "ä»ĸåľ¨": 6522,
      "æ³¢åĬ¨": 6523,
      "æĪĳä»¬åı¯ä»¥": 6524,
      "Ġrelated": 6525,
      "çļĦæĢĿæĥ³": 6526,
      "å¤§å¤ļ": 6527,
      "ä¿¡ä»»": 6528,
      "åİĨåı²ä¸Ĭ": 6529,
      "enter": 6530,
      "åĪ¶åĵģ": 6531,
      "åŃĶåŃĲ": 6532,
      "èģĬ": 6533,
      "çĶ¨æ°´": 6534,
      "é»İ": 6535,
      "æ°ĳä¼Ĺ": 6536,
      "èĲ½åľ°": 6537,
      "Ġavailable": 6538,
      "Ġlung": 6539,
      "éĩĩéĽĨ": 6540,
      "ield": 6541,
      "ither": 6542,
      "ives": 6543,
      "Ġsit": 6544,
      "na": 6545,
      "æ¶ĪèĢĹ": 6546,
      "æ°®": 6547,
      "æľºéģĩ": 6548,
      "çļĦæķĻåŃ¦": 6549,
      "Ġline": 6550,
      "ä¿®è®¢": 6551,
      "ä¹ĭä¸ĭ": 6552,
      "æľªæĿ¥çļĦ": 6553,
      "èĬĤçĤ¹": 6554,
      "åıįé¦Ī": 6555,
      "åı¦ä¸Ģä¸ª": 6556,
      "èĭıèģĶ": 6557,
      "çķľ": 6558,
      "åĦ¿åŃĲ": 6559,
      "å®¡çĲĨ": 6560,
      "ä»ħä»ħ": 6561,
      "Ġdeath": 6562,
      "ç§ĳçĽ®": 6563,
      "*,": 6564,
      "\\[": 6565,
      "éĨī": 6566,
      "Ġstruct": 6567,
      "ä¸Ģçº§": 6568,
      "Ġabs": 6569,
      "æĿĥå¨ģ": 6570,
      "è¿ĩåº¦": 6571,
      "äººåĳĺçļĦ": 6572,
      "èµ´": 6573,
      "èĦĬ": 6574,
      "ç¼ºéĻ·": 6575,
      "Ġprovide": 6576,
      "89": 6577,
      "abor": 6578,
      "å°±æľī": 6579,
      "iated": 6580,
      "èĦ¾": 6581,
      "ç»ĨèĬĤ": 6582,
      "èľĤ": 6583,
      "'t": 6584,
      "æľĢæĹ©": 6585,
      "å°ļæľª": 6586,
      "Ġcir": 6587,
      "ä¸Ģæĸ¹": 6588,
      "Ġpossible": 6589,
      "Ġelect": 6590,
      "ĠTo": 6591,
      "Ġvalues": 6592,
      "é¡¹çĽ®çļĦ": 6593,
      "å¯¿åĳ½": 6594,
      "åı¯ä»¥è¯´": 6595,
      "read": 6596,
      "ä¸ºä¾ĭ": 6597,
      "é¢ĩ": 6598,
      "çľŁæŃ£çļĦ": 6599,
      "Sec": 6600,
      "æ°ĳèĲ¥": 6601,
      "å®ŀåĬĽ": 6602,
      "èĢģå¹´": 6603,
      "çĶŁçĲĨ": 6604,
      "å¹´åºķ": 6605,
      "con": 6606,
      "åįģä¸Ģ": 6607,
      "Ch": 6608,
      "ĠåĽĽ": 6609,
      "uted": 6610,
      "Ġå¯¹": 6611,
      "æ´»æĢ§": 6612,
      "å°±ä¸į": 6613,
      "Ġmm": 6614,
      "ç«ŀäºīåĬĽ": 6615,
      "06": 6616,
      "ä¸ĩåĲ¨": 6617,
      "åħ³ç³»çļĦ": 6618,
      "èģĶçĽŁ": 6619,
      "è¡į": 6620,
      "æŃ¦æ±ī": 6621,
      "iving": 6622,
      "ä¸ľåįĹ": 6623,
      "Ġintra": 6624,
      "çķª": 6625,
      "Ġhospital": 6626,
      "åĮºåĿĹéĵ¾": 6627,
      "ãĢĭï¼Ī": 6628,
      "ains": 6629,
      "Ġdescribed": 6630,
      "å¾Ĺä»¥": 6631,
      "Ġvery": 6632,
      "å¹³æĹ¶": 6633,
      "ST": 6634,
      "ä¸įäºĨ": 6635,
      "å»¶ä¼¸": 6636,
      "åĪĨæ³Į": 6637,
      "è¾ħå¯¼": 6638,
      "åĩĮ": 6639,
      "æĸĩèīº": 6640,
      "Ġanalyz": 6641,
      "å¥ĸåĬ±": 6642,
      "å·¥äºº": 6643,
      "ä¸»å¯¼": 6644,
      "Ġmight": 6645,
      "è¡Ĺéģĵ": 6646,
      "work": 6647,
      "æľĢä¸º": 6648,
      "çļĦä¸ľè¥¿": 6649,
      "ä¸Ģä½ĵåĮĸ": 6650,
      "éģĹä¼ł": 6651,
      "ĠÎ¼": 6652,
      "ä½¿åħ¶": 6653,
      "ç¦ıå»º": 6654,
      "ymph": 6655,
      "çļĦä¸Ń": 6656,
      "æ³ķå¾ĭæ³ķè§Ħ": 6657,
      "Ġbenef": 6658,
      "ts": 6659,
      "éĹª": 6660,
      "Ġconduct": 6661,
      "æ¶Į": 6662,
      "èĨ¨": 6663,
      "èĬĤçº¦": 6664,
      "ince": 6665,
      "IC": 6666,
      "Ġcost": 6667,
      "è®²è§£": 6668,
      "åĪĴåĪĨ": 6669,
      "por": 6670,
      "çļĦåºĶçĶ¨": 6671,
      "åŃ¦åİĨ": 6672,
      "åĢ¾åĲĳ": 6673,
      "éĥ¨çļĦ": 6674,
      "æĺ¾çĦ¶": 6675,
      "Ġmat": 6676,
      "æľįåĬ¡åĻ¨": 6677,
      "å®£å¸ĥ": 6678,
      "Ġrest": 6679,
      "Ġconsidered": 6680,
      "ised": 6681,
      "èĪŁ": 6682,
      "2009": 6683,
      "å¢ŀåĬłäºĨ": 6684,
      "æĸ°çĸĨ": 6685,
      "èĬ³": 6686,
      "åĭĥ": 6687,
      "çĻ½èī²": 6688,
      "lob": 6689,
      "RP": 6690,
      "Ġterm": 6691,
      "ä¸ĬäºĨ": 6692,
      "æĮ¤": 6693,
      "ask": 6694,
      "ibility": 6695,
      "éĥ½åı¯ä»¥": 6696,
      "æ¦ľ": 6697,
      "çģ«çģ¾": 6698,
      "ä½ıå®ħ": 6699,
      "Ġgo": 6700,
      "cher": 6701,
      "ocument": 6702,
      "Ġinterest": 6703,
      "çļĦçĥŃ": 6704,
      "åĲĪå¹¶": 6705,
      "é£ŀè¡Į": 6706,
      "ä¼ĺçĤ¹": 6707,
      "ED": 6708,
      "æīĢå¾Ĺç¨İ": 6709,
      "è¯ļä¿¡": 6710,
      "åŃĺæ¬¾": 6711,
      "åĭŁ": 6712,
      "æĬĽ": 6713,
      "çĽĳå¯Ł": 6714,
      "upplement": 6715,
      "åĲ¾": 6716,
      "comes": 6717,
      "Ġparticular": 6718,
      "ä¿Ŀåģ¥": 6719,
      "éĶ¦": 6720,
      "ä¾¿åĪ©": 6721,
      "åĲĮæ¯Ķå¢ŀéķ¿": 6722,
      "Ġobtained": 6723,
      "åĵªéĩĮ": 6724,
      "è°ĥæİ§": 6725,
      "Ġ'": 6726,
      "Ġorgan": 6727,
      "æ°´çļĦ": 6728,
      "å¸Ĥæ°ĳ": 6729,
      "éĽ¶åĶ®": 6730,
      "ä¹Łæ²¡æľī": 6731,
      "æĢ»éĩı": 6732,
      "éĢĢä¼ĳ": 6733,
      "æłĩåĩĨåĮĸ": 6734,
      "ãĢĤ\"": 6735,
      "æĸĩæľ¬": 6736,
      "æĢĴ": 6737,
      "ä¸ĬéĿ¢": 6738,
      "èģĶåĲĪåĽ½": 6739,
      "æĹ±": 6740,
      "åłµ": 6741,
      "ä¼łæĦŁåĻ¨": 6742,
      "ç³ĸå°¿": 6743,
      "çŁ£": 6744,
      "æ¡ĳ": 6745,
      "çĶ¨éĢĶ": 6746,
      "stand": 6747,
      "çĸ«æĥħéĺ²æİ§": 6748,
      "duc": 6749,
      "æµģéĢļ": 6750,
      "æŁ¥è¯¢": 6751,
      "åį°åıĳ": 6752,
      "clud": 6753,
      "ĠãĢģ": 6754,
      "inf": 6755,
      "ç³Ĭ": 6756,
      "çĶ¨çĶµ": 6757,
      "Ġbel": 6758,
      "çļĦåĽ½å®¶": 6759,
      "Ġsingle": 6760,
      "%;": 6761,
      "Ġgu": 6762,
      "Ġlikely": 6763,
      "ä¸ĭåİ»": 6764,
      "ä¹Łèĥ½": 6765,
      "pr": 6766,
      "ç¥Ŀ": 6767,
      "æĻ¨": 6768,
      "based": 6769,
      "ars": 6770,
      "earch": 6771,
      "ĠDNA": 6772,
      "è¾¹ç¼ĺ": 6773,
      "åĲĪçĲĨçļĦ": 6774,
      "ull": 6775,
      "ĠPh": 6776,
      "è¿Ĳä½ľ": 6777,
      "Ġdifference": 6778,
      "Ġpublic": 6779,
      "æ£Ģå¯ŁéĻ¢": 6780,
      "èĪĨ": 6781,
      "åħįè´¹": 6782,
      "çī©ä½ĵ": 6783,
      "ç¬ĶèĢħ": 6784,
      "Ġsurvival": 6785,
      "Ġ25": 6786,
      "chool": 6787,
      "æ¹ĸåĮĹ": 6788,
      "07": 6789,
      "Ġvi": 6790,
      "agement": 6791,
      "åĮ»å¸Ī": 6792,
      "term": 6793,
      "çŃīéĹ®é¢ĺ": 6794,
      "é»Ħæ²³": 6795,
      "ç¾İå¥½": 6796,
      "å²ģçļĦ": 6797,
      "åįĵ": 6798,
      "Ġmole": 6799,
      "96": 6800,
      "äº§ä¸ļåıĳå±ķ": 6801,
      "å¾Īå¤ļäºº": 6802,
      "å¥ł": 6803,
      "èĳ¬": 6804,
      "è¢«ç§°ä¸º": 6805,
      "Ġhem": 6806,
      "æĸ¹éĴĪ": 6807,
      "å¤«å¦»": 6808,
      "ä¸įä½Ĩ": 6809,
      "æł¸ç®Ĺ": 6810,
      "ç¼ĸåĨĻ": 6811,
      "åīįåĲİ": 6812,
      "æ¤İ": 6813,
      "åĬłå¼ºå¯¹": 6814,
      "Cl": 6815,
      "æķ´æ²»": 6816,
      "sequ": 6817,
      "AM": 6818,
      "ĠX": 6819,
      "å¾Īå°ĳ": 6820,
      "éķ¿æĹ¶éĹ´": 6821,
      "xx": 6822,
      "æŁ´": 6823,
      "é»Ħéĩĳ": 6824,
      "èĥ½åĲ¦": 6825,
      "Ġlit": 6826,
      "çĨĬ": 6827,
      "è¿ĩçļĦ": 6828,
      "ä¸įçŁ¥éģĵ": 6829,
      "æĦıå¿Ĺ": 6830,
      "çİĦ": 6831,
      "ç¿¼": 6832,
      "åħ½": 6833,
      "å¹²çĩ¥": 6834,
      "éļĶç¦»": 6835,
      "Ġimmune": 6836,
      "å°ºå¯¸": 6837,
      "æĲľç´¢": 6838,
      "400": 6839,
      "herapy": 6840,
      "ç½ļæ¬¾": 6841,
      "äº¤å¾Ģ": 6842,
      "Ġknown": 6843,
      "çļĦçĽ¸åħ³": 6844,
      "åĩ¸": 6845,
      "Ġinflu": 6846,
      "æĸ¹ä½į": 6847,
      "Ġchronic": 6848,
      "ä¼ļä¸Ĭ": 6849,
      "Ġcap": 6850,
      "ä¸įåıĺ": 6851,
      "Ġaccording": 6852,
      "Ġeven": 6853,
      "å»¶éķ¿": 6854,
      "æĨ": 6855,
      "é¢ĺçĽ®": 6856,
      "Ġreduced": 6857,
      "çĪ±åĽ½": 6858,
      "äºı": 6859,
      "è¥¿åįĹ": 6860,
      "éķ¿åº¦": 6861,
      "ä»¥æŃ¤": 6862,
      "åİŁæĿ¥": 6863,
      "Ġsol": 6864,
      "èĥ½åĬĽåĴĮ": 6865,
      "Ġauthors": 6866,
      "å¯¹å¾ħ": 6867,
      "å¹¿æĴŃ": 6868,
      "çłĶç©¶çļĦ": 6869,
      "Ġä¸º": 6870,
      "èİ²": 6871,
      "aking": 6872,
      "äºŃ": 6873,
      "arent": 6874,
      "èĩªèº«çļĦ": 6875,
      "éģĤ": 6876,
      "éģĹåĿĢ": 6877,
      "Ġright": 6878,
      "plant": 6879,
      "æľªæĪĲå¹´äºº": 6880,
      "åģļçļĦ": 6881,
      "Ġdiseases": 6882,
      "èµ«": 6883,
      "ä½ľæĸĩ": 6884,
      "ä¸´æĹ¶": 6885,
      "å¹³æĸ¹ç±³": 6886,
      "å®īå¾½": 6887,
      "å®¹éĩı": 6888,
      "OR": 6889,
      "çĶľ": 6890,
      "åįķä¸Ģ": 6891,
      "çĭĤ": 6892,
      "Ġpsych": 6893,
      "ension": 6894,
      "çĪĨåıĳ": 6895,
      "ä¸Ľ": 6896,
      "è¡¨æ¼Ķ": 6897,
      "Ġweight": 6898,
      "è½¨éģĵ": 6899,
      "EC": 6900,
      "NF": 6901,
      "åĤ¨å¤ĩ": 6902,
      "isms": 6903,
      "ç³ĸå°¿çĹħ": 6904,
      "Ġele": 6905,
      "åįķçĭ¬": 6906,
      "Ġappe": 6907,
      "æ¶Īå¤±": 6908,
      "çħ§çīĩ": 6909,
      "å¼ķçĶ¨": 6910,
      "åĪ¶çļĦ": 6911,
      "éĻª": 6912,
      "çĩĥçĥ§": 6913,
      "çĽ¸åıį": 6914,
      "Ġlarge": 6915,
      "Ġfac": 6916,
      "åĿĩè¡¡": 6917,
      "ä½ľå®¶": 6918,
      "åıĳåĬ¨æľº": 6919,
      "çº¿è·¯": 6920,
      "ä¹Łå°±æĺ¯è¯´": 6921,
      "Ġcause": 6922,
      "çŃīæĸ¹å¼ı": 6923,
      "éĢļçĶ¨": 6924,
      "èº«ä¸Ĭ": 6925,
      "Ġprol": 6926,
      "vers": 6927,
      "Ġwor": 6928,
      "æľįåĬ¡ä¸ļ": 6929,
      "ention": 6930,
      "å¼ķèµ·çļĦ": 6931,
      "plications": 6932,
      "å½¢çĬ¶": 6933,
      "çĭŃ": 6934,
      "ä»¥ä¾¿": 6935,
      "els": 6936,
      "ç¡®ç«ĭ": 6937,
      "æ»ļ": 6938,
      "bb": 6939,
      "ä¾ĽåºĶéĵ¾": 6940,
      "éĻķè¥¿": 6941,
      "çĮĽ": 6942,
      "Ġactivation": 6943,
      "çľĭåĩº": 6944,
      "ä½ľçī©": 6945,
      "Ġinst": 6946,
      "æıĲé«ĺäºĨ": 6947,
      "Ġsample": 6948,
      "çļĦä¸ŃåĽ½": 6949,
      "æĬĵä½ı": 6950,
      "è¿Ŀçº¦": 6951,
      "()": 6952,
      "åıĹçĲĨ": 6953,
      "ä¸įåľ¨": 6954,
      "çľĭçľĭ": 6955,
      "åĽ¢ä½ĵ": 6956,
      "Ġsubjects": 6957,
      "çļĦè®¾è®¡": 6958,
      "åĬ©åĬĽ": 6959,
      "åĺ´": 6960,
      "pp": 6961,
      "çĭĹ": 6962,
      "è®²è¯Ŀ": 6963,
      "viron": 6964,
      "åĴ³": 6965,
      "å¹³éĿ¢": 6966,
      "å¾®çĶŁçī©": 6967,
      "åŃ¦æľŁ": 6968,
      "æĺ¯ä¸ª": 6969,
      "è¥¿åĮĹ": 6970,
      "éĢļè®¯": 6971,
      "è½½ä½ĵ": 6972,
      "Ġdiabetes": 6973,
      "87": 6974,
      "åĪĨæķ£": 6975,
      "ä¸įéľĢè¦ģ": 6976,
      "Ġvirus": 6977,
      "âħ": 6978,
      "å¹½": 6979,
      "åĽ¾å½¢": 6980,
      "åıĸæ¶Ī": 6981,
      "åĸĦäºİ": 6982,
      "AL": 6983,
      "åĪ°è¾¾": 6984,
      "ĠåĴĮ": 6985,
      "ç»Īäºİ": 6986,
      "TP": 6987,
      "çļĦæ¦Ĥå¿µ": 6988,
      "é£ŁçĶ¨": 6989,
      "è¿ĻæĹ¶": 6990,
      "éĥ¡": 6991,
      "ä¸ĵçĶ¨": 6992,
      "ä¼ĺæĥł": 6993,
      "ious": 6994,
      "æİ¨è¡Į": 6995,
      "ĠãĢĲ": 6996,
      "èģĮä¸ļæķĻèĤ²": 6997,
      "å½°": 6998,
      "Ġbone": 6999,
      "æĶ¶è´¹": 7000,
      "æ½ľåľ¨": 7001,
      "è¡Įä½¿": 7002,
      "åĮĸå·¥": 7003,
      "æ´»åĬ¨ä¸Ń": 7004,
      "Ġmeasured": 7005,
      "Ġoff": 7006,
      "è®©åŃ©åŃĲ": 7007,
      "å¥´": 7008,
      "Ġallow": 7009,
      "è¯Ħè®º": 7010,
      "è¿ĺèĥ½": 7011,
      "åľ°çĤ¹": 7012,
      "æİĴéĻ¤": 7013,
      "åĲĬ": 7014,
      "Ġtrain": 7015,
      "è¾Ł": 7016,
      "æ¯Ľæ³½": 7017,
      "æľºåĬ¨è½¦": 7018,
      "æıĲä¾ĽçļĦ": 7019,
      "æ¸ĹéĢı": 7020,
      "æĶ¶åĪ°": 7021,
      "Ġ17": 7022,
      "çĻĮçĹĩ": 7023,
      "è¿Ļä¹Łæĺ¯": 7024,
      "åįıä½ľ": 7025,
      "çļĦæł¸å¿ĥ": 7026,
      "æĵħ": 7027,
      "æľĢä½³": 7028,
      "ĠCl": 7029,
      "èĩªåĬ¨åĮĸ": 7030,
      "æ¯Ľæ³½ä¸ľ": 7031,
      "èħĬ": 7032,
      "è¾¾æĪĲ": 7033,
      "åĲĪçī©": 7034,
      "ä½İç¢³": 7035,
      "åĴĮåĽ½å®¶": 7036,
      "to": 7037,
      "çļĦåħ·ä½ĵ": 7038,
      "èµ·è¯ī": 7039,
      "éĥ¨ä»¶": 7040,
      "æĢ§æł¼": 7041,
      "å±ĢéĿ¢": 7042,
      "æĺİæĺ¾çļĦ": 7043,
      "meric": 7044,
      "åĲįçļĦ": 7045,
      "éļıæĹ¶": 7046,
      "Ġpromot": 7047,
      "åĪĨæķ°": 7048,
      "è¿Ļä¸ĢçĤ¹": 7049,
      "anced": 7050,
      "åħ»æĪĲ": 7051,
      "Ġill": 7052,
      "Ġpresence": 7053,
      "çĥĤ": 7054,
      "Ġfail": 7055,
      "ç¤¾äº¤": 7056,
      "erence": 7057,
      "æĢ»ç»Ł": 7058,
      "yn": 7059,
      "æŃ§": 7060,
      "æº¶æ¶²": 7061,
      "ĊãĢĢ": 7062,
      "ä¸įåı¯èĥ½": 7063,
      "Ġke": 7064,
      "æľīæĿĥ": 7065,
      "è®ºåĿĽ": 7066,
      "åº·å¤į": 7067,
      "PD": 7068,
      "åģĩè®¾": 7069,
      "åı¯èĥ½æĢ§": 7070,
      "ä¸įå¦Ĥ": 7071,
      "Ġreve": 7072,
      "Ġpattern": 7073,
      "AN": 7074,
      "Ġstress": 7075,
      "éľ¸": 7076,
      "come": 7077,
      "åĿĬ": 7078,
      "oles": 7079,
      "ç«Ļåľ¨": 7080,
      "line": 7081,
      "ĠThere": 7082,
      "Ġseveral": 7083,
      "æģĭ": 7084,
      "Ġlymph": 7085,
      "æī©å¼ł": 7086,
      "æĿĤå¿Ĺ": 7087,
      "åĮºåĪĨ": 7088,
      "æıĲåĩºçļĦ": 7089,
      "fn": 7090,
      "è¡ĮæĶ¿éĥ¨éĹ¨": 7091,
      "æ¸ħåįķ": 7092,
      "Ġchange": 7093,
      "å¤ĸäº¤": 7094,
      "æİ¥åı£": 7095,
      "ï¼į": 7096,
      "æĿ¥åĪ°": 7097,
      "abl": 7098,
      "çļĦæĸĩåĮĸ": 7099,
      "æĿ¥äºĨ": 7100,
      "éļĲæĤ£": 7101,
      "ured": 7102,
      "ä¼ļåľ¨": 7103,
      "èĪĮ": 7104,
      "ĠZ": 7105,
      "roup": 7106,
      "æ¢³": 7107,
      "çļĦåıĳçĶŁ": 7108,
      "éĤĵ": 7109,
      "Ġinclude": 7110,
      "æ°´åĪ©": 7111,
      "èº«è¾¹": 7112,
      "EM": 7113,
      "ä¹ĭæīĢä»¥": 7114,
      "åĪł": 7115,
      "éĩıåŃĲ": 7116,
      "ĠAD": 7117,
      "æıĲåıĸ": 7118,
      "97": 7119,
      "åİŁåŃĲ": 7120,
      "ä¸ĸçķĮçļĦ": 7121,
      "84": 7122,
      "ä¸įå¼Ģ": 7123,
      "éĶ¡": 7124,
      "é¢Ĺç²Ĵ": 7125,
      "Ġvalue": 7126,
      "æĬ¥åĲį": 7127,
      "ä¸Ģéĥ¨åĪĨ": 7128,
      "andom": 7129,
      "å©´åĦ¿": 7130,
      "ä¸ºåŁºç¡Ģ": 7131,
      "Ġloss": 7132,
      "æķ¦": 7133,
      "Ġstatist": 7134,
      "Ġsize": 7135,
      "Ġdon": 7136,
      "åĵįåºĶ": 7137,
      "æĹłçĸĳ": 7138,
      "çĹħä¾ĭ": 7139,
      "asing": 7140,
      "è¡¥åĬ©": 7141,
      "ä¾¦": 7142,
      "è¡¨çİ°ä¸º": 7143,
      "osure": 7144,
      "çī©èģĶç½ĳ": 7145,
      "æĮĩåįĹ": 7146,
      "Ġvacc": 7147,
      "120": 7148,
      "æĹłæķĪ": 7149,
      "94": 7150,
      "ä¹°åįĸ": 7151,
      "æľ´": 7152,
      "çŃīäºİ": 7153,
      "æł¼å¼ı": 7154,
      "åĪĨè§£": 7155,
      "å¼ĢåĲ¯": 7156,
      "ä½ĵçİ°äºĨ": 7157,
      "ä¼Ļä¼´": 7158,
      "äººæīįåŁ¹åħ»": 7159,
      "Ġquality": 7160,
      "Ġvs": 7161,
      "çĽ¸å½ĵäºİ": 7162,
      "çĶµåķĨ": 7163,
      "ĠIm": 7164,
      "Ġarter": 7165,
      "ä¹¦åĨĻ": 7166,
      "åĲįåŃĹ": 7167,
      "ãĢĤ(": 7168,
      "ä¿¡æģ¯çļĦ": 7169,
      "upplementary": 7170,
      "Ġfour": 7171,
      "è´ª": 7172,
      "å»ºç«ĭäºĨ": 7173,
      "Ġconsist": 7174,
      "æ§½": 7175,
      "åīįè¿Ľ": 7176,
      "Ġequ": 7177,
      "åį¢": 7178,
      "GDP": 7179,
      "the": 7180,
      "Ġox": 7181,
      "å¤ĩæ¡Ī": 7182,
      "å¿½è§Ĩ": 7183,
      "æī¿è®¤": 7184,
      "è¯¸å¤ļ": 7185,
      "Ġbreast": 7186,
      "æĢ¨": 7187,
      "150": 7188,
      "æĪĲäºº": 7189,
      "èĩĤ": 7190,
      "äº§çĶŁäºĨ": 7191,
      "ml": 7192,
      "ä¸ºæł¸å¿ĥ": 7193,
      "Ġapproach": 7194,
      "ulin": 7195,
      "ä½ľæĪĺ": 7196,
      "åį°åĪ·": 7197,
      "åĽ½åĨħå¤ĸ": 7198,
      "ä¸ļä¸»": 7199,
      "äºīåıĸ": 7200,
      "åıĳçĶŁäºĨ": 7201,
      "ä»²è£ģ": 7202,
      "Ġmot": 7203,
      "ä¾¿æĺ¯": 7204,
      "å°½å¿«": 7205,
      "åľ¨è¿ĻéĩĮ": 7206,
      "ä¸įä¹ħ": 7207,
      "æ¼ł": 7208,
      "Ġfoc": 7209,
      "æľĢæĸ°": 7210,
      "å®ĺåĳĺ": 7211,
      "93": 7212,
      "Ġdemonstrated": 7213,
      "æł¡éķ¿": 7214,
      "çĨĻ": 7215,
      "ä½ĽæķĻ": 7216,
      "åİī": 7217,
      "åĪ¶åº¦çļĦ": 7218,
      "æŃ¦åĻ¨": 7219,
      "æĪĸè®¸": 7220,
      "ä¸İæŃ¤": 7221,
      "èĥº": 7222,
      "Ġvers": 7223,
      "Ġwhat": 7224,
      "åĭĺ": 7225,
      "Ġscore": 7226,
      "æĹº": 7227,
      "åİŁåĳĬ": 7228,
      "çĦ¦èĻĳ": 7229,
      "æ£ĭ": 7230,
      "æ½ľåĬĽ": 7231,
      "è¿ĳæľŁ": 7232,
      "Ġrecom": 7233,
      "è¦ģæ³¨æĦı": 7234,
      "Ġrates": 7235,
      "è¡Ķæİ¥": 7236,
      "æĭħå¿ĥ": 7237,
      "Ġfem": 7238,
      "Ġoften": 7239,
      "ä¸»è¦ģæľī": 7240,
      "ç»ĺçĶ»": 7241,
      "æĥ§": 7242,
      "ç¦ħ": 7243,
      "å»ºéĢł": 7244,
      "Ġles": 7245,
      "çļĦçŁ¥è¯Ĩ": 7246,
      "åĮĹäº¬å¸Ĥ": 7247,
      "é£Łåĵģå®īåħ¨": 7248,
      "Ġadj": 7249,
      "è¯ĹæŃĮ": 7250,
      "ä»£è¡¨å¤§ä¼ļ": 7251,
      "ä¼ĳæģ¯": 7252,
      "å¾Īå®¹æĺĵ": 7253,
      "ended": 7254,
      "Ġweeks": 7255,
      "ç»ĦæĪĲéĥ¨åĪĨ": 7256,
      "åĽ½éĺ²": 7257,
      "å¾Īå¥½": 7258,
      "åĲ«ä¹ī": 7259,
      "Ġplas": 7260,
      "åĪĽæĦı": 7261,
      "æ¿Ģç´ł": 7262,
      "Ġanalys": 7263,
      "å¨±ä¹Ĳ": 7264,
      "è®¤åĲĮ": 7265,
      "me": 7266,
      "ä¸¢": 7267,
      "æ¯ıä¸ªäºº": 7268,
      "ç§»æ°ĳ": 7269,
      "de": 7270,
      "éĶĲ": 7271,
      "æĪĲéĥ½": 7272,
      "åīĸ": 7273,
      "æĹ¥æĬ¥": 7274,
      "2007": 7275,
      "ç¦ıåĪ©": 7276,
      "éħµ": 7277,
      "åĪ©æģ¯": 7278,
      "å¯¹æİ¥": 7279,
      "è¶ħè¶Ĭ": 7280,
      "å°½åı¯èĥ½": 7281,
      "ä¸Ĭæľī": 7282,
      "ä¸ºä¸Ńå¿ĥ": 7283,
      "æľīåħ³è§Ħå®ļ": 7284,
      "Ġindividuals": 7285,
      "ty": 7286,
      "related": 7287,
      "äº¤åıī": 7288,
      "å¢ŀåĢ¼ç¨İ": 7289,
      "ĠDr": 7290,
      "Ġdoes": 7291,
      "Ġher": 7292,
      "åĢŁåĬ©": 7293,
      "AG": 7294,
      "Ġç¬¬åĽĽ": 7295,
      "è¢ģ": 7296,
      "Ġrelations": 7297,
      "æĺ¯ä¸įæĺ¯": 7298,
      "ĊĊ": 7299,
      "æľŁè´§": 7300,
      "åĮ»èį¯": 7301,
      "æ±Łè¥¿": 7302,
      "######": 7303,
      "ä¿±": 7304,
      "åįĹåĮĹ": 7305,
      "å¯ĵ": 7306,
      "éĤª": 7307,
      "æ¹¿åľ°": 7308,
      "æĹłçº¿": 7309,
      "åĲĪæ³ķæĿĥçĽĬ": 7310,
      "ä¸Ģä»½": 7311,
      "erc": 7312,
      "Ġlocal": 7313,
      "IN": 7314,
      "Ġes": 7315,
      "Ġadminist": 7316,
      "å®ŀåľ¨": 7317,
      "æ·®": 7318,
      "éĩĩè®¿": 7319,
      "äººåĿĩ": 7320,
      "å¢ĥåĨħ": 7321,
      "Ġsevere": 7322,
      "é¬¼": 7323,
      "CS": 7324,
      "çħ¤çĤŃ": 7325,
      "åĽ¾ä¹¦é¦Ĩ": 7326,
      "ides": 7327,
      "åĪĳæ³ķ": 7328,
      "tion": 7329,
      "éĺģ": 7330,
      "å¯»æ±Ĥ": 7331,
      "æīİå®ŀ": 7332,
      "æĮ¡": 7333,
      "è§Ĩéĩİ": 7334,
      "èģª": 7335,
      "æºĥ": 7336,
      "è¦ģåľ¨": 7337,
      ".[@": 7338,
      "æĥ³åĪ°": 7339,
      "Ġcomplex": 7340,
      "åĲİæľŁ": 7341,
      "æłĩåĩĨçļĦ": 7342,
      "omic": 7343,
      "las": 7344,
      "åħ¬æŃ£": 7345,
      "çĽ®çļĦæĺ¯": 7346,
      "åı¹": 7347,
      "ä¿¡å¿µ": 7348,
      "Ġnegative": 7349,
      "èĢĥåı¤": 7350,
      "äºļæ´²": 7351,
      "ç§ĺå¯Ĩ": 7352,
      "æĽ´å¤§": 7353,
      "éĢīçĶ¨": 7354,
      "æµªè´¹": 7355,
      "åħ¬åĳĬ": 7356,
      "æĢ»é¢Ŀ": 7357,
      "å¤©çļĦ": 7358,
      "æīŃ": 7359,
      "åħ¬å®īæľºåħ³": 7360,
      "å·¢": 7361,
      "Ġprevent": 7362,
      "è¾ĥå¤§çļĦ": 7363,
      "ä¸Ńå°ıä¼ģä¸ļ": 7364,
      "èĢķåľ°": 7365,
      "83": 7366,
      "Ġ----------------": 7367,
      "rome": 7368,
      "Ġfamily": 7369,
      "æĭĺ": 7370,
      "èģĮåĬ¡": 7371,
      "æľ¬æ¬¡": 7372,
      "çļĦæ³ķå¾ĭ": 7373,
      "ä¸Ĭçº§": 7374,
      "èı²": 7375,
      "çļĦå¸Ĥåľº": 7376,
      "DNA": 7377,
      "ä»ĸè¯´": 7378,
      "æĭħå½ĵ": 7379,
      "æĻºèĥ½åĮĸ": 7380,
      "æĽ´æľī": 7381,
      "ç¥ĸåĽ½": 7382,
      "Ġagainst": 7383,
      "åĩºåİ»": 7384,
      "ç»ĵç®Ĺ": 7385,
      "æĶ¶èİ·": 7386,
      "éĩįçļĦ": 7387,
      "éģ£": 7388,
      "ä»ªåĻ¨": 7389,
      "eline": 7390,
      "kg": 7391,
      "å¤ĦçļĦ": 7392,
      "bo": 7393,
      "æ°Ķè±¡": 7394,
      "æľ¬åľ°": 7395,
      "Ġpur": 7396,
      "å¹¿è¥¿": 7397,
      "èĳĽ": 7398,
      "éĺ³åħī": 7399,
      "èµ·äºĨ": 7400,
      "\\*\\*": 7401,
      "æº¯": 7402,
      "åĲķ": 7403,
      "å°±åľ¨": 7404,
      "æļĳ": 7405,
      "çļĦçİ°è±¡": 7406,
      "åĽ½å®¶çº§": 7407,
      "çĹķ": 7408,
      "ç¬¦åı·": 7409,
      "ç¬¬åħ«": 7410,
      "éľī": 7411,
      "å·¥ç¨ĭå¸Ī": 7412,
      "åįĩé«ĺ": 7413,
      "Ġprogram": 7414,
      "æĤ¦": 7415,
      "æ®ĭçĸ¾äºº": 7416,
      "å°Ĩåľ¨": 7417,
      "è£ħé¥°": 7418,
      "åĢŁéī´": 7419,
      "orph": 7420,
      "çĶµä¿¡": 7421,
      "æĮĩå®ļ": 7422,
      "ĠMedic": 7423,
      "çļĦè§Ĵåº¦": 7424,
      "ĠWh": 7425,
      "Ġtechniqu": 7426,
      "vironment": 7427,
      "çİ¯å¢ĥä¿ĿæĬ¤": 7428,
      "äº«æľī": 7429,
      "åĴĮç®¡çĲĨ": 7430,
      "\\[[@": 7431,
      "rop": 7432,
      "ours": 7433,
      "éĢ¼": 7434,
      "ä¸¤èĢħ": 7435,
      "æ¼Ĥ": 7436,
      "æĢ¥æĢ§": 7437,
      "Ġeither": 7438,
      "82": 7439,
      "å¼¦": 7440,
      "å°ĨåĨĽ": 7441,
      "Ġeffective": 7442,
      "é¢ĦèŃ¦": 7443,
      "Ġgeneral": 7444,
      "Ġbetter": 7445,
      "ä¸įåºĶ": 7446,
      "æŃ£å½ĵ": 7447,
      "ç±»çļĦ": 7448,
      "å¤ªå¹³": 7449,
      "åŀĦ": 7450,
      "Ġserum": 7451,
      "æľŁå¾ħ": 7452,
      "æµģæĦŁ": 7453,
      "æ¦Ĥæĭ¬": 7454,
      "ä»İä¸ļ": 7455,
      "çªĦ": 7456,
      "éŁ§": 7457,
      "å¤±ä¸ļ": 7458,
      "åĬ¨èĦī": 7459,
      "éļ¶": 7460,
      "Ġstatus": 7461,
      "çļĦåīįæıĲ": 7462,
      "Ġmultiple": 7463,
      "å¤įæĿĤçļĦ": 7464,
      "ime": 7465,
      "ables": 7466,
      "ä¸Ģæµģ": 7467,
      "å¾Īå¥½çļĦ": 7468,
      "åĪĿä¸Ń": 7469,
      "å¸¸çĶ¨": 7470,
      "BS": 7471,
      "éĿŀæ´²": 7472,
      "éĢıæĺİ": 7473,
      "åį°è±¡": 7474,
      "æĸ°åįİ": 7475,
      "èĲ§": 7476,
      "Ġ40": 7477,
      "ury": 7478,
      "Ġlike": 7479,
      "çļĦçĶŁäº§": 7480,
      "Ġeffic": 7481,
      "åĪ¶çº¦": 7482,
      "helial": 7483,
      "æµ©": 7484,
      "ways": 7485,
      "éĴł": 7486,
      "å¹²é¢Ħ": 7487,
      "åĽŀå½Ĵ": 7488,
      "åĲĪéĩĳ": 7489,
      "åłª": 7490,
      "Ġmethods": 7491,
      "ç´§æĢ¥": 7492,
      "å¹´éĹ´": 7493,
      "etwork": 7494,
      "ä»¶äºĭ": 7495,
      "ä¿¡ä»°": 7496,
      "isc": 7497,
      "çĽĳæĬ¤": 7498,
      "Â±": 7499,
      "åıįèĢĮ": 7500,
      "æĪĳæĥ³": 7501,
      "èµĦæºĲçļĦ": 7502,
      "ä¸ĵä¸ļçļĦ": 7503,
      "æ¿Ģåħī": 7504,
      "æıĲèµ·": 7505,
      "çĶµåĬ¨": 7506,
      "è¿Ŀè§Ħ": 7507,
      "ĊĊĠ": 7508,
      "å¼ºå¤§": 7509,
      "ä»¥å¾Ģ": 7510,
      "éĢīä¸¾": 7511,
      "ä¹ĥèĩ³": 7512,
      "åĬłçĥŃ": 7513,
      "å¸¦çĿĢ": 7514,
      "å·²æĪĲä¸º": 7515,
      "ode": 7516,
      "Ġleast": 7517,
      "èľľ": 7518,
      "gn": 7519,
      "æºĲäºİ": 7520,
      "ĠDe": 7521,
      "ves": 7522,
      "Ġreveal": 7523,
      "çļĦæłĩåĩĨ": 7524,
      "æ¯Ķéĩį": 7525,
      "æľīå¾Īå¤ļ": 7526,
      "åīįæĻ¯": 7527,
      "ĠOn": 7528,
      "ä¸įä»ħä»ħ": 7529,
      "åħļç»Ħç»ĩ": 7530,
      "ensity": 7531,
      "åı¯çĶ¨": 7532,
      "ancy": 7533,
      "åıĹçĽĬ": 7534,
      "å®¡ç¾İ": 7535,
      "æ³Ĭ": 7536,
      "æŀģå¤§": 7537,
      "ï¼ħ": 7538,
      "æ²ĥ": 7539,
      "åī¥": 7540,
      "Ġnucle": 7541,
      "ĠFig": 7542,
      "æĻ¯è§Ĥ": 7543,
      "æŁ¥çľĭ": 7544,
      "çļĦåĬŁèĥ½": 7545,
      "Ġca": 7546,
      "æīĢç¤º": 7547,
      "Ġproteins": 7548,
      "utr": 7549,
      "éĢıè¿ĩ": 7550,
      "ç»µ": 7551,
      "ç§ĳåŃ¦éĻ¢": 7552,
      "å¼Ĭ": 7553,
      "åĩ¯": 7554,
      "Ġcat": 7555,
      "æĤł": 7556,
      "âĨĴ": 7557,
      "åŃ¦æł¡çļĦ": 7558,
      "çĶ³è¯·äºº": 7559,
      "Ġconfir": 7560,
      "çī²": 7561,
      "å¡ĺ": 7562,
      "ä¹ĭæĹ¥èµ·": 7563,
      "92": 7564,
      "ext": 7565,
      "äº§èĥ½": 7566,
      "åħħçĶµ": 7567,
      "åºŀ": 7568,
      "æľ¬æ³ķ": 7569,
      "è¿ĩäºİ": 7570,
      "ä½ĵåĨħ": 7571,
      "éľį": 7572,
      "èħĲèļĢ": 7573,
      "ä¹¾": 7574,
      "åĮĸåĴĮ": 7575,
      "æĦŁçŁ¥": 7576,
      "atively": 7577,
      "Ġarea": 7578,
      "æīĵçł´": 7579,
      "Ġinvolved": 7580,
      "çļĦä¸įåĲĮ": 7581,
      "åĨħå¿ĥ": 7582,
      "è¿½ç©¶": 7583,
      "æĴ¤éĶĢ": 7584,
      "çļĦäº§åĵģ": 7585,
      "åīįæıĲ": 7586,
      "eth": 7587,
      "å¸ĿåĽ½": 7588,
      "éĿĴæĺ¥": 7589,
      "åľĨå½¢": 7590,
      "åĩĿèģļ": 7591,
      "ä¹ĭä¸º": 7592,
      "å£°æĺİ": 7593,
      "æııåĨĻ": 7594,
      "ike": 7595,
      "æıĲåĪ°": 7596,
      "éĻ¢éķ¿": 7597,
      "åŁºæľ¬ä¸Ĭ": 7598,
      "bs": 7599,
      "rast": 7600,
      "æĶ¿çŃĸçļĦ": 7601,
      "âĳ£": 7602,
      "SP": 7603,
      "è¿ĳä»£": 7604,
      "Ġenh": 7605,
      "è¯´è¯Ŀ": 7606,
      "æĪ¿äº§": 7607,
      "ç¦½": 7608,
      "çīĪæľ¬": 7609,
      "Ġrelationship": 7610,
      "äºĮæ°§åĮĸ": 7611,
      "æħ¢æħ¢": 7612,
      "Ġstate": 7613,
      "éĩįè¦ģçļĦæĺ¯": 7614,
      "é«ĵ": 7615,
      "æĹ¶ä»£çļĦ": 7616,
      "éĹ¹": 7617,
      "åįģæĿ¡": 7618,
      "Ġdeveloped": 7619,
      "èĭ±æĸĩ": 7620,
      "Ġtrials": 7621,
      "çļĦæľºä¼ļ": 7622,
      "Ġfat": 7623,
      "æłĩé¢ĺ": 7624,
      "å¤©çĦ¶æ°Ķ": 7625,
      "istance": 7626,
      "æ°ĳåĽ½": 7627,
      "æīĭæ³ķ": 7628,
      "åľ°åŁŁ": 7629,
      "Ġleft": 7630,
      "æĹ¥åīį": 7631,
      "æ»¨": 7632,
      "æĸ¯åĿ¦": 7633,
      "æľīæķĪåľ°": 7634,
      "operative": 7635,
      "æ¬§çĽŁ": 7636,
      "æ»¥": 7637,
      "è¡Įä¸ļçļĦ": 7638,
      "Ġisol": 7639,
      "EP": 7640,
      "åį§": 7641,
      "åģ·": 7642,
      "ç»ıèĲ¥èĢħ": 7643,
      "é«ĺç«¯": 7644,
      "Ġregard": 7645,
      "å°ıåĮº": 7646,
      "è®ºè¿°": 7647,
      "æĺ¯ä»İ": 7648,
      "ĠAmeric": 7649,
      "ccess": 7650,
      "æİĴåĲį": 7651,
      "è¯µ": 7652,
      "é»ı": 7653,
      "å®ĺæĸ¹": 7654,
      "åĮĸè§£": 7655,
      "æ¹ĺ": 7656,
      "çªģåıĳ": 7657,
      "mission": 7658,
      "ower": 7659,
      "çļĦå¤ĸ": 7660,
      "åİĮ": 7661,
      "CM": 7662,
      "åįĥä¸ĩ": 7663,
      "ĠCI": 7664,
      "éļıåĲİ": 7665,
      "æĺ¯ä¸ºäºĨ": 7666,
      "æķ°é¢Ŀ": 7667,
      "Ġliver": 7668,
      "2006": 7669,
      "ength": 7670,
      "çİ¯å¢ĥçļĦ": 7671,
      "ä¸»è§Ĥ": 7672,
      "å§Ĳ": 7673,
      "æ¯ıæĹ¥": 7674,
      "\\<": 7675,
      "åĿĩåĮĢ": 7676,
      "çĶµåŃĲåķĨåĬ¡": 7677,
      "èĥĮæĻ¯ä¸ĭ": 7678,
      "imals": 7679,
      "æµ·åįĹ": 7680,
      "Ġ95": 7681,
      "æ±īè¯Ń": 7682,
      "ç¹ģèį£": 7683,
      "çŁ¥è¯ĨçļĦ": 7684,
      "å¸¦æĿ¥äºĨ": 7685,
      "ä»Ķç»Ĩ": 7686,
      "ä¸įç¬¦åĲĪ": 7687,
      "æ°ĳæ³ķ": 7688,
      "æľµ": 7689,
      "ä»ĬåĲİ": 7690,
      "åŃ¦çĶŁåľ¨": 7691,
      "éĤĢè¯·": 7692,
      "è¿ĺæ²¡æľī": 7693,
      "æĳĦå½±": 7694,
      "å§ľ": 7695,
      "åį³å°Ĩ": 7696,
      "æĤ£èĢħçļĦ": 7697,
      "èĢ¶": 7698,
      "åĬĿ": 7699,
      "æķ°æį®çļĦ": 7700,
      "Ġä»¥": 7701,
      "çİĽ": 7702,
      "åĨħå¤ĸ": 7703,
      "å¤©åľ°": 7704,
      "ä¾µå®³": 7705,
      "è´¾": 7706,
      "esis": 7707,
      "çº·çº·": 7708,
      "å¹¶å°Ĩ": 7709,
      "Ġever": 7710,
      "è¿ľç¨ĭ": 7711,
      "ns": 7712,
      "å¹´åīį": 7713,
      "å¼ºåĽ½": 7714,
      "ç¼ºçĤ¹": 7715,
      "ä¼łç»ŁæĸĩåĮĸ": 7716,
      "åľ¨ä¸Ģä¸ª": 7717,
      "Ġ&": 7718,
      "Ġhealthy": 7719,
      "è½¬åĮĸä¸º": 7720,
      "face": 7721,
      "ç²¾åº¦": 7722,
      "Ġmen": 7723,
      "ä¸İåħ¶ä»ĸ": 7724,
      "Ġdecreased": 7725,
      "åĪĨå·¥": 7726,
      "ä¾µçĬ¯": 7727,
      "åŃ£èĬĤ": 7728,
      "å·®åĪ«": 7729,
      "rior": 7730,
      "çĶ»éĿ¢": 7731,
      "éĽĩ": 7732,
      "Ġdiet": 7733,
      "ds": 7734,
      "ä¼°è®¡": 7735,
      "éļıæľº": 7736,
      "Ġimpact": 7737,
      "Ġidentify": 7738,
      "Ġunderstand": 7739,
      "chers": 7740,
      "ĠCan": 7741,
      "å²³": 7742,
      "åĩºè¡Ģ": 7743,
      "è§Ħç«ł": 7744,
      "æĺ¾å¾Ĺ": 7745,
      "åıĳè¨Ģ": 7746,
      "åĲĮæĹ¶ä¹Ł": 7747,
      "å»Ĭ": 7748,
      "åĲİç»Ń": 7749,
      "åĮ»ä¿Ŀ": 7750,
      "]\\],": 7751,
      "è§Ĩè§Ĵ": 7752,
      "Ġassociation": 7753,
      "^+^": 7754,
      "åıĳéĢģ": 7755,
      "è¿ĺåľ¨": 7756,
      "æŀĦéĢł": 7757,
      "ĠFurther": 7758,
      "ostic": 7759,
      "math": 7760,
      "è§Ĥä¼Ĺ": 7761,
      "æŁı": 7762,
      "ç¼Ĩ": 7763,
      "ography": 7764,
      "éĢ¾": 7765,
      "å¢ŀå¤§": 7766,
      "å®īåħ¨çĶŁäº§": 7767,
      "Ġmodels": 7768,
      "è¿ĶåĽŀ": 7769,
      "åħ¥åŃ¦": 7770,
      "çĹħçļĦ": 7771,
      "è®²è¿°": 7772,
      "æķħæĦı": 7773,
      "èµĭäºĪ": 7774,
      "çī©èµĦ": 7775,
      "éļ¾çĤ¹": 7776,
      "å¤®è¡Į": 7777,
      "ç«ĭè¶³": 7778,
      "èĥĮåĲİ": 7779,
      "è¿ĩæķı": 7780,
      "æīĩ": 7781,
      "çŃīçļĦ": 7782,
      "ç¨³å®ļæĢ§": 7783,
      "Ġrecord": 7784,
      "è¿Ļé¡¹": 7785,
      "è¿Ļä¸ªéĹ®é¢ĺ": 7786,
      "ortality": 7787,
      "åĩŃè¯ģ": 7788,
      "çĭ±": 7789,
      "Ġent": 7790,
      "å°ıäºİ": 7791,
      "å¥¹çļĦ": 7792,
      "åħ¬åħ±æľįåĬ¡": 7793,
      "åĻ¨å®ĺ": 7794,
      "éļĻ": 7795,
      "åħ±è¯Ĩ": 7796,
      "èº«å¿ĥ": 7797,
      "åħ¬å¼ı": 7798,
      "éĶĪ": 7799,
      "äººå¯¹": 7800,
      "åĴ½": 7801,
      "ç½Ĳ": 7802,
      "çķı": 7803,
      "ĠResearch": 7804,
      "åĩºèµĦ": 7805,
      "æĪĳåľ¨": 7806,
      "æĬĹæĹ¥": 7807,
      "Ġregul": 7808,
      "çŁ¥åĲį": 7809,
      "Ġscre": 7810,
      "æ±ģ": 7811,
      "åĳĬçŁ¥": 7812,
      "æŁĲä¸ª": 7813,
      "Ġmetab": 7814,
      "æŀ¯": 7815,
      "Ġtem": 7816,
      "err": 7817,
      "ï¼Ľï¼Ī": 7818,
      "app": 7819,
      "è¾ĥå¤ļ": 7820,
      "æ³ķå®ĺ": 7821,
      "Ġpreviously": 7822,
      "çļĦæķĪæŀľ": 7823,
      "Ġcountr": 7824,
      "é«ĺåİĭ": 7825,
      "åıĪæľī": 7826,
      "èµ°è¿Ľ": 7827,
      "è½»æĿ¾": 7828,
      "å¸¸æĢģ": 7829,
      "æ¸Ĭ": 7830,
      "è®¾å®ļ": 7831,
      "odies": 7832,
      "éľĢè¦ģçļĦ": 7833,
      "2005": 7834,
      "çĹĽèĭ¦": 7835,
      "plication": 7836,
      "lection": 7837,
      "èĨ¨èĥĢ": 7838,
      "ç¼ºå°ĳ": 7839,
      "ands": 7840,
      "çĶµæ°Ķ": 7841,
      "åĩºçİ°çļĦ": 7842,
      "æłĵ": 7843,
      "è´ŁåĢº": 7844,
      "åºĶè¯¥æĺ¯": 7845,
      "Ġoutcomes": 7846,
      "æļ´åĬĽ": 7847,
      "éĵ¾æİ¥": 7848,
      "èĩŃ": 7849,
      "åŀ«": 7850,
      "æĸ°çĶŁ": 7851,
      "åıĸåĨ³": 7852,
      "çĥŃæĥħ": 7853,
      "æľŁåĪĬ": 7854,
      "Ġdrugs": 7855,
      "amp": 7856,
      "æĶ¹éĿ©çļĦ": 7857,
      "ĠPat": 7858,
      "ä¸İåħ¶": 7859,
      "é«ĺè¾¾": 7860,
      "Ġdetermine": 7861,
      "81": 7862,
      "This": 7863,
      "æĺĤ": 7864,
      "Ġol": 7865,
      "åĬŀäºĭ": 7866,
      "åĩłç§į": 7867,
      "br": 7868,
      "ä¹¦ä¸Ń": 7869,
      "éŀĭ": 7870,
      "Ġ21": 7871,
      "è¾¹çķĮ": 7872,
      "Ġprovided": 7873,
      "Ġsex": 7874,
      "ĠInstit": 7875,
      "åĿĿ": 7876,
      "opath": 7877,
      "æ³¨å°Ħ": 7878,
      "æ°´å¹³çļĦ": 7879,
      "æľĢåĪĿ": 7880,
      "æĮĩç¤º": 7881,
      "Ġgiven": 7882,
      "Ġanalyzed": 7883,
      "çĶµç½ĳ": 7884,
      "åİŁæĸĩ": 7885,
      "ç§ĳæĻ®": 7886,
      "åıĪæĺ¯": 7887,
      "Ġfocus": 7888,
      "æ´»è·ĥ": 7889,
      "ç»ıæµİå¢ŀéķ¿": 7890,
      "è½¬åĲĳ": 7891,
      "Ġapp": 7892,
      "pecific": 7893,
      "ä¸Ńèį¯": 7894,
      "ä¿¡è´·": 7895,
      "ison": 7896,
      "Ġrandom": 7897,
      "åħĭæľį": 7898,
      "çºº": 7899,
      "æľĢéĩįè¦ģçļĦ": 7900,
      "Ġstrong": 7901,
      "éĵŃ": 7902,
      "å¸¦æľī": 7903,
      "åĮĹæĸ¹": 7904,
      "æĶ¿åºľçļĦ": 7905,
      "ä¸ªåĪ«": 7906,
      "æĶ¿åĬ¡": 7907,
      "åµĮ": 7908,
      "æķĻå¸ĪçļĦ": 7909,
      "Ġmi": 7910,
      "Ġcondition": 7911,
      "æķĳåĬ©": 7912,
      "çĶ¨èį¯": 7913,
      "åĬ³åĬ¨åĬĽ": 7914,
      "éĿ¢åīį": 7915,
      "ray": 7916,
      "æ¯ħ": 7917,
      "ç§¯æŀģæĢ§": 7918,
      "åŀĦæĸŃ": 7919,
      "èģĶåĬ¨": 7920,
      "Ġexample": 7921,
      "ç«Ń": 7922,
      "Ġdys": 7923,
      "ĠInt": 7924,
      "Ġindependent": 7925,
      "åºĶçĶ¨äºİ": 7926,
      "Ġcompon": 7927,
      "æĿĲæĸĻçļĦ": 7928,
      "è®¾å¤ĩçļĦ": 7929,
      "ĠSc": 7930,
      "æľºæŀĦçļĦ": 7931,
      "ware": 7932,
      "æĲŃå»º": 7933,
      "éĺĲè¿°": 7934,
      "åıĸåĨ³äºİ": 7935,
      "ç»Ħå»º": 7936,
      "çĪĨçĤ¸": 7937,
      "æĬ½è±¡": 7938,
      "ocytes": 7939,
      "])": 7940,
      "ä¸Ģçº¿": 7941,
      "Ġsynd": 7942,
      "æĶ¯éĥ¨": 7943,
      "çļĦæķħäºĭ": 7944,
      "600": 7945,
      "è¤": 7946,
      "åħ¨å¹´": 7947,
      "çº§åĪ«": 7948,
      "èĴĭ": 7949,
      "å¼ĺæī¬": 7950,
      "CI": 7951,
      "ä¸įåıĹ": 7952,
      "ç»Īç«¯": 7953,
      "Ġself": 7954,
      "åıĺéĩı": 7955,
      "å®ŀéĻħæĥħåĨµ": 7956,
      "_{": 7957,
      "itud": 7958,
      "uration": 7959,
      "å¢ĥçķĮ": 7960,
      "ä¿¡æģ¯æĬĢæľ¯": 7961,
      "æİ©": 7962,
      "ume": 7963,
      "any": 7964,
      "è®¾è®¡çļĦ": 7965,
      "otype": 7966,
      "åĽ½å®¶åĴĮ": 7967,
      "çĨĶ": 7968,
      "æ¬£èµı": 7969,
      "æ³ª": 7970,
      "åĿĳ": 7971,
      "æĺ¯æĪĳä»¬": 7972,
      "resp": 7973,
      "æĬ¥èĢĥ": 7974,
      "åŀĤçĽ´": 7975,
      "Ġoccur": 7976,
      "èĶ¡": 7977,
      "æª": 7978,
      "Ġmade": 7979,
      "æĮ«": 7980,
      "Ġpresented": 7981,
      "aneous": 7982,
      "Ġpo": 7983,
      "å¦¹": 7984,
      "ä¼ĺèī¯": 7985,
      "ï¼ŁâĢĿ": 7986,
      "æ¢¦æĥ³": 7987,
      "ä»¥ä¸ĭç®Ģç§°": 7988,
      "é¥²æĸĻ": 7989,
      "éĦ": 7990,
      "æµ¦": 7991,
      "èħĲè´¥": 7992,
      "è®©æĪĳ": 7993,
      "æīįä¼ļ": 7994,
      "æīĵåį°": 7995,
      "åĮ¹éħį": 7996,
      "éĢīé¡¹": 7997,
      "91": 7998,
      "ä¸¤æ¬¡": 7999,
      "è´¯å½»èĲ½å®ŀ": 8000,
      "Ġhis": 8001,
      "æĢ»å±Ģ": 8002,
      "ters": 8003,
      "Ġz": 8004,
      "ç«ĭåľº": 8005,
      "åħīä¼ı": 8006,
      "çļĦè®¤è¯Ĩ": 8007,
      "å¯¹ç§°": 8008,
      "å¦¨": 8009,
      "===": 8010,
      "orb": 8011,
      "åĪĿæľŁ": 8012,
      "æĦģ": 8013,
      "æ¸´": 8014,
      "è¦ģæĬĬ": 8015,
      "å¾Īæľī": 8016,
      "æ³»": 8017,
      "æľºåľº": 8018,
      "CL": 8019,
      "å¿ĥçĲĨåŃ¦": 8020,
      "Ġsocial": 8021,
      "Ġdose": 8022,
      "Ġblock": 8023,
      "æĭįæĳĦ": 8024,
      "éĺĻ": 8025,
      "éĿĻèĦī": 8026,
      "çĤ¹åĩ»": 8027,
      "çļĦä»·åĢ¼": 8028,
      "èµļ": 8029,
      "æŃ£ä¹ī": 8030,
      "*^": 8031,
      "å¼Ĺ": 8032,
      "è°ĥåĬ¨": 8033,
      "åŁİåĮº": 8034,
      "ä¸Ńå°ıåŃ¦": 8035,
      "ä¼¦çĲĨ": 8036,
      "èĬ¬": 8037,
      "æĶ¾æĿ¾": 8038,
      "éĿ¢è¯ķ": 8039,
      "Ġconducted": 8040,
      "3000": 8041,
      "Ġ<": 8042,
      "çłĶç©¶ä¸Ńå¿ĥ": 8043,
      "è¾ĥé«ĺçļĦ": 8044,
      "inding": 8045,
      "æº¢": 8046,
      "èĪ±": 8047,
      "æĶ¶è´Ń": 8048,
      "istic": 8049,
      "æĺŃ": 8050,
      "Ġphen": 8051,
      "éħ¯": 8052,
      "å±ĤçļĦ": 8053,
      "è´£ä»¤": 8054,
      "åıĪç§°": 8055,
      "Ġdown": 8056,
      "man": 8057,
      "æĽ´æį¢": 8058,
      "åĩĨåĪĻ": 8059,
      "Ġreceptor": 8060,
      "Ġdistrib": 8061,
      "Ġgreater": 8062,
      "å¯¨": 8063,
      "Ġconst": 8064,
      "æľªç»ı": 8065,
      "ç³»æķ°": 8066,
      "åħ»èĢģä¿ĿéĻ©": 8067,
      "æī¿åıĹ": 8068,
      "ç¾İåĽ½çļĦ": 8069,
      "çīĪæĿĥ": 8070,
      "å°ģå»º": 8071,
      "æ¢³çĲĨ": 8072,
      "è®ºè¯ģ": 8073,
      "åİĨç¨ĭ": 8074,
      "Ġrequired": 8075,
      "èĬĤå¥ı": 8076,
      "èī²çļĦ": 8077,
      "çļĦéĩįè¦ģæĢ§": 8078,
      "ä¸ºä½ķ": 8079,
      "æĮº": 8080,
      "æĭĽèģĺ": 8081,
      "vant": 8082,
      "éĺ²çģ«": 8083,
      "æīĢè°ĵçļĦ": 8084,
      "å³¡": 8085,
      "åħ¶ä¸ŃçļĦ": 8086,
      "________": 8087,
      "As": 8088,
      "ç©Ĩ": 8089,
      "Ġstimul": 8090,
      "Ġhowever": 8091,
      "éĤ£éĩĮ": 8092,
      "äººæł¼": 8093,
      "æľĢå¥½çļĦ": 8094,
      "jp": 8095,
      "Ġdeg": 8096,
      "Ġdev": 8097,
      "ateral": 8098,
      "ç¬¬ä¹Ŀ": 8099,
      "çłĶè®¨": 8100,
      "aps": 8101,
      "Ġregion": 8102,
      "åħ¬åĬ¡åĳĺ": 8103,
      "ä½ĵç§¯": 8104,
      "å¼Ģåħ³": 8105,
      "è¯¾æĸĩ": 8106,
      "rence": 8107,
      "Ġorder": 8108,
      "Ġcort": 8109,
      "çŃĴ": 8110,
      "é¸¿": 8111,
      "å¼ºå¤§çļĦ": 8112,
      "éħĴåºĹ": 8113,
      "ä¸Ńæĸĩ": 8114,
      "ä»¥å¤ĸ": 8115,
      "åıĳå±ķåĴĮ": 8116,
      "åĸĤ": 8117,
      "è¿ĺéľĢè¦ģ": 8118,
      "ital": 8119,
      "æ£Ĵ": 8120,
      "æĹ¶æľŁçļĦ": 8121,
      "ç¤¼ä»ª": 8122,
      "æĺ¯æĪĳåĽ½": 8123,
      "Ġget": 8124,
      "åħħè¶³": 8125,
      "inc": 8126,
      "èĢĥèĻĳåĪ°": 8127,
      "çĤĴ": 8128,
      "å¼Ģè®¾": 8129,
      "èĦĨ": 8130,
      "è¦ģçĤ¹": 8131,
      "éħįå¤ĩ": 8132,
      "ä¼ģä¸ļåľ¨": 8133,
      "åıĶ": 8134,
      "Ġvent": 8135,
      "æĹ¶éĹ´çļĦ": 8136,
      "å®Įæķ´çļĦ": 8137,
      "ON": 8138,
      "ç®¡çĲĨéĥ¨éĹ¨": 8139,
      "æ¸ħçĲĨ": 8140,
      "çħĮ": 8141,
      "å·¥ä½ľèĢħ": 8142,
      "Ġprop": 8143,
      "ĠPD": 8144,
      "åĨ·åį´": 8145,
      "åĩºç§Ł": 8146,
      "å¿ĥçģµ": 8147,
      "Ġexposure": 8148,
      "å¹¶æľª": 8149,
      "ä¸įè¶ħè¿ĩ": 8150,
      "å¸Ĳ": 8151,
      "éĢļè¿ĩå¯¹": 8152,
      "æ¦Ĥçİĩ": 8153,
      "å¸ĥç½®": 8154,
      "çĽ´å¾Ħ": 8155,
      "è®¤è¯ĨåĪ°": 8156,
      "ably": 8157,
      "ĠĊĠ": 8158,
      "Ġdetermined": 8159,
      "ä¸ĢçĶŁ": 8160,
      "äº¤ä»ĺ": 8161,
      "äºĶä¸ª": 8162,
      "æ¼Ĩ": 8163,
      "èģļéĽĨ": 8164,
      "Ġphosph": 8165,
      "oung": 8166,
      "è¿Ļä¸¤": 8167,
      "åĲĪä¼Ļ": 8168,
      "å¤įåĪ¶": 8169,
      "ĠNew": 8170,
      "å¯Ĩçłģ": 8171,
      "æĬĦ": 8172,
      "åħ³éĹŃ": 8173,
      "èĭ¹": 8174,
      "çĹħæĥħ": 8175,
      "ĠCT": 8176,
      "ç©¶ç«Ł": 8177,
      "çļĦåŃ©åŃĲ": 8178,
      "åħĦå¼Ł": 8179,
      "Ġiss": 8180,
      "ç»ĪæŃ¢": 8181,
      "Ġdetected": 8182,
      "utes": 8183,
      "Ġrange": 8184,
      "æŁĲä¸Ģ": 8185,
      "éŁ©åĽ½": 8186,
      "To": 8187,
      "åıĺå½¢": 8188,
      "Ġæľī": 8189,
      "æĿ¥è®²": 8190,
      "Ġi": 8191,
      "æ·ĺ": 8192,
      "æ¢Ĺ": 8193,
      "çļĦç¬¬ä¸Ģ": 8194,
      "åħĨ": 8195,
      "çĽĴ": 8196,
      "ä¸ľæĸ¹": 8197,
      "éĢ¸": 8198,
      "éªĮæĶ¶": 8199,
      "ç¼ĸç¨ĭ": 8200,
      "Ġsl": 8201,
      "ä¸ļç»©": 8202,
      "ploy": 8203,
      "éĥ¨éķ¿": 8204,
      "äº§çī©": 8205,
      "ç®¡çĲĨåĴĮ": 8206,
      "ç»ĵæŀĦçļĦ": 8207,
      "PV": 8208,
      "å¸½": 8209,
      "æĥħå¢ĥ": 8210,
      "äºĮæ¬¡": 8211,
      "åıĤçħ§": 8212,
      "é¡¾å®¢": 8213,
      "Ġpul": 8214,
      "Ġtypes": 8215,
      "éĢĤå®ľ": 8216,
      "èĭį": 8217,
      "çİīç±³": 8218,
      "ī¥": 8219,
      "è´µå·ŀ": 8220,
      "æ°´ä¸Ń": 8221,
      "è·Łè¸ª": 8222,
      "?\"": 8223,
      "åĲŀ": 8224,
      "è¿Ľè¡ĮçļĦ": 8225,
      "å±ĢéĻĲ": 8226,
      "ä¿ĥä½¿": 8227,
      "æµĩ": 8228,
      "æŃ£å¦Ĥ": 8229,
      "å¯¼ä½ĵ": 8230,
      "verse": 8231,
      "èĶ½": 8232,
      "éĢļé£İ": 8233,
      "è¯¾åłĤæķĻåŃ¦": 8234,
      "äººäºº": 8235,
      "æĦıå¤ĸ": 8236,
      "åıĳçĥŃ": 8237,
      "asis": 8238,
      "éĴ©": 8239,
      "çĮľ": 8240,
      "Ġback": 8241,
      "å»¶ç»Ń": 8242,
      "æĥŁ": 8243,
      "è§Ĥæµĭ": 8244,
      "Ġ60": 8245,
      "Ġeduc": 8246,
      "æķĻèĤ²æķĻåŃ¦": 8247,
      "äºĮçº§": 8248,
      "Ġvarious": 8249,
      "idem": 8250,
      "æī¶æĮģ": 8251,
      "æī£éĻ¤": 8252,
      "Ġimaging": 8253,
      "Ġgenetic": 8254,
      "æľīå®³": 8255,
      "ances": 8256,
      "Ġsaf": 8257,
      "Ġmortality": 8258,
      "æ¦Ĥè¿°": 8259,
      "çļĦçĲĨè®º": 8260,
      "åİ¦": 8261,
      "åħĳ": 8262,
      "åı«åģļ": 8263,
      "ãĢķ": 8264,
      "è´º": 8265,
      "åįķçº¯": 8266,
      "itation": 8267,
      "é¢Ĩå¯¼å¹²éĥ¨": 8268,
      "çĽĪåĪ©": 8269,
      "Ġrecomm": 8270,
      "urg": 8271,
      "ä¸Ńåħ±ä¸Ńå¤®": 8272,
      "è¿ĩæ¸¡": 8273,
      "ä½ľé£İ": 8274,
      "å½ĵä»Ĭ": 8275,
      "åı¯æĮģç»Ńåıĳå±ķ": 8276,
      "æĪĲåĬŁçļĦ": 8277,
      "urn": 8278,
      "induced": 8279,
      "\"ï¼Į": 8280,
      "å®ĮæĪĲäºĨ": 8281,
      "èĮİ": 8282,
      "æł·æľ¬": 8283,
      "ä¾¿äºİ": 8284,
      "âĢ²": 8285,
      "RT": 8286,
      "æľĢå¤ļ": 8287,
      "çĵ£": 8288,
      "èĢĢ": 8289,
      "Ġpreval": 8290,
      "eria": 8291,
      "åľ°è¯´": 8292,
      "è´¨çļĦ": 8293,
      "ä¸ŃæīĢ": 8294,
      "ä¸įè®º": 8295,
      "æĸ°åĮº": 8296,
      "å¢ĥå¤ĸ": 8297,
      "æĵİ": 8298,
      "åľ¨åħ¨åĽ½": 8299,
      "Ġacute": 8300,
      "ãĢĶ": 8301,
      "uture": 8302,
      "ĠCon": 8303,
      "äº¤éĢļäºĭæķħ": 8304,
      "å¸®æī¶": 8305,
      "çŃīåľ°": 8306,
      "æİ¢æµĭ": 8307,
      "æķĳæı´": 8308,
      "Ġaccess": 8309,
      "rape": 8310,
      "è±¡å¾ģ": 8311,
      "Ġenc": 8312,
      "çłĶåĪ¶": 8313,
      "åħ±å»º": 8314,
      "Ġskin": 8315,
      "çľĭæ³ķ": 8316,
      "Ġadditional": 8317,
      "åįľ": 8318,
      "Ġtranscript": 8319,
      "æĿŃå·ŀ": 8320,
      "Ġcontrast": 8321,
      "æĽ²çº¿": 8322,
      "åħļå»º": 8323,
      "åľ°åĽ¾": 8324,
      "åĽ½åľŁ": 8325,
      "è§£åĨ³éĹ®é¢ĺ": 8326,
      "ä¹ĭä¸ĢçļĦ": 8327,
      "Ġmetast": 8328,
      "çİĩä¸º": 8329,
      "èĩ´åĬĽ": 8330,
      ")\"": 8331,
      "ĠTr": 8332,
      "çħ®": 8333,
      "Ġcalcul": 8334,
      "åĵĢ": 8335,
      "åĪĹåħ¥": 8336,
      "åħ¨èº«": 8337,
      "002": 8338,
      "Ġ^": 8339,
      "å¼¹æĢ§": 8340,
      "Ġexpressed": 8341,
      "Ġpregn": 8342,
      "ä¾ĽåºĶåķĨ": 8343,
      "Ġread": 8344,
      "é¢ĨåħĪ": 8345,
      "è¥¿å®ī": 8346,
      "æħ°": 8347,
      "çĽ¸åĲĮçļĦ": 8348,
      "ç§ĳåŃ¦æĬĢæľ¯": 8349,
      "æ°´æŀľ": 8350,
      "æĮģæľī": 8351,
      "ĠStud": 8352,
      "ä¸Ī": 8353,
      "å¹³ç¨³": 8354,
      "æµĭå®ļ": 8355,
      "ç»ĨåĮĸ": 8356,
      "åľ¨ä¸Ģ": 8357,
      "è¿ĩæ»¤": 8358,
      "ä¸įå¾Ĺä¸į": 8359,
      "ustr": 8360,
      "åıĺåĬ¨": 8361,
      "çĥŃçĤ¹": 8362,
      "äººå¿ĥ": 8363,
      "æµı": 8364,
      "å®¶éĩĮ": 8365,
      "èĭ¹æŀľ": 8366,
      "Ġmental": 8367,
      "ĠMore": 8368,
      "Ġcharacteristics": 8369,
      "åįģä¸ĢæĿ¡": 8370,
      "å®īåħ¨çļĦ": 8371,
      "Ġplace": 8372,
      "Ġstrateg": 8373,
      "å»ºçŃĳçī©": 8374,
      "xt": 8375,
      "Ġresponses": 8376,
      "ç®¡æİ§": 8377,
      "è¹Ī": 8378,
      "leep": 8379,
      "èµĦåĬ©": 8380,
      "æ¿ĢçĥĪ": 8381,
      "æĹ¥åĨħ": 8382,
      "æłĩçļĦ": 8383,
      "Ġreceived": 8384,
      "äººèº«": 8385,
      "åĵŃ": 8386,
      "å¤ĦåĪĨ": 8387,
      "éļıæĦı": 8388,
      "è¤Ĳ": 8389,
      "ank": 8390,
      "åħ¨æ°ĳ": 8391,
      "æ¸ħæ´Ĺ": 8392,
      "è¦ģæ±ĤçļĦ": 8393,
      "æľŁæľĽ": 8394,
      "ä»·åĢ¼çļĦ": 8395,
      "èĭ¯": 8396,
      "åħ·ä½ĵçļĦ": 8397,
      "*-": 8398,
      "icult": 8399,
      ".[": 8400,
      "RE": 8401,
      "xim": 8402,
      "otherapy": 8403,
      "Ġsuccess": 8404,
      "å¤¸": 8405,
      "æģ¨": 8406,
      "ä»¶çļĦ": 8407,
      "å»ºç«ĭåģ¥åħ¨": 8408,
      "aper": 8409,
      "sc": 8410,
      "Ġprior": 8411,
      "åİĨåı²çļĦ": 8412,
      "Ġang": 8413,
      "unct": 8414,
      "ç¯®": 8415,
      "èĻļåģĩ": 8416,
      "äººä¹ĭ": 8417,
      "äºĨä¸ŃåĽ½": 8418,
      "Ġflow": 8419,
      "æĽ´å¤§çļĦ": 8420,
      "å®īç½®": 8421,
      "åĲįä¹ī": 8422,
      "æĳĺè¦ģ": 8423,
      "Ġsignaling": 8424,
      "æłĩè¯Ĩ": 8425,
      "å¤·": 8426,
      "ä¹Ķ": 8427,
      "è®¡éĩı": 8428,
      "ç¬¬ä¸īæĸ¹": 8429,
      "åĪĨåī²": 8430,
      "Ġ(**": 8431,
      "çĹħåıĺ": 8432,
      "åģľè½¦": 8433,
      "ä¸Ģæł·çļĦ": 8434,
      "Cs": 8435,
      "åľ¨æĪĳåĽ½": 8436,
      "ä¸ªäººçļĦ": 8437,
      "å¨ĺ": 8438,
      "ç»³": 8439,
      "å¤ĸæ±ĩ": 8440,
      "åľ°æĸ¹æĶ¿åºľ": 8441,
      "åĢ¡å¯¼": 8442,
      "ä¸įæĺĵ": 8443,
      "ä¸ŃçŃī": 8444,
      "åĲįåįķ": 8445,
      "æĢ»ä¹ĭ": 8446,
      "å³»": 8447,
      "åħ»èĢģéĩĳ": 8448,
      "Ġquant": 8449,
      ".](": 8450,
      "éļĲç§ģ": 8451,
      "Ġmanagement": 8452,
      "å¡ĳéĢł": 8453,
      "cn": 8454,
      "åı¯åĪĨä¸º": 8455,
      "Ġestabl": 8456,
      "åİ¿çº§ä»¥ä¸Ĭ": 8457,
      "æľªèĥ½": 8458,
      "æĺ¥ç§ĭ": 8459,
      "å½¼æŃ¤": 8460,
      "äººæ°ĳçļĦ": 8461,
      "Ġcall": 8462,
      "çĦĬæİ¥": 8463,
      "care": 8464,
      "å¯¹çħ§": 8465,
      "æ°´æ³¥": 8466,
      "åŃĺåľ¨çĿĢ": 8467,
      "Ġoper": 8468,
      "åĲĳä¸Ĭ": 8469,
      "Ġsupp": 8470,
      "CG": 8471,
      "æ¶¯": 8472,
      "åįģäºĮæĿ¡": 8473,
      "è¢ĸ": 8474,
      "å¤ªç©º": 8475,
      "Ġexperiments": 8476,
      "Ġæĺ¯": 8477,
      "year": 8478,
      "ä¸įå®ľ": 8479,
      "åıĹå®³": 8480,
      "æ¯ıæľĪ": 8481,
      "å¥łå®ļ": 8482,
      "åŀĴ": 8483,
      "æķ´æĶ¹": 8484,
      "ored": 8485,
      "raft": 8486,
      "PT": 8487,
      "ä¸ĩäº¿åħĥ": 8488,
      "day": 8489,
      "åº¸": 8490,
      "æŀļ": 8491,
      "Ġfew": 8492,
      "æŀģä¸º": 8493,
      "rane": 8494,
      "æľįè£ħ": 8495,
      "Ġstrain": 8496,
      "åĮ»çĸĹæľºæŀĦ": 8497,
      "ä¼ļçļĦ": 8498,
      "åı¯åľ¨": 8499,
      "ï¿": 8500,
      "âĢ¦âĢ¦âĢ¦âĢ¦": 8501,
      "åıĽ": 8502,
      "ä¿®æŃ£": 8503,
      "çľĭè¿ĩ": 8504,
      "åĽĽå¤§": 8505,
      "Ġfollowed": 8506,
      "Ġlarg": 8507,
      "æ©¡": 8508,
      "æĻļä¸Ĭ": 8509,
      "Ġintervention": 8510,
      "ç¼´è´¹": 8511,
      "not": 8512,
      "Ġtub": 8513,
      "çĮİ": 8514,
      "åıĳçļĦ": 8515,
      "å®¹åĻ¨": 8516,
      "hesis": 8517,
      "5000": 8518,
      "normal": 8519,
      "Ġmass": 8520,
      "çŃīå¾ħ": 8521,
      "Ġmake": 8522,
      "å±ķè§Ī": 8523,
      "æ¶²ä½ĵ": 8524,
      "Ġinhibit": 8525,
      "ä»£æĽ¿": 8526,
      "LC": 8527,
      "å¯¼å¸Ī": 8528,
      "åı¥åŃĲ": 8529,
      "Ġtraining": 8530,
      "å¤ķ": 8531,
      "æīĳ": 8532,
      "ä¸§å¤±": 8533,
      "Ġmuscle": 8534,
      "å¤§åĽ½": 8535,
      "åįłæľī": 8536,
      "Ġtests": 8537,
      "åľ°ä¸Ĭ": 8538,
      "ĠNational": 8539,
      "Ġcontrols": 8540,
      "èĳĹåĲįçļĦ": 8541,
      "rapeut": 8542,
      "æĦıåĽ¾": 8543,
      "ĠGen": 8544,
      "æĹ¬": 8545,
      "æİ¥çĿĢ": 8546,
      "è´Łèį·": 8547,
      "çļĦéĢīæĭ©": 8548,
      "ä¸ĭäºĨ": 8549,
      "çĶ·æĢ§": 8550,
      "Ġanalyses": 8551,
      "ç«ĭæĸ¹": 8552,
      "é¼İ": 8553,
      "åĻªå£°": 8554,
      "Ġquestion": 8555,
      "åīįéĿ¢": 8556,
      "åįĹæĸ¹": 8557,
      "ä¸¾æĬ¥": 8558,
      "pective": 8559,
      "æĺ¯éĿŀå¸¸": 8560,
      "ising": 8561,
      "ĠII": 8562,
      "æĶ¾å¤§": 8563,
      "æī«æıı": 8564,
      "Ġbacter": 8565,
      "ä¸įäºĪ": 8566,
      "å®ŀä¾ĭ": 8567,
      "mg": 8568,
      "roid": 8569,
      "éĢĿ": 8570,
      "çĬ¬": 8571,
      "ç²¾ç¡®": 8572,
      "å°ģéĹŃ": 8573,
      "ontrol": 8574,
      "SS": 8575,
      "AA": 8576,
      "æĬķè¯ī": 8577,
      "æ³ķåĪ¶": 8578,
      "çĪ¬": 8579,
      "2004": 8580,
      "åıĳå¸ĥçļĦ": 8581,
      "è¢«åĳĬäºº": 8582,
      "è¯ŀçĶŁ": 8583,
      "åīįæľŁ": 8584,
      "æĿł": 8585,
      "erve": 8586,
      "oral": 8587,
      "åĪĨè£Ĥ": 8588,
      "ä¸įå¤ļ": 8589,
      "çļĦä¸Ģéĥ¨åĪĨ": 8590,
      "éĢĢåĩº": 8591,
      "çªĹåı£": 8592,
      "å¢ŀå¤ļ": 8593,
      "æĩĤå¾Ĺ": 8594,
      "Ġå¦Ĥæŀľ": 8595,
      "ç§įç§į": 8596,
      "çĶµæľº": 8597,
      "æĸ°å»º": 8598,
      "ame": 8599,
      "Ġareas": 8600,
      "èĦ±è´«æĶ»åĿļ": 8601,
      "Ġplasma": 8602,
      "inary": 8603,
      "åĽŀåºĶ": 8604,
      "å¤§å¸Ī": 8605,
      "å±±æ°´": 8606,
      "ä¸įæĸŃæıĲé«ĺ": 8607,
      "äººä»¬çļĦ": 8608,
      "çıŃä¸»ä»»": 8609,
      "æ²«": 8610,
      "çĶµç«Ļ": 8611,
      "æĹłéĻĲ": 8612,
      "çŃĶé¢ĺ": 8613,
      "Ġproblems": 8614,
      "çĲĨè´¢": 8615,
      "ä¿¡æīĺ": 8616,
      "åŃ¦åĳĺ": 8617,
      "atures": 8618,
      "ney": 8619,
      "ĠäºĶ": 8620,
      "æ¡©": 8621,
      "èĤĸ": 8622,
      "å¼ķæĵİ": 8623,
      "æŀĹä¸ļ": 8624,
      "ç§ĳåŃ¦çļĦ": 8625,
      "å¤ªå¤ļ": 8626,
      "Ġrats": 8627,
      "Ġsyndrome": 8628,
      "æŁľ": 8629,
      "ledge": 8630,
      "Ġrevealed": 8631,
      "Ġdam": 8632,
      "åĴĮæľįåĬ¡": 8633,
      "è®¸åı¯è¯ģ": 8634,
      "æĹ¨åľ¨": 8635,
      "æĢģåĬ¿": 8636,
      "Ġdifficult": 8637,
      "ä¸Ģå¸¦ä¸Ģè·¯": 8638,
      "èİ·å¾ĹäºĨ": 8639,
      "éĩįç»Ħ": 8640,
      "Ġstage": 8641,
      "èģĶéĤ¦": 8642,
      "æĹ¢æľī": 8643,
      "Ġneurons": 8644,
      "å¥Ī": 8645,
      "raction": 8646,
      "ç®¡çĲĨåĬŀæ³ķ": 8647,
      "sh": 8648,
      "éĢĬ": 8649,
      "å¾Ĺåĩº": 8650,
      "åĨ¯": 8651,
      "æĶ¿åįı": 8652,
      "æĶ¶ç¼©": 8653,
      "èĮĤ": 8654,
      "æ¯ķç«Ł": 8655,
      "æī§æĶ¿": 8656,
      "Wh": 8657,
      "ï¹": 8658,
      "Ġ:": 8659,
      "ç±»åĪ«": 8660,
      "ĠAfter": 8661,
      "åıĳçĶŁåľ¨": 8662,
      "Ġartic": 8663,
      "hest": 8664,
      "å°ıåŀĭ": 8665,
      "hing": 8666,
      "æıŃç¤º": 8667,
      "ä¸įåĪ©": 8668,
      "Ġprolif": 8669,
      "ä¸ºä¸Ģ": 8670,
      "Ġmuch": 8671,
      "åĬłæĭ¿": 8672,
      "Ġperson": 8673,
      ";(": 8674,
      "ä¸įå½ĵ": 8675,
      "ä»ĭç»įäºĨ": 8676,
      "æĬ¬": 8677,
      "ä¸¤å¤§": 8678,
      "ä¸ªäººä¿¡æģ¯": 8679,
      "åĬ¨çĶ»": 8680,
      "ä¸İæŃ¤åĲĮæĹ¶": 8681,
      "äººæ°ĳæ£Ģå¯ŁéĻ¢": 8682,
      "çĶŁäº§çļĦ": 8683,
      "æĴĴ": 8684,
      "çĭ¬çī¹çļĦ": 8685,
      "ä¸Ĭè¯¾": 8686,
      "Ġsus": 8687,
      "æĮĩä»¤": 8688,
      "atin": 8689,
      "Ġstart": 8690,
      "åħ¨å±Ģ": 8691,
      "å¥³åĦ¿": 8692,
      "å¹¿ä¸ľçľģ": 8693,
      "Ġstill": 8694,
      "å¸ĤåľºåĮĸ": 8695,
      "åĤħ": 8696,
      "æĸ¥": 8697,
      "çİ°åľ¨çļĦ": 8698,
      "åĤ¬åĮĸ": 8699,
      "çīº": 8700,
      "ä¹¦ç±į": 8701,
      "Ġtimes": 8702,
      "åºĶåľ¨": 8703,
      "Ġphase": 8704,
      "åĺ±": 8705,
      "ä¸ŃåĮ»èį¯": 8706,
      "Ġdom": 8707,
      "çŃĸåĪĴ": 8708,
      "Ġlink": 8709,
      "è®©ä»ĸä»¬": 8710,
      "___": 8711,
      "Ġshort": 8712,
      "Ġx": 8713,
      "æĬĢæľ¯åĴĮ": 8714,
      "Ġhistory": 8715,
      "çľī": 8716,
      "æĬ¥èŃ¦": 8717,
      "æľīåĪ©": 8718,
      "éĹ´æİ¥": 8719,
      "ä¸Ĭå¸Ĥåħ¬åı¸": 8720,
      "çĶµç£ģ": 8721,
      "æĬ¥éħ¬": 8722,
      "ĠæĪĳ": 8723,
      "ressive": 8724,
      "igen": 8725,
      "è¡¡éĩı": 8726,
      "Ġenvironment": 8727,
      "ering": 8728,
      "ç¤¾ä¿Ŀ": 8729,
      "å¸¸å§Ķä¼ļ": 8730,
      "æĮĩå¼ķ": 8731,
      "ç©ºè°ĥ": 8732,
      "opt": 8733,
      "æľ¬æĿ¥": 8734,
      "çļĦä¸Ģé¡¹": 8735,
      "âĹı": 8736,
      "Ġshe": 8737,
      "Ġincreasing": 8738,
      "ä»İä¸Ń": 8739,
      "Ġparamet": 8740,
      "DA": 8741,
      "çĽ´æĴŃ": 8742,
      "Ġ22": 8743,
      "pre": 8744,
      "Ġratio": 8745,
      "Ġrecent": 8746,
      "ense": 8747,
      "ç«ŀèµĽ": 8748,
      "ï¼ģâĢĿ": 8749,
      "åı¯è¡Į": 8750,
      "çķ´": 8751,
      "TT": 8752,
      "aken": 8753,
      "Ġtumors": 8754,
      "Ġaverage": 8755,
      "Ġsite": 8756,
      "ä¸»æµģ": 8757,
      "æĢİä¹ĪåĬŀ": 8758,
      "PR": 8759,
      "åıĳç¥¨": 8760,
      "ä¸Ńæ¯Ĵ": 8761,
      "ä¸ºäºº": 8762,
      "æĦŁåıĹåĪ°": 8763,
      "iatric": 8764,
      "ï¿½": 8765,
      "çļĦä¸ĵä¸ļ": 8766,
      "èľĢ": 8767,
      "Ġç¬¬ä¸ĢèĬĤ": 8768,
      "æ±¡æŁĵçī©": 8769,
      "]--": 8770,
      "åħ¨åĬĽ": 8771,
      "Ġdecl": 8772,
      "åıĸä»£": 8773,
      "åĶĲä»£": 8774,
      "é£İæĻ¯": 8775,
      "æķ°æį®æĺ¾ç¤º": 8776,
      "æķĻçłĶ": 8777,
      "]--[@": 8778,
      "ä¸Ģå¼ł": 8779,
      "è¾±": 8780,
      "åĶ¤": 8781,
      "æĪĲä¸ºäºĨ": 8782,
      "åĭ¾": 8783,
      "éħ¿": 8784,
      "åĴ¸": 8785,
      "æ¶Ľ": 8786,
      "å½±åĥı": 8787,
      "ĠĠãĢĢ": 8788,
      "ç½¢": 8789,
      "ulations": 8790,
      "æĪ¿åŃĲ": 8791,
      "005": 8792,
      "çļĦæľīæķĪ": 8793,
      "2003": 8794,
      "çļĦéľĢè¦ģ": 8795,
      "åĩºäºİ": 8796,
      "roscop": 8797,
      "åĲ¬åĪ°": 8798,
      "åıįå°Ħ": 8799,
      "åįģä¸īæĿ¡": 8800,
      "och": 8801,
      "ç®¡è¾ĸ": 8802,
      "æ¼Ķè®²": 8803,
      "åĲĽåŃĲ": 8804,
      "åĮĸåĲĪçī©": 8805,
      "å¸ĮèħĬ": 8806,
      "å¼Ģæĭĵ": 8807,
      "å¸¸çĶ¨çļĦ": 8808,
      "è¯Ħå®¡": 8809,
      "Ġcomple": 8810,
      "çİĩåħĪ": 8811,
      "æĹĭè½¬": 8812,
      "Ġcogn": 8813,
      "æĻºåĬĽ": 8814,
      "åĽŀå¿Ĩ": 8815,
      "éª¨å¹²": 8816,
      "èĥ½åľ¨": 8817,
      "ä¼ģä¸ļåĴĮ": 8818,
      "æĤ¨çļĦ": 8819,
      "be": 8820,
      "arr": 8821,
      "Ġprofess": 8822,
      "*.": 8823,
      "Ġï¼ī": 8824,
      "çĶŁæķĪ": 8825,
      "å°ĨæĿ¥": 8826,
      "Ġgood": 8827,
      "æĢĿæĥ³æĶ¿æ²»": 8828,
      "EN": 8829,
      "ä¸Ģå¥Ĺ": 8830,
      "æµıè§Ī": 8831,
      "çļĦéĥ¨åĪĨ": 8832,
      "ocol": 8833,
      "çīºçī²": 8834,
      "æŁĲæŁĲ": 8835,
      "Ġreduction": 8836,
      "åĬłå¯Ĩ": 8837,
      "è¿ĩå¤ļ": 8838,
      "oking": 8839,
      "åħ¨æĸ¹ä½į": 8840,
      "ç²¾åĬĽ": 8841,
      "è´ŁéĿ¢": 8842,
      "è¦ģæĥ³": 8843,
      "åĨ¶": 8844,
      "hold": 8845,
      "ä¸īåįģ": 8846,
      "æħķ": 8847,
      "td": 8848,
      "ä¸įç¡®å®ļ": 8849,
      "uk": 8850,
      "ĠMedical": 8851,
      "ä¹Łä¸įèĥ½": 8852,
      "è°ĪåĪ¤": 8853,
      "ç»ĦæĪĲçļĦ": 8854,
      "Ġç¬¬äºĮèĬĤ": 8855,
      "ä¼ļåĳĺ": 8856,
      "æĦıæĦ¿": 8857,
      "Ġcomplet": 8858,
      "æľīå¤ļ": 8859,
      "éĩİçĶŁ": 8860,
      "rade": 8861,
      "åĴĮæĬĢæľ¯": 8862,
      "èĥĸ": 8863,
      "ç¹ģæ®ĸ": 8864,
      "åįģåĽĽæĿ¡": 8865,
      "åĲİèĢħ": 8866,
      "ae": 8867,
      "è´¬": 8868,
      "åİŁæľ¬": 8869,
      "æĶ¹ä¸º": 8870,
      "posed": 8871,
      "æµģåĬ¨æĢ§": 8872,
      "åĨħå®¹çļĦ": 8873,
      "åıĳä½ľ": 8874,
      "ä¸Ĭå¹´": 8875,
      "éĢ¢": 8876,
      "èĬĤçĽ®": 8877,
      "ä¹īåĬ¡æķĻèĤ²": 8878,
      "get": 8879,
      "çĥŃçĪ±": 8880,
      "éŃĶ": 8881,
      "Ġoverall": 8882,
      "èĪĨè®º": 8883,
      "æµ·ä¸Ĭ": 8884,
      "çļĦäººçĶŁ": 8885,
      "Ġsurgical": 8886,
      "éĩįéĩı": 8887,
      "Ġindicated": 8888,
      "çļĦæĿĥåĪ©": 8889,
      "æĶĢ": 8890,
      "Ġfil": 8891,
      "æ¶µçĽĸ": 8892,
      "å¤ļæł·æĢ§": 8893,
      "åį¿": 8894,
      "æĳĬ": 8895,
      "åħħåĪĨåĪ©çĶ¨": 8896,
      "é¤Ĳé¥®": 8897,
      "Ġphysical": 8898,
      "imer": 8899,
      "ç¨³å®ļçļĦ": 8900,
      "æĬ«éľ²": 8901,
      "å®¶äºº": 8902,
      "ç®¡çĲĨåĪ¶åº¦": 8903,
      "ä¹Łå°Ĩ": 8904,
      "Ġmechanisms": 8905,
      "Ġfunctional": 8906,
      "Ġpublished": 8907,
      "MA": 8908,
      "æĪĳåĽ½çļĦ": 8909,
      "è¶ĬæĿ¥è¶Ĭå¤ļ": 8910,
      "éĻ·åħ¥": 8911,
      "æĴ°åĨĻ": 8912,
      "åı¸é©¬": 8913,
      "åĲı": 8914,
      "çĹ°": 8915,
      "åĲĪè§Ħ": 8916,
      "è¯ķåĽ¾": 8917,
      "èį£èªī": 8918,
      "å¯Įæľī": 8919,
      "çķĻåľ¨": 8920,
      "åĵªä¸ª": 8921,
      "é¢ĳç¹ģ": 8922,
      "ç»ĻäºĨ": 8923,
      "ĠÃĹ": 8924,
      "è¿Ļä½į": 8925,
      "ä½ĵçİ°åľ¨": 8926,
      "çĲĨäºĭ": 8927,
      "ãĢĭ(": 8928,
      "èĤłéģĵ": 8929,
      "å¸Ĥåľºç»ıæµİ": 8930,
      "Ġresearchers": 8931,
      "åĲĦæĸ¹": 8932,
      "å¹²åĩĢ": 8933,
      "æĺ¯è¦ģ": 8934,
      "ç²¤": 8935,
      "äº¤äºĴ": 8936,
      "ĠCO": 8937,
      "é¢ł": 8938,
      "ç½ķ": 8939,
      "èĪŀåı°": 8940,
      "åħ¹": 8941,
      "èī³": 8942,
      "ä¸įæĸŃåľ°": 8943,
      "é¢ĸ": 8944,
      "èĤ²äºº": 8945,
      "Ġdefined": 8946,
      "çļĦå»ºè®¾": 8947,
      "æ£ļ": 8948,
      "åİļçļĦ": 8949,
      "iology": 8950,
      "ä¸Ģè¾¹": 8951,
      "Ġfl": 8952,
      "å¾Īé«ĺ": 8953,
      "é«ĺè¡Ģåİĭ": 8954,
      "åľ¨åħ¶": 8955,
      "plied": 8956,
      "æİĪäºĪ": 8957,
      "az": 8958,
      "Ġnetwork": 8959,
      "çłĶç©¶åĳĺ": 8960,
      "more": 8961,
      "çŃīæĸ¹éĿ¢çļĦ": 8962,
      "åĽŀé¡¾": 8963,
      "document": 8964,
      "å¹¶åıĳ": 8965,
      "çģµéŃĤ": 8966,
      "ä¼ļåĩºçİ°": 8967,
      "æĬĵå¥½": 8968,
      "ave": 8969,
      "ç¬¼": 8970,
      "ç¼ĸçłģ": 8971,
      "èįīåİŁ": 8972,
      "ä¼ļå¯¼èĩ´": 8973,
      "è¿Ļä¸¤ä¸ª": 8974,
      "é»Ħèī²": 8975,
      "çļĦåħī": 8976,
      "çĶĺèĤĥ": 8977,
      "ij": 8978,
      "æĶ¹æŃ£": 8979,
      "çĶŁäº§ç»ıèĲ¥": 8980,
      "ç¬¬äºĮä¸ª": 8981,
      "å¤§æ¦Ĥ": 8982,
      "ç¬Ķè®°": 8983,
      "å¯ĨéĽĨ": 8984,
      "æľĢé«ĺäººæ°ĳæ³ķéĻ¢": 8985,
      "æľįçĶ¨": 8986,
      "æĩĪ": 8987,
      "èĩ´åĬĽäºİ": 8988,
      "åĤ¨åŃĺ": 8989,
      "ä¸ŃåĴĮ": 8990,
      "é£ĺ": 8991,
      "è´®": 8992,
      "åįĴ": 8993,
      "çŃīå¤ļ": 8994,
      "è¡ĮæĶ¿æľºåħ³": 8995,
      "çŀ¬": 8996,
      "icians": 8997,
      "åĮł": 8998,
      "itivity": 8999,
      "å¤ļå¹´çļĦ": 9000,
      "Ġhand": 9001,
      "åĽŀæĬ¥": 9002,
      "ource": 9003,
      "å½ĵæĹ¶çļĦ": 9004,
      "ä¼łè¯´": 9005,
      "ensive": 9006,
      "ç¼ĵæħ¢": 9007,
      "ä¸ºæŃ¢": 9008,
      "ending": 9009,
      "go": 9010,
      "put": 9011,
      "eral": 9012,
      "æī§ä¸ļ": 9013,
      "åĨľèį¯": 9014,
      "è¡Ģç³ĸ": 9015,
      "éģŃåıĹ": 9016,
      "jpg": 9017,
      "ĠAlthough": 9018,
      "çļĦæ´»åĬ¨": 9019,
      "èĢģçĻ¾å§ĵ": 9020,
      "åĥ§": 9021,
      "Ġdiscuss": 9022,
      "å¤§èĩ´": 9023,
      "å½¢å®¹": 9024,
      "åħ¨ä¼ļ": 9025,
      "é©¬ä¸Ĭ": 9026,
      "Ġdisorders": 9027,
      "specific": 9028,
      "çĸ¹": 9029,
      "æŃ¤ç±»": 9030,
      "æĹ¶éĹ´åĨħ": 9031,
      "éŁ¦": 9032,
      "Ġkid": 9033,
      "800": 9034,
      "å¤§æī¹": 9035,
      "æķĻå®¤": 9036,
      "æĲı": 9037,
      "å¿ĥæĢģ": 9038,
      "äººäºĭ": 9039,
      "ä¹ĭä¸Ĭ": 9040,
      "åıĺå¼Ĥ": 9041,
      "è¢«åĬ¨": 9042,
      "æŀģç«¯": 9043,
      "èıĬ": 9044,
      "Ġemb": 9045,
      "åĬłéĩį": 9046,
      "è¿ĩç¨ĭä¸ŃçļĦ": 9047,
      "å©Ĩ": 9048,
      "HD": 9049,
      "çļĦç»ĵæŀĦ": 9050,
      "èĢĮå·²": 9051,
      "ä¸Ģçīĩ": 9052,
      "å¾ĴåĪĳ": 9053,
      "Ġinduced": 9054,
      "å¸¸åĬ¡": 9055,
      "ç¤¾ä¼ļä¿Ŀéļľ": 9056,
      "Ġvia": 9057,
      "é«ĺçŃīæķĻèĤ²": 9058,
      "åĪłéĻ¤": 9059,
      "ators": 9060,
      "å¯¼å¼¹": 9061,
      "Ġyoung": 9062,
      "\";": 9063,
      "ä¾į": 9064,
      "èµ·çĤ¹": 9065,
      "è¾ĥå°ĳ": 9066,
      "æ³¨åħ¥": 9067,
      "Ġ/": 9068,
      "ç¥¸": 9069,
      "èĢģå¸ĪçļĦ": 9070,
      "åĽłåŃĲ": 9071,
      "æłĩçŃ¾": 9072,
      "ç¬¬äºĮæ¬¡": 9073,
      "å¦ĤåĽ¾": 9074,
      "ç±»åŀĭçļĦ": 9075,
      "èµĲ": 9076,
      "æ°´åĪĨ": 9077,
      "Ġevery": 9078,
      "å®°": 9079,
      "åĨħåŃĺ": 9080,
      "æĸ½è¡Į": 9081,
      "çĿ£ä¿ĥ": 9082,
      "è¿Ĳç®Ĺ": 9083,
      "åĲĪä½ľç¤¾": 9084,
      "GB": 9085,
      "æĸĩåĮĸéģĹäº§": 9086,
      "å¡«åĨĻ": 9087,
      "åĲĮäºĭ": 9088,
      "Ġimages": 9089,
      "Ġconcentr": 9090,
      "æł½åŁ¹": 9091,
      "ä¸įè§ģ": 9092,
      "icity": 9093,
      "åĿļå®ŀ": 9094,
      "éĴ¢éĵģ": 9095,
      "ones": 9096,
      "Ġinflammation": 9097,
      "å½Ń": 9098,
      "èĴĤ": 9099,
      "Ġcur": 9100,
      "ä¿Ĭ": 9101,
      "éļĭ": 9102,
      "éĻĦåĬł": 9103,
      "åĽ½æľīä¼ģä¸ļ": 9104,
      "çİĭæľĿ": 9105,
      "åĪĨåĪ«ä¸º": 9106,
      "{\\": 9107,
      "Ġfood": 9108,
      "åħ¨è¿ĩç¨ĭ": 9109,
      "å¿ĥéĩĮ": 9110,
      "çĸĹæ³ķ": 9111,
      "æ¸¸å®¢": 9112,
      "æĥħæĻ¯": 9113,
      "åĪļåĪļ": 9114,
      "çļĦæĦıä¹ī": 9115,
      "å®ļå¾ĭ": 9116,
      "åĬĽåŃ¦": 9117,
      "ĠCol": 9118,
      "çļĦèīºæľ¯": 9119,
      "ows": 9120,
      "èĲ½åĲİ": 9121,
      "æīĢæľīæĿĥ": 9122,
      "clusion": 9123,
      "æĪĳè®¤ä¸º": 9124,
      "terior": 9125,
      "æįŁåĿı": 9126,
      "äººæ°ĳä»£è¡¨å¤§ä¼ļ": 9127,
      "è¾ĵéĢģ": 9128,
      "Ġscores": 9129,
      "æī®": 9130,
      "Ġacross": 9131,
      "å½ĵä¸ĭ": 9132,
      "Ġability": 9133,
      "è¿Ļä¹Ł": 9134,
      "æķĪåĬĽ": 9135,
      "çļĦæĦıæĢĿ": 9136,
      "åĨĢ": 9137,
      "004": 9138,
      "çŃ¾ç½²": 9139,
      "åħ³éĶ®è¯į": 9140,
      "utions": 9141,
      "è¥¿èĹı": 9142,
      "Ġsubst": 9143,
      "Ġway": 9144,
      "%),": 9145,
      "Ġey": 9146,
      "æĹ¥åŃĲ": 9147,
      "Ġformation": 9148,
      "Ġtask": 9149,
      "Ġmac": 9150,
      "æĪĸåħ¶ä»ĸ": 9151,
      "éĶĮ": 9152,
      "æµ·åħ³": 9153,
      "éŃħ": 9154,
      "å½Ĵçº³": 9155,
      "Ġoutcome": 9156,
      "çŃīåĽłç´ł": 9157,
      "è¿Ľåº¦": 9158,
      "ç§°ä¹ĭä¸º": 9159,
      "è¡£æľį": 9160,
      "èĸªéħ¬": 9161,
      "NP": 9162,
      "ä¸»è¦ģåĮħæĭ¬": 9163,
      "çº³ç¨İäºº": 9164,
      "æľīæ²¡æľī": 9165,
      "æī¿è½½": 9166,
      "ä»½é¢Ŀ": 9167,
      "îĢ": 9168,
      "Ġreas": 9169,
      "ç»ĵå©ļ": 9170,
      "ĠNe": 9171,
      "ç²ª": 9172,
      "åĳ¨å¹´": 9173,
      "çļĦäººæīį": 9174,
      "è§£åĨ³äºĨ": 9175,
      "æĹ©åľ¨": 9176,
      "æĸ°åıĳå±ķ": 9177,
      "åĨ³è®®": 9178,
      "ç»ıæµİç¤¾ä¼ļåıĳå±ķ": 9179,
      "Ġfive": 9180,
      "æľ¬æ¡Ī": 9181,
      "èĢħåĴĮ": 9182,
      "å¹¶å¯¹": 9183,
      "æĶ¾å°Ħ": 9184,
      "Ġperformance": 9185,
      "rapeutic": 9186,
      "åķ¡": 9187,
      "è¾¾åĪ°äºĨ": 9188,
      "iological": 9189,
      "arch": 9190,
      "Ġlip": 9191,
      "æĪĸèĢħåħ¶ä»ĸ": 9192,
      "Ġtissues": 9193,
      "ãĥ": 9194,
      "åĲįè¯į": 9195,
      "æ¸ħåįİ": 9196,
      "å¹´åĪĿ": 9197,
      "æĦī": 9198,
      "otic": 9199,
      "åĴĸ": 9200,
      "åıĳèµ·": 9201,
      "ĠAt": 9202,
      "ä½Ĳ": 9203,
      "çºłæŃ£": 9204,
      "Ġantibody": 9205,
      "Ġparent": 9206,
      "é¾Ļå¤´": 9207,
      "èĬĿ": 9208,
      "ç¤¾ä¼ļä¿ĿéĻ©": 9209,
      "ç¿°": 9210,
      "åįģä¸ĥæĿ¡": 9211,
      "æĺı": 9212,
      "ä¸ŃåĽ½äºº": 9213,
      "rams": 9214,
      "åĨ³å¿ĥ": 9215,
      "Ġprevalence": 9216,
      "éĢłåŀĭ": 9217,
      "æŃ¦è£ħ": 9218,
      "è°¦": 9219,
      "å°ıåº·": 9220,
      "åįķä½įçļĦ": 9221,
      "ä¹ĭéģĵ": 9222,
      "åĨ¬åŃ£": 9223,
      "å¯¹æĬĹ": 9224,
      "åĬ³åĬ¡": 9225,
      "è¿ľè¿ľ": 9226,
      "åįģåħŃæĿ¡": 9227,
      "æ°´è´¨": 9228,
      "Ġseen": 9229,
      "æĦ¤": 9230,
      "æĳĦåħ¥": 9231,
      "110": 9232,
      "hort": 9233,
      "æķ²": 9234,
      "urse": 9235,
      "å±¡": 9236,
      "è¡Įé©¶": 9237,
      "ä»¬çļĦ": 9238,
      "éĻ¢å£«": 9239,
      "èĮĥçķ´": 9240,
      "åĽºä½ĵ": 9241,
      "ä¼Łå¤§å¤įåħ´": 9242,
      "last": 9243,
      "å½¢çļĦ": 9244,
      "ä¸ĢçĻ¾": 9245,
      "çªĥ": 9246,
      "çĸ²åĬ³": 9247,
      "æĦıå¤§åĪ©": 9248,
      "åģ¥åº·çļĦ": 9249,
      "åįķè¯į": 9250,
      "Ġaim": 9251,
      "çŁ¥è¯ĨåĴĮ": 9252,
      "æĲºå¸¦": 9253,
      "åı£ç½©": 9254,
      "å´©": 9255,
      "èº«ä»½è¯ģ": 9256,
      "å¹´è½»äºº": 9257,
      "éģ®": 9258,
      "ç½ĳç»ľå®īåħ¨": 9259,
      "æľ¬åľŁ": 9260,
      "æķ°åŃĹç»ıæµİ": 9261,
      "ä¸Ģåľº": 9262,
      "ologic": 9263,
      "Ġlack": 9264,
      "çľŁçĲĨ": 9265,
      "åħ¨åĽ½äººå¤§": 9266,
      "çļĦæĹ¶ä»£": 9267,
      "Ġsal": 9268,
      "Ġproduct": 9269,
      "BA": 9270,
      "çŃīå¥ĸ": 9271,
      "åĬ¿åĬĽ": 9272,
      "è¯Ŀé¢ĺ": 9273,
      "æĥ¨": 9274,
      "åīįå¾Ģ": 9275,
      "emia": 9276,
      "åºĶçĶ¨ç¨ĭåºı": 9277,
      "***": 9278,
      "Ġcarcin": 9279,
      "æ»©": 9280,
      "ç½Ĺé©¬": 9281,
      "ä¸Ģäºº": 9282,
      "åŃĲå®«": 9283,
      "ĠĠĠĠĠĠĠĠĠĠĠĠĠĠĠĠĠĠĠ": 9284,
      "æľŁå¾ĴåĪĳ": 9285,
      "éĥ½æ²¡æľī": 9286,
      "æºĲå¤´": 9287,
      "è¯ģå®ŀ": 9288,
      "çº¿ä¸ĭ": 9289,
      "åĬ«": 9290,
      "tle": 9291,
      "Ġevaluated": 9292,
      "åıĳæĢ§": 9293,
      "chie": 9294,
      "åĨľæĪ·": 9295,
      "ocy": 9296,
      "http": 9297,
      "å¥īçĮ®": 9298,
      "Ġut": 9299,
      "ources": 9300,
      "æı´åĬ©": 9301,
      "äºĨå¯¹": 9302,
      "ç¬¬ä¸ĢçĻ¾": 9303,
      "Ġproduction": 9304,
      "åı£èħĶ": 9305,
      "è¶Ĭå¤§": 9306,
      "artment": 9307,
      "æĶ¿æĿĥ": 9308,
      "èįĨ": 9309,
      "é»ĳèī²": 9310,
      "/-": 9311,
      "çļĦç§ĳåŃ¦": 9312,
      "åķĨä¸ļéĵ¶è¡Į": 9313,
      "ç¦Ħ": 9314,
      "èĮ¶åı¶": 9315,
      "åħ¨ä¸ĸçķĮ": 9316,
      "\"},": 9317,
      "Ġhypot": 9318,
      "Ġbaseline": 9319,
      "éħ·": 9320,
      "Ġhypert": 9321,
      "ä»¥åħį": 9322,
      "ä¸»äºº": 9323,
      "çħ§é¡¾": 9324,
      "æ¼Ķåıĺ": 9325,
      "æ³ķåŃ¦": 9326,
      "è¶³å¤ŁçļĦ": 9327,
      "Ġpoor": 9328,
      "æ´Ĵ": 9329,
      "è§£çŃĶ": 9330,
      "Ġaccur": 9331,
      "çŃīå¤ļç§į": 9332,
      "Ġjust": 9333,
      "çļĦè´£ä»»": 9334,
      "æĪĳçľģ": 9335,
      "Ġcontinu": 9336,
      "çº³ç±³": 9337,
      "çļĦé«ĺåº¦": 9338,
      "Ġconcentration": 9339,
      "æĺ¯éĢļè¿ĩ": 9340,
      "ä¸Ńä»ĭ": 9341,
      "FP": 9342,
      "ä¸įåĩº": 9343,
      "åĸĺ": 9344,
      "åįĬå¯¼ä½ĵ": 9345,
      "HR": 9346,
      "çļĦå¤ļ": 9347,
      "è½°": 9348,
      "æī©æķ£": 9349,
      "åīįæ²¿": 9350,
      "çĶŁæĢģæĸĩæĺİ": 9351,
      "èĪŀè¹Ī": 9352,
      "æ³³": 9353,
      "èĥ°": 9354,
      "Ġinjury": 9355,
      "lation": 9356,
      "å¹¿éĺĶ": 9357,
      "æĬļåħ»": 9358,
      "çľĭè§ģ": 9359,
      "åĳ½é¢ĺ": 9360,
      "çªĿ": 9361,
      "æ±ĩçİĩ": 9362,
      "è®²åº§": 9363,
      "Ġservices": 9364,
      "çļĦè´¨éĩı": 9365,
      "çļĦæĢģåº¦": 9366,
      "Ġdat": 9367,
      "è¯įæ±ĩ": 9368,
      "äºĮæ°§åĮĸç¢³": 9369,
      "å¸ķ": 9370,
      "å·¥ä¼ļ": 9371,
      "Ġassay": 9372,
      "èĩªåŃ¦": 9373,
      "æ¯Ķåĸ»": 9374,
      "Ġsurve": 9375,
      "åıįæĺłäºĨ": 9376,
      "Ġbu": 9377,
      "æ¸¯åı£": 9378,
      "å¸ĪèĮĥå¤§åŃ¦": 9379,
      "å®ļä»·": 9380,
      "ç¡Ŀ": 9381,
      "å®īåħ¨æĢ§": 9382,
      "ç¦»ä¸įå¼Ģ": 9383,
      "æļ´éľ²": 9384,
      "çļĦçĲĨè§£": 9385,
      "å¥½å¤Ħ": 9386,
      "äºĮå¹´": 9387,
      "åħ±åĲĮä½ĵ": 9388,
      "Ġevents": 9389,
      "éĶĤ": 9390,
      "æĪıåī§": 9391,
      "çļĦæĶ¿æ²»": 9392,
      "æīģ": 9393,
      "æ±ŁåįĹ": 9394,
      "èµ¢å¾Ĺ": 9395,
      "æ²³æµģ": 9396,
      "æĺ¯å¦Ĥä½ķ": 9397,
      "é«ĺåİŁ": 9398,
      "æĸĩä¸Ń": 9399,
      "ĠSe": 9400,
      "åľ¨è¿Ļç§į": 9401,
      "é©³": 9402,
      "å¹³è¡Į": 9403,
      "åĽ°å¢ĥ": 9404,
      "æĬĴ": 9405,
      "æĢ§åľ°": 9406,
      "çī©ç§į": 9407,
      "åĩłåįģ": 9408,
      "çĪ¸çĪ¸": 9409,
      "ä¸Ģä»¶": 9410,
      "åĲİéĿ¢": 9411,
      "**)": 9412,
      "éĢĤå½ĵçļĦ": 9413,
      "éĻ¶çĵ·": 9414,
      "ĠPre": 9415,
      "Ġassessed": 9416,
      "HO": 9417,
      "æĦıè¯ĨåĪ°": 9418,
      "çļĦä¸ĢäºĽ": 9419,
      "ird": 9420,
      "åĲĦéĥ¨éĹ¨": 9421,
      "è®¤ä¸ºæĺ¯": 9422,
      "åºŁæ°´": 9423,
      "ogenesis": 9424,
      "éĴ¾": 9425,
      "è¡¨çİ°åĩº": 9426,
      "BP": 9427,
      "è¯ĬçĸĹ": 9428,
      "ä¸įæķ¢": 9429,
      "å¤ĸèµĦ": 9430,
      "å¿½çķ¥": 9431,
      "æĹ¢çĦ¶": 9432,
      "Ġdecrease": 9433,
      "Ġsleep": 9434,
      "éķ¿è¿ľ": 9435,
      "æŃ¥ä¼Ĳ": 9436,
      "ĠRNA": 9437,
      "Ġvisual": 9438,
      "æĿĥéĻĲ": 9439,
      "èĩ³åħ³": 9440,
      "çĪ±å¥½": 9441,
      "æ±īåŃĹ": 9442,
      "åºĵåŃĺ": 9443,
      "æµ·åĨĽ": 9444,
      "æİĴåĪĹ": 9445,
      "Ġnecess": 9446,
      "Ġ80": 9447,
      "æľīçĽĬ": 9448,
      "åĨľçĶ°": 9449,
      "Res": 9450,
      "ä¸Ģç¯ĩ": 9451,
      "æĸ°åĨłèĤºçĤİ": 9452,
      "IF": 9453,
      "ä¸»è¦ģçļĦ": 9454,
      "Ġregions": 9455,
      "Ġsurface": 9456,
      "éģŃéģĩ": 9457,
      "æ°Ķæ¸©": 9458,
      "åħ¸åŀĭçļĦ": 9459,
      "][@": 9460,
      "ä¹ĭåľ°": 9461,
      "æ°ĳåĬŀ": 9462,
      "åľºåľ°": 9463,
      "mic": 9464,
      "Ġthough": 9465,
      "éĵħ": 9466,
      "è¿Ļæĺ¯ä¸Ģä¸ª": 9467,
      "çķĮéĿ¢": 9468,
      "Ġadults": 9469,
      "Ġinteg": 9470,
      "åľ¨å¤§": 9471,
      "ä½ĵéĩį": 9472,
      "ä»İæŃ¤": 9473,
      "èĢĥæŁ¥": 9474,
      "é¦ĸåħĪè¦ģ": 9475,
      "æĸ°ä¸ŃåĽ½": 9476,
      "åģ¥èº«": 9477,
      "åĲĳåīį": 9478,
      "çłĶç©¶äººåĳĺ": 9479,
      "ä¿ĿéĻ©åħ¬åı¸": 9480,
      "ĠUSA": 9481,
      "çŁ«": 9482,
      "çĪ±çļĦ": 9483,
      "èĢĮéĿŀ": 9484,
      "èµĦè´¨": 9485,
      "DM": 9486,
      "ww": 9487,
      "åıĳåĬ¨": 9488,
      "æŁĦ": 9489,
      "ç»Īèº«": 9490,
      "Ġabove": 9491,
      "ç§ĺä¹¦": 9492,
      "ule": 9493,
      "ä¸Ģæ¬¡æĢ§": 9494,
      "like": 9495,
      "roc": 9496,
      "Ġpathway": 9497,
      "èĨĢ": 9498,
      "æĺİä»£": 9499,
      "åĩĢåĮĸ": 9500,
      "åįģäºĶæĿ¡": 9501,
      "................": 9502,
      "respond": 9503,
      "ä¸İåıĳå±ķ": 9504,
      "èĬĤæĹ¥": 9505,
      "èĵ¬": 9506,
      "Ġachie": 9507,
      "Ġobes": 9508,
      "åĬłæĭ¿å¤§": 9509,
      "003": 9510,
      "Ġplay": 9511,
      "åį¸": 9512,
      "åıĬåħ¶ä»ĸ": 9513,
      "ĠAss": 9514,
      "âĢĿï¼Ī": 9515,
      "Ġnow": 9516,
      "åİ¨": 9517,
      "åħ¬çº¦": 9518,
      "ç¼©çŁŃ": 9519,
      "pri": 9520,
      "åĸī": 9521,
      "ĠDi": 9522,
      "åıĤè§Ĥ": 9523,
      "è´µçļĦ": 9524,
      "Ġcriteria": 9525,
[...]
