{
  "version": "1.0",
  "truncation": null,
  "padding": null,
  "added_tokens": [
    {
      "id": 0,
      "content": "<|endoftext|>",
      "single_word": false,
      "lstrip": false,
      "rstrip": false,
      "normalized": false,
      "special": true
    },
    {
      "id": 1,
      "content": "<|pad|>",
      "single_word": false,
      "lstrip": false,
      "rstrip": false,
      "normalized": false,
      "special": true
    }
  ],
  "normalizer": null,
  "pre_tokenizer": {
    "type": "ByteLevel",
    "add_prefix_space": true,
    "trim_offsets": true,
    "use_regex": true
  },
  "post_processor": {
    "type": "TemplateProcessing",
    "single": [
      {
        "Sequence": {
          "id": "A",
          "type_id": 0
        }
      }
    ],
    "pair": [
      {
        "Sequence": {
          "id": "A",
          "type_id": 0
        }
      },
      {
        "Sequence": {
          "id": "B",
          "type_id": 1
        }
      }
    ],
    "special_tokens": {}
  },
  "decoder": {
    "type": "ByteLevel",
    "add_prefix_space": true,
    "trim_offsets": true,
    "use_regex": true
  },
  "model": {
    "type": "BPE",
    "dropout": null,
    "unk_token": null,
    "continuing_subword_prefix": null,
    "end_of_word_suffix": null,
    "fuse_unk": false,
    "byte_fallback": false,
    "ignore_merges": false,
    "vocab": {
      "<|endoftext|>": 0,
      "<|pad|>": 1,
      "!": 2,
      "\"": 3,
      "#": 4,
      "$": 5,
      "%": 6,
      "&": 7,
      "'": 8,
      "(": 9,
      ")": 10,
      "*": 11,
      "+": 12,
      ",": 13,
      "-": 14,
      ".": 15,
      "/": 16,
      "0": 17,
      "1": 18,
      "2": 19,
      "3": 20,
      "4": 21,
      "5": 22,
      "6": 23,
      "7": 24,
      "8": 25,
      "9": 26,
      ":": 27,
      ";": 28,
      "<": 29,
      "=": 30,
      ">": 31,
      "?": 32,
      "@": 33,
      "A": 34,
      "B": 35,
      "C": 36,
      "D": 37,
      "E": 38,
      "F": 39,
      "G": 40,
      "H": 41,
      "I": 42,
      "J": 43,
      "K": 44,
      "L": 45,
      "M": 46,
      "N": 47,
      "O": 48,
      "P": 49,
      "Q": 50,
      "R": 51,
      "S": 52,
      "T": 53,
      "U": 54,
      "V": 55,
      "W": 56,
      "X": 57,
      "Y": 58,
      "Z": 59,
      "[": 60,
      "\\": 61,
      "]": 62,
      "^": 63,
      "_": 64,
      "a": 65,
      "b": 66,
      "c": 67,
      "d": 68,
      "e": 69,
      "f": 70,
      "g": 71,
      "h": 72,
      "i": 73,
      "j": 74,
      "k": 75,
      "l": 76,
      "m": 77,
      "n": 78,
      "o": 79,
      "p": 80,
      "q": 81,
      "r": 82,
      "s": 83,
      "t": 84,
      "u": 85,
      "v": 86,
      "w": 87,
      "x": 88,
      "y": 89,
      "z": 90,
      "{": 91,
      "|": 92,
      "}": 93,
      "~": 94,
      "¡": 95,
      "¢": 96,
      "£": 97,
      "¤": 98,
      "¥": 99,
      "¦": 100,
      "§": 101,
      "¨": 102,
      "©": 103,
      "ª": 104,
      "«": 105,
      "¬": 106,
      "®": 107,
      "¯": 108,
      "°": 109,
      "±": 110,
      "²": 111,
      "³": 112,
      "´": 113,
      "µ": 114,
      "¶": 115,
      "·": 116,
      "¸": 117,
      "¹": 118,
      "º": 119,
      "»": 120,
      "¼": 121,
      "½": 122,
      "¾": 123,
      "¿": 124,
      "Â": 125,
      "Ã": 126,
      "Ä": 127,
      "Å": 128,
      "Ç": 129,
      "É": 130,
      "Ë": 131,
      "Î": 132,
      "Ï": 133,
      "Ð": 134,
      "Ñ": 135,
      "à": 136,
      "á": 137,
      "â": 138,
      "ã": 139,
      "ä": 140,
      "å": 141,
      "æ": 142,
      "ç": 143,
      "è": 144,
      "é": 145,
      "î": 146,
      "ï": 147,
      "ð": 148,
      "ĉ": 149,
      "Ċ": 150,
      "Č": 151,
      "Ġ": 152,
      "Ģ": 153,
      "ģ": 154,
      "Ĥ": 155,
      "ĥ": 156,
      "Ħ": 157,
      "ħ": 158,
      "Ĩ": 159,
      "ĩ": 160,
      "Ī": 161,
      "ī": 162,
      "Ĭ": 163,
      "ĭ": 164,
      "Į": 165,
      "į": 166,
      "İ": 167,
      "ı": 168,
      "Ĳ": 169,
      "ĳ": 170,
      "Ĵ": 171,
      "ĵ": 172,
      "Ķ": 173,
      "ķ": 174,
      "ĸ": 175,
      "Ĺ": 176,
      "ĺ": 177,
      "Ļ": 178,
      "ļ": 179,
      "Ľ": 180,
      "ľ": 181,
      "Ŀ": 182,
      "ŀ": 183,
      "Ł": 184,
      "ł": 185,
      "Ń": 186,
      "ä¸": 187,
      "äº": 188,
      "çļ": 189,
      "çļĦ": 190,
      "ä»": 191,
      "æĪ": 192,
      "ä½": 193,
      "è¿": 194,
      "æĪĳ": 195,
      "æĺ": 196,
      "Ġå": 197,
      "æĺ¯": 198,
      "ä½ł": 199,
      "äºĨ": 200,
      "æľ": 201,
      "ä¹": 202,
      "å¤": 203,
      "åĲ": 204,
      "ä¸į": 205,
      "ä¸Ģ": 206,
      "åı": 207,
      "å°": 208,
      "è¯": 209,
      "è¿Ļ": 210,
      "å®": 211,
      "åľ": 212,
      "åĪ": 213,
      "æĿ": 214,
      "ä¸ª": 215,
      "åħ": 216,
      "æľī": 217,
      "å¥": 218,
      "ãĢ": 219,
      "ĥ½": 220,
      "ä»¬": 221,
      "åŃ": 222,
      "åĳ": 223,
      "ãĢĤ": 224,
      "ç»": 225,
      "ä»ĸ": 226,
      "æī": 227,
      "å¾": 228,
      "å°±": 229,
      "åľ¨": 230,
      "ä¹Ī": 231,
      "æĿ¥": 232,
      "äºº": 233,
      "ĠæĪĳ": 234,
      "çĶ": 235,
      "åķ": 236,
      "çľ": 237,
      "æĹ": 238,
      "è¯´": 239,
      "éĤ": 240,
      "ä¼": 241,
      "åĽ": 242,
      "éĤ£": 243,
      "åķĬ": 244,
      "æĢ": 245,
      "åİ": 246,
      "æ²": 247,
      "Ġä½ł": 248,
      "¦ģ": 249,
      "è¦ģ": 250,
      "å¥½": 251,
      "æĥ": 252,
      "éĩ": 253,
      "èµ": 254,
      "è®": 255,
      "åĬ": 256,
      "åį": 257,
      "å¿": 258,
      "è§": 259,
      "èĢ": 260,
      "åĩ": 261,
      "ä¸Ĭ": 262,
      "åŃĲ": 263,
      "åĪ°": 264,
      "æĬ": 265,
      "çİ": 266,
      "å·": 267,
      "å¹": 268,
      "å¤§": 269,
      "å¼": 270,
      "å¸": 271,
      "æ²¡": 272,
      "åĨ": 273,
      "å¯": 274,
      "ä¹Ł": 275,
      "éĥ½": 276,
      "çľĭ": 277,
      "è¿ĺ": 278,
      "åİ»": 279,
      "æł": 280,
      "åĵ": 281,
      "å¾Ĺ": 282,
      "æĸ": 283,
      "ä¼ļ": 284,
      "ä¸º": 285,
      "éĹ": 286,
      "èĥ½": 287,
      "è·": 288,
      "Ħ¿": 289,
      "æĹ¶": 290,
      "æŃ": 291,
      "çĿ": 292,
      "ä»Ģ": 293,
      "ä»¥": 294,
      "ä»Ģä¹Ī": 295,
      "å°ı": 296,
      "å¦": 297,
      "éĿ": 298,
      "ä¸ĭ": 299,
      "åĦ¿": 300,
      "åĴ": 301,
      "åĲİ": 302,
      "å¤©": 303,
      "è¿ĩ": 304,
      "éģ": 305,
      "éĢ": 306,
      "åº": 307,
      "åı¯": 308,
      "çĪ": 309,
      "å®¶": 310,
      "Ġæ": 311,
      "èĩ": 312,
      "çĽ": 313,
      "æĥ³": 314,
      "è¡": 315,
      "äºĭ": 316,
      "çĿĢ": 317,
      "éĩĮ": 318,
      "å¯¹": 319,
      "æķ": 320,
      "åĳ¢": 321,
      "ä¸Ģä¸ª": 322,
      "Ġè¿Ļ": 323,
      "è°": 324,
      "$$": 325,
      "çī": 326,
      "çŁ": 327,
      "åĩº": 328,
      "å½": 329,
      "æĦ": 330,
      "æĭ": 331,
      "åĲĹ": 332,
      "æ°": 333,
      "çĶŁ": 334,
      "åĲ§": 335,
      "ç§": 336,
      "æĪĳä»¬": 337,
      "ç»Ļ": 338,
      "å¤ļ": 339,
      "çĦ": 340,
      "åľ°": 341,
      "æŀ": 342,
      "éģĵ": 343,
      "æ¯": 344,
      "çĤ": 345,
      "çĦ¶": 346,
      "çİ°": 347,
      "èĩª": 348,
      "è¾": 349,
      "ä¸Ń": 350,
      "åĢ": 351,
      "è¿Ļä¸ª": 352,
      "æł·": 353,
      "åģ": 354,
      "å¿ĥ": 355,
      "æ¬": 356,
      "åĴĮ": 357,
      "è·Ł": 358,
      "Ġå°": 359,
      "çĤ¹": 360,
      "è´": 361,
      "æĶ": 362,
      "èĢģ": 363,
      "çŁ¥": 364,
      "æĬĬ": 365,
      "ä¿": 366,
      "å§": 367,
      "æĢİ": 368,
      "æ²¡æľī": 369,
      "å°±æĺ¯": 370,
      "åĮ": 371,
      "å¾Ī": 372,
      "æĢİä¹Ī": 373,
      "å±": 374,
      "æİ": 375,
      "ä¸įæĺ¯": 376,
      "éĻ": 377,
      "åī": 378,
      "èµ·": 379,
      "ĠéĤ£": 380,
      "çŃ": 381,
      "éķ": 382,
      "æ³": 383,
      "çľŁ": 384,
      "åĳĢ": 385,
      "éĺ": 386,
      "é¢": 387,
      "éĿ¢": 388,
      "å¹´": 389,
      "æĮ": 390,
      "åĽŀ": 391,
      "çº": 392,
      "è½": 393,
      "è¯Ŀ": 394,
      "å¼Ģ": 395,
      "åĽ½": 396,
      "CH": 397,
      "å¥¹": 398,
      "è¡Į": 399,
      "çŁ¥éģĵ": 400,
      "ä¹ĭ": 401,
      "éķ¿": 402,
      "Ġåı": 403,
      "çĲ": 404,
      "åĸ": 405,
      "æĪĲ": 406,
      "çĻ": 407,
      "è®©": 408,
      "Ġä»ĸ": 409,
      "æĥħ": 410,
      "èµ°": 411,
      "æīĢ": 412,
      "åĪ«": 413,
      "åıĳ": 414,
      "å®ļ": 415,
      "å·±": 416,
      "æ´": 417,
      "çĶ¨": 418,
      "ç»ı": 419,
      "è§ī": 420,
      "èĩªå·±": 421,
      "æĦı": 422,
      "åĢĻ": 423,
      "æµ": 424,
      "æľĢ": 425,
      "å®ŀ": 426,
      "åģļ": 427,
      "ç¬": 428,
      "çİ°åľ¨": 429,
      "å¦Ī": 430,
      "ä½Ĩ": 431,
      "æĹ¶åĢĻ": 432,
      "åįģ": 433,
      "äºĽ": 434,
      "ç®": 435,
      "æĸ¹": 436,
      "æīĵ": 437,
      "ER": 438,
      "IL": 439,
      "CHIL": 440,
      "CHILD": 441,
      "åīį": 442,
      "å½ĵ": 443,
      "åĿ": 444,
      "ä¸ī": 445,
      "èĬ": 446,
      "éĴ": 447,
      "Ġå°±": 448,
      "éĽ": 449,
      "æĤ": 450,
      "AR": 451,
      "ET": 452,
      "ä¸¤": 453,
      "GET": 454,
      "TAR": 455,
      "TARGET": 456,
      "ç«": 457,
      "åıª": 458,
      "æ¸": 459,
      "è§ģ": 460,
      "æīĭ": 461,
      "åŃ¦": 462,
      "åĬ¨": 463,
      "äºĮ": 464,
      "åĪĨ": 465,
      "é¡": 466,
      "Ġä¸į": 467,
      "ç§į": 468,
      "æĺİ": 469,
      "äºİ": 470,
      "èĤ": 471,
      "éĹ®": 472,
      "Ġå¥": 473,
      "éļ": 474,
      "æŀľ": 475,
      "èĢĮ": 476,
      "éĹ´": 477,
      "è¢": 478,
      "èº": 479,
      "é£": 480,
      "è¶": 481,
      "æĻ": 482,
      "å¤ª": 483,
      "æ±": 484,
      "åĨį": 485,
      "æŃ£": 486,
      "ä»İ": 487,
      "åĲĥ": 488,
      "åı¯ä»¥": 489,
      "ä½ľ": 490,
      "ä»ĸä»¬": 491,
      "ç¾": 492,
      "å¤´": 493,
      "åĲ¬": 494,
      "æĽ": 495,
      "Ġå¤": 496,
      "TH": 497,
      "THER": 498,
      "å¥³": 499,
      "æī¾": 500,
      "éĶ": 501,
      "è¿Ľ": 502,
      "æľ¬": 503,
      "ä¸»": 504,
      "æģ": 505,
      "çĦ¶åĲİ": 506,
      "åĺ": 507,
      "çĭ": 508,
      "æ¬¡": 509,
      "Ġæĺ¯": 510,
      "åħ¬": 511,
      "å¹²": 512,
      "æ¯Ķ": 513,
      "é«": 514,
      "æīį": 515,
      "ä¾": 516,
      "é«ĺ": 517,
      "åıĪ": 518,
      "æ³ķ": 519,
      "è§īå¾Ĺ": 520,
      "åĬĽ": 521,
      "å®ĥ": 522,
      "ä»Ĭ": 523,
      "åħ³": 524,
      "åĲĮ": 525,
      "åĽł": 526,
      "èĦ": 527,
      "èº«": 528,
      "è°¢": 529,
      "Ĺ¯": 530,
      "çŃī": 531,
      "èĭ": 532,
      "è¾¹": 533,
      "é¢ĺ": 534,
      "å¦Ĥ": 535,
      "OTHER": 536,
      "çĪ¸": 537,
      "MOTHER": 538,
      "æ¡": 539,
      "¥¿": 540,
      "å£": 541,
      "ä½łä»¬": 542,
      "åħĪ": 543,
      "è¢«": 544,
      "å·²": 545,
      "éĤ£ä¸ª": 546,
      "ĠæĪĳä»¬": 547,
      "èĥ": 548,
      "å¿«": 549,
      "è¿Ļä¹Ī": 550,
      "æ°Ķ": 551,
      "çģ": 552,
      "éĥ": 553,
      "ç©": 554,
      "æĦŁ": 555,
      "é©": 556,
      "çĶµ": 557,
      "ĥı": 558,
      "çĥ": 559,
      "ç½": 560,
      "çļĦæĹ¶åĢĻ": 561,
      "è¿Ļæł·": 562,
      "æĤ¨": 563,
      "è¥¿": 564,
      "åºĶ": 565,
      "çĲĨ": 566,
      "è§£": 567,
      "èģ": 568,
      "çĽ¸": 569,
      "éĩį": 570,
      "çķ": 571,
      "èī": 572,
      "åŃ©": 573,
      "å¸¸": 574,
      "æ°´": 575,
      "Ġä¸Ģ": 576,
      "æĹł": 577,
      "ä¸ľ": 578,
      "æĶ¾": 579,
      "çī©": 580,
      "ç¥": 581,
      "è¯¥": 582,
      "æĪĳçļĦ": 583,
      "èĪ": 584,
      "æį": 585,
      "ĠåĲ": 586,
      "ç´": 587,
      "åĥı": 588,
      "çĻ½": 589,
      "åĵª": 590,
      "çĽ´": 591,
      "åħ¨": 592,
      "ä½ĵ": 593,
      "ä½Ĩæĺ¯": 594,
      "æĹ¥": 595,
      "Ġåħ": 596,
      "åŁ": 597,
      "æŁ": 598,
      "ç³": 599,
      "å¨": 600,
      "çĮ": 601,
      "æľº": 602,
      "éĴ±": 603,
      "ç¦": 604,
      "ĠåĪ": 605,
      "è¿ĺæĺ¯": 606,
      "çĪ±": 607,
      "çī¹": 608,
      "åĹ¯": 609,
      "çİĭ": 610,
      "æīĢä»¥": 611,
      "æĸ°": 612,
      "ä½į": 613,
      "åħ¶": 614,
      "åĸľ": 615,
      "è°ģ": 616,
      "æ´»": 617,
      "å·¥": 618,
      "æŃ»": 619,
      "ãĢģ": 620,
      "å¸Ī": 621,
      "å¤ĸ": 622,
      "ä¿¡": 623,
      "åĵ¥": 624,
      "Ġæľī": 625,
      "æ¬¢": 626,
      "Ġåľ": 627,
      "èĬ±": 628,
      "çļĦäºº": 629,
      "ç¡": 630,
      "èĻ": 631,
      "éľ": 632,
      "èį": 633,
      "å©": 634,
      "æı": 635,
      "ç¬¬": 636,
      "åıĭ": 637,
      "çľŁçļĦ": 638,
      "åĩł": 639,
      "åı«": 640,
      "Ġåĵ": 641,
      "è¿ĺæľī": 642,
      "ä½łçļĦ": 643,
      "é»": 644,
      "å·²ç»ı": 645,
      "Ġå¥½": 646,
      "æĿ¥äºĨ": 647,
      "å¸¦": 648,
      "é©¬": 649,
      "ç¾İ": 650,
      "ãĢĤ\"": 651,
      "è½¦": 652,
      "ä½ı": 653,
      "å°ĳ": 654,
      "å®Į": 655,
      "åĨĽ": 656,
      "å§Ĳ": 657,
      "åĲĪ": 658,
      "ä¸įèĥ½": 659,
      "Ġåľ¨": 660,
      "ç»ĵ": 661,
      "ä»Ĭå¤©": 662,
      "ä¸Ģä¸ĭ": 663,
      "æ¶": 664,
      "Ġå¦": 665,
      "Ġåı¯": 666,
      "æİ¥": 667,
      "äºĶ": 668,
      "é¦": 669,
      "éħ": 670,
      "éª": 671,
      "å®ī": 672,
      "éĥ¨": 673,
      "çĻ¾": 674,
      "åĳĬ": 675,
      "çĹ": 676,
      "æ¼": 677,
      "æĢĿ": 678,
      "éĥ½æĺ¯": 679,
      "æľĪ": 680,
      ":\"": 681,
      "éļ¾": 682,
      "åľº": 683,
      "åıĺ": 684,
      "åĽłä¸º": 685,
      "éĢī": 686,
      "é¥": 687,
      "äº²": 688,
      "éĿŀ": 689,
      "å±±": 690,
      "éĶĻ": 691,
      "åŃ©åŃĲ": 692,
      "çĸ": 693,
      "ç¨": 694,
      "è¯·": 695,
      "ç¤": 696,
      "åĪ°äºĨ": 697,
      "éĹ¨": 698,
      "Ġå°ı": 699,
      "è·¯": 700,
      "ç²": 701,
      "åĽĽ": 702,
      "èĲ": 703,
      "æŃ¤": 704,
      "åĪļ": 705,
      "æ»": 706,
      "ĠåĽ": 707,
      "åĬŀ": 708,
      "åĵĪ": 709,
      "åı£": 710,
      "åı¯èĥ½": 711,
      "éĢļ": 712,
      "çľ¼": 713,
      "åĬł": 714,
      "Ġå®": 715,
      "æľĭ": 716,
      "åĲį": 717,
      "å¹³": 718,
      "ç¡®": 719,
      "æľĭåıĭ": 720,
      "æĢ»": 721,
      "äºĭåĦ¿": 722,
      "çŃĶ": 723,
      "æ·": 724,
      "æĽ´": 725,
      "åº¦": 726,
      "éĺŁ": 727,
      "åĸľæ¬¢": 728,
      "åĴ±": 729,
      "è±": 730,
      "åıĹ": 731,
      "èĢħ": 732,
      "è®°": 733,
      "è¡¨": 734,
      "æĹ¶éĹ´": 735,
      "çĲĥ": 736,
      "çł": 737,
      "åĲĳ": 738,
      "ä¸ļ": 739,
      "ç®Ĺ": 740,
      "åĺĽ": 741,
      "è®¤": 742,
      "ç³»": 743,
      "ä¸ĩ": 744,
      "ä¹Łä¸į": 745,
      "æ¡Ī": 746,
      "æĸĩ": 747,
      "å¸®": 748,
      "ä»¶": 749,
      "éĩı": 750,
      "Ġå¤§": 751,
      "çĶ·": 752,
      "éĵ": 753,
      "ä»»": 754,
      "äºĨä¸Ģ": 755,
      "å£°": 756,
      "ä¹Łæĺ¯": 757,
      "å°Ĩ": 758,
      "çļĦè¯Ŀ": 759,
      "é¸": 760,
      "å²": 761,
      "æķ°": 762,
      "æħ": 763,
      "çĪ·": 764,
      "äºĭæĥħ": 765,
      "æĢ§": 766,
      "æĭ¿": 767,
      "ä¿Ŀ": 768,
      "ä¸İ": 769,
      "åĶ": 770,
      "çĽ®": 771,
      "å¤Ħ": 772,
      "æĹ©": 773,
      "æľĽ": 774,
      "æµ·": 775,
      "åĮĸ": 776,
      "ç®¡": 777,
      "ç¦»": 778,
      "Ġåķ": 779,
      "æķħ": 780,
      "è¯ī": 781,
      "åħī": 782,
      "å¼ł": 783,
      "åİŁ": 784,
      "åĳ½": 785,
      "éĤ£ä¹Ī": 786,
      "èµ·æĿ¥": 787,
      "çİ©": 788,
      "ä¸ľè¥¿": 789,
      "ä¸Ģå®ļ": 790,
      "æ¸ħ": 791,
      "è®²": 792,
      "çļĦæĺ¯": 793,
      "æ®": 794,
      "æĬ¥": 795,
      "ç±": 796,
      "æĴ": 797,
      "ä½ķ": 798,
      "éĩĳ": 799,
      "Ġå¯": 800,
      "çħ": 801,
      "ç»ĻæĪĳ": 802,
      "åĩºæĿ¥": 803,
      "Ġåĳ": 804,
      "ä¸įä¼ļ": 805,
      "è¶Ĭ": 806,
      "ä»ĸçļĦ": 807,
      "ĠçĦ¶åĲİ": 808,
      "æĢķ": 809,
      "ä¸ºä»Ģä¹Ī": 810,
      "æĪĺ": 811,
      "Ġè¦ģ": 812,
      "çı": 813,
      "ç¼": 814,
      "ä¸ĸ": 815,
      "æĪ¿": 816,
      "å¦Īå¦Ī": 817,
      "èī²": 818,
      "çª": 819,
      "å§ĭ": 820,
      "æĳ": 821,
      "æ¯ı": 822,
      "ä»£": 823,
      "éĹ®é¢ĺ": 824,
      "å¢": 825,
      "Ġä½Ĩæĺ¯": 826,
      "æıĲ": 827,
      "åħ¥": 828,
      "ä¸Ģèµ·": 829,
      "åħ«": 830,
      "æ°ĳ": 831,
      "TI": 832,
      "äº¤": 833,
      "è£": 834,
      "åĳĺ": 835,
      "é£İ": 836,
      "å¤§å®¶": 837,
      "æĿ¡": 838,
      "æ¢": 839,
      "}$$": 840,
      "æ£": 841,
      "ä¸ŃåĽ½": 842,
      "å¥½çļĦ": 843,
      "VE": 844,
      "æĻļ": 845,
      "Ġå°±æĺ¯": 846,
      "Ġå¯¹": 847,
      "åºĶè¯¥": 848,
      "AT": 849,
      "OR": 850,
      "IN": 851,
      "ĠåĴ": 852,
      "STI": 853,
      "GAT": 854,
      "VESTI": 855,
      "INVESTI": 856,
      "GATOR": 857,
      "INVESTIGATOR": 858,
      "åĨħ": 859,
      "éŁ": 860,
      "Ġå¦Ĥ": 861,
      "ä»¥åĲİ": 862,
      "èĽ": 863,
      "æĪĳå°±": 864,
      "å¼Ł": 865,
      "å¨ĺ": 866,
      "å½±": 867,
      "æ¥": 868,
      "Ġè¿Ļä¸ª": 869,
      "å¤Ł": 870,
      "ä¸Ķ": 871,
      "Ġä½łä»¬": 872,
      "ä½łè¯´": 873,
      "è¿ĳ": 874,
      "æľį": 875,
      "éĢģ": 876,
      "ä¹°": 877,
      "ĠåķĬ": 878,
      "è·ĳ": 879,
      "å»": 880,
      "çĪ¶": 881,
      "$$\\": 882,
      "!\"": 883,
      "åĳĬè¯ī": 884,
      "æĲ": 885,
      "ĠäºĨ": 886,
      "è°¢è°¢": 887,
      "èĢĥ": 888,
      "{{": 889,
      "ä¹Ŀ": 890,
      "ä¸Ģæł·": 891,
      "çĨ": 892,
      "è¿ŀ": 893,
      "ĠæīĢä»¥": 894,
      "çī¹åĪ«": 895,
      "ç»Ļä½ł": 896,
      "æľŁ": 897,
      "èĩªå·±çļĦ": 898,
      "éľĢ": 899,
      "é£ŀ": 900,
      "äººçļĦ": 901,
      "è¿ĻäºĽ": 902,
      "ä¹Ĳ": 903,
      "ä¹¦": 904,
      "èİ": 905,
      "äº§": 906,
      "ä¸ĢçĤ¹": 907,
      "ä¸¤ä¸ª": 908,
      "åºķ": 909,
      "å®³": 910,
      "ç¥ŀ": 911,
      "é¡¹": 912,
      "è¿ľ": 913,
      "åĪ©": 914,
      "éĿŀå¸¸": 915,
      "Ġçľĭ": 916,
      "çº¢": 917,
      "åıį": 918,
      "å¼º": 919,
      "æ±Ĥ": 920,
      "é¼": 921,
      "çĬ": 922,
      "ç©º": 923,
      "å©ļ": 924,
      "æķĻ": 925,
      "xx": 926,
      "ä¿©": 927,
      "Ġä¹Ł": 928,
      "é¥Ń": 929,
      "ĠæĢİä¹Ī": 930,
      "æł¹": 931,
      "çħ§": 932,
      "ç¬ĳ": 933,
      "å¼Ģå§ĭ": 934,
      "çĶ±": 935,
      "è®¡": 936,
      "æĮº": 937,
      "Ġå¦Ĥæŀľ": 938,
      "æĶ¶": 939,
      "åŁİ": 940,
      "è¿Ļæĺ¯": 941,
      "é¾": 942,
      "Ġä»Ģä¹Ī": 943,
      "åı¸": 944,
      "å¥½äºĨ": 945,
      "åħŃ": 946,
      "å¾Ģ": 947,
      "ä¸ĥ": 948,
      "ç´§": 949,
      "ä¸ºäºĨ": 950,
      "}}": 951,
      "å¾Īå¤ļ": 952,
      "åİ»äºĨ": 953,
      "åŃĹ": 954,
      "æģ¯": 955,
      "Ġå¥¹": 956,
      "çļĦä¸Ģ": 957,
      "åĩĨ": 958,
      "è·ŁæĪĳ": 959,
      "çģ«": 960,
      "ä¸įçŁ¥éģĵ": 961,
      "ĠèĢĮ": 962,
      "éĻ¢": 963,
      "ä¾¿": 964,
      "åĴ±ä»¬": 965,
      "çĹħ": 966,
      "å¤«": 967,
      "Ġè¯´": 968,
      "Ġåĵİ": 969,
      "èĬĤ": 970,
      "åľ¨è¿Ļ": 971,
      "æ¼Ķ": 972,
      "ç«ĭ": 973,
      "èħ": 974,
      "ä¼ł": 975,
      "ä¸įè¦ģ": 976,
      "æľīä¸Ģ": 977,
      "Ġè¿ĺ": 978,
      "èı": 979,
      "Ġå½": 980,
      "ç¢": 981,
      "åĿĲ": 982,
      "æĦıæĢĿ": 983,
      "å¤ĩ": 984,
      "è¿Ĳ": 985,
      "Ġä¸ª": 986,
      "åĪ¶": 987,
      "ĠåĨ": 988,
      "èµ¶": 989,
      "å¸Ĥ": 990,
      "åįĥ": 991,
      "è¿Ļç§į": 992,
      "èĢģå¸Ī": 993,
      "åĨ³": 994,
      "Ġ\\": 995,
      "æłĳ": 996,
      "ä¼¤": 997,
      "çķĻ": 998,
      "åįķ": 999,
      "åĸĿ": 1000,
      "çĪ¸çĪ¸": 1001,
      "çĶŁæ´»": 1002,
      "çĿ¡": 1003,
      "Ġåį": 1004,
      "å·¥ä½ľ": 1005,
      "éľĢè¦ģ": 1006,
      "èĮ": 1007,
      "æŁ¥": 1008,
      "çº¿": 1009,
      "æµģ": 1010,
      "å¤§çļĦ": 1011,
      "éĺ¿": 1012,
      "ä¸įå¥½": 1013,
      "å¿ħ": 1014,
      "ĠçļĦ": 1015,
      "çķĮ": 1016,
      "åĮ»": 1017,
      "å®Ŀ": 1018,
      "æĿİ": 1019,
      "åĵİ": 1020,
      "Ġæ²¡": 1021,
      "ĠåĽł": 1022,
      "ä¹ĭåĲİ": 1023,
      "åı¥": 1024,
      "ç¨ĭ": 1025,
      "è¯Ĩ": 1026,
      "è±¡": 1027,
      "æĪĸ": 1028,
      "åķ¦": 1029,
      "éĿĴ": 1030,
      "è®¸": 1031,
      "åĿĹ": 1032,
      "ä¸ĢçĽ´": 1033,
      "åĽŀæĿ¥": 1034,
      "æĿĢ": 1035,
      "åĮĹ": 1036,
      "Ĥ¨": 1037,
      "æ¯į": 1038,
      "åı·": 1039,
      "Ġåİ": 1040,
      "æļ": 1041,
      "å®¹": 1042,
      "..": 1043,
      "çīĩ": 1044,
      "Ġåıª": 1045,
      "åıĳçİ°": 1046,
      "æĺ¯ä¸įæĺ¯": 1047,
      "ĠæĿ¥": 1048,
      "è½»": 1049,
      "çľĭçľĭ": 1050,
      "è¾ĥ": 1051,
      "å¤±": 1052,
      "è¯ģ": 1053,
      "ä½¿": 1054,
      "æŀĹ": 1055,
      "Ġå¾": 1056,
      "äº®": 1057,
      "å¹¶": 1058,
      "æķ´": 1059,
      "æĺŁ": 1060,
      "ä¸ĭæĿ¥": 1061,
      "æĺ¯æĪĳ": 1062,
      "åĮħ": 1063,
      "æ»¡": 1064,
      "æĮĩ": 1065,
      "èĤ¯": 1066,
      "éĽ¶": 1067,
      "åĲĦ": 1068,
      "éŁ³": 1069,
      "èµĦ": 1070,
      "åħ³ç³»": 1071,
      "åħ´": 1072,
      "èµ°äºĨ": 1073,
      "ĠåĽłä¸º": 1074,
      "éĩĮéĿ¢": 1075,
      "æĮģ": 1076,
      "ä¸Ģæ¬¡": 1077,
      "å¦Ĥæŀľ": 1078,
      "è½¬": 1079,
      "æº": 1080,
      "çŃĶæ¡Ī": 1081,
      "Ġçİ°åľ¨": 1082,
      "è®©æĪĳ": 1083,
      "åįĹ": 1084,
      "æĢª": 1085,
      "Ġä»ĸä»¬": 1086,
      "åı°": 1087,
      "æĭī": 1088,
      "Ġå½ĵ": 1089,
      "åĵģ": 1090,
      "åĬ¡": 1091,
      "ĠæĤ¨": 1092,
      "å»º": 1093,
      "èĩ³": 1094,
      "ç¿": 1095,
      "Ġæ¯": 1096,
      "åįĬ": 1097,
      "in": 1098,
      "å¼ı": 1099,
      "æĦ¿": 1100,
      "åħ¶å®ŀ": 1101,
      "EA": 1102,
      "TEA": 1103,
      "TEACH": 1104,
      "TEACHER": 1105,
      "è°ĥ": 1106,
      "ĮæľĽ": 1107,
      "æ®µ": 1108,
      "æŃ¥": 1109,
      "çľĭåĪ°": 1110,
      "éĺ³": 1111,
      "Ġå¿": 1112,
      "åľ°æĸ¹": 1113,
      "è´¨": 1114,
      "èµĽ": 1115,
      "åĨĻ": 1116,
      "æĭľ": 1117,
      "éħĴ": 1118,
      "åħ±": 1119,
      "Ġå¹": 1120,
      "en": 1121,
      "å¥¶": 1122,
      "Ń¦": 1123,
      "äºĨæĪĳ": 1124,
      "âĳ": 1125,
      "åķ¥": 1126,
      "Ġä½Ĩ": 1127,
      "é»ĳ": 1128,
      "è¿ĩæĿ¥": 1129,
      "å½¢": 1130,
      "æĢ¥": 1131,
      "Ġåħ¶": 1132,
      "ç«Ļ": 1133,
      "ĠèĢģ": 1134,
      "å¦¹": 1135,
      "ä¹ī": 1136,
      "å¯¼": 1137,
      "è¯ķ": 1138,
      "è¦ģæĺ¯": 1139,
      "æ¶Ī": 1140,
      "åĬŁ": 1141,
      "ç²¾": 1142,
      "æħ¢": 1143,
      "äºĨåĲĹ": 1144,
      "æ¸¸": 1145,
      "æĺĵ": 1146,
      "åĳ¨": 1147,
      "å¿Ļ": 1148,
      "çĥŃ": 1149,
      "é»Ħ": 1150,
      "è§Ĥ": 1151,
      "çŀ": 1152,
      "åĨµ": 1153,
      "æį®": 1154,
      "æĶ¹": 1155,
      "åĢĴ": 1156,
      "å«": 1157,
      "æĦŁè§ī": 1158,
      "åĮº": 1159,
      "åĭ": 1160,
      "é±": 1161,
      "æĪĳæĺ¯": 1162,
      "åł": 1163,
      "ĠåĴ±": 1164,
      "èģĶ": 1165,
      "çıŃ": 1166,
      "æķ¢": 1167,
      "çŁ³": 1168,
      "å¥½å¥½": 1169,
      "åĵĪåĵĪ": 1170,
      "é±¼": 1171,
      "è§Ĩ": 1172,
      "æķĳ": 1173,
      "çļĩ": 1174,
      "åĻ": 1175,
      "æīĢæľī": 1176,
      "Ġ\"": 1177,
      "èĭ¦": 1178,
      "å®ĺ": 1179,
      "äººå®¶": 1180,
      "è¾¾": 1181,
      "ç»Ī": 1182,
      "ä¸ĬçļĦ": 1183,
      "åĽ¢": 1184,
      "éļı": 1185,
      "Ġéĥ½": 1186,
      "å±ķ": 1187,
      "æ³¨": 1188,
      "èĤ¯å®ļ": 1189,
      "éº": 1190,
      "é¦ĸ": 1191,
      "Ġä½łè¯´": 1192,
      "é¹": 1193,
      "æĪĳè§īå¾Ĺ": 1194,
      "è¡£": 1195,
      "åı¯æĺ¯": 1196,
      "äºĮåįģ": 1197,
      "æ·±": 1198,
      "è¨": 1199,
      "å¥ĩ": 1200,
      "çĶ»": 1201,
      "è¨Ģ": 1202,
      "èĲ½": 1203,
      "æİī": 1204,
      "æİĴ": 1205,
      "er": 1206,
      "è£ħ": 1207,
      "ĠæĬĬ": 1208,
      "æĩ": 1209,
      "éĨ": 1210,
      "å¾ħ": 1211,
      "ä¹ħ": 1212,
      "é¾Ļ": 1213,
      "ç§ĳ": 1214,
      "ç½ĳ": 1215,
      "æľĢåĲİ": 1216,
      "?\"": 1217,
      "åıĸ": 1218,
      "çļĦå°ı": 1219,
      "è¶³": 1220,
      "åĵ¦": 1221,
      "ä¸ĸçķĮ": 1222,
      "è®¾": 1223,
      "ĠåĪ°": 1224,
      "æĶ¿": 1225,
      "ĠåĪ«": 1226,
      "åķĨ": 1227,
      "é¢Ĩ": 1228,
      "ä¼ļåĦ¿": 1229,
      "äºĨä½ł": 1230,
      "Ġè¿Ļæĺ¯": 1231,
      "å¸ĮæľĽ": 1232,
      "èģĬ": 1233,
      "Ġå¸": 1234,
      "æł¼": 1235,
      "ä¹ĭåīį": 1236,
      "å·®": 1237,
      "ä¸Ģä¸ªäºº": 1238,
      "çªģ": 1239,
      "Ġå¼": 1240,
      "æľ¯": 1241,
      "æĪĳä»¬çļĦ": 1242,
      "æŃĮ": 1243,
      "è¯¯": 1244,
      "ç»Ħ": 1245,
      "ä¸ĢäºĽ": 1246,
      "å¤į": 1247,
      "æľīä»Ģä¹Ī": 1248,
      "æĬ¤": 1249,
      "ç»Ŀ": 1250,
      "éĥ½ä¸į": 1251,
      "ra": 1252,
      "åĳĥ": 1253,
      "è·Łä½ł": 1254,
      "ä¹ł": 1255,
      "å¿Ĺ": 1256,
      "å²ģ": 1257,
      "æĸŃ": 1258,
      "èŃ¦": 1259,
      "ĠæĪĳæĺ¯": 1260,
      "å®¢": 1261,
      "çĭĹ": 1262,
      "åĤ": 1263,
      "åıĬ": 1264,
      "éĩįè¦ģ": 1265,
      "è®º": 1266,
      "æĺİçĻ½": 1267,
      "æĿ¥çļĦ": 1268,
      "éĢł": 1269,
      "ç»Ń": 1270,
      "åħĦ": 1271,
      "åŁº": 1272,
      "èĦ¸": 1273,
      "éĻ¤": 1274,
      "éŃ": 1275,
      "Ġåĩ": 1276,
      "ĠæĪĳå°±": 1277,
      "åŀ": 1278,
      "åį´": 1279,
      "åħ»": 1280,
      "æ¯Ķè¾ĥ": 1281,
      "½çĦ¶": 1282,
      "æ¥ļ": 1283,
      "ä»½": 1284,
      "è·³": 1285,
      "åħĥ": 1286,
      "æĢģ": 1287,
      "å§ĳ": 1288,
      "èĥ½å¤Ł": 1289,
      "ç»Ĩ": 1290,
      "æĬĵ": 1291,
      "çľŁæĺ¯": 1292,
      "åĪĩ": 1293,
      "æľª": 1294,
      "çĵ": 1295,
      "æŀĲ": 1296,
      "è¿Ļä¸Ģ": 1297,
      "é¦Ļ": 1298,
      "ç±»": 1299,
      "rac": 1300,
      "åĵªåĦ¿": 1301,
      "æ²³": 1302,
      "é£Ł": 1303,
      "frac": 1304,
      "èľ": 1305,
      "åħĪçĶŁ": 1306,
      "èį¯": 1307,
      "æĪı": 1308,
      "åħ¬åı¸": 1309,
      "æĿ¿": 1310,
      "åħµ": 1311,
      "åĪĻ": 1312,
      "æĥħåĨµ": 1313,
      "ä¸įäºĨ": 1314,
      "å¤ľ": 1315,
      "ç±³": 1316,
      "Ġä¸įæĺ¯": 1317,
      "èįī": 1318,
      "ä»¤": 1319,
      "èĳ": 1320,
      "æ²»": 1321,
      "åĬŀæ³ķ": 1322,
      "å¸ĥ": 1323,
      "å£«": 1324,
      "é¼ł": 1325,
      "çĮ«": 1326,
      "æĪĳä¹Ł": 1327,
      "åıĶ": 1328,
      "ç¦ı": 1329,
      "æ¯Ľ": 1330,
      "ç©¿": 1331,
      "å¿ĥéĩĮ": 1332,
      "ä¸įè¿ĩ": 1333,
      "Ġåħ¶å®ŀ": 1334,
      "çĶµè¯Ŀ": 1335,
      "åĩºåİ»": 1336,
      "åĪ»": 1337,
      "å±Ģ": 1338,
      "æ¹": 1339,
      "çīĽ": 1340,
      "åĵį": 1341,
      "ç«Ł": 1342,
      "ä½łå°±": 1343,
      "åįĸ": 1344,
      "ä½łå¥½": 1345,
      "ĠåĨį": 1346,
      "ç»Ł": 1347,
      "å¾·": 1348,
      "è°Ī": 1349,
      "çĨĬ": 1350,
      "}{": 1351,
      "è¸": 1352,
      "æĺ¯ä¸Ģ": 1353,
      "æĸĻ": 1354,
      "çļ®": 1355,
      "ä»·": 1356,
      "å©Ĩ": 1357,
      "äºĨåĲ§": 1358,
      "_{": 1359,
      "åįİ": 1360,
      "è¿Ļæł·çļĦ": 1361,
      "Ġä»İ": 1362,
      "èĦĳ": 1363,
      "å·´": 1364,
      "Ġè¿ĺæľī": 1365,
      "é¡¾": 1366,
      "ä¸ĵ": 1367,
      "Ġè®©": 1368,
      "æĴŃ": 1369,
      "å¾®": 1370,
      "æĭħ": 1371,
      "é¢ĺå¹²": 1372,
      "Ġåı¯æĺ¯": 1373,
      "è´¹": 1374,
      "éĻĪ": 1375,
      "çł´": 1376,
      "è§Ĵ": 1377,
      "æľīçĤ¹": 1378,
      "ç¤º": 1379,
      "èıľ": 1380,
      "le": 1381,
      "Ġæ²¡æľī": 1382,
      "åĢ¼": 1383,
      "äºĳ": 1384,
      "Ġå®ĥ": 1385,
      "æĶ¯": 1386,
      "æŃ£ç¡®": 1387,
      "éĿĻ": 1388,
      "ä¸įèµ·": 1389,
      "Ġä»Ĭå¤©": 1390,
      "lin": 1391,
      "èĭ±": 1392,
      "åĩĨå¤ĩ": 1393,
      "éģĩ": 1394,
      "Ġåİ»": 1395,
      "åİĨ": 1396,
      "å°½": 1397,
      "ç¬¬ä¸Ģ": 1398,
      "æ¨": 1399,
      "è´Ł": 1400,
      "å½ĵæĹ¶": 1401,
      "line": 1402,
      "å¯Ĩ": 1403,
      "ç¤¾": 1404,
      "è¯´äºĨ": 1405,
      "ç¤¼": 1406,
      "è¯´çļĦ": 1407,
      "éĢŁ": 1408,
      "ç»§": 1409,
      "erline": 1410,
      "è¿ĻåĦ¿": 1411,
      "æł¡": 1412,
      "åħ·": 1413,
      "æĪĳä¸į": 1414,
      "æį¢": 1415,
      "éĤ£äºĽ": 1416,
      "å¯Ł": 1417,
      "èĦļ": 1418,
      "åĬ©": 1419,
      "æŀģ": 1420,
      "éĽ¨": 1421,
      "é¸¡": 1422,
      "ä¸ªäºº": 1423,
      "è§Ħ": 1424,
      "åıĤ": 1425,
      "xxx": 1426,
      "è¯Ń": 1427,
      "è¿ĻéĩĮ": 1428,
      "Ġé¢ĺå¹²": 1429,
      "èĻ½çĦ¶": 1430,
      "éªĮ": 1431,
      "çĽ¸ä¿¡": 1432,
      "æĢİä¹Īæł·": 1433,
      "åĽŀåİ»": 1434,
      "æĻļä¸Ĭ": 1435,
      "æľīä¸Ģä¸ª": 1436,
      "æķħäºĭ": 1437,
      "è¯´ä½ł": 1438,
      "^{": 1439,
      "ä¼Ĺ": 1440,
      "åħĭ": 1441,
      "æĩĤ": 1442,
      "èĥĮ": 1443,
      "åħļ": 1444,
      "æĿĳ": 1445,
      "é¡»": 1446,
      "æ±Ł": 1447,
      "Ġæĭ": 1448,
      "æĬĢ": 1449,
      "ç®Ģ": 1450,
      "éĻª": 1451,
      "æŃ¦": 1452,
      "æİ¨": 1453,
      "an": 1454,
      "äº¬": 1455,
      "é²": 1456,
      "è¿ĩåİ»": 1457,
      "äºĨä¸Ģä¸ª": 1458,
      "èĹ": 1459,
      "æ¢¦": 1460,
      "éĢīé¡¹": 1461,
      "å¡": 1462,
      "Ġä¸Ĭ": 1463,
      "$$,": 1464,
      "ç»ĥ": 1465,
      "æľ¨": 1466,
      "ĠåĹ¯": 1467,
      "äºī": 1468,
      "Ġåĸ": 1469,
      "éĽĨ": 1470,
      "è¿½": 1471,
      ",\"": 1472,
      "æľĿ": 1473,
      "ç¬¬äºĮ": 1474,
      "åıªæĺ¯": 1475,
      "æ¸ħæ¥ļ": 1476,
      "éĨĴ": 1477,
      "åĦ¿åŃĲ": 1478,
      "åĺ´": 1479,
      "é¬": 1480,
      "Ġæĥ³": 1481,
      "åī§": 1482,
      "åĻ¨": 1483,
      "åĳ³": 1484,
      "æĸ¯": 1485,
      "çº¦": 1486,
      "æ²¹": 1487,
      "å¥½åĥı": 1488,
      "çĬ¶": 1489,
      "åĪ«äºº": 1490,
      "åıĳçĶŁ": 1491,
      "èĽĭ": 1492,
      "çĸĳ": 1493,
      "ä¸½": 1494,
      "æłĩ": 1495,
      "éĢĤ": 1496,
      "æĭį": 1497,
      "åĿı": 1498,
      "éĹ»": 1499,
      "éĽª": 1500,
      "è´£": 1501,
      "æľĢè¿ĳ": 1502,
      "åģĩ": 1503,
      "åħĶ": 1504,
      "åľŁ": 1505,
      "åĪ°åºķ": 1506,
      "é¬¼": 1507,
      "æĺ¥": 1508,
      "æĪĸèĢħ": 1509,
      "å¤ļå°ĳ": 1510,
      "æĬķ": 1511,
      "ç£": 1512,
      "ä½łæĺ¯": 1513,
      "ä¸įåĪ°": 1514,
      "è¶ħ": 1515,
      "ri": 1516,
      "ä»¥åīį": 1517,
      "åĩ»": 1518,
      "ĠæĶ": 1519,
      "æĢĢ": 1520,
      "æĥ³åĪ°": 1521,
      "éĻ©": 1522,
      "åŃĺ": 1523,
      "å¿µ": 1524,
      "é©¬ä¸Ĭ": 1525,
      "çļĦäºĭæĥħ": 1526,
      "çº§": 1527,
      "åĶ±": 1528,
      "å±ŀ": 1529,
      "æĵ": 1530,
      "ä¸ŃçļĦ": 1531,
      "è®©ä½ł": 1532,
      "çİ¯": 1533,
      "è·Łä½łè¯´": 1534,
      "éĤ£ç§į": 1535,
      "éĩĮçļĦ": 1536,
      "å¹¸": 1537,
      "ç©¶": 1538,
      "ä¸¥": 1539,
      "ä¼Ļ": 1540,
      "åģľ": 1541,
      "å¿ĺ": 1542,
      "ä»¥ä¸º": 1543,
      "æĹ¢": 1544,
      "èĴ": 1545,
      "ĠåĴ±ä»¬": 1546,
      "ç»ĵæŀľ": 1547,
      "Ġè°ģ": 1548,
      "rm": 1549,
      "åĽŀå®¶": 1550,
      "è¡Ģ": 1551,
      "Ġè°¢è°¢": 1552,
      "åĽ½å®¶": 1553,
      "éĴŁ": 1554,
      "éĢļè¿ĩ": 1555,
      "çªģçĦ¶": 1556,
      "ĠæĪĳè§īå¾Ĺ": 1557,
      "æĺ¯ä»Ģä¹Ī": 1558,
      "éĵģ": 1559,
      "ä¹±": 1560,
      "Ġæķ": 1561,
      "å§ĳå¨ĺ": 1562,
      "èµ¶ç´§": 1563,
      "åľ¨ä¸Ģèµ·": 1564,
      "åı¶": 1565,
      "åİĭ": 1566,
      "å¢ĥ": 1567,
      "ä½łçľĭ": 1568,
      "åºĹ": 1569,
      "åĵŃ": 1570,
      "åĪĹ": 1571,
      "æĿ¾": 1572,
      "å°±ä¸į": 1573,
      "è§£æŀĲ": 1574,
      "èĥ¡": 1575,
      "çļĦå¤§": 1576,
      "è´µ": 1577,
      "åĪĿ": 1578,
      "è¿Ľè¡Į": 1579,
      "æĭ©": 1580,
      "è¯´æĪĳ": 1581,
      "Ġå¾Ī": 1582,
      "åı¤": 1583,
      "åĪļæīį": 1584,
      "éĿł": 1585,
      "æī¿": 1586,
      "çĭ¬": 1587,
      "æĿĥ": 1588,
      "å®¤": 1589,
      "èĢĮä¸Ķ": 1590,
      "èļ": 1591,
      "æ¸©": 1592,
      "çĶµå½±": 1593,
      "åŃĲçļĦ": 1594,
      "éº»": 1595,
      "åĪĺ": 1596,
      "çľĭè§ģ": 1597,
      "æ¥¼": 1598,
      "...": 1599,
      "è®¤è¯Ĩ": 1600,
      "è®®": 1601,
      "å¹¿": 1602,
      "åĽ´": 1603,
      "çİī": 1604,
      "äºĨåķĬ": 1605,
      "èĵ": 1606,
      "æĦ¿æĦı": 1607,
      "Ġäºº": 1608,
      "æ´¾": 1609,
      "å±ħ": 1610,
      "ä¸Ģå¤©": 1611,
      "åıĮ": 1612,
      "çļĦä¸Ģä¸ª": 1613,
      "ĠéĤ£ä½ł": 1614,
      "åĩłä¸ª": 1615,
      "Ġå¿«": 1616,
      "Ġå¦Ī": 1617,
      "åº§": 1618,
      "é¡º": 1619,
      "æ±ī": 1620,
      "èĤī": 1621,
      "å°Ķ": 1622,
      "æĺ¯ä¸Ģä¸ª": 1623,
      "ä¾Ŀ": 1624,
      "ĠæĪĳä¸į": 1625,
      "é«ĺåħ´": 1626,
      "æĽ¾": 1627,
      "è¯»": 1628,
      "ä¸įè¡Į": 1629,
      "è¯´è¯Ŀ": 1630,
      "åĨ²": 1631,
      "gh": 1632,
      "ä½İ": 1633,
      "æ¯ĶèµĽ": 1634,
      "çģµ": 1635,
      "éħį": 1636,
      "å®¶éĩĮ": 1637,
      "åĩºäºĨ": 1638,
      "ç»Ļä»ĸ": 1639,
      "åģ·": 1640,
      "éĢīæĭ©": 1641,
      "ĠèĢĮä¸Ķ": 1642,
      "ç¡®å®ŀ": 1643,
      "è·Łä»ĸ": 1644,
      "èĲ¥": 1645,
      "è¿İ": 1646,
      "ç½®": 1647,
      "ç¯": 1648,
      "æľºä¼ļ": 1649,
      "çĥ¦": 1650,
      "è¯¾": 1651,
      "ght": 1652,
      "å¼Ħ": 1653,
      "å°±ä¼ļ": 1654,
      "æ¤": 1655,
      "çĪ¹": 1656,
      "ä¼¼": 1657,
      "åĳĬè¯īä½ł": 1658,
      "æĪĲäºĨ": 1659,
      "ä¸¾": 1660,
      "è®°å¾Ĺ": 1661,
      "æĥĬ": 1662,
      "å¿ħé¡»": 1663,
      "å¼ķ": 1664,
      "çĮª": 1665,
      "Ġåģ": 1666,
      "ç½ª": 1667,
      "right": 1668,
      "åıĳå±ķ": 1669,
      "æī¾åĪ°": 1670,
      "ĠåŃ": 1671,
      "æĺ¾": 1672,
      "AD": 1673,
      "ç¦»å¼Ģ": 1674,
      "å§¨": 1675,
      "åĬ¿": 1676,
      "åĽŃ": 1677,
      "å®Ī": 1678,
      "ĠæĪĳæĥ³": 1679,
      "åıªæľī": 1680,
      "å®«": 1681,
      "æĹ¥æľ¬": 1682,
      "æ¦": 1683,
      "å®¹æĺĵ": 1684,
      "Ġå·": 1685,
      "åĪĽ": 1686,
      "æĿ¨": 1687,
      "ç»§ç»Ń": 1688,
      "ä¼ĳ": 1689,
      "éĹ¹": 1690,
      "å¢ŀ": 1691,
      "å¹´çļĦ": 1692,
      "ç¾¤": 1693,
      "èĹı": 1694,
      "ä¹İ": 1695,
      "ĠéĤ£ä¸ª": 1696,
      "å·ŀ": 1697,
      "åºľ": 1698,
      "åľ¨è¿ĻåĦ¿": 1699,
      "èĭı": 1700,
      "ä¿®": 1701,
      "æŀª": 1702,
      "éĻħ": 1703,
      "å¹²ä»Ģä¹Ī": 1704,
      "åĽ¾": 1705,
      "èĤ¡": 1706,
      "çĭ¼": 1707,
      "å¥³äºº": 1708,
      "ä»ħ": 1709,
      "ç´¯": 1710,
      "æ´Ĺ": 1711,
      "æĪĳæĥ³": 1712,
      "çłĶ": 1713,
      "æĬ±": 1714,
      "ĠçŃī": 1715,
      "ä¹ĭéĹ´": 1716,
      "ä»»ä½ķ": 1717,
      "ä¸įåĲĮ": 1718,
      "åħĦå¼Ł": 1719,
      "èĻİ": 1720,
      "å¥¹çļĦ": 1721,
      "é¸Ł": 1722,
      "åª": 1723,
      "å¸Ŀ": 1724,
      "æĺİå¤©": 1725,
      "åĳ¼": 1726,
      "Ġ)": 1727,
      "Ġä½łçľĭ": 1728,
      "èĪŀ": 1729,
      "å¦ĩ": 1730,
      "è¡£æľį": 1731,
      "ä¸ĭåİ»": 1732,
      "ä¸īåįģ": 1733,
      "}_{": 1734,
      "çľ¼çĿ": 1735,
      "UL": 1736,
      "è¿Ļæ¬¡": 1737,
      "Ġè¡Į": 1738,
      "ULT": 1739,
      "ADULT": 1740,
      "èĪ¹": 1741,
      "èº«ä½ĵ": 1742,
      "èģĮ": 1743,
      "Ġä½łæĺ¯": 1744,
      "æĶ¾å¿ĥ": 1745,
      "æľīäºº": 1746,
      "éĥ½æ²¡æľī": 1747,
      "åĪĴ": 1748,
      "Ġç»Ļ": 1749,
      "Ġæİ": 1750,
      "ç»ĵå©ļ": 1751,
      "èĩ´": 1752,
      "æĹı": 1753,
      "ä¸ĬäºĨ": 1754,
      "èĭ¥": 1755,
      "èĪ¬": 1756,
      "ĠåıĪ": 1757,
      "ä¸įå¯¹": 1758,
      "éĺ²": 1759,
      "ç´ł": 1760,
      "åį³": 1761,
      "åĨ·": 1762,
      "çĹĽ": 1763,
      "éĵ¶": 1764,
      "åį«": 1765,
      "ç§°": 1766,
      "æĪĳæĪĳ": 1767,
      "Ġä½łæĢİä¹Ī": 1768,
      "åı²": 1769,
      "èĤ²": 1770,
      "ç½Ĺ": 1771,
      "è®¤ä¸º": 1772,
      "åĿļ": 1773,
      "ç¤¾ä¼ļ": 1774,
      "Ġ$$\\": 1775,
      "çĬ¯": 1776,
      "æºĲ": 1777,
      "Ġåĳĥ": 1778,
      "ĠéĤ£ä¹Ī": 1779,
      "å±ĭ": 1780,
      "Ġè¿Ļæł·": 1781,
      "æĪ¿åŃĲ": 1782,
      "æĪĳè¦ģ": 1783,
      "åı¥è¯Ŀ": 1784,
      "æŃ¢": 1785,
      "æ¿": 1786,
      "æĢİä¹ĪåĬŀ": 1787,
      "çľ¼çĿĽ": 1788,
      "è¾Ī": 1789,
      "Ġä¸ºä»Ģä¹Ī": 1790,
      "éĩİ": 1791,
      "åĩºçİ°": 1792,
      "å¥³åĦ¿": 1793,
      "Ġä¸įè¿ĩ": 1794,
      "çļĦäºĭ": 1795,
      "è¿ĲåĬ¨": 1796,
      "æĸ¹éĿ¢": 1797,
      "æİ§": 1798,
      "æĪ·": 1799,
      "èĬĤçĽ®": 1800,
      "åĨ³å®ļ": 1801,
      "å°ıå§Ĳ": 1802,
      "çĶ·äºº": 1803,
      "æ¯Ĵ": 1804,
      "å½±åĵį": 1805,
      "æīĭæľº": 1806,
      "å§Ķ": 1807,
      "æĺ¨": 1808,
      "Ġä¼ļ": 1809,
      "ĠåĲĥ": 1810,
      "éĶĻè¯¯": 1811,
      "ä¸įå¾Ĺ": 1812,
      "æĺ¯åĲ§": 1813,
      "åłĤ": 1814,
      "æ¼Ĥ": 1815,
      "æ¨¡": 1816,
      "åŀĭ": 1817,
      "çĶ°": 1818,
      "çĽ´æİ¥": 1819,
      "çļĦè¿Ļä¸ª": 1820,
      "çľĭçĿĢ": 1821,
      "èīº": 1822,
      "åİī": 1823,
      "æł¹æľ¬": 1824,
      "è¹": 1825,
      "å¤ļäºĨ": 1826,
      "éĢĢ": 1827,
      "æĭĽ": 1828,
      "äºİæĺ¯": 1829,
      "å¾ĭ": 1830,
      "èİ·": 1831,
      "æ¿Ģ": 1832,
      "ä½łä¸į": 1833,
      "å¦»": 1834,
      "å¤ļçļĦ": 1835,
      "ä¸īä¸ª": 1836,
      "æĿĲ": 1837,
      "æĿ¥è¯´": 1838,
      "çĪ¶äº²": 1839,
      "æľµ": 1840,
      "ä¸Ģå®ļè¦ģ": 1841,
      "æĲŀ": 1842,
      "å½ĵçĦ¶": 1843,
      "Ġå§": 1844,
      "èĿ": 1845,
      "åı¦": 1846,
      "æ²Ļ": 1847,
      "æĪĳè¿ĺ": 1848,
      "ç§¯": 1849,
      "æĪĳè¯´": 1850,
      "Ġæ¯ı": 1851,
      "æĺ¯åķĬ": 1852,
      "æ°¸": 1853,
      "ç¾İåĽ½": 1854,
      "ĠæĪĳä¹Ł": 1855,
      "éªĹ": 1856,
      "è¿ĩäºĨ": 1857,
      "ä»ĭ": 1858,
      "äºĴ": 1859,
      "}^{": 1860,
      "ç¾Ĭ": 1861,
      "çİĩ": 1862,
      "æĺ¯ä¸ª": 1863,
      "æ½": 1864,
      "ĠåĲ¬": 1865,
      "æµĭ": 1866,
      "æĪĳéĥ½": 1867,
      "èī¯": 1868,
      "èĻĳ": 1869,
      "ç¿»": 1870,
      "Ġåĳ¢": 1871,
      "ao": 1872,
      "ä¼ĺ": 1873,
      "ä¸įéĶĻ": 1874,
      "çļĦåľ°æĸ¹": 1875,
      "çľģ": 1876,
      "æ¯ıå¤©": 1877,
      "è´¢": 1878,
      "ĠåĮ": 1879,
      "æĻ¯": 1880,
      "æľīæ²¡æľī": 1881,
      "å½©": 1882,
      "åĲĥé¥Ń": 1883,
      "Ġxxx": 1884,
      "ft": 1885,
      "ĠåĽŀ": 1886,
      "Ġè¿ĺæĺ¯": 1887,
      "ä¸Ģç§į": 1888,
      "éĢĥ": 1889,
      "æŁĲ": 1890,
      "æĪĲä¸º": 1891,
      "æŃ»äºĨ": 1892,
      "Ġèµ°": 1893,
      "ç»¿": 1894,
      "æµİ": 1895,
      "çĨŁ": 1896,
      "åĨľ": 1897,
      "æīįèĥ½": 1898,
      "èµµ": 1899,
      "Ġä¸ĭ": 1900,
      "Ġåĵª": 1901,
      "é¡¶": 1902,
      "ä»ĺ": 1903,
      "Ġèĥ½": 1904,
      "æĸĹ": 1905,
      "me": 1906,
      "å¼¹": 1907,
      "ĠäºĮ": 1908,
      "åĨįè§ģ": 1909,
      "çºª": 1910,
      "é½": 1911,
      "è´Ŀ": 1912,
      "æľīä¸ª": 1913,
      "çļĦä¸ľè¥¿": 1914,
      "äºĨè§£": 1915,
      "Ġä½łå°±": 1916,
      "æ¯ķ": 1917,
      "æŃ£åľ¨": 1918,
      "åįĪ": 1919,
      "Ġå¤§å®¶": 1920,
      "æĽ¿": 1921,
      "åį¡": 1922,
      "ç»´": 1923,
      "èĥľ": 1924,
      "Ġåº": 1925,
      "åĲ¸": 1926,
      "åĢŁ": 1927,
      "ä½łè¦ģ": 1928,
      "æŀ¶": 1929,
      "$${": 1930,
      "æĮī": 1931,
      "å§ĵ": 1932,
      "ä¹¡": 1933,
      "Ġè¯·": 1934,
      "éľ²": 1935,
      "æł·åŃĲ": 1936,
      "å®īåħ¨": 1937,
      "ä½ľä¸º": 1938,
      "å¼Ģå¿ĥ": 1939,
      "çĭĲ": 1940,
      "éĩĩ": 1941,
      "æ²¡äºĭ": 1942,
      "æķĪ": 1943,
      "åį±": 1944,
      "å¯Į": 1945,
      "ç§Ģ": 1946,
      "ĠæĽ": 1947,
      "èº«è¾¹": 1948,
      "ä½łä¹Ł": 1949,
      "çĳ": 1950,
      "åĪĨä¹ĭ": 1951,
      "Ġæĺ¯ä¸įæĺ¯": 1952,
      "æĹ¥åŃĲ": 1953,
      "ĠæĪĳçļĦ": 1954,
      "èº«ä¸Ĭ": 1955,
      "å½ĵä¸Ń": 1956,
      "ç»Īäºİ": 1957,
      "åĲĽ": 1958,
      "å¤§äºº": 1959,
      "å®¶çļĦ": 1960,
      "åĮ»éĻ¢": 1961,
      "éŀ": 1962,
      "ĠåĬ": 1963,
      "è®©ä»ĸ": 1964,
      "çĥ§": 1965,
      "æİĮ": 1966,
      "èĨ": 1967,
      "çĪ¶æ¯į": 1968,
      "æĺ¯åľ¨": 1969,
      "ãĢĭ": 1970,
      "ãĢĬ": 1971,
      "æĬĹ": 1972,
      "å£°éŁ³": 1973,
      "åİīå®³": 1974,
      "çĮ´": 1975,
      "left": 1976,
      "çŁŃ": 1977,
      "ĠåĲİ": 1978,
      "æĺ¯ä½ł": 1979,
      "äº«": 1980,
      "å¥Ĺ": 1981,
      "åºŃ": 1982,
      "ä¸įçĶ¨": 1983,
      "åºĬ": 1984,
      "Ġå¤ª": 1985,
      "å®ĥä»¬": 1986,
      "ä¸ĢåĿĹ": 1987,
      "åįĩ": 1988,
      "èĸ": 1989,
      "Ġè·Ł": 1990,
      "åĪ¤": 1991,
      "æł·çļĦ": 1992,
      "åĬ¨çī©": 1993,
      "åŃĻ": 1994,
      "å¤§åĵ¥": 1995,
      "æĹ¢çĦ¶": 1996,
      "ç´¢": 1997,
      "ĠæĶ¾": 1998,
      "å¯¹å¯¹": 1999,
      "ĠæĪĳçŁ¥éģĵ": 2000,
      "åıªèĥ½": 2001,
      "è¿ĩç¨ĭ": 2002,
      "æ³¢": 2003,
      "åľĨ": 2004,
      "çĶļ": 2005,
      "ä¼´": 2006,
      "ĠåĴĮ": 2007,
      "åĪĢ": 2008,
      "Ġä¸Ģä¸ª": 2009,
      "åĲİæĿ¥": 2010,
      "æĭħå¿ĥ": 2011,
      "ä¸Ŀ": 2012,
      "åĸĦ": 2013,
      "çĸ¼": 2014,
      "çº¸": 2015,
      "æ¼Ĥäº®": 2016,
      "æĸ¹å¼ı": 2017,
      "åĲĮåŃ¦": 2018,
      "åº·": 2019,
      "ä¸Ģåıª": 2020,
      "åĽłæŃ¤": 2021,
      "Ġåı¯ä»¥": 2022,
      "æĿ¯": 2023,
      "20": 2024,
      "åľĪ": 2025,
      "ç¬Ķ": 2026,
      "ai": 2027,
      "è¢ĭ": 2028,
      "åħ°": 2029,
      "éĻį": 2030,
      "è¯Ħ": 2031,
      "å±Ĥ": 2032,
      "åĲĮå¿Ĺ": 2033,
      "ç¥¨": 2034,
      "èĢ³": 2035,
      "åıªè¦ģ": 2036,
      "æ´ŀ": 2037,
      "èŀ": 2038,
      "è´§": 2039,
      "Ġ$": 2040,
      "ä¹Łæ²¡": 2041,
      "æĥ³è¦ģ": 2042,
      "Ġå¤ļ": 2043,
      "å¼ĥ": 2044,
      "ä¼¯": 2045,
      "åĹ¯åĹ¯": 2046,
      "æķ£": 2047,
      "è¿ĺæ²¡": 2048,
      "åŃ¦ä¹ł": 2049,
      "æĺ¨å¤©": 2050,
      "ªåĬĽ": 2051,
      "æ¶Īæģ¯": 2052,
      "çĽĳ": 2053,
      "åħ³æ³¨": 2054,
      "æĿ¥æĿ¥": 2055,
      "å¹´è½»": 2056,
      "è±Ĩ": 2057,
      "çĩ": 2058,
      "éĥ½ä¼ļ": 2059,
      "ç§ĺ": 2060,
      "æĹģ": 2061,
      "éĤ£åĦ¿": 2062,
      "ç§ĭ": 2063,
      "æĹħ": 2064,
      "è¿Ľåİ»": 2065,
      "æĬĬæĪĳ": 2066,
      "çļĦéĤ£": 2067,
      "ent": 2068,
      "åĹ": 2069,
      "åĪº": 2070,
      "å®Įåħ¨": 2071,
      "ä¸´": 2072,
      "èĵĿ": 2073,
      "æīĢæľīçļĦ": 2074,
      "Ġä½łè¦ģ": 2075,
      "åŃ¦çĶŁ": 2076,
      "10": 2077,
      "ä¸Ģä¼ļåĦ¿": 2078,
      "å°ģ": 2079,
      "æģĭ": 2080,
      "å´": 2081,
      "ma": 2082,
      "è¾Ľ": 2083,
      "è¿·": 2084,
      "cent": 2085,
      "ç²ī": 2086,
      "åĲ¦": 2087,
      "ľçļĦ": 2088,
      "è®¨": 2089,
      "çĪ·çĪ·": 2090,
      "è¶ĬæĿ¥": 2091,
      "Ġè¿Ļä¹Ī": 2092,
      "èĮ¶": 2093,
      "çľŁçļĦæĺ¯": 2094,
      "å¥¶å¥¶": 2095,
      "ĠæĪĳè¦ģ": 2096,
      "Ġä¸ī": 2097,
      "èĢģæĿ¿": 2098,
      "centerline": 2099,
      "æł¹æį®": 2100,
      "è®Ń": 2101,
      "éĺµ": 2102,
      "å¹²åĲĹ": 2103,
      "éģį": 2104,
      "è¯į": 2105,
      "æĸ°éĹ»": 2106,
      "è¿ĺè¦ģ": 2107,
      "æĪĳåİ»": 2108,
      "è¶ĬæĿ¥è¶Ĭ": 2109,
      "èī²çļĦ": 2110,
      "é¢ľ": 2111,
      "åĨ°": 2112,
      "è¡¥": 2113,
      "Ġä½łå¥½": 2114,
      "æĮĳ": 2115,
      "åĽŀæĿ¥äºĨ": 2116,
      "Ġå¹²": 2117,
      "Ġåĩº": 2118,
      "çĻ¾åĪĨä¹ĭ": 2119,
      "ä¸įæĥ³": 2120,
      "çŃĶåºĶ": 2121,
      "èĥ½åĬĽ": 2122,
      "æĭ¬": 2123,
      "åģļçļĦ": 2124,
      "ä¾Ľ": 2125,
      "è´¥": 2126,
      "æ¹ĸ": 2127,
      "åŃ¦æł¡": 2128,
      "å½ķ": 2129,
      "ĠåĪļ": 2130,
      "æ´ĭ": 2131,
      "éĥ¨åĪĨ": 2132,
      "éĺ¿å§¨": 2133,
      "ä¿ĿæĬ¤": 2134,
      "ä»Ļ": 2135,
      "æ¬¾": 2136,
      "åįļ": 2137,
      "åħ¬ä¸»": 2138,
      "åħħ": 2139,
      "å¤ı": 2140,
      "Ġå¤©": 2141,
      "è¯Ĺ": 2142,
      "ç¢°": 2143,
      "æķĮ": 2144,
      "åĵ¥åĵ¥": 2145,
      "å§Ĳå§Ĳ": 2146,
      "è¿Ļä¹Īå¤ļ": 2147,
      "åĴĭ": 2148,
      "å°±è¦ģ": 2149,
      "åĬªåĬĽ": 2150,
      "å®ĮäºĨ": 2151,
      "å¸¦çĿĢ": 2152,
      "ä½łäºĨ": 2153,
      "åĲįåŃĹ": 2154,
      "çĲĨè§£": 2155,
      "çĭ¸": 2156,
      "ä»ĸä»¬çļĦ": 2157,
      "éĥ½æľī": 2158,
      "éŃĶ": 2159,
      "ä¸¢": 2160,
      "éª¨": 2161,
      "ĠæĪĳè¯´": 2162,
      "ĠæľĢ": 2163,
      "æģ©": 2164,
      "å¾ĹåĪ°": 2165,
      "çīĮ": 2166,
      "åģ¥": 2167,
      "ä½łè¿Ļ": 2168,
      "æĿ¥åĪ°": 2169,
      "é¢Ħ": 2170,
      "åĩłå¤©": 2171,
      "æĪĳçľĭ": 2172,
      "æĭľæĭľ": 2173,
      "ä¸ĭçļĦ": 2174,
      "åĩı": 2175,
      "ä¾ĭ": 2176,
      "éĻĨ": 2177,
      "å³": 2178,
      "Ġæīĵ": 2179,
      "æĻº": 2180,
      "å·¦": 2181,
      "ç»ĩ": 2182,
      "ç»ıæµİ": 2183,
      "ä¹Łæ²¡æľī": 2184,
      "å¦Ĥä½ķ": 2185,
      "éĩĬ": 2186,
      "ĠéĤ£æĪĳ": 2187,
      "æĪĲåĬŁ": 2188,
      "çģ¯": 2189,
      "èĩ£": 2190,
      "è¿ĺä¸į": 2191,
      "äºļ": 2192,
      "ç»ıå¸¸": 2193,
      "æİ¢": 2194,
      "ä½łæĢİä¹Ī": 2195,
      "ç§ģ": 2196,
      "æ£Ģ": 2197,
      "ä¸»è¦ģ": 2198,
      "é¦Ĩ": 2199,
      "èħ¿": 2200,
      "ç¼º": 2201,
      "æĬ¢": 2202,
      "æĬĺ": 2203,
      "åĲ¬è¯´": 2204,
      "ä½Ļ": 2205,
      "çĶļèĩ³": 2206,
      "ä½łçŁ¥éģĵ": 2207,
      "¤Ĳ": 2208,
      "åıĺæĪĲ": 2209,
      "åħ¶ä»ĸ": 2210,
      "éļ¾éģĵ": 2211,
      "Ġä½łçļĦ": 2212,
      "åľ°è¯´": 2213,
      "åĲĵ": 2214,
      "æĪĳåľ¨": 2215,
      "èĮĥ": 2216,
      "çĭĲçĭ¸": 2217,
      "çłĶç©¶": 2218,
      "å¹¸ç¦ı": 2219,
      "è¦ģæ±Ĥ": 2220,
      "èĽĻ": 2221,
      "æ¦Ĥ": 2222,
      "Ġæ¯Ķ": 2223,
      "éĥ½æ²¡": 2224,
      "æĻ®": 2225,
      "ç®Ģåįķ": 2226,
      "ĠçľŁ": 2227,
      "å®ĥçļĦ": 2228,
      "æŀĦ": 2229,
      "åĸĬ": 2230,
      "è¾ĵ": 2231,
      "éĥ½åľ¨": 2232,
      "åī¯": 2233,
      "=\\": 2234,
      "è¿Ļä»¶": 2235,
      "æľīäºĽ": 2236,
      "åĽ°": 2237,
      "å½Ĵ": 2238,
      "å°Ħ": 2239,
      "do": 2240,
      "å¿į": 2241,
      "èĩªçĦ¶": 2242,
      "èĪĴ": 2243,
      "--": 2244,
      "Ġåģļ": 2245,
      "FA": 2246,
      "çļĦéĤ£ä¸ª": 2247,
      "ä¸ģ": 2248,
      "æĦŁæĥħ": 2249,
      "åĵªéĩĮ": 2250,
      "èĦ±": 2251,
      "åİŁæĿ¥": 2252,
      "çīĻ": 2253,
      "æĸ½": 2254,
      "Ġåī": 2255,
      "çĿ¡è§ī": 2256,
      "ĠæĮ": 2257,
      "Ġå¦Īå¦Ī": 2258,
      "éĤ£è¾¹": 2259,
      "FATHER": 2260,
      "ä¼ĳæģ¯": 2261,
      "æľ¬æĿ¥": 2262,
      "æĸ°çļĦ": 2263,
      "é¤Ĳ": 2264,
      "åĪļåĪļ": 2265,
      "æµª": 2266,
      "æĺ¯è°ģ": 2267,
      "é½Ĳ": 2268,
      "è§£åĨ³": 2269,
      "çĶŁæ°Ķ": 2270,
      "æĸĩåĮĸ": 2271,
      "åį°": 2272,
      "æī¹": 2273,
      "Ġåıªè¦ģ": 2274,
      "çħ§é¡¾": 2275,
      "æ¸¸æĪı": 2276,
      "å¼Ĥ": 2277,
      "{{{": 2278,
      "åĭĩ": 2279,
      "Ġæ°": 2280,
      "ĠæĻ": 2281,
      "çļĦäºĭåĦ¿": 2282,
      "èĥĸ": 2283,
      "çĪ¬": 2284,
      "åĬ²": 2285,
      "æ³¨æĦı": 2286,
      "åĶĲ": 2287,
      "åŃĲéĩĮ": 2288,
      "çĽĺ": 2289,
      "ä¸įä½ı": 2290,
      "éķľ": 2291,
      "å¥³åŃ©": 2292,
      "un": 2293,
      "é¡¿": 2294,
      "ĠåĳĢ": 2295,
      "æĿ¡ä»¶": 2296,
      "å¯¹äºİ": 2297,
      "å¯»": 2298,
      "åı³": 2299,
      "éĻ¤äºĨ": 2300,
      "æ£®": 2301,
      "Ġæĭ¿": 2302,
      "çİ¯å¢ĥ": 2303,
      "èĢĥèĻĳ": 2304,
      "åĲµ": 2305,
      "å¤§äºĨ": 2306,
      "ĠåħĪ": 2307,
      "å¸ħ": 2308,
      "éĽ·": 2309,
      "ç¨³": 2310,
      "ä»»åĬ¡": 2311,
      "å¤ªéĺ³": 2312,
      "è¶£": 2313,
      "æĳĨ": 2314,
      "ä¸ĬéĿ¢": 2315,
      "éĿ©": 2316,
      "è½®": 2317,
      "æģ¶": 2318,
      "å¾Īå¥½": 2319,
      "éĿĴèĽĻ": 2320,
      "æĽ²": 2321,
      "åĮ»çĶŁ": 2322,
      "èº²": 2323,
      "å°±æĺ¯è¯´": 2324,
      "å¿«ä¹Ĳ": 2325,
      "æ²ī": 2326,
      "åľ¨æĪĳ": 2327,
      "ä¼ļæľī": 2328,
      "åĳĹ": 2329,
      "çĥŁ": 2330,
      ".$$": 2331,
      "åĬ³": 2332,
      "æ¤į": 2333,
      "é¢ĳ": 2334,
      "éº»çĥ¦": 2335,
      "åŃ£": 2336,
      "å°ıå¿ĥ": 2337,
      "æļĹ": 2338,
      "çĤ¹åĦ¿": 2339,
      "çĺ": 2340,
      "å°ıæĹ¶": 2341,
      "he": 2342,
      "éħ¸": 2343,
      "æīĺ": 2344,
      "und": 2345,
      "åĲ¬åĪ°": 2346,
      "ĠåĲĮ": 2347,
      "çĿĢæĪĳ": 2348,
      "æĬĢæľ¯": 2349,
      "Ġè¿ĻäºĽ": 2350,
      "åİ¿": 2351,
      "åİ»æī¾": 2352,
      "éķ¿çļĦ": 2353,
      "åĨ¬": 2354,
      "ĠæĪĳçİ°åľ¨": 2355,
      "}$$,": 2356,
      "å¯¹æĪĳ": 2357,
      "è®¾è®¡": 2358,
      "ç¥ĸ": 2359,
      "äºĮéĽ¶": 2360,
      "çģ°": 2361,
      "ä¸ĢèĪ¬": 2362,
      "ä»Ģä¹ĪåĳĢ": 2363,
      "çłģ": 2364,
      "æĪ´": 2365,
      "äººä»¬": 2366,
      "åĤ»": 2367,
      "åķĬä½ł": 2368,
      "ç«¯": 2369,
      "ä¼ģ": 2370,
      "èĢģé¼ł": 2371,
      "æķ´ä¸ª": 2372,
      "è¡Ĺ": 2373,
      "åķĬæĪĳ": 2374,
      "æĢ»æĺ¯": 2375,
      "åİŁåĽł": 2376,
      "ĠçľŁçļĦ": 2377,
      "ä½ľçĶ¨": 2378,
      "æĶ»": 2379,
      "åıĤåĬł": 2380,
      "ä¿¡æģ¯": 2381,
      "underline": 2382,
      "åİĤ": 2383,
      "Ġåıį": 2384,
      "å·§": 2385,
      "èĥ½ä¸įèĥ½": 2386,
      "å¦ĤæŃ¤": 2387,
      "ç§¦": 2388,
      "ä¹Į": 2389,
      "ä¸Ģçľĭ": 2390,
      "éŀĭ": 2391,
      "åĲ¹": 2392,
      "èĶ": 2393,
      "æĿŁ": 2394,
      "³å¦ĩ": 2395,
      "å°±åľ¨": 2396,
      "å¯¹åķĬ": 2397,
      "æħ¢æħ¢": 2398,
      "éĩĮè¾¹": 2399,
      "éģĹ": 2400,
      "å¸®æĪĳ": 2401,
      "ç«ł": 2402,
      "Ġæ¬": 2403,
      "ĠåĿ": 2404,
      "æĶ¹åıĺ": 2405,
      "Ġå¼Ģ": 2406,
      "å¤§åŃ¦": 2407,
      "ä»İæĿ¥": 2408,
      "äºĨä»ĸ": 2409,
      "ç»ıè¿ĩ": 2410,
      "æĹłæ³ķ": 2411,
      "å±ŀäºİ": 2412,
      "èĤļ": 2413,
      "çŀ§": 2414,
      "åĽŀçŃĶ": 2415,
      "å®ģ": 2416,
      "æĬĬä½ł": 2417,
      "æĿ°": 2418,
      "æĵį": 2419,
      "ä¸¤å¤©": 2420,
      "æĮ¥": 2421,
      "å¸®åĬ©": 2422,
      "çĶŁåĳ½": 2423,
      "çļĦåĲĹ": 2424,
      "æĳĩ": 2425,
      "Ġå±": 2426,
      "ĠçŁ¥éģĵ": 2427,
      "å°¾": 2428,
      "çļĩä¸Ĭ": 2429,
      "éĻĲ": 2430,
      "éĹ®ä½ł": 2431,
      "ç³ĸ": 2432,
      "çĶµè§Ĩ": 2433,
      "çļĦåķĬ": 2434,
      "ä¸Ģå®ļä¼ļ": 2435,
      "éĢı": 2436,
      "æļĸ": 2437,
      "èĭ¹": 2438,
      "çĵľ": 2439,
      "ç»į": 2440,
      "ä»Ģä¹ĪæĹ¶åĢĻ": 2441,
      "è¿Ľåħ¥": 2442,
      "å®¶äºº": 2443,
      "åĳĬè¯īæĪĳ": 2444,
      "èĪį": 2445,
      "æ¶²": 2446,
      "æĪĳçŁ¥éģĵ": 2447,
      "Ġåĵ¦": 2448,
      "ä»ĸæĺ¯": 2449,
      "ç¥Ŀ": 2450,
      "æ¾": 2451,
      "è¡ĮäºĨ": 2452,
      "é¢Ĺ": 2453,
      "Ġæŀ": 2454,
      "è¾ĪåŃĲ": 2455,
      "ä¸Ĭåİ»": 2456,
      "åºĨ": 2457,
      "äººæ°ĳ": 2458,
      "çľŁæŃ£": 2459,
      "ä½łåľ¨": 2460,
      "åħį": 2461,
      "èĭ¹æŀľ": 2462,
      "{}$$": 2463,
      "èĻ«": 2464,
      "Ġy": 2465,
      "ä¸ĢæĿ¡": 2466,
      "è·¯ä¸Ĭ": 2467,
      "ç¯®": 2468,
      "çľĭäºĨ": 2469,
      "ä½³": 2470,
      "ä¸Ģè¾¹": 2471,
      "çĪ±çļĦ": 2472,
      "åĪĨéĴŁ": 2473,
      "Ġçİĭ": 2474,
      "Ġä¸º": 2475,
      "æł¸": 2476,
      "åĮĹäº¬": 2477,
      "èİ«": 2478,
      "æī§": 2479,
      "éķĩ": 2480,
      "ä¸įè§ģ": 2481,
      "ç»Ŀå¯¹": 2482,
      "çĿĢæĢ¥": 2483,
      "è§ģè¿ĩ": 2484,
      "ti": 2485,
      "æĿĤ": 2486,
      "Ġä½łä¸į": 2487,
      "ç²¾ç¥ŀ": 2488,
      "ä¸¤ä¸ªäºº": 2489,
      "éļĲ": 2490,
      "Ġè¦ģä¸į": 2491,
      "æ¯įäº²": 2492,
      "èµ¢": 2493,
      "å°±åı¯ä»¥": 2494,
      "æĥľ": 2495,
      "çıł": 2496,
      "éĢ¼": 2497,
      "Ġä½łè¿Ļ": 2498,
      "é¹¿": 2499,
      "åıĺåĮĸ": 2500,
      "å°Ŀ": 2501,
      "äº¿": 2502,
      "è·ŁæĪĳè¯´": 2503,
      "éĽĦ": 2504,
      "å¥ĸ": 2505,
      "åľ¨è¿ĻéĩĮ": 2506,
      "è¡¨ç¤º": 2507,
      "çļĦæĹ¶éĹ´": 2508,
      "sh": 2509,
      "æİ¥åıĹ": 2510,
      "æĪĳè¿Ļ": 2511,
      "æĬĬä»ĸ": 2512,
      "ç¬¬ä¸Ģæ¬¡": 2513,
      "æĺ¯æľī": 2514,
      "æĥ¯": 2515,
      "éĽħ": 2516,
      "å«Į": 2517,
      "åĽŀåĪ°": 2518,
      "åª³å¦ĩ": 2519,
      "çĽĸ": 2520,
      "åĩĢ": 2521,
      "Ġ$$": 2522,
      "ĠåİŁ": 2523,
      "åĽŀäºĭ": 2524,
      "æ¸Ĳ": 2525,
      "è¡¨çİ°": 2526,
      "å®Ĺ": 2527,
      "äºĶåįģ": 2528,
      "çĶ²": 2529,
      "ä¹Łæľī": 2530,
      "æĸ¹åĲĳ": 2531,
      "Ġä½łè¿ĺ": 2532,
      "æĽ¾ç»ı": 2533,
      "ä¸ĢçĻ¾": 2534,
      "å¥½å¤ļ": 2535,
      "éº¦": 2536,
      "èģĶç³»": 2537,
      "Ġä¸įè¦ģ": 2538,
      "ä¸ĭäºĨ": 2539,
      "å¨ģ": 2540,
      "æĬĬå®ĥ": 2541,
      "åĲ´": 2542,
      "dot": 2543,
      "å¥½ä¸įå¥½": 2544,
      "æģĲ": 2545,
      "è¿°": 2546,
      "çĮľ": 2547,
      "åŁİå¸Ĥ": 2548,
      "æĪ¿éĹ´": 2549,
      "Ġb": 2550,
      "é»ĺ": 2551,
      "ä»ĸå°±": 2552,
      "æĿ¥çľĭ": 2553,
      "æ¢ħ": 2554,
      "Ġn": 2555,
      "å¸Ĥåľº": 2556,
      "æĻĵ": 2557,
      "çŃĸ": 2558,
      "ç§»": 2559,
      "æĹ©å°±": 2560,
      "éĢŁåº¦": 2561,
      "çĶŁçļĦ": 2562,
      "éŁ©": 2563,
      "éĿ¢åīį": 2564,
      "Ġå®¶": 2565,
      "èģª": 2566,
      "å®ĮæĪĲ": 2567,
      "è¿Ļä¸ªäºº": 2568,
      "æĺ¯åĽłä¸º": 2569,
      "æ°¸è¿ľ": 2570,
      "é¼ĵ": 2571,
      "å°ĨåĨĽ": 2572,
      "ĠæĪĳè¿Ļ": 2573,
      "è®¡åĪĴ": 2574,
      "Ġä»¥": 2575,
      "ä½łè¿ĺ": 2576,
      "å¹³æĹ¶": 2577,
      "æĮĤ": 2578,
      "ç£¨": 2579,
      "åĲĥçļĦ": 2580,
      "ç¾İä¸½": 2581,
      "ĠæĿİ": 2582,
      "çªĹ": 2583,
      "é¥¿": 2584,
      "æĳ¸": 2585,
      "åĪ«çļĦ": 2586,
      "éĴĪ": 2587,
      "æ²Ī": 2588,
      "å°Ĭ": 2589,
      "å«ģ": 2590,
      "ĠçĪ¸çĪ¸": 2591,
      "æĢĿèĢĥ": 2592,
      "çĥĪ": 2593,
      "ä»Ĭå¹´": 2594,
      "çĽĬ": 2595,
      "Ġä»¥åĲİ": 2596,
      "åĨĴ": 2597,
      "å¨ĥ": 2598,
      "å¥½åķĬ": 2599,
      "ä»£è¡¨": 2600,
      "éĿ¢çļĦ": 2601,
      "æ¡Į": 2602,
      "å®£": 2603,
      "Ġä¸Ģå®ļ": 2604,
      "èį£": 2605,
      "ä¸ĢæŃ¥": 2606,
      "å·¨": 2607,
      "çıį": 2608,
      "çļĦå°±æĺ¯": 2609,
      "å®ŀåľ¨": 2610,
      "ä½łåİ»": 2611,
      "è¡ĮåĬ¨": 2612,
      "æķ¬": 2613,
      "é²ľ": 2614,
      "åŁºæľ¬": 2615,
      "æ··": 2616,
      "Ġæ±": 2617,
      "å¾ģ": 2618,
      "éĤ£ä¹Īå¤ļ": 2619,
      "ä½łæĥ³": 2620,
      "æ®µæĹ¶éĹ´": 2621,
      "Ġä½łçŁ¥éģĵ": 2622,
      "æľīçļĦ": 2623,
      "ç¡¬": 2624,
      "æĪĳçİ°åľ¨": 2625,
      "ä½įç½®": 2626,
      "ĠçĶ¨": 2627,
      "çĤ¸": 2628,
      "åĨł": 2629,
      "éĶ®": 2630,
      "æĸ¹æ³ķ": 2631,
      "éĺŁéķ¿": 2632,
      "åĩºæĿ¥äºĨ": 2633,
      "åĤħ": 2634,
      "}\\": 2635,
      "éģĩåĪ°": 2636,
      "ä½ıäºĨ": 2637,
      "åİĨåı²": 2638,
      "è§¦": 2639,
      "åĽ½çİĭ": 2640,
      "Ġä½łåĪ«": 2641,
      "ĠæĦ": 2642,
      "å¼ĢäºĨ": 2643,
      "ä¸įåı¯": 2644,
      "èľľ": 2645,
      "çļĦåĳĢ": 2646,
      "æľīäºĨ": 2647,
      "ä»Ģä¹Īåĳ¢": 2648,
      "èĢģå©Ĩ": 2649,
      "è¯ļ": 2650,
      "çĬ¶æĢģ": 2651,
      "Ġå¼ł": 2652,
      "å¦¹å¦¹": 2653,
      "åŃĺåľ¨": 2654,
      "æ£Ĵ": 2655,
      "ä¸Ĭæµ·": 2656,
      "çĶľ": 2657,
      "åĲĮæĹ¶": 2658,
      "åľ°ä¸Ĭ": 2659,
      "å°ıçļĦ": 2660,
      "æļ´": 2661,
      "Ġéķ¿": 2662,
      "è¿ĺåľ¨": 2663,
      "ä»ĭç»į": 2664,
      "Ġè¿ĻéĩĮ": 2665,
      "ä¸įå¤ª": 2666,
      "æĪĳäºĨ": 2667,
      "å¾ĹäºĨ": 2668,
      "è½¯": 2669,
      "å¾Ĺå¾Ī": 2670,
      "éªĤ": 2671,
      "Ġæį": 2672,
      "è´Łè´£": 2673,
      "ç«¥": 2674,
      "\",": 2675,
      "åıįåºĶ": 2676,
      "ä»ĸè¯´": 2677,
      "ä¸įä¸Ģæł·": 2678,
      "çĵ¶": 2679,
      "æīĵçĶµè¯Ŀ": 2680,
      "Ġåı¯èĥ½": 2681,
      "åĵĩ": 2682,
      "çģŃ": 2683,
      "Ġå¹¶": 2684,
      "éŁ³ä¹Ĳ": 2685,
      "æĬ¥åĳĬ": 2686,
      "æ³¡": 2687,
      "æŁĵ": 2688,
      "ä¸įç®¡": 2689,
      "èħ¾": 2690,
      "ĠåºĶ": 2691,
      "la": 2692,
      "å¼±": 2693,
      "è·Ŀ": 2694,
      "Ġéĥ½æĺ¯": 2695,
      "ä¸Ģå¹´": 2696,
      "æĭ¼": 2697,
      "è¿ĽæĿ¥": 2698,
      "åħ¨éĥ¨": 2699,
      "åģļäºĨ": 2700,
      "å®¶åºŃ": 2701,
      "th": 2702,
      "æĬ½": 2703,
      "åĽĽåįģ": 2704,
      "æĢİä¹ĪäºĨ": 2705,
      "å®īæİĴ": 2706,
      "ĠåĲİæĿ¥": 2707,
      "æŃ£å¸¸": 2708,
      "ç»Ħç»ĩ": 2709,
      "åįł": 2710,
      "æ¡¥": 2711,
      "ĠåĶ": 2712,
      "åħ³äºİ": 2713,
      "å¥½åĲĹ": 2714,
      "ä¸ĢåĪĩ": 2715,
      "å°±åĥı": 2716,
      "æ»ļ": 2717,
      "çİ°åľº": 2718,
      "å¤ĦçĲĨ": 2719,
      "å¥¹ä»¬": 2720,
      "Ġè®²": 2721,
      "çŃ¾": 2722,
      "Ġx": 2723,
      "è·ŁçĿĢ": 2724,
      "åģı": 2725,
      "çĻ»": 2726,
      "æĶ¾åľ¨": 2727,
      "å¥½åĲ§": 2728,
      "èŃ¦å¯Ł": 2729,
      "ä½łåķĬ": 2730,
      "æ´»åĬ¨": 2731,
      "Ġåħ¨": 2732,
      "æĶ¯æĮģ": 2733,
      "Ġz": 2734,
      "ä¸¹": 2735,
      "ĠæĹł": 2736,
      "ç®Ĺæĺ¯": 2737,
      "åį±éĻ©": 2738,
      "å¯¹ä¸įèµ·": 2739,
      "åįĥä¸ĩ": 2740,
      "ĠæĪĳçľĭ": 2741,
      "éĹŃ": 2742,
      "æ¬§": 2743,
      "åĲ«": 2744,
      "çļĦå¿ĥ": 2745,
      "æĲ¬": 2746,
      "èµ·äºĨ": 2747,
      "âĳł": 2748,
      "çĸĹ": 2749,
      "åĿĹéĴ±": 2750,
      "ĠéĤ£å°±": 2751,
      "éģĵçĲĨ": 2752,
      "ang": 2753,
      "å®ĭ": 2754,
      "å®³æĢķ": 2755,
      "è§£éĩĬ": 2756,
      "è°ĵ": 2757,
      "ä¸įä¸Ĭ": 2758,
      "å¿ĥçļĦ": 2759,
      "å¤©å¤©": 2760,
      "è°ĭ": 2761,
      "çĽĽ": 2762,
      "äº¡": 2763,
      "ĠæĪĳè¿ĺ": 2764,
      "æ¸¯": 2765,
      "æľ±": 2766,
      "èĻļ": 2767,
      "åºĦ": 2768,
      "æĻ¨": 2769,
      "å¦Ĥè¯´": 2770,
      "ä¸įåľ¨": 2771,
      "time": 2772,
      "ĠåĵİåĳĢ": 2773,
      "èĥĨ": 2774,
      "å¤®": 2775,
      "times": 2776,
      "éĤ£ä½ł": 2777,
      "âĳ¡": 2778,
      "ç¦»å©ļ": 2779,
      "Ġä¸¤": 2780,
      "è¿¹": 2781,
      "ç¬¦": 2782,
      "çī©ä½ĵ": 2783,
      "æĪĳæĿ¥": 2784,
      "åİħ": 2785,
      "é£ŀæľº": 2786,
      "åĲĦç§į": 2787,
      "Ġæ´": 2788,
      "AN": 2789,
      "ĠèĻ½çĦ¶": 2790,
      "ä½¿çĶ¨": 2791,
      "è°·": 2792,
      "éĿ¢å¯¹": 2793,
      "Ġå·²": 2794,
      "æĤ¨çļĦ": 2795,
      "å¿ĺäºĨ": 2796,
      "å¸®ä½ł": 2797,
      "ä¹Łä¸įçŁ¥éģĵ": 2798,
      "è¾Ľèĭ¦": 2799,
      "åľ¨è¿Ļä¸ª": 2800,
      "Ġä¸ºäºĨ": 2801,
      "ä¸»ä»»": 2802,
      "ç®±": 2803,
      "è¯´æĺİ": 2804,
      "ä½łåĪ«": 2805,
      "Ġä½łæĥ³": 2806,
      "ä¸Ģä½į": 2807,
      "æģ¨": 2808,
      "Ġåįģ": 2809,
      "è®¸å¤ļ": 2810,
      "ç»ª": 2811,
      "éĤ£éĩĮ": 2812,
      "åī©": 2813,
      "ä¸Ī": 2814,
      "èģļ": 2815,
      "éĶĻäºĨ": 2816,
      "æĶ¿åºľ": 2817,
      "ĠåŃ©": 2818,
      "å¤ĸéĿ¢": 2819,
      "ç¼ĸ": 2820,
      "æķħéĢī": 2821,
      "å³°": 2822,
      "çĪĨ": 2823,
      "åįı": 2824,
      "å¸Ń": 2825,
      "éģ¿": 2826,
      "å¥½çľĭ": 2827,
      "Ġåıĳ": 2828,
      "åĬĿ": 2829,
      "äººéĥ½": 2830,
      "èĳ£": 2831,
      "ar": 2832,
      "å®¡": 2833,
      "éĶĢ": 2834,
      "èĢģåħ¬": 2835,
      "åĩ¶": 2836,
      "éĹª": 2837,
      "ä¼ģä¸ļ": 2838,
      "æŃ£å¥½": 2839,
      "é¸Ń": 2840,
      "åįģäºĮ": 2841,
      "å¯¹æĸ¹": 2842,
      "çļĦéĹ®é¢ĺ": 2843,
      "Ġåı«": 2844,
      "ä¼°": 2845,
      "æ³ª": 2846,
      "æĲľ": 2847,
      "éĺ»": 2848,
      "Ġå½ĵæĹ¶": 2849,
      "èĴĻ": 2850,
      "è¿ĽäºĨ": 2851,
      "é¦ĸåħĪ": 2852,
      "ä¸Ģä»¶": 2853,
      "æı¡": 2854,
      "è¯´æ³ķ": 2855,
      "æ±¤": 2856,
      "Ġå®Į": 2857,
      "å«Ĥ": 2858,
      "åŁŁ": 2859,
      "è°ĥæŁ¥": 2860,
      "åĿĩ": 2861,
      "çħ§çīĩ": 2862,
      "æĿĲæĸĻ": 2863,
      "Ġæģ": 2864,
      "æ´²": 2865,
      "é¢Ĩå¯¼": 2866,
      "å¤ªå¤ª": 2867,
      "åĩŃ": 2868,
      "Ġåīį": 2869,
      "å¿Ĩ": 2870,
      "èº«ä»½": 2871,
      "Ġå¾Ĺ": 2872,
      "Ġå½ĵçĦ¶": 2873,
      "ç»ıåİĨ": 2874,
      "ç§ĳåŃ¦": 2875,
      "å¯¹ä½ł": 2876,
      "ä¸įå¤ļ": 2877,
      "ç¬¨": 2878,
      "èĥŀ": 2879,
      "å¼Łå¼Ł": 2880,
      "Ġæī¾": 2881,
      "åĿļæĮģ": 2882,
      "ĠåºĶè¯¥": 2883,
      "åĺī": 2884,
      "èŀį": 2885,
      "éĥ½è¦ģ": 2886,
      "åĲİéĿ¢": 2887,
      "è¯´æĺ¯": 2888,
      "ĠæĽ´": 2889,
      "éĤ£æĺ¯": 2890,
      "èµ°åĲ§": 2891,
      "ä¸įæķ¢": 2892,
      "çĶ±äºİ": 2893,
      "ä»ĩ": 2894,
      "ç¼ĺ": 2895,
      "æľīä¸Ģå¤©": 2896,
      "Ġæľ¬": 2897,
      "åŃ¤": 2898,
      "æĹ§": 2899,
      "åİ»åĲ§": 2900,
      "æľªæĿ¥": 2901,
      "åĩºçļĦ": 2902,
      "æķĻèĤ²": 2903,
      "ç»ĵæĿŁ": 2904,
      "æ¤įçī©": 2905,
      "éĺ¶": 2906,
      "æĭ¥": 2907,
      "æīįæĺ¯": 2908,
      "end": 2909,
      "ä¸ĭåĪĹ": 2910,
      "Ġd": 2911,
      "å°±èĥ½": 2912,
      "åĽº": 2913,
      "åĩºæĿ¥çļĦ": 2914,
      "âĳ¢": 2915,
      "çĪ±æĥħ": 2916,
      "åĽ½çļĦ": 2917,
      "åĲī": 2918,
      "çĽ®åīį": 2919,
      "æĤĦ": 2920,
      "Ġè¢«": 2921,
      "äººç±»": 2922,
      "ĠæĪĳåľ¨": 2923,
      "éĶħ": 2924,
      "èĪª": 2925,
      "äº§åħļ": 2926,
      "åĮħæĭ¬": 2927,
      "åĲĪä½ľ": 2928,
      "æĥ³æ³ķ": 2929,
      "åĴĮä½ł": 2930,
      "æ¬º": 2931,
      "åĲĥäºĨ": 2932,
      "æ²¡æĥ³åĪ°": 2933,
      "æĪĳæľī": 2934,
      "è®©äºº": 2935,
      "Ġåħ¬": 2936,
      "ä½łä»¬çļĦ": 2937,
      "èµı": 2938,
      "Ġæİ¥": 2939,
      "Ġåħ³": 2940,
      "Ġæµ": 2941,
      "ä½Ľ": 2942,
      "æĪĳä¼ļ": 2943,
      "æĢĢçĸĳ": 2944,
      "Ġå¸Ī": 2945,
      "ä¹ĸ": 2946,
      "è´´": 2947,
      "å¢Ļ": 2948,
      "è¿ĺèĥ½": 2949,
      "çĻ¾å§ĵ": 2950,
      "éļĶ": 2951,
      "ä¸»äºº": 2952,
      "çļĦæķħäºĭ": 2953,
      "ç²®": 2954,
      "äººåĳĺ": 2955,
      "ä¿Ŀè¯ģ": 2956,
      "å²Ľ": 2957,
      "ä¼Ł": 2958,
      "åħĪèµ°äºĨ": 2959,
      "ĠæĹ¢çĦ¶": 2960,
      "ĠæĢ»": 2961,
      "è¯ģæĺİ": 2962,
      "é¼»": 2963,
      "å¥ĩæĢª": 2964,
      "ä½łä½ł": 2965,
      "å¾Īæľī": 2966,
      "æĲŃ": 2967,
      "ĠåĢ": 2968,
      "çº³": 2969,
      "ĠåĲĹ": 2970,
      "æ¡ĥ": 2971,
      "æ°§": 2972,
      "å¯¹åĲ§": 2973,
      "ç»©": 2974,
      "æī¬": 2975,
      "éĥ¨éĺŁ": 2976,
      "èģªæĺİ": 2977,
      "æ£®æŀĹ": 2978,
      "è¾Ĩ": 2979,
      "ä¹Łä¼ļ": 2980,
      "æīĶ": 2981,
      "ä¸įçĿĢ": 2982,
      "åĪ©çĶ¨": 2983,
      "æīĵå¼Ģ": 2984,
      "äºı": 2985,
      "ç«ŁçĦ¶": 2986,
      "ç¡®å®ļ": 2987,
      "åºŁ": 2988,
      "é¬¼åŃĲ": 2989,
      "ou": 2990,
      "èºº": 2991,
      "åıĹåĪ°": 2992,
      "åħĶåŃĲ": 2993,
      "ç¢Ĺ": 2994,
      "çķ¥": 2995,
      "åĲĮæĦı": 2996,
      "Ġä»ĸè¯´": 2997,
      "çĶŁæĦı": 2998,
      "å¯¹ä¸įå¯¹": 2999,
      "Ġä¸Ń": 3000,
      "ç¬¬ä¸ī": 3001,
      "éĩįè¦ģçļĦ": 3002,
      "æĹģè¾¹": 3003,
      "ä¸įåı¯èĥ½": 3004,
      "éĢĴ": 3005,
      "ĠæĪĳä¼ļ": 3006,
      "æ»ĳ": 3007,
      "éĻĦ": 3008,
      "ä»Ķ": 3009,
      "ge": 3010,
      "åĩī": 3011,
      "è§ģåĪ°": 3012,
      "$${{": 3013,
      "Ġå°Ĩ": 3014,
      "éĥİ": 3015,
      "åıĺå¾Ĺ": 3016,
      "éĥĳ": 3017,
      "Ġåĥı": 3018,
      "çĴ": 3019,
      "æĹ©ä¸Ĭ": 3020,
      "è´£ä»»": 3021,
      "å¦ĸ": 3022,
      "è´¦": 3023,
      "åĲĪéĢĤ": 3024,
      "åĵĪåĵĪåĵĪ": 3025,
      "å¹´åīį": 3026,
      "æĴŀ": 3027,
      "æĭ¾": 3028,
      "ä¸°": 3029,
      "æ¯ķç«Ł": 3030,
      "éªĳ": 3031,
      "æ®¿": 3032,
      "è¯º": 3033,
      "èµļ": 3034,
      "è§Ĥå¯Ł": 3035,
      "æīĵç®Ĺ": 3036,
      "ç³Ĭ": 3037,
      "è¸¢": 3038,
      "åĶ¯": 3039,
      "åħ¸": 3040,
      "èĪĴæľį": 3041,
      "æĮ£": 3042,
      "åĪ·": 3043,
      "ĠåıįæŃ£": 3044,
      "å¾Īå¿«": 3045,
      "æĺ¯åĲĹ": 3046,
      "ĠæĪĸèĢħ": 3047,
      "ĠæĪĳå°±æĺ¯": 3048,
      "è®©æĪĳä»¬": 3049,
      "Ġéĺ¿": 3050,
      "Ġçİ©": 3051,
      "æĹ¶ä»£": 3052,
      "ä¸įçŁ¥": 3053,
      "æįķ": 3054,
      "ä¹Łä¸įä¼ļ": 3055,
      "ä¸¥éĩį": 3056,
      "çĭł": 3057,
      "å®ŀè¯Ŀ": 3058,
      "åĩ¡": 3059,
      "ä»Ģä¹Īäºĭ": 3060,
      "æĦıæĢĿåķĬ": 3061,
      "æĨ": 3062,
      "å¥ĭ": 3063,
      "æİ§åĪ¶": 3064,
      "ä»į": 3065,
      "æĦŁè°¢": 3066,
      "åĨįè¯´": 3067,
      "Ġå·²ç»ı": 3068,
      "åĵİåĳĢ": 3069,
      "è¦ģä¸į": 3070,
      "è¿Ļè¾¹": 3071,
      "æīĢè°ĵ": 3072,
      "æ¼«": 3073,
      "math": 3074,
      "Ġè¿ĩ": 3075,
      "éĤ£æł·": 3076,
      "å¨ľ": 3077,
      "çŃīçĿĢ": 3078,
      "å¾Ĳ": 3079,
      "å®ŀéªĮ": 3080,
      "çŃīçŃī": 3081,
      "å¯¹äºĨ": 3082,
      "çĲ´": 3083,
      "åįģåĪĨ": 3084,
      "Ġä¹Łæĺ¯": 3085,
      "éĢĶ": 3086,
      "ä¼¸": 3087,
      "ç©·": 3088,
      "Ġä½łçİ°åľ¨": 3089,
      "åīĳ": 3090,
      "æľįåĬ¡": 3091,
      "çļĦæĪĳ": 3092,
      "æĥħç»ª": 3093,
      "è¾ŀ": 3094,
      "æĦıä¹ī": 3095,
      "æ±½": 3096,
      "ç«Ļåľ¨": 3097,
      "ä¸Ģå£°": 3098,
      "æİĪ": 3099,
      "åķĨéĩı": 3100,
      "è¦ģåİ»": 3101,
      "è¿ĺæ²¡æľī": 3102,
      "Ġsh": 3103,
      "âĳ£": 3104,
      "å°¼": 3105,
      "äº§çĶŁ": 3106,
      "Ġä¸įç®¡": 3107,
      "ä»ĸåľ¨": 3108,
      "åıįæŃ£": 3109,
      "æĮºå¥½çļĦ": 3110,
      "é¾Ħ": 3111,
      "ç»ĻæĪĳä»¬": 3112,
      "åįģäºĶ": 3113,
      "åİļ": 3114,
      "æĴĴ": 3115,
      "Ġéļ¾éģĵ": 3116,
      "éĩįæĸ°": 3117,
      "ç©ºéĹ´": 3118,
      "èŁ": 3119,
      "ç¤¼çī©": 3120,
      "çŁ¥éģĵäºĨ": 3121,
      "æŃī": 3122,
      "ä¸įå®¹æĺĵ": 3123,
      "è¿Ł": 3124,
      "çĸ¯": 3125,
      "å¿ł": 3126,
      "sq": 3127,
      "èĤ¥": 3128,
      "å§»": 3129,
      "æįŁ": 3130,
      "å¥³æľĭåıĭ": 3131,
      "å°ļ": 3132,
      "ä¸»ä¹ī": 3133,
      "åĵªä¸ª": 3134,
      "ä¹łæĥ¯": 3135,
      "æĬĬè¿Ļä¸ª": 3136,
      "é¢Ŀ": 3137,
      "åºĶè¯¥æĺ¯": 3138,
      "åħ±äº§åħļ": 3139,
      "ĠåĲ§": 3140,
      "ĠåĪĺ": 3141,
      "åģ¥åº·": 3142,
      "çļĦå¥½": 3143,
      "è¡Įä¸º": 3144,
      "åĪĨäº«": 3145,
      "Ġä½łä¹Ł": 3146,
      "ç»ľ": 3147,
      "æĪĳä»¬å°±": 3148,
      "çĶŁçī©": 3149,
      "é²ģ": 3150,
      "å¥Ķ": 3151,
      "ç³»ç»Ł": 3152,
      "ä»Ĺ": 3153,
      "å·Ŀ": 3154,
      "åļ": 3155,
      "çŁ¥è¯Ĩ": 3156,
      "ĠæŃ¤": 3157,
      "é¡¹çĽ®": 3158,
      "ç§Ł": 3159,
      "è¯´ä»Ģä¹Ī": 3160,
      "éĤ£å¤©": 3161,
      "æ¬¢è¿İ": 3162,
      "è¿Ļä¹Īè¯´": 3163,
      "è²": 3164,
      "äºĨä¸ª": 3165,
      "éĺ´": 3166,
      "æ¢ģ": 3167,
      "åĪĨæŀĲ": 3168,
      "çĸ«": 3169,
      "åºı": 3170,
      "çļĦæĥħåĨµ": 3171,
      "æĵ¦": 3172,
      "ç¬¬ä¸Ģä¸ª": 3173,
      "ä½łèĩªå·±": 3174,
      "æĹ¥æľ¬äºº": 3175,
      "å¹²åĺĽ": 3176,
      "æ±ł": 3177,
      "æĪĳèĩªå·±": 3178,
      "åĬĽéĩı": 3179,
      "Ġå¿ĥ": 3180,
      "çº·": 3181,
      "æĺł": 3182,
      "å±ģ": 3183,
      "çĮİ": 3184,
      "å¯Ĵ": 3185,
      "è¶³çĲĥ": 3186,
      "æĪĲçļĦ": 3187,
      "è®¿": 3188,
      "ç©ºæ°Ķ": 3189,
      "ä¼¼çļĦ": 3190,
      "æīİ": 3191,
      "Ġäººå®¶": 3192,
      "Ġé«ĺ": 3193,
      "æĭĸ": 3194,
      "æī°": 3195,
      "æĥ³æĥ³": 3196,
      "æĤĶ": 3197,
      "èĤļåŃĲ": 3198,
      "ĠæĦŁ": 3199,
      "Ġåĺ": 3200,
      "å®ŀéĻħ": 3201,
      "æī«": 3202,
      "æĽ´åĬł": 3203,
      "èª": 3204,
      "ä¸įä»ħ": 3205,
      "èĩªçĶ±": 3206,
      "Ġåį´": 3207,
      "è¶Ł": 3208,
      "ç£ģ": 3209,
      "è´¨éĩı": 3210,
      "éļıä¾¿": 3211,
      "ĠåİŁæĿ¥": 3212,
      "éĹ²": 3213,
      "å°ıåŃĲ": 3214,
      "äºĨåĳ¢": 3215,
      "è½½": 3216,
      "Ġèĩªå·±": 3217,
      "é£Łçī©": 3218,
      "åĲ¬è§ģ": 3219,
      "å¾Ĵ": 3220,
      "å¦Ļ": 3221,
      "åĲĦä½į": 3222,
      "ĠéĻĪ": 3223,
      "å¾Īéļ¾": 3224,
      "å¹´äºĨ": 3225,
      "åİĭåĬĽ": 3226,
      "æľĢå¥½çļĦ": 3227,
      "æ²¡éĶĻ": 3228,
      "ĠæĢİä¹Īæł·": 3229,
      "è´Ń": 3230,
      "åĨħå®¹": 3231,
      "æĪĳä¸Ģ": 3232,
      "éĹ¨åı£": 3233,
      "ä¹Ķ": 3234,
      "åĪ¤æĸŃ": 3235,
      "ç¦ģ": 3236,
      "$$.": 3237,
      "Ġå¥³": 3238,
      "éķ¿å¾Ĺ": 3239,
      "æĬĬè¿Ļ": 3240,
      "rt": 3241,
      "å¤«äºº": 3242,
      "æĭ¿çĿĢ": 3243,
      "è¯´ä¸į": 3244,
      "çļĦçĶŁæ´»": 3245,
      "ä¸įæĸŃ": 3246,
      "çº¯": 3247,
      "çŀİ": 3248,
      "é¢ľèī²": 3249,
      "æĢ¨": 3250,
      "ç»Ĩèĥŀ": 3251,
      "ĠåĪļæīį": 3252,
      "æĬ¬": 3253,
      "éĤ£æĪĳ": 3254,
      "æĹ¦": 3255,
      "èµŀ": 3256,
      "éģŃ": 3257,
      "Ġæ¸": 3258,
      "sqrt": 3259,
      "æĺ¯çļĦ": 3260,
      "Ġæ¬¢": 3261,
      "èı²": 3262,
      "æĺ¯æĢİä¹Ī": 3263,
      "\"ãĢĤ": 3264,
      "åºĵ": 3265,
      "æľīå¾Īå¤ļ": 3266,
      "å¥¥": 3267,
      "èĦı": 3268,
      "æĶ¾å¼ĥ": 3269,
      "å®ŀçİ°": 3270,
      "åĳĲ": 3271,
      "ĠæĪĳéĥ½": 3272,
      "æľīåħ³": 3273,
      "æ²¡ä»Ģä¹Ī": 3274,
      "åıĶåıĶ": 3275,
      "ä¸ĵä¸ļ": 3276,
      "è¯´å¾Ĺ": 3277,
      "çĮ®": 3278,
      "åĢį": 3279,
      "...\"": 3280,
      "å£®": 3281,
      "æ¼Ķåĳĺ": 3282,
      "æıĲä¾Ľ": 3283,
      "Ġåĵ¥": 3284,
      "Ġå¯¹ä¸įèµ·": 3285,
      "ä¸ĬçıŃ": 3286,
      "åĿĲåľ¨": 3287,
      "çĶ·åŃ©": 3288,
      "æľīå¤ļ": 3289,
      "æħ§": 3290,
      "è¸ı": 3291,
      "ç¨į": 3292,
      "åŁ¹": 3293,
      "å®¾": 3294,
      "å¾®ä¿¡": 3295,
      "åģ¶": 3296,
      "fla": 3297,
      "flag": 3298,
      "centerlineend": 3299,
      "centerlineendflag": 3300,
      "æľĢå¤§çļĦ": 3301,
      "æĺİçĻ½äºĨ": 3302,
      "éŃĤ": 3303,
      "æ·¡": 3304,
      "çĶ·æľĭåıĭ": 3305,
      "éĻ·": 3306,
      "çī©è´¨": 3307,
      "æľ«": 3308,
      "çĩķ": 3309,
      "ä¸ĬæĿ¥": 3310,
      "çĶ¨çļĦ": 3311,
      "ĠæĢİä¹ĪäºĨ": 3312,
      "å®ĩ": 3313,
      "ä¸ĢçĽ´åľ¨": 3314,
      "åľ£": 3315,
      "ä½łèĥ½": 3316,
      "ä¸ĩä¸Ģ": 3317,
      "Ġè¿ŀ": 3318,
      "åĦ¿åķĬ": 3319,
      "éĴ»": 3320,
      "ä¸įåİ»": 3321,
      "éĢĤåĲĪ": 3322,
      "è§Ĥä¼Ĺ": 3323,
      "åĲ¯": 3324,
      "çĶŁäº§": 3325,
      "æ³¥": 3326,
      "Ġå¸¦": 3327,
      "åĴ¬": 3328,
      "è¿ĩçļĦ": 3329,
      "ç´§å¼ł": 3330,
      "è¯ģæį®": 3331,
      "èµ°èµ°": 3332,
      "éĴ¢": 3333,
      "æĦŁåĪ°": 3334,
      "ä¸ºä»Ģä¹Īè¦ģ": 3335,
      "Ġå¨": 3336,
      "Ġ(": 3337,
      "æ»´": 3338,
      "Ġé©¬": 3339,
      "æ¯ıæ¬¡": 3340,
      "å¦»åŃĲ": 3341,
      "Ġæīį": 3342,
      "Ġå§Ĳ": 3343,
      "åħ¶ä¸Ń": 3344,
      "ä¼¤å®³": 3345,
      "Ġå¥½äºĨ": 3346,
      "Ġä½Ĩæĺ¯æĪĳ": 3347,
      "Ġåĸľ": 3348,
      "è·Łå¥¹": 3349,
      "ĠçĿĢ": 3350,
      "ä¸ĭéĿ¢": 3351,
      "å²¸": 3352,
      "ç§ĺå¯Ĩ": 3353,
      "å®½": 3354,
      "æĤ²": 3355,
      "ĠæĪĳæĪĳ": 3356,
      "è¸ª": 3357,
      "Ġèĩª": 3358,
      "æī¾æĪĳ": 3359,
      "éĥ½èĥ½": 3360,
      "æĬķèµĦ": 3361,
      "åĽĽä¸ª": 3362,
      "ç½ļ": 3363,
      "ĠåĽĽ": 3364,
      "ä»·åĢ¼": 3365,
      "Ġh": 3366,
      "ä¿º": 3367,
      "åľ¨åĵªåĦ¿": 3368,
      "éļĨ": 3369,
      "ç®¡çĲĨ": 3370,
      "ä¸įå°ĳ": 3371,
      "åİ¨": 3372,
      "ĠéĩĮ": 3373,
      "Ġä»Ĭ": 3374,
      "ç»Ļå¥¹": 3375,
      "ĠæľĢåĲİ": 3376,
      "åľ°çĲĥ": 3377,
      "è·Ŀç¦»": 3378,
      "ä¸įæĩĤ": 3379,
      "æĢ§çļĦ": 3380,
      "ä¹Łä¸įæĺ¯": 3381,
      "å°±æ²¡æľī": 3382,
      "å°ĸ": 3383,
      "æĸ¹ä¾¿": 3384,
      "å¹ħ": 3385,
      "æķı": 3386,
      "Ġè¿Ļæ¬¡": 3387,
      "éĶģ": 3388,
      "æİ¥çĿĢ": 3389,
      "ä»¥åıĬ": 3390,
      "ç¢İ": 3391,
      "}{{{": 3392,
      "ta": 3393,
      "åŃĶ": 3394,
      "åľ°åĮº": 3395,
      "æĢģåº¦": 3396,
      "mathrm": 3397,
      "æīĭéĩĮ": 3398,
      "æĴ¤": 3399,
      "æ£µ": 3400,
      "åı¯èĥ½æĺ¯": 3401,
      "Ġå®ŀ": 3402,
      "å±Ī": 3403,
      "ä½©": 3404,
      "ç¬¬äºĮå¤©": 3405,
      "Ġæ¬¢è¿İ": 3406,
      "Ġæĺİå¤©": 3407,
      "åį·": 3408,
      "è²Į": 3409,
      "ĠåĲĦ": 3410,
      "åİ»çľĭ": 3411,
      "ä½łæľī": 3412,
      "ĠæĪĳæĢİä¹Ī": 3413,
      "==": 3414,
      "æŀĿ": 3415,
      "å¿«çĤ¹": 3416,
      "èĩŃ": 3417,
      "åħ³éĶ®": 3418,
      "åĸ½": 3419,
      "åı¸ä»¤": 3420,
      "å»¶": 3421,
      "èĦ¾": 3422,
      "ĠæĪĳåĳĬè¯īä½ł": 3423,
      "åĩ¤": 3424,
      "ç¾½": 3425,
      "è®©å¥¹": 3426,
      "éĵº": 3427,
      "ä»İå°ı": 3428,
      "Ġä¸įèĥ½": 3429,
      "æ²Ł": 3430,
      "éĢĲ": 3431,
      "èĽĩ": 3432,
      "æŁĶ": 3433,
      "çļĦä¸ĢäºĽ": 3434,
      "å£ģ": 3435,
      "å®¢æ°Ķ": 3436,
      "åı¦å¤ĸ": 3437,
      "ä¸Ģä¹Ŀ": 3438,
      "ä¿ĿæĮģ": 3439,
      "åłĨ": 3440,
      "è¡¨è¾¾": 3441,
      "çĹĩ": 3442,
      "æľĪäº®": 3443,
      "æ¬ł": 3444,
      "Ġä¸ŃåĽ½": 3445,
      "å¯¹åĳĢ": 3446,
      "åīįéĿ¢": 3447,
      "äººäºĨ": 3448,
      "çľĭæĿ¥": 3449,
      "çŁ³å¤´": 3450,
      "èľĤ": 3451,
      "æĺ¯æĪĳä»¬": 3452,
      "è®Ńç»ĥ": 3453,
      "éľĩ": 3454,
      "å°±è¯´": 3455,
      "çļĦèĢģ": 3456,
      "èµ·æĿ¥äºĨ": 3457,
      "èħ°": 3458,
      "å°±æ²¡": 3459,
      "åĴĮå°ı": 3460,
      "åģļä»Ģä¹Ī": 3461,
      "çĭĤ": 3462,
      "Ġa": 3463,
      "Ġ2": 3464,
      "é«ĺçļĦ": 3465,
      "è®¯": 3466,
      "äºĨè¿Ļ": 3467,
      "æĢĴ": 3468,
      "ç¯®çĲĥ": 3469,
      "å¤©ä¸ĭ": 3470,
      "æ¯«": 3471,
      "å¹¶ä¸į": 3472,
      "åĳĨ": 3473,
      "Ġè¿Ļå°±æĺ¯": 3474,
      "çļĦè¿Ļ": 3475,
      "çĽ¸åħ³": 3476,
      "ä½łçİ°åľ¨": 3477,
      "æĭĶ": 3478,
      "æĤ£": 3479,
      "åħ¬åŃĲ": 3480,
      "ç«ĭåĪ»": 3481,
      "çªĿ": 3482,
      "çĮ´åŃĲ": 3483,
      "ä¹Łå¾Ī": 3484,
      "çĶŁæĹ¥": 3485,
      "äº²èĩª": 3486,
      "æ®ĭ": 3487,
      "æ³½": 3488,
      "éĵ¶è¡Į": 3489,
      "åĽ½éĻħ": 3490,
      "ãĢĤ\"\"": 3491,
      "æ¶Ĥ": 3492,
      "å®ľ": 3493,
      "ç¬¦åĲĪ": 3494,
      "ä¸Īå¤«": 3495,
      "çļĦæł·åŃĲ": 3496,
      "åĲĲ": 3497,
      "Ġå°±ç®Ĺ": 3498,
      "å¯¼èĩ´": 3499,
      "Ġç»ĵæŀľ": 3500,
      "Ġåıªæľī": 3501,
      "è§Ĩé¢ĳ": 3502,
      "æº¶": 3503,
      "ĠåĮħ": 3504,
      "å¤§å®¶éĥ½": 3505,
      "æľķ": 3506,
      "èĪħ": 3507,
      "Ġæĺ¯åķĬ": 3508,
      "ĠçľĭæĿ¥": 3509,
      "æĪĳä»¬å®¶": 3510,
      "çİĭåŃĲ": 3511,
      "å±ħçĦ¶": 3512,
      "èİ·å¾Ĺ": 3513,
      "}=": 3514,
      "00": 3515,
      "ä¸Ģåı¥": 3516,
      "ä¸ĢåĿĹåĦ¿": 3517,
      "æ¢¦æĥ³": 3518,
      "æķ°æį®": 3519,
      "å®Ŀå®Ŀ": 3520,
      "é£ĺ": 3521,
      "é¾Ł": 3522,
      "ĠåĽ½": 3523,
      "ä¼°è®¡": 3524,
      "çīµ": 3525,
      "¤åħ¶": 3526,
      "Ġè¿Ļç§į": 3527,
      "çĤ®": 3528,
      "è¯´è¿ĩ": 3529,
      "Ġä½łä¸įæĺ¯": 3530,
      "ç®ĢçĽ´": 3531,
      "å©ļå§»": 3532,
      "åĳ½ä»¤": 3533,
      "è±ª": 3534,
      "æĳĶ": 3535,
      "+\\": 3536,
      "ĠåŃ¦": 3537,
      "çĭ®": 3538,
      "éĿ©åĳ½": 3539,
      "æĺ¯ä¸į": 3540,
      "æİīäºĨ": 3541,
      "çļĦåĳ¢": 3542,
      "æĿľ": 3543,
      "å¨¶": 3544,
      "è¿ĻæĹ¶": 3545,
      "åĵ¼": 3546,
      "è¿ĻäºĭåĦ¿": 3547,
      "èĩ³äºİ": 3548,
      "ä¼į": 3549,
      "Ġæ°´": 3550,
      "å»ºè®®": 3551,
      "æģĭçĪ±": 3552,
      "æĽ´å¤ļ": 3553,
      "äº§åĵģ": 3554,
      "çļĩå¸Ŀ": 3555,
      "ä¼ļä¸įä¼ļ": 3556,
      "çĽ´æĴŃ": 3557,
      "ĠçĻ½": 3558,
      "æĮ¯": 3559,
      "æľĭåıĭä»¬": 3560,
      "å°ıçĨĬ": 3561,
      "ç¯ĩ": 3562,
      "ç«¹": 3563,
      "Ġæ²¡äºĭ": 3564,
      "ĠæĪĳè·Łä½łè¯´": 3565,
      "ĠæŃ£": 3566,
      "å¢ŀåĬł": 3567,
      "çĿĢä½ł": 3568,
      "ä¸Ģçīĩ": 3569,
      "åħ´è¶£": 3570,
      "ä¸ĸçķĮä¸Ĭ": 3571,
      "å¤º": 3572,
      "æĪĳæ²¡": 3573,
      "æĺ¯åĲ¦": 3574,
      "åĽ°éļ¾": 3575,
      "èģĬå¤©": 3576,
      "æĦıè§ģ": 3577,
      "è¿ĩåİ»äºĨ": 3578,
      "æĶ¶æĭ¾": 3579,
      "åľ¾": 3580,
      "èīºæľ¯": 3581,
      "ä¸Ģåľº": 3582,
      "ĥåľ¾": 3583,
      "æĻ®éĢļ": 3584,
      "åĲ¬äºĨ": 3585,
      "é©¾": 3586,
      "æ¶¨": 3587,
      "½åŃĲ": 3588,
      "çĶĺ": 3589,
      "æĢĿæĥ³": 3590,
      "Ġåĳ¨": 3591,
      "æ°ĳæĹı": 3592,
      "ä¹ĺ": 3593,
      "åİĮ": 3594,
      "ro": 3595,
      "ç´«": 3596,
      "åĪ°çİ°åľ¨": 3597,
      "çĥĤ": 3598,
      "äºķ": 3599,
      "åĬĽçļĦ": 3600,
      "é¥±": 3601,
      "æİ¥ä¸ĭæĿ¥": 3602,
      "è¯¶": 3603,
      "èµĶ": 3604,
      "èĭ±éĽĦ": 3605,
      "å¹ķ": 3606,
      "è¿«": 3607,
      "æĺ¯è¦ģ": 3608,
      "å½ĵå¹´": 3609,
      "è§ģéĿ¢": 3610,
      "éŃı": 3611,
      "åĴĮæĪĳ": 3612,
      "çĽ®æłĩ": 3613,
      "èķ": 3614,
      "æ¯ģ": 3615,
      "æ¯ıä¸ª": 3616,
      "äºĨèµ·æĿ¥": 3617,
      "Ġæĺ¯æĪĳ": 3618,
      "èļģ": 3619,
      "æºľ": 3620,
      "Ġä¸įçĶ¨": 3621,
      "ç»Ļä½łä»¬": 3622,
      "Ġè®©æĪĳ": 3623,
      "ji": 3624,
      "Ġå¸ĮæľĽ": 3625,
      "Ġåıªæĺ¯": 3626,
      "è¯¸": 3627,
      "æĪĲç»©": 3628,
      "åĪĳ": 3629,
      "çļĦåħ³ç³»": 3630,
      "åĸĤ": 3631,
      "éķ¿æĹ¶éĹ´": 3632,
      "å¸®å¿Ļ": 3633,
      "æĦŁåıĹ": 3634,
      "ä¸Ńå¤®": 3635,
      "|$$\\": 3636,
      "éĢļçŁ¥": 3637,
      "èĢģèĻİ": 3638,
      "çİ°è±¡": 3639,
      "æ¬£": 3640,
      "Ġæľīä»Ģä¹Ī": 3641,
      "Ġ1": 3642,
      "çķĻä¸ĭ": 3643,
      "éĹº": 3644,
      "åĿıäºĨ": 3645,
      "å¸ģ": 3646,
      "çķª": 3647,
      "è¶ģ": 3648,
      "æ¶ī": 3649,
      "Ġçľĭçľĭ": 3650,
      "è¡¨æ¼Ķ": 3651,
      "è¯´ä»ĸ": 3652,
      "Ġæľīæ²¡æľī": 3653,
      "çļĦåľ°": 3654,
      "èį·": 3655,
      "ç³ķ": 3656,
      "æ±½è½¦": 3657,
      "éĺ³åħī": 3658,
      "å°¸": 3659,
      "åħ±åĲĮ": 3660,
      "åĸĿéħĴ": 3661,
      "åħ·æľī": 3662,
      "å¿ħè¦ģ": 3663,
      "ĠçľŁæĺ¯": 3664,
      "åľ¨ä½ł": 3665,
      "çĿĢåĳ¢": 3666,
      "ç²Ĵ": 3667,
      "åª³å¦ĩåĦ¿": 3668,
      "æĶ¿æ²»": 3669,
      "ĠæĻļ": 3670,
      "çŃĳ": 3671,
      "çľĭåĪ°äºĨ": 3672,
      "äºĭåķĬ": 3673,
      "å°±æĺ¯æĪĳ": 3674,
      "éĤ£å°±": 3675,
      "éĥŃ": 3676,
      "å¹¶æ²¡æľī": 3677,
      "ä»Ķç»Ĩ": 3678,
      "åħ³å¿ĥ": 3679,
      "å°ĳçĪ·": 3680,
      "Ġle": 3681,
      "$$,$$": 3682,
      "èĨĢ": 3683,
      "ĠæĪĳè·Ł": 3684,
      "çĮĽ": 3685,
      "Ġä¸įçŁ¥éģĵ": 3686,
      "éļıçĿĢ": 3687,
      "ä¸Ģå®¶": 3688,
      "è®°ä½ı": 3689,
      "æī¾åĪ°äºĨ": 3690,
      "æıı": 3691,
      "å½»": 3692,
      "Ġæħ": 3693,
      "è¡¡": 3694,
      "èİī": 3695,
      "å¤§æ¦Ĥ": 3696,
      "çĽ¯": 3697,
      "æĺ¯è¿Ļæł·": 3698,
      "è¿Ŀ": 3699,
      "ä¸ŃéĹ´": 3700,
      "èĦĳè¢ĭ": 3701,
      "èĿ¶": 3702,
      "è·ĳäºĨ": 3703,
      "èĢ³æľµ": 3704,
      "æĪĺäºī": 3705,
      "çļĦä½ł": 3706,
      "æ¢¯": 3707,
      "èµ°åĪ°": 3708,
      "è¿ª": 3709,
      "äºĨä¸Ģä¸ĭ": 3710,
      "çļĦæīĭ": 3711,
      "ç»ĻäºĨ": 3712,
      "å¤¸": 3713,
      "æĺ¯ä¸Ģç§į": 3714,
      "æĮīçħ§": 3715,
      "Ġåľ°": 3716,
      "ä¸ŃåĽ½çļĦ": 3717,
      "åĶ¯ä¸Ģ": 3718,
      "æ±ĩ": 3719,
      "ä¸»æĦı": 3720,
      "æĥħæĦŁ": 3721,
      "å§Ĩ": 3722,
      "å®Ŀè´Ŀ": 3723,
      "ä¸»åĬ¨": 3724,
      "åĳ¦": 3725,
      "å¯¹ä»ĸ": 3726,
      "æļĤ": 3727,
      "åĬłæ²¹": 3728,
      "}$": 3729,
      "åĲİçļĦ": 3730,
      "ç»ķ": 3731,
      "åħ¨åĽ½": 3732,
      "ä¸įå°±": 3733,
      "ĠæĪĳå·²ç»ı": 3734,
      "Ġæ³": 3735,
      "ä¸Ģä¸ªå°ı": 3736,
      "æ¹¾": 3737,
      "Ġæĺİ": 3738,
      "ç¼ĵ": 3739,
      "Ġä½łè¦ģæĺ¯": 3740,
      "å¥³çļĦ": 3741,
      "åĩłå¹´": 3742,
      "æĮĸ": 3743,
      "åįģåħ«": 3744,
      "å¹¼": 3745,
      "èĢĲ": 3746,
      "å¿«å¿«": 3747,
      "ä¸ĳ": 3748,
      "èĳĹ": 3749,
      "ĠåĸĶ": 3750,
      "åĪ°çļĦ": 3751,
      "Ġå¤§åĵ¥": 3752,
      "å¿ĥæĥħ": 3753,
      "çļĦå£°éŁ³": 3754,
      "å¤§å¤«": 3755,
      "ä¸īå¹´": 3756,
      "æ´»çĿĢ": 3757,
      "æįī": 3758,
      "å°±ç®Ĺ": 3759,
      "æĺ¯æĪĳçļĦ": 3760,
      "æĪĴ": 3761,
      "è½¨": 3762,
      "ĠçĶļèĩ³": 3763,
      "èĢģçĪ·": 3764,
      "åĺ¿": 3765,
      "ĠäºĶ": 3766,
      "åľ¨å®¶": 3767,
      "ä»Ģä¹ĪçļĦ": 3768,
      "ä¸įå¤Ł": 3769,
      "ç¡Ģ": 3770,
      "èļĤ": 3771,
      "æ£ĢæŁ¥": 3772,
      "åĵŁ": 3773,
      "ä»Ģä¹Īéĥ½": 3774,
      "è¾£": 3775,
      "åĢĴæĺ¯": 3776,
      "åŁĭ": 3777,
      "ĠåĬł": 3778,
      "çľŁå®ŀ": 3779,
      "ä¸įå¦Ĥ": 3780,
      "åĶ®": 3781,
      "Ġå¦Ĥæŀľä½ł": 3782,
      "èĦ¾æ°Ķ": 3783,
      "å½¼": 3784,
      "å¡Ķ": 3785,
      "ç§ĳæĬĢ": 3786,
      "äººåķĬ": 3787,
      "çģ¾": 3788,
      "æīĳ": 3789,
      "çİ°å®ŀ": 3790,
      "è°ħ": 3791,
      "çİ©ç¬ĳ": 3792,
      "ĠåĿĲ": 3793,
      "çŀĴ": 3794,
      "æ¬²": 3795,
      "ç®Ń": 3796,
      "å²©": 3797,
      "è¿ĩç¨ĭä¸Ń": 3798,
      "ä¸»æĴŃ": 3799,
      "å°±æĬĬ": 3800,
      "æĭĴ": 3801,
      "ä»ģ": 3802,
      "ĠA": 3803,
      "ä¸įè¯´": 3804,
      "Ġå¥½å¥½": 3805,
      "ĠæĪĳæ²¡": 3806,
      "èĽ®": 3807,
      "éĩıçļĦ": 3808,
      "åĴ±ä¿©": 3809,
      "èį¡": 3810,
      "èĤ¯å®ļæĺ¯": 3811,
      "èµ¶å¿«": 3812,
      "æĥ³çĿĢ": 3813,
      "ç»ıéªĮ": 3814,
      "ç¼Ŀ": 3815,
      "çĩĥ": 3816,
      "åĬ¨äºĨ": 3817,
      "ä¸Ģå¼ł": 3818,
      "ĠçĭĹ": 3819,
      "Ġä½łæĺ¯ä¸įæĺ¯": 3820,
      "å¿ĥçĲĨ": 3821,
      "è¿Ļä½į": 3822,
      "æĳ©": 3823,
      "Ġè¯¥": 3824,
      "è¿Ļä»¶äºĭæĥħ": 3825,
      "æĢİä¹Īè¯´": 3826,
      "ä¸«": 3827,
      "å°¾å·´": 3828,
      "åŁºç¡Ģ": 3829,
      "çī¢": 3830,
      "è®°èĢħ": 3831,
      "ä¾¯": 3832,
      "ĠæĪĳåİ»": 3833,
      "ç»ĵæŀĦ": 3834,
      "ä¸įåĩº": 3835,
      "åĶī": 3836,
      "éĻĦè¿ĳ": 3837,
      "èī¾": 3838,
      "Ġå¸®": 3839,
      "ä¸Ģæł·çļĦ": 3840,
      "æĪĳå°±æĺ¯": 3841,
      "åĬ±": 3842,
      "ĠåŃ©åŃĲ": 3843,
      "è®©ä»ĸä»¬": 3844,
      "éĺŁçļĦ": 3845,
      "ä¼ĺç§Ģ": 3846,
      "æķ²": 3847,
      "æľŁå¾ħ": 3848,
      "æ°´å¹³": 3849,
      "å¯»æī¾": 3850,
      "ä¼ı": 3851,
      "æĴĳ": 3852,
      "Ġ,": 3853,
      "çļĦåŃ©åŃĲ": 3854,
      "AND": 3855,
      "çĽĲ": 3856,
      "å¤ļä¹ħ": 3857,
      "æ»¡è¶³": 3858,
      "éĤ»": 3859,
      "åĸ·": 3860,
      "æı´": 3861,
      "GR": 3862,
      "èĢĮå·²": 3863,
      "XX": 3864,
      "GRAND": 3865,
      "ä¾¦": 3866,
      "åĪĨæīĭ": 3867,
      "ç§Ĵ": 3868,
      "ç¥¸": 3869,
      "æľīä¸ĢäºĽ": 3870,
      "é¹°": 3871,
      "åĢ¼å¾Ĺ": 3872,
      "å¸ĪåĤħ": 3873,
      "å·¦åı³": 3874,
      "å®¿": 3875,
      "å°ıåŃ©": 3876,
      "ä¸įåıĬ": 3877,
      "å°ıçĻ½": 3878,
      "éĵ¾": 3879,
      "Ġc": 3880,
      "èĬ¬": 3881,
      "è¯·ä½ł": 3882,
      "Ġåķ¦": 3883,
      "ä¼¦": 3884,
      "Ġä»ĸçļĦ": 3885,
      "è®¢": 3886,
      "æ»¡äºĨ": 3887,
      "Ġä¸İ": 3888,
      "ç¹": 3889,
      "æħĮ": 3890,
      "æĥ¨": 3891,
      "æģ¢": 3892,
      "ä»ª": 3893,
      "èµĸ": 3894,
      "çĤ¼": 3895,
      "æ¯Ķå¦Ĥè¯´": 3896,
      "æİ¥è§¦": 3897,
      "ä¹Łè¦ģ": 3898,
      "ç«ŀ": 3899,
      "éĽĢ": 3900,
      "é¢ĺçĽ®": 3901,
      "æ½ľ": 3902,
      "äººçĶŁ": 3903,
      "ä½ľåĵģ": 3904,
      "åľ¨äºĨ": 3905,
      "ĠçĪ¸": 3906,
      "ç¹ģ": 3907,
      "æĪĳè·Ł": 3908,
      "Ġä¸įä¼ļ": 3909,
      "ä½łè¿Ļä¸ª": 3910,
      "ĠæĪĳä¸įæĺ¯": 3911,
      "èµĮ": 3912,
      "çĦ¦": 3913,
      "Ġå°±åĥı": 3914,
      "ä¸įä¸į": 3915,
      "ä¹Łä¸įèĥ½": 3916,
      "ä¾ĿçĦ¶": 3917,
      "ä½łä¼ļ": 3918,
      "çĹĽèĭ¦": 3919,
      "æĺ¯ä»ĸ": 3920,
      "éĥ½å¾Ī": 3921,
      "Ġå¥½åĥı": 3922,
      "ä¸įåĲĮçļĦ": 3923,
      "ä½łåı¯ä»¥": 3924,
      "æ¹¿": 3925,
      "å¼¯": 3926,
      "æĽ´å¤ļçļĦ": 3927,
      "Ġæķħ": 3928,
      "ä½ĵçļĦ": 3929,
      "æıĲéĨĴ": 3930,
      "èĭĹ": 3931,
      "Ġå°ĳ": 3932,
      "èĩ³å°ĳ": 3933,
      "æıĴ": 3934,
      "åŃ¦ä¼ļ": 3935,
      "éĺħ": 3936,
      "åŃĿ": 3937,
      "{\\": 3938,
      "èĴĭ": 3939,
      "èµ°åķĬ": 3940,
      "åĽłä¸ºæĪĳ": 3941,
      "æĤī": 3942,
      "å»ºè®¾": 3943,
      "Ľä¸ĭ": 3944,
      "åı«åģļ": 3945,
      "è´¼": 3946,
      "çĽĹ": 3947,
      "æĥ¹": 3948,
      "é³": 3949,
      "æŁ³": 3950,
      "å¡ŀ": 3951,
      "æĿ¥èĩª": 3952,
      "ç»ĻæĤ¨": 3953,
      "æī¿è®¤": 3954,
      "äºĨå¾Īå¤ļ": 3955,
      "æĦıè¯Ĩ": 3956,
      "è£ģ": 3957,
      "row": 3958,
      "é¥®": 3959,
      "ä¸ĢæĬĬ": 3960,
      "ä¹Łå°±": 3961,
      "æ¨ª": 3962,
      "Ġä¹Łè®¸": 3963,
      "æľ¬é¢ĺ": 3964,
      "çĽ´åĪ°": 3965,
      "åı¯èĥ½ä¼ļ": 3966,
      "æķĻæİĪ": 3967,
      "ĠæŁ": 3968,
      "å·®ä¸įå¤ļ": 3969,
      "å½¢æĪĲ": 3970,
      "ä¹Łå¥½": 3971,
      "æ°ı": 3972,
      "ei": 3973,
      "arrow": 3974,
      "å¥¸": 3975,
      "åĬŀåħ¬": 3976,
      "éħįåĲĪ": 3977,
      "ĠæŀĹ": 3978,
      "å¤©çļĦ": 3979,
      "åįķä½į": 3980,
      "æĳĦ": 3981,
      "åİ»åĵªåĦ¿": 3982,
      "æĪĳæĢİä¹Ī": 3983,
      "æĩĴ": 3984,
      "ç§įåŃĲ": 3985,
      "æĽ¹": 3986,
      "åĸľæ¬¢çļĦ": 3987,
      "æīĭæľ¯": 3988,
      "Ġæĺ¨å¤©": 3989,
      "æĮĳæĪĺ": 3990,
      "ç¨³å®ļ": 3991,
      "å°±æľī": 3992,
      "æĹ¶æľŁ": 3993,
      "åįģå¹´": 3994,
      "ä»ĸå¦Ī": 3995,
      "æ²¿": 3996,
      "èļĤèļģ": 3997,
      "é¥¼": 3998,
      "å¯¹è±¡": 3999,
      "ä¹Ļ": 4000,
      "ĠæĿ¨": 4001,
      "ä¹Łåı¯ä»¥": 4002,
      "çĿĢäºĨ": 4003,
      "ç¿ħ": 4004,
      "è·ĳåĪ°": 4005,
      "ĠæīĢä»¥æĪĳ": 4006,
      "èŃ¦æĸ¹": 4007,
      "çīĪ": 4008,
      "èĢģäºº": 4009,
      "æ®Ĭ": 4010,
      "è¯¯ä¼ļ": 4011,
      "åŃĲä¸Ĭ": 4012,
      "æłĩåĩĨ": 4013,
      "å·¥ç¨ĭ": 4014,
      "å¸ĪçĪ¶": 4015,
      "ç¼©": 4016,
      "ĠéĿĴèĽĻ": 4017,
      "Ġè¿Ļä¸Ģ": 4018,
      "è®¤çľŁ": 4019,
      "åı¯çĪ±": 4020,
      "çİ©åĦ¿": 4021,
      "äºĭåĦ¿åķĬ": 4022,
      "ĠB": 4023,
      "ä»ĵ": 4024,
      "åįģä¸Ģ": 4025,
      "ä¼łç»Ł": 4026,
      "ä½ıåľ¨": 4027,
      "æľĢç»Ī": 4028,
      "Ġ$\\": 4029,
      "å¥³åŃ©åŃĲ": 4030,
      "éĨī": 4031,
      "ç³Ł": 4032,
      "çĽ¾": 4033,
      "æľīæĹ¶åĢĻ": 4034,
      "çŃĶæ¡Īæĺ¯": 4035,
      "çİ°åľ¨çļĦ": 4036,
      "åĳ³éģĵ": 4037,
      "äººåĳ¢": 4038,
      "ç»ĳ": 4039,
      "Ġæĸ°": 4040,
      "è¿ĺå¾Ĺ": 4041,
      "çĽĴ": 4042,
      "èĥ¸": 4043,
      "çĨ¬": 4044,
      "æĿĢäºĨ": 4045,
      "Ġåĩł": 4046,
      "ç½ĳç»ľ": 4047,
      "æī¾ä½ł": 4048,
      "æ¯ķä¸ļ": 4049,
      "è¯´åķĬ": 4050,
      "åĮª": 4051,
      "åŀĥåľ¾": 4052,
      "åĽŀå¤´": 4053,
      "ĠéĤ£æĺ¯": 4054,
      "å¹²åķ¥": 4055,
      "æī¯": 4056,
      "æ²¡åħ³ç³»": 4057,
      "èĲĿ": 4058,
      "æģ¢å¤į": 4059,
      "Ġç»ĻæĪĳ": 4060,
      "-\\": 4061,
      "åĭ¤": 4062,
      "æµ®": 4063,
      "æĺŁæĺŁ": 4064,
      "èįĴ": 4065,
      "åľ°çļĦ": 4066,
      "å¦ĥ": 4067,
      "ĠéĩĮéĿ¢": 4068,
      "æľĹ": 4069,
      "æĪĳä¹Łæĺ¯": 4070,
      "è¿Ļå°±æĺ¯": 4071,
      "ĠåĳĬ": 4072,
      "ç¨Ģ": 4073,
      "ä¸Ģåı¥è¯Ŀ": 4074,
      "ä¸Ńå¿ĥ": 4075,
      "å¹²åĩĢ": 4076,
      "æĪļ": 4077,
      "æħ°": 4078,
      "ĠçĮ«": 4079,
      "çľŁæŃ£çļĦ": 4080,
      "æĪĳä»¬è¦ģ": 4081,
      "æ´Ľ": 4082,
      "å¥ı": 4083,
      "å¸¦æĿ¥": 4084,
      "æĹĹ": 4085,
      "ç²Ĺ": 4086,
      "å¥´": 4087,
      "éĹ®æĪĳ": 4088,
      "æī£": 4089,
      "è¡ĮåĲĹ": 4090,
      "Ġçī¹åĪ«": 4091,
      "çĽ¸åĲĮ": 4092,
      "æ´ª": 4093,
      "æ§": 4094,
      "åıªå¥½": 4095,
      "ç¾İçļĦ": 4096,
      "éĥ½åı¯ä»¥": 4097,
      "Ġè¦ģæĺ¯": 4098,
      "çİ²": 4099,
      "æĪª": 4100,
      "æī§è¡Į": 4101,
      "æĽ¼": 4102,
      "å»·": 4103,
      "ä¿Ĺ": 4104,
      "ĠèĬ±": 4105,
      "åı¯æĢ": 4106,
      "}$$.": 4107,
      "çĺ¦": 4108,
      "ä¸Ģå®ļæĺ¯": 4109,
      "æ©": 4110,
      "å¤«å¦»": 4111,
      "ä»¿": 4112,
      "ĠC": 4113,
      "æ±Ĺ": 4114,
      "åıĳçĶŁäºĨ": 4115,
      "æ³ī": 4116,
      "åįľ": 4117,
      "å®ŀåĬĽ": 4118,
      "Ġä½ķ": 4119,
      "è¯ķè¯ķ": 4120,
      "æĪĳèĥ½": 4121,
      "æī¶": 4122,
      "æĬµ": 4123,
      "éĤ£ä¸ªæĹ¶åĢĻ": 4124,
      "çļĦåĲ§": 4125,
      "éĻĽä¸ĭ": 4126,
      "èĢį": 4127,
      "ä¸»è¦ģæĺ¯": 4128,
      "æ¡£": 4129,
      "çļĦå®¶": 4130,
      "å¥³çĶŁ": 4131,
      "çļĦæľĭåıĭ": 4132,
      "è§ģäºĨ": 4133,
      "äººåľ¨": 4134,
      "Ġä½łåľ¨": 4135,
      "è·ŁæĪĳä»¬": 4136,
      "å¾Īä¹ħ": 4137,
      "åİ»åģļ": 4138,
      "Ġåı¯æĺ¯æĪĳ": 4139,
      "è¹¦": 4140,
      "çĳŀ": 4141,
      "æ·»": 4142,
      "Ġä¹Łä¸į": 4143,
      "ä¸įå¥½æĦıæĢĿ": 4144,
      "åıĹä¼¤": 4145,
      "12": 4146,
      "å½ĵåĪĿ": 4147,
      "çĭ±": 4148,
      "Ġä¸ľè¥¿": 4149,
      "å¿§": 4150,
      "ä¸įæĺ¯æĪĳ": 4151,
      "è£Ĥ": 4152,
      "ä¸Ģåı£": 4153,
      "æĿ¾é¼ł": 4154,
      "ç½¢": 4155,
      "è¯´å®Į": 4156,
      "åĩºéĹ¨": 4157,
      "è¿ĺä¼ļ": 4158,
      "æıĲé«ĺ": 4159,
      "ä¸¤ä½į": 4160,
      "çļĦå·¥ä½ľ": 4161,
      "åı¯ä¸į": 4162,
      "æĪĲéķ¿": 4163,
      "å°ıæĹ¶åĢĻ": 4164,
      "Ġæį®": 4165,
      "Ġåĸľæ¬¢": 4166,
      "çŁĽ": 4167,
      "çĭ®åŃĲ": 4168,
      "ä½łçŁ¥éģĵåĲĹ": 4169,
      "æĸ¤": 4170,
      "æħķ": 4171,
      "Ġæħ¢": 4172,
      "æ¬ºè´Ł": 4173,
      "èĢĢ": 4174,
      "ä¸ĵéĹ¨": 4175,
      "çī²": 4176,
      "ĠåĸĤ": 4177,
      "çľī": 4178,
      "ĠæĹ©": 4179,
      "Ġæ²¡æĥ³åĪ°": 4180,
      "ä¸įå¼Ģ": 4181,
      "è¿ĺæĮº": 4182,
      "æĥ³è±¡": 4183,
      "æľĪäºĮåįģ": 4184,
      "åıĳçİ°äºĨ": 4185,
      "æķĮäºº": 4186,
      "Ġä¸ĢçĽ´": 4187,
      "éĺŁä¼į": 4188,
      "å¹´é¾Ħ": 4189,
      "åģļå¥½": 4190,
      "çĽ®çļĦ": 4191,
      "å¹´çºª": 4192,
      "åĲįçļĦ": 4193,
      "é¹ħ": 4194,
      "æŁľ": 4195,
      "ä½łä»¬ä¿©": 4196,
      "å«Įçĸĳ": 4197,
      "è¯Ĭ": 4198,
      "æ´ģ": 4199,
      "æĺ¯ä¸ºäºĨ": 4200,
      "è´«": 4201,
      "çĽŁ": 4202,
      "å¤´åıĳ": 4203,
      "Ġå¾Īå¤ļ": 4204,
      "ä»ĸä¸į": 4205,
      "è´¤": 4206,
      "ä¸Ģå¤§": 4207,
      "åĶ±æŃĮ": 4208,
      "Ġä½łè§īå¾Ĺ": 4209,
      "æĬĬå¥¹": 4210,
      "19": 4211,
      "ä¿ĥ": 4212,
      "åĿ¡": 4213,
      "æĪĳå·²ç»ı": 4214,
      "åĺŀ": 4215,
      "ĠåĸĿ": 4216,
      "åĨĽçļĦ": 4217,
      "çľĭè¿ĩ": 4218,
      "æ½®": 4219,
      "ĠæĪĳçľŁçļĦ": 4220,
      "Ġåı¦": 4221,
      "å¥ī": 4222,
      "åĢº": 4223,
      "åĳµ": 4224,
      "ĠæĪĳæľī": 4225,
      "å°±è¿Ļæł·": 4226,
      "è®°å½ķ": 4227,
      "æĢİæł·": 4228,
      "å¤±è´¥": 4229,
      "äº¤æµģ": 4230,
      "å°±åİ»": 4231,
      "æĮ¡": 4232,
      "Ġåį³": 4233,
      "æĶ¾å¿ĥåĲ§": 4234,
      "æĪĳæ²¡æľī": 4235,
      "åĪĨåĪ«": 4236,
      "åºķä¸ĭ": 4237,
      "æĺ¾ç¤º": 4238,
      "ä»¥æĿ¥": 4239,
      "è§Ħå®ļ": 4240,
      "æĢİä¹Īä¼ļ": 4241,
      "è¢«äºº": 4242,
      "æĮĩæĮ¥": 4243,
      "äºĨå¥½": 4244,
      "åħ½": 4245,
      "åģļåĪ°": 4246,
      "è¿ħ": 4247,
      "Ġå¹³": 4248,
      "ä¸ªæľĪ": 4249,
      "ç©¶ç«Ł": 4250,
      "ä¸īçĻ¾": 4251,
      "æĪĳåı¯ä»¥": 4252,
      "é¦ĸæŃĮ": 4253,
      "æķħæĦı": 4254,
      "çļĦæľĢ": 4255,
      "ĠåĪĨ": 4256,
      "ç¾İä¸½çļĦ": 4257,
      "è¯»ä¹¦": 4258,
      "ä¹Łå¾Ĺ": 4259,
      "åĿ¦": 4260,
      "å¹¶ä¸įæĺ¯": 4261,
      "åĪĨåŃĲ": 4262,
      "æĦıæĢĿæĺ¯": 4263,
      "çĶ³": 4264,
      "çĶµèĦĳ": 4265,
      "æĳĺ": 4266,
      "å¿½çĦ¶": 4267,
      "éļľ": 4268,
      "æĹ¶åĪ»": 4269,
      "Ġè¡ĮäºĨ": 4270,
      "è¡Įä¸ļ": 4271,
      "ĠéĤ£æĪĳä»¬": 4272,
      "ä¸ĢçĤ¹åĦ¿": 4273,
      "éĹ·": 4274,
      "å±ı": 4275,
      "æĪĳå¦Ī": 4276,
      "ä¸ĭåįĪ": 4277,
      "åıĳå¸ĥ": 4278,
      "æĸĩç«ł": 4279,
      "Ġæİī": 4280,
      "å°±è¿Ļä¹Ī": 4281,
      "è´º": 4282,
      "åŃķ": 4283,
      "åĭĴ": 4284,
      "ĠæĪĳä»¬çļĦ": 4285,
      "å¾Ĺå¥½": 4286,
      "å¾Īå¤§çļĦ": 4287,
      "éĤĢ": 4288,
      "cdot": 4289,
      "ä¸Ģæ®µ": 4290,
      "ä¸įä¸ĭ": 4291,
      "åŃ©åŃĲä»¬": 4292,
      "æģĴ": 4293,
      "ä½łæĿ¥": 4294,
      "å°±å¥½äºĨ": 4295,
      "çĴĥ": 4296,
      "åĩĮ": 4297,
      "èĥİ": 4298,
      "Ġå¤ĸ": 4299,
      "ä¼Ļä¼´": 4300,
      "ä¸»å¸Ń": 4301,
      "ĠæĲ": 4302,
      "æ»¡æĦı": 4303,
      "Ġä½łåħĪ": 4304,
      "å¤ļå¹´": 4305,
      "çĲĨçĶ±": 4306,
      "ä¸Ģéĺµ": 4307,
      "éĹ®ä»ĸ": 4308,
      "éĶ¦": 4309,
      "ä¹ĭéĹ´çļĦ": 4310,
      "Ġä»ĸæĺ¯": 4311,
      "æĥ³çļĦ": 4312,
      "éľ¸": 4313,
      "åı¬": 4314,
      "}}=": 4315,
      "æµĵ": 4316,
      "èĤĸ": 4317,
      "æ¾¡": 4318,
      "æ¸©åº¦": 4319,
      "å¯¼æ¼Ķ": 4320,
      "åĬŁèĥ½": 4321,
      "æĻ¶": 4322,
      "åıĪæĺ¯": 4323,
      "Ġæĳ": 4324,
      "?\"\"": 4325,
      "Ġäºİæĺ¯": 4326,
      "èİ²": 4327,
      "åĩºåıĳ": 4328,
      "æĺŁæľŁ": 4329,
      "ä»¶äºĭæĥħ": 4330,
      "å»ºç«ĭ": 4331,
      "èĤº": 4332,
      "éĽĨåĽ¢": 4333,
      "èĲ¨": 4334,
      "ä¿Ĭ": 4335,
      "åªĴ": 4336,
      "è¯´è¯´": 4337,
      "ä¿¡ä»»": 4338,
      "çĽĨ": 4339,
      "çºł": 4340,
      "æī®": 4341,
      "''": 4342,
      "å¤ªå¥½äºĨ": 4343,
      "éĿ¢ä¸Ĭ": 4344,
      "ç¨ĭåº¦": 4345,
      "å¾Īåĸľæ¬¢": 4346,
      "çļĦéĤ£ç§į": 4347,
      "é¼»åŃĲ": 4348,
      "è°İ": 4349,
      "è¿Ļéĥ¨": 4350,
      "åħ¶ä»ĸçļĦ": 4351,
      "æ·ĺ": 4352,
      "éģĵæŃī": 4353,
      "èµĦæºĲ": 4354,
      "çŁ¿": 4355,
      "åı«æĪĳ": 4356,
      "Ġæ¡": 4357,
      "å¾Īå¤§": 4358,
      "æ¡¶": 4359,
      "è½»è½»": 4360,
      "ä¹Łåľ¨": 4361,
      "åĬłåħ¥": 4362,
      "æŀģäºĨ": 4363,
      "ç»Ļå¤§å®¶": 4364,
      "åĴª": 4365,
      "åĪ°æĪĳ": 4366,
      "æģ°": 4367,
      "æ³ķå¾ĭ": 4368,
      "åĲİæĤĶ": 4369,
      "å¾Ħ": 4370,
      "æİª": 4371,
      "Ġèµ¶ç´§": 4372,
      "å§¥": 4373,
      "è¶ħè¿ĩ": 4374,
      "éĺ¶æ®µ": 4375,
      "ä¼¤å¿ĥ": 4376,
      "é¦Ļæ¸¯": 4377,
      "Ġå¯¹äºİ": 4378,
      "Ġé»Ħ": 4379,
      "çĦ¶èĢĮ": 4380,
      "æĪĳè¿ĺæĺ¯": 4381,
      "é©¬æĭī": 4382,
      "æĥħæĬ¥": 4383,
      "æŃ»çļĦ": 4384,
      "å¤ļå°ĳéĴ±": 4385,
      "çŁ©": 4386,
      "éķ¿å¤§": 4387,
      "åĪ«äººçļĦ": 4388,
      "åħŃåįģ": 4389,
      "æĶ¿çŃĸ": 4390,
      "ä»·æł¼": 4391,
      "Ġç«Ļ": 4392,
      "çī¹æ®Ĭ": 4393,
      "éļıæĹ¶": 4394,
      "ä½łåĳ¢": 4395,
      "ä¸ºä½ł": 4396,
      "ĠåįĹ": 4397,
      "å¤´ä¸Ĭ": 4398,
      "çĤİ": 4399,
      "æĺİæĺ¾": 4400,
      "åĽ½æ°ĳ": 4401,
      "å¿ĺè®°": 4402,
      "ä½łéĥ½": 4403,
      "è´ª": 4404,
      "Ġéĺ¿å§¨": 4405,
      "äºĭå®ŀ": 4406,
      "hei": 4407,
      "ä¸Ģéģį": 4408,
      "éĵľ": 4409,
      "ä¹Łå¤ª": 4410,
      "Ġèµ·æĿ¥": 4411,
      "åĺŁ": 4412,
      "ä½łåħĪ": 4413,
      "æĤł": 4414,
      "äº¤ä»£": 4415,
      "çĿĢä¸Ģ": 4416,
      "çĶ¨äºĨ": 4417,
      "Ġæ¢": 4418,
      "åı°ä¸Ĭ": 4419,
      "æ±ª": 4420,
      "åĤ²": 4421,
      "äºĶå¹´": 4422,
      "Ġæ·": 4423,
      "è¢Ń": 4424,
      "åĪĽéĢł": 4425,
      "ĠåŁ": 4426,
      "èĸĦ": 4427,
      "Ġè¿Ļä¸įæĺ¯": 4428,
      "åİ»åķĬ": 4429,
      "ä»Ĭå¤©çļĦ": 4430,
      "è®¨åİĮ": 4431,
      "è¡Įè¡Į": 4432,
      "è®°å¿Ĩ": 4433,
      "ç»ĵåĲĪ": 4434,
      "ä¼Ĭ": 4435,
      "ç»³": 4436,
      "åĴĮä»ĸ": 4437,
      "Ġéĩĳ": 4438,
      "rightarrow": 4439,
      "åĬ«": 4440,
      "è¿Ļä¹Īå¤§": 4441,
      "å°±å¥½": 4442,
      "å£³": 4443,
      "å¹´è½»äºº": 4444,
      "æĭĴç»Ŀ": 4445,
      "åĴĸ": 4446,
      "åĨłåĨĽ": 4447,
      "è¾¾åĪ°": 4448,
      "éĤĵ": 4449,
      "ĠæĪĳä»Ĭå¤©": 4450,
      "æ¶Īè´¹": 4451,
      "ov": 4452,
      "}}$$": 4453,
      "æ¶Ľ": 4454,
      "æĢİä¹ĪåĽŀäºĭ": 4455,
      "éĤ£æĹ¶åĢĻ": 4456,
      "çĿĢä»ĸ": 4457,
      "åĢ¾": 4458,
      "Ġä¸įè¡Į": 4459,
      "çł¸": 4460,
      "Ġèĭ¥": 4461,
      "æľºåĻ¨": 4462,
      "éĢģç»Ļ": 4463,
      "æ±¡": 4464,
      "æĢ§æł¼": 4465,
      "åįĬå¤©": 4466,
      "æĬĽ": 4467,
      "Ġä½łåı¯ä»¥": 4468,
      "ä¼¼ä¹İ": 4469,
      "èµĦæĸĻ": 4470,
      "è¿Ļä»¶äºĭ": 4471,
      "ç½ĳä¸Ĭ": 4472,
      "ä¸Ģåįĥ": 4473,
      "çĥ¤": 4474,
      "åķ¡": 4475,
      "ç®ĹäºĨ": 4476,
      "éĥ½å·²ç»ı": 4477,
      "äºĴçĽ¸": 4478,
      "åİ»çļĦ": 4479,
      "ĠçĪ±": 4480,
      "çħ®": 4481,
      "æĥ³è¿ĩ": 4482,
      "å¤ªå¤ļ": 4483,
      "ä¸įåĩºæĿ¥": 4484,
      "å¤©æ°Ķ": 4485,
      "è´¾": 4486,
      "Ġæīĭ": 4487,
      "æī©": 4488,
      "è¾ĳ": 4489,
      "èĦĨ": 4490,
      "çļĦæĦŁè§ī": 4491,
      "æŃĩ": 4492,
      "å¦®": 4493,
      "æŃ£ç¡®çŃĶæ¡Īæĺ¯": 4494,
      "åı¹": 4495,
      "æĹłè®º": 4496,
      "åĬ¨ä½ľ": 4497,
      "åĨħå¿ĥ": 4498,
      "ä¸įåĸľæ¬¢": 4499,
      "å¤ĸçļĦ": 4500,
      "äºĮéĽ¶ä¸Ģ": 4501,
      "ĠçĦ¶åĲİåĳ¢": 4502,
      "åĿĳ": 4503,
      "èĥĮåĲİ": 4504,
      "ä¸²": 4505,
      "äºĶçĻ¾": 4506,
      "Ġä½łèĥ½": 4507,
      "ä¸ľåĮĹ": 4508,
      "çĭ¬ç«ĭ": 4509,
      "åĨįæ¬¡": 4510,
      "ä¸§": 4511,
      "çŁĽçĽ¾": 4512,
      "å»ºçŃĳ": 4513,
      "ä¹Łè®¸": 4514,
      "æŁ±": 4515,
      "çĨŁæĤī": 4516,
      "Ġç¬¬äºĮ": 4517,
      "åıĤä¸İ": 4518,
      "æĬĵä½ı": 4519,
      "æķĻç»ĥ": 4520,
      "åĪ¶åº¦": 4521,
      "å¤§è±¡": 4522,
      "æ³³": 4523,
      "å¤©ç©º": 4524,
      "ä½łä¸Ģ": 4525,
      "åıĽ": 4526,
      "ĠäºĮéĽ¶": 4527,
      "éĹ¯": 4528,
      "æĥ³åĬŀæ³ķ": 4529,
      "æĬĬèĩªå·±": 4530,
      "æľĢå¥½": 4531,
      "åŃ©åŃĲçļĦ": 4532,
      "æį¡": 4533,
      "åĩłä¹İ": 4534,
      "éĢīæīĭ": 4535,
      "Ġä½łåı¯": 4536,
      "çĤĴ": 4537,
      "æīĵäºĨ": 4538,
      "çļĦä¸Ģç§į": 4539,
      "æĦģ": 4540,
      "ç»ıçĲĨ": 4541,
      "æĹ¶çļĦ": 4542,
      "æ²»çĸĹ": 4543,
      "ä¸Ľ": 4544,
      "å®ļäºĨ": 4545,
      "ĠæĪĳæ²¡æľī": 4546,
      "ä¸įæĦ¿æĦı": 4547,
      "å¥½æľĭåıĭ": 4548,
      "çīº": 4549,
      "ä¸įåĨį": 4550,
      "ĠèĢģå¸Ī": 4551,
      "è¿ģ": 4552,
      "æĭ¦": 4553,
      "Ġè¦ģä¸įçĦ¶": 4554,
      "ä¾§": 4555,
      "ä¸Ĭæ¬¡": 4556,
      "æ°§åĮĸ": 4557,
      "æĿĢäºº": 4558,
      "èĥ½éĩı": 4559,
      "çĽ¸å½ĵ": 4560,
      "Ġå¨ĺ": 4561,
      "Ġæľīäºº": 4562,
      "GRANDMOTHER": 4563,
      "åĥ": 4564,
      "çģ«è½¦": 4565,
      "æıĲåĩº": 4566,
      "ä»Ģä¹Īæł·çļĦ": 4567,
      "çīºçī²": 4568,
      "èģĮä¸ļ": 4569,
      "æĺİæĺŁ": 4570,
      "Ġåįĥ": 4571,
      "ä¸įåģľ": 4572,
      "äºĭä¸ļ": 4573,
      "èĩªæĪĳ": 4574,
      "Ġèµµ": 4575,
      "éĿŀå¸¸çļĦ": 4576,
      "å¿½": 4577,
      "çļĦæ°´": 4578,
      "çĬ¹": 4579,
      "åı¯ä¸įæĺ¯": 4580,
      "Ġæķ´": 4581,
      "åŃĲåķĬ": 4582,
      "ĠåĳĬè¯ī": 4583,
      "æ³°": 4584,
      "æīŃ": 4585,
      "äºĨä¸ĢäºĽ": 4586,
      "éģ¥": 4587,
      "åı¯æĥľ": 4588,
      "ä¸ĬåŃ¦": 4589,
      "ĠæĿ¥æĿ¥æĿ¥": 4590,
      "è·Į": 4591,
      "Ġ$${": 4592,
      "Ġå®ī": 4593,
      "èĢĥè¯ķ": 4594,
      "æĶ¾ä¸ĭ": 4595,
      "ç²¾å½©": 4596,
      "çĸ«æĥħ": 4597,
      "å¨ĺå¨ĺ": 4598,
      "ĠæĪĳä¸įçŁ¥éģĵ": 4599,
      "æ²¡æľīäºº": 4600,
      "ĠåĪ°åºķ": 4601,
      "å°ıçĮª": 4602,
      "æĪĳåĴĮ": 4603,
      "èī°": 4604,
      "ä¸ĭæ¬¡": 4605,
      "Ġw": 4606,
      "å¤įæĿĤ": 4607,
      "Ġæ¯ıå¤©": 4608,
      "æ¶¦": 4609,
      "è¿ĺåı¯ä»¥": 4610,
      "èĿ´": 4611,
      "è´·": 4612,
      "æĪĳåĨį": 4613,
      "Ġè¿Ļä½į": 4614,
      "æīįä¼ļ": 4615,
      "åĦ¿çļĦ": 4616,
      "éĢģåĪ°": 4617,
      "åĳ¨åĽ´": 4618,
      "ä¸įæĪĲ": 4619,
      "å¡«": 4620,
      "èĿ´èĿ¶": 4621,
      "ĠçĶ·": 4622,
      "æĦ§": 4623,
      "ĠåĮ»": 4624,
      "ĠæĹłè®º": 4625,
      "æĪĳçĪ¸": 4626,
      "æľ¬èº«": 4627,
      "æĪĳä»¬åľ¨": 4628,
      "ä¸ĵå®¶": 4629,
      "ä¹°äºĨ": 4630,
      "Ġå¦ĸ": 4631,
      "åħ¬åı¸çļĦ": 4632,
      "æŃ£å¼ı": 4633,
      "å°Ĭéĩį": 4634,
      "é¢Ī": 4635,
      "éĤ£ä¸Ģ": 4636,
      "çĿ£": 4637,
      "å§Ķå±Ī": 4638,
      "æ¼Ĥäº®çļĦ": 4639,
      "å¤§å£°": 4640,
      "ĠæĪĳåı¯ä»¥": 4641,
      "uo": 4642,
      "åĪ°å¤Ħ": 4643,
      "å¹»": 4644,
      "æĶ¹éĿ©": 4645,
      "æīĩ": 4646,
      "ä»°": 4647,
      "Ġè·ĳ": 4648,
      "åĬŀåħ¬å®¤": 4649,
      "æĺı": 4650,
      "å¢¨": 4651,
      "ç¿ħèĨĢ": 4652,
      "ä¹¦è®°": 4653,
      "ĠæĪĳæĿ¥": 4654,
      "æĸ¹æ¡Ī": 4655,
      "çĪ±ä½ł": 4656,
      "åĽ½åĨħ": 4657,
      "äº¤éĢļ": 4658,
      "Ġæ»": 4659,
      "çī§": 4660,
      "çŃīæĪĳ": 4661,
      "åıĺæĪĲäºĨ": 4662,
      "åįģåħŃ": 4663,
      "ä½ĵèĤ²": 4664,
      "åĲĮäºĭ": 4665,
      "èĥľåĪ©": 4666,
      "Ġçº¢": 4667,
      "ä¾µ": 4668,
      "Ġä½łæľī": 4669,
      "çİ»": 4670,
      "è¿ĩå¾Ĺ": 4671,
      "ä¸Ģè¶Ł": 4672,
      "èĸĩ": 4673,
      "äºĨåĳĢ": 4674,
      "Ġå¿ħ": 4675,
      "äº¿åħĥ": 4676,
      "å¥½åĲĥ": 4677,
      "åĩ¯": 4678,
      "ĠåĢĴ": 4679,
      "Ġä¸ĥ": 4680,
      "æĸ¹çļĦ": 4681,
      "æŃ£ç¡®çļĦæĺ¯": 4682,
      "å·«": 4683,
      "çľł": 4684,
      "æĪĳå¾Ĺ": 4685,
      "èĢĹ": 4686,
      "ĠæĮī": 4687,
      "è¿½æ±Ĥ": 4688,
      "è£¤": 4689,
      "çŀ¬": 4690,
      "}}+": 4691,
      "å¯¹çļĦ": 4692,
      "æĪĳç»Ļä½ł": 4693,
      "æ²¡äºº": 4694,
      "ä¸įåĬ¨": 4695,
      "æĥĳ": 4696,
      "ĠæľĢè¿ĳ": 4697,
      "ç»¼": 4698,
      "æ²¡æľīä»Ģä¹Ī": 4699,
      "è§Ĵåº¦": 4700,
      "éļ¾åıĹ": 4701,
      "åīª": 4702,
      "èħĲ": 4703,
      "åĩıå°ĳ": 4704,
      "éĹ®ä¸Ģä¸ĭ": 4705,
      "æ¶Īå¤±": 4706,
      "æĬĸ": 4707,
      "è°¢è°¢ä½ł": 4708,
      "ä¸Ĭä¸Ģ": 4709,
      "Ġè§īå¾Ĺ": 4710,
      "èįĲ": 4711,
      "âĪ": 4712,
      "çļĦé«ĺ": 4713,
      "åįģä¸ī": 4714,
      "ĠéĴ±": 4715,
      "ä¸Ģä¸ªæľĪ": 4716,
      "æĻĥ": 4717,
      "åģļå¾Ĺ": 4718,
      "çº¹": 4719,
      "çľŁçļĦå¾Ī": 4720,
      "Ġè¾¹": 4721,
      "äº¤ç»Ļ": 4722,
      "æĬ¥éģĵ": 4723,
      "Ġä»¥åīį": 4724,
      "èĬ³": 4725,
      "æ¯ıä¸ªäºº": 4726,
      "çľ¼åīį": 4727,
      "éĹ®éĹ®": 4728,
      "çº¿ç´¢": 4729,
      "è¸©": 4730,
      "åĴĸåķ¡": 4731,
      "}}_": 4732,
      "èĦĳåŃĲ": 4733,
      "æľīåı¯èĥ½": 4734,
      "åĨįæĿ¥": 4735,
      "ĠåĮħæĭ¬": 4736,
      "æĥ³èµ·": 4737,
      "çłį": 4738,
      "åħ«å¹´": 4739,
      "è§ĦçŁ©": 4740,
      "ä¼łæĴŃ": 4741,
      "Ġçļĩä¸Ĭ": 4742,
      "æĺ¯æľĢ": 4743,
      "æī¾ä¸įåĪ°": 4744,
      "çºµ": 4745,
      "çļĦæĸ¹å¼ı": 4746,
      "çķĻåľ¨": 4747,
      "ĠåĽłä¸ºæĪĳ": 4748,
      "çļĦéĴ±": 4749,
      "é©¬æĭīéĽħ": 4750,
      "ä¸īå¤©": 4751,
      "åĲ¸å¼ķ": 4752,
      "æĺĮ": 4753,
      "åĳ¢æĪĳ": 4754,
      "äºĪ": 4755,
      "çĽ¸äºĴ": 4756,
      "åı¯æĢķ": 4757,
      "èĢĥæŁ¥": 4758,
      "çļĦäºĨ": 4759,
      "æľīéĴ±": 4760,
      "çĿģ": 4761,
      "çĬ¯ç½ª": 4762,
      "ä¾ł": 4763,
      "æ²¡äºĨ": 4764,
      "å¦Ĩ": 4765,
      "over": 4766,
      "åĨ¤": 4767,
      "çļĦä¸į": 4768,
      "æĪĺæĸĹ": 4769,
      "Ġæİ¥ä¸ĭæĿ¥": 4770,
      "çī¹çĤ¹": 4771,
      "èĮĥåĽ´": 4772,
      "éĢĹ": 4773,
      "å¤§å°ı": 4774,
      "æĪĳä»¬ä¿©": 4775,
      "è¿Ķ": 4776,
      "Ġå®Ŀ": 4777,
      "æµĳ": 4778,
      "çŁ¥éģĵåĲĹ": 4779,
      "èĲĿåįľ": 4780,
      "æ²¡åĬŀæ³ķ": 4781,
      "å®¶ä¼Ļ": 4782,
      "åĪ«åĪ«": 4783,
      "é¡ºåĪ©": 4784,
      "Ġä¸Ģå®ļè¦ģ": 4785,
      "æ¸©æļĸ": 4786,
      "ĠåĹ": 4787,
      "æĭĨ": 4788,
      "çĸ¾": 4789,
      "æĤŁ": 4790,
      "Ġ{{": 4791,
      "!\"\"": 4792,
      "éĻ¶": 4793,
      "ä¸ĭä¸Ģ": 4794,
      "åħģ": 4795,
      "è¿Ļä¸įæĺ¯": 4796,
      "æĮ¤": 4797,
      "éĢłæĪĲ": 4798,
      "èĳ£äºĭ": 4799,
      "è½©": 4800,
      "å¯¹æīĭ": 4801,
      "ä¸Ģä¸ĭåŃĲ": 4802,
      "åĳ¢æĺ¯": 4803,
      "ĠåĮĹ": 4804,
      "çĽ¸å¤Ħ": 4805,
      "åı«ä»Ģä¹Ī": 4806,
      "å·¥èµĦ": 4807,
      "åĴķ": 4808,
      "ĠèĢĮæĺ¯": 4809,
      "åĽ¢éķ¿": 4810,
      "äº«åıĹ": 4811,
      "æ¸¡": 4812,
      "æĻĭ": 4813,
      "å«ĤåŃĲ": 4814,
      "ä¹ĭä¸Ń": 4815,
      "çŃīäºİ": 4816,
      "è§Ĵèī²": 4817,
      "é©¶": 4818,
      "äºĭäºĨ": 4819,
      "çļĦæĹ¥åŃĲ": 4820,
      "èĤ©": 4821,
      "çĪ¸çĪ¸å¦Īå¦Ī": 4822,
      "æĹĭ": 4823,
      "Ġå¦ĸæĢª": 4824,
      "ä¸įæĿ¥": 4825,
      "æĪĳä¸įæĺ¯": 4826,
      "åģ¿": 4827,
      "éĥ¨éĹ¨": 4828,
      "å°ĨæĿ¥": 4829,
      "æ¿ĢåĬ¨": 4830,
      "åİ»çľĭçľĭ": 4831,
      "å¤ļä¹Ī": 4832,
      "æĿ¥åĪ°äºĨ": 4833,
      "åı¯çŁ¥": 4834,
      "ç»Ļä»ĸä»¬": 4835,
      "æĹ¥åĨĽ": 4836,
      "æĺĨ": 4837,
      "æŀľçĦ¶": 4838,
      "Ġè¿Ļæĺ¯æĪĳ": 4839,
      "åł¡": 4840,
      "å°±æĺ¯ä½ł": 4841,
      "Ġä»ĸå°±": 4842,
      "èĤł": 4843,
      "åħ¨éĥ½": 4844,
      "è¯´éģĵ": 4845,
      "åħ¨çĲĥ": 4846,
      "ĠéĻ¤äºĨ": 4847,
      "ç¾ŀ": 4848,
      "åĪ¶éĢł": 4849,
      "éĢĨ": 4850,
      "æĺİæĺİ": 4851,
      "æłĳä¸Ĭ": 4852,
      "æ²¡äºĭåĦ¿": 4853,
      "ä¼ļè®®": 4854,
      "åıĪä¸įæĺ¯": 4855,
      "ä»¶äºĭ": 4856,
      "æµ©": 4857,
      "èĭį": 4858,
      "åģļåĩº": 4859,
      ".$$\\": 4860,
      "),": 4861,
      "æľŁéĹ´": 4862,
      "è¯´è¿Ļ": 4863,
      "overrightarrow": 4864,
      "ĠéľĢè¦ģ": 4865,
      "æĮ¨": 4866,
      "åĺ´å·´": 4867,
      "ä¸¤åıª": 4868,
      "å§ľ": 4869,
      "äºĭä»¶": 4870,
      "åĲ¬åĲ¬": 4871,
      "è¾ī": 4872,
      "è°±": 4873,
      "ç¬ĳçĿĢ": 4874,
      "èĢģå¤§": 4875,
      "æĪĲç«ĭ": 4876,
      "å½»åºķ": 4877,
      "Ġåħ«": 4878,
      "ĠåĲĳ": 4879,
      "å¤¹": 4880,
      "æŃ»äº¡": 4881,
      "åĽŀåİ»åĲ§": 4882,
      "äºĨå°±": 4883,
      "Ġèµ°åĲ§": 4884,
      "ä¸Ģä»½": 4885,
      "es": 4886,
      "çļĦæľºä¼ļ": 4887,
      "ä»ĺåĩº": 4888,
      "èµ¤": 4889,
      "åĪ°è¿ĻåĦ¿": 4890,
      "æĢİä¹Īèĥ½": 4891,
      "Ġk": 4892,
      "éĻµ": 4893,
      "ĠéĤ£æĪĳå°±": 4894,
      "æŁ´": 4895,
      "ĠæĻļä¸Ĭ": 4896,
      "åįģä¹Ŀ": 4897,
      "éĥģ": 4898,
      "æ»ĭ": 4899,
      "æĪĳåĳĢ": 4900,
      "Ġä¸įå¥½": 4901,
      "ç¥¥": 4902,
      "ä¹°çļĦ": 4903,
      "æĦıå¤ĸ": 4904,
      "é¢ĺæĦı": 4905,
      "åĬłä¸Ĭ": 4906,
      "èĭ±åĽ½": 4907,
      "åį°è±¡": 4908,
      "ĠåħĦ": 4909,
      "æĦŁåĬ¨": 4910,
      "äºĨè¿Ļä¸ª": 4911,
      "æ²¡éĹ®é¢ĺ": 4912,
      "Ġæ¯ķ": 4913,
      "ĠæĶ¾å¿ĥ": 4914,
      "åĪ°æĹ¶åĢĻ": 4915,
      "åĪ©çĽĬ": 4916,
      "æĪĳåħĪ": 4917,
      "Ġå¤´": 4918,
      "ä¸ŃåĽ½äºº": 4919,
      "æĤĦæĤĦ": 4920,
      "çİ»çĴĥ": 4921,
      "ĠåĲ´": 4922,
      "Ġæłĳ": 4923,
      "æĪĸè®¸": 4924,
      "æĭ³": 4925,
      "å®ŀéĻħä¸Ĭ": 4926,
      "15": 4927,
      "ä¸¤å¹´": 4928,
      "å·¥åħ·": 4929,
      "æıĲåīį": 4930,
      "åģ·åģ·": 4931,
      "Ġä½łè·Ł": 4932,
      "ä¹ĭä¸Ģ": 4933,
      "ç¾¡": 4934,
      "ä½ľä¸ļ": 4935,
      "çľ¼æ³ª": 4936,
      "æĺ¯æĺ¯": 4937,
      "Ġ{": 4938,
      "ĠåĵªéĩĮ": 4939,
      "ä½łè¿Ļä¹Ī": 4940,
      "æĻķ": 4941,
      "è¿Ļè¿Ļ": 4942,
      "èµĦéĩĳ": 4943,
      "è¡ĮçļĦ": 4944,
      "ç¿¼": 4945,
      "èĢ½": 4946,
      "äºĨæĪĳä»¬": 4947,
      "å¹³åı°": 4948,
      "ç¢į": 4949,
      "æ¯Ķå¦Ĥ": 4950,
      "èĻ½": 4951,
      "ä¹ĭå¤ĸ": 4952,
      "çĤ¹çļĦ": 4953,
      "å¾Ĺå¤ª": 4954,
      "æ¯ıä¸Ģä¸ª": 4955,
      "éĥ½çŁ¥éģĵ": 4956,
      "ng": 4957,
      "æĤ¬": 4958,
      "åķĬåķĬ": 4959,
      "å¤±æľĽ": 4960,
      "ä¹Įé¾Ł": 4961,
      "çĶŁéķ¿": 4962,
      "åĪ¶ä½ľ": 4963,
      "åºĬä¸Ĭ": 4964,
      "å°±æĺ¯ä¸Ģä¸ª": 4965,
      "æ´¥": 4966,
      "æ¡ĪåŃĲ": 4967,
      "ĠæĪĳçĽ¸ä¿¡": 4968,
      "å°ıæľĭåıĭ": 4969,
      "ä½łè§īå¾Ĺ": 4970,
      "åĬ¨æīĭ": 4971,
      "ç²®é£Ł": 4972,
      "é¸¦": 4973,
      "åħ·ä½ĵ": 4974,
      "¤åħ¶æĺ¯": 4975,
      "å°±è¡ĮäºĨ": 4976,
      "é¥¶": 4977,
      "éľĢæ±Ĥ": 4978,
      "èººåľ¨": 4979,
      "éĨĴäºĨ": 4980,
      "ç¢³": 4981,
      "èĥĥ": 4982,
      "ä¸įä¿¡": 4983,
      "æĪĳä»¬æĺ¯": 4984,
      "æ£ĭ": 4985,
      "ä¸įåĥı": 4986,
      "åĮ¹": 4987,
      "Ġå«": 4988,
      "æĹħæ¸¸": 4989,
      "ä»įçĦ¶": 4990,
      "æģŃ": 4991,
      "éĢļå¸¸": 4992,
      "è¿ĺçľŁ": 4993,
      "æĬ¼": 4994,
      "å¯Ħ": 4995,
      "æ¡ĳ": 4996,
      "çļĦä¸»": 4997,
      "å½¹": 4998,
      "ĠéĤ£äºĽ": 4999,
      "ä»¬åĦ¿": 5000,
      "çĶ·çļĦ": 5001,
      "Ġä¸Ģä¹Ŀ": 5002,
      "è¿ĺæľīä¸Ģä¸ª": 5003,
      "Ġä½łçľĭçľĭ": 5004,
      "è·ĥ": 5005,
      "çļĦè¿Ļç§į": 5006,
      "åĤ¬": 5007,
      "èªĵ": 5008,
      "æķĪæŀľ": 5009,
      "åİŁè°ħ": 5010,
      "ç«ĭåį³": 5011,
      "åľ°ä¸ĭ": 5012,
      "é¸¡èĽĭ": 5013,
      "Ġé©¬ä¸Ĭ": 5014,
      "çľ¼éĩĮ": 5015,
      "ç¼ł": 5016,
      "å®ļçļĦ": 5017,
      "æī¾ä¸ª": 5018,
      "Ġg": 5019,
      "åĲµæŀ¶": 5020,
      "åĳ¼åĲ¸": 5021,
      "æĦĪ": 5022,
      "}=\\": 5023,
      "Ġèĭı": 5024,
      "ç§¯æŀģ": 5025,
      "åĪ°è¿ĻéĩĮ": 5026,
      "æ¼ı": 5027,
      "ç¬ĳäºĨ": 5028,
      "ĠæĪĳèĥ½": 5029,
      "èĦī": 5030,
      "æİĮæı¡": 5031,
      "å°º": 5032,
      "Ġä¸Ģä¼ļåĦ¿": 5033,
      "æ¡Ĥ": 5034,
      "æľĢå¤§": 5035,
      "è¿ĻæĿ¡": 5036,
      "éĢĽ": 5037,
      "ĠåħĦå¼Ł": 5038,
      "éĵĥ": 5039,
      "Ġå¹´": 5040,
      "ĠåĩºæĿ¥": 5041,
      "Ġæµ·": 5042,
      "ä»ĸäºĨ": 5043,
      ")$$": 5044,
      "è½°": 5045,
      "éĶĭ": 5046,
      "è§£æĶ¾": 5047,
      "é©´": 5048,
      "äºĨåĩł": 5049,
      "çİĽ": 5050,
      "è¢ģ": 5051,
      "è¯Ŀè¯´": 5052,
      "æĨ¾": 5053,
      "ç±»çļĦ": 5054,
      "ä¹Łèĥ½": 5055,
      "éļ¾è¿ĩ": 5056,
      "ĠæĪĳç»Ļä½ł": 5057,
      "Ġä½łä¼ļ": 5058,
      "æīĵä¸ª": 5059,
      "çĶŁæĢģ": 5060,
      "Ġå¥½å¥½å¥½": 5061,
      "æľīä¸Ģç§į": 5062,
      "ä¸ºä»Ģä¹Īä¸į": 5063,
      "å©·": 5064,
      "åĩĳ": 5065,
      "æĽ´å¥½": 5066,
      "åĳĪ": 5067,
      "è®¡ç®Ĺ": 5068,
      "ä»İæĿ¥æ²¡æľī": 5069,
      "æĪĳè¿Ļä¸ª": 5070,
      "éĺģ": 5071,
      "åĵŃäºĨ": 5072,
      "çĪ¸å¦Ī": 5073,
      "Ġä½łä»¬ä¿©": 5074,
      "åľ¨æĪĳä»¬": 5075,
      "åĮĻ": 5076,
      "æľ¬äºĭ": 5077,
      "çļĦåİŁåĽł": 5078,
      "åĮł": 5079,
      "æİĴéĻ¤": 5080,
      "çĶµè§Ĩåī§": 5081,
      "éĻªä¼´": 5082,
      "æľīæīĢ": 5083,
      "èĶ¡": 5084,
      "Ġè·ŁæĪĳ": 5085,
      "å¢ŀéķ¿": 5086,
      "ĠéĤ£å¤©": 5087,
      "æĪĲçĨŁ": 5088,
      "è®¨è®º": 5089,
      ")=": 5090,
      "ç¬¼": 5091,
      "æĭ¥æľī": 5092,
      "Ġæı": 5093,
      "åıĳåĩº": 5094,
      "ä»Ģä¹Īä¸ľè¥¿": 5095,
      "æĺ¯åĳĢ": 5096,
      "è¿Ļäºĭ": 5097,
      "ä½ĵçİ°": 5098,
      "éĻªä½ł": 5099,
      "åľ¨ä»ĸ": 5100,
      "åĵªäºĽ": 5101,
      "ĠæľīäºĽ": 5102,
      "Ġni": 5103,
      "ä¹ĭä¸ĭ": 5104,
      "ä¸Ģè¾ĪåŃĲ": 5105,
      "æĺ¯å¾Ī": 5106,
      "åĮĨ": 5107,
      "è¿ĩæĿ¥äºĨ": 5108,
      "Ġä½łè¿Ļä¸ª": 5109,
      "çĪ½": 5110,
      "æĹ©çĤ¹": 5111,
      "åĪ°è¿Ļä¸ª": 5112,
      "ä½łåı¯": 5113,
      "è´¸": 5114,
      "èıĮ": 5115,
      "Ġè®©ä»ĸ": 5116,
      "ä¸įæĢķ": 5117,
      "Ġæķħäºĭ": 5118,
      "å¡ĺ": 5119,
      "åĸĦèī¯": 5120,
      "å¡ĳ": 5121,
      "æµĭéĩı": 5122,
      "å¤§æµ·": 5123,
      "èĢħçļĦ": 5124,
      "å¯¨": 5125,
      "éĤĢè¯·": 5126,
      "}}{": 5127,
      "å¹³å®ī": 5128,
      "±ä¹Ĳ": 5129,
      "åį§": 5130,
      "æ°´çļĦ": 5131,
      "Ġæľ¬æĿ¥": 5132,
      "çĶ·çĶŁ": 5133,
      "èĦ¸ä¸Ĭ": 5134,
      "ç¾¡æħķ": 5135,
      "éĴ¥": 5136,
      "å¼ĢæĶ¾": 5137,
      "18": 5138,
      "æºª": 5139,
      "Ġä½ľä¸º": 5140,
      "ä½łè·Ł": 5141,
      "åĽŀåİ»äºĨ": 5142,
      "ĠæĪĳä¸įæĥ³": 5143,
      "åģļé¥Ń": 5144,
      "sin": 5145,
      "ĠæĽ¾": 5146,
      "å©Ĩå©Ĩ": 5147,
      "ĠåĲĦä½į": 5148,
      "åĨĻçļĦ": 5149,
      "ANK": 5150,
      "çŀ¬éĹ´": 5151,
      "åĲŀ": 5152,
      "åĩºçİ°äºĨ": 5153,
      "æĬĹæĹ¥": 5154,
      "å¾Īå¤ļäºº": 5155,
      "è°ĥæķ´": 5156,
      "ĠåĹ¨": 5157,
      "èī³": 5158,
      "çŃīä½ł": 5159,
      "èĻ¾": 5160,
      "BL": 5161,
      "æĪĳè·Łä½łè¯´": 5162,
      "Ġè¿Ļä¸į": 5163,
      "åŁºæľ¬ä¸Ĭ": 5164,
      "æĪĳçľŁçļĦ": 5165,
      "çĵ¦": 5166,
      "æĪĳåĲĹ": 5167,
      "å®ĥæĺ¯": 5168,
      "å¹¶ä¸Ķ": 5169,
      "åĽłç´ł": 5170,
      "æ¯ĶæĪĳ": 5171,
      "Ġt": 5172,
      "çİ°ä»£": 5173,
      "æģ¼": 5174,
      "è¯Ńè¨Ģ": 5175,
      "å¹²ä»Ģä¹ĪåĳĢ": 5176,
      "å½¼æŃ¤": 5177,
      "pi": 5178,
      "Ġå¥½ä¸įå¥½": 5179,
      "å®£å¸ĥ": 5180,
      "æ¯ĽçĹħ": 5181,
      "è¿ĽæŃ¥": 5182,
      "ĠæĬ¥åĳĬ": 5183,
      "å¯¹å¯¹å¯¹": 5184,
      "åĭ¾": 5185,
      "ä¼ŀ": 5186,
      "æĥł": 5187,
      "åĽłä¸ºä»ĸ": 5188,
      "Ġäº²": 5189,
      "BLANK": 5190,
      "å§Ĳå¦¹": 5191,
      "è¿ħéĢŁ": 5192,
      "å°±å¾Ĺ": 5193,
      "ĠæĪĳåıªæĺ¯": 5194,
      "æĿĨ": 5195,
      "Ġå¼Ħ": 5196,
      "Ġå¹²åĲĹ": 5197,
      "è§Ħæ¨¡": 5198,
      "èİ±": 5199,
      "Ġå§ĳ": 5200,
      "éĤ»å±ħ": 5201,
      "å¼Ģçİ©ç¬ĳ": 5202,
      "æĻĴ": 5203,
      "æŃ£æĺ¯": 5204,
      "åľºä¸Ĭ": 5205,
      "æĺ¯çľŁçļĦ": 5206,
      "å¿ħé¡»è¦ģ": 5207,
      "çĹħäºº": 5208,
      "Ġç¬¬ä¸Ģ": 5209,
      "ĠåĩĨ": 5210,
      "åľ¨ä¸Ģä¸ª": 5211,
      "ç²īä¸Ŀ": 5212,
      "åĩ¶æīĭ": 5213,
      "ĠäºĮåįģ": 5214,
      "å±Ģéķ¿": 5215,
      "æĿ¥è®²": 5216,
      "ä½łå¥½åķĬ": 5217,
      "æĺ¥å¤©": 5218,
      "ä¸įä¹ħ": 5219,
      "çĶµåŃĲ": 5220,
      "èĢĮæĺ¯": 5221,
      "çĽ¸å¯¹": 5222,
      "å²Ĺ": 5223,
      "éĴ¥åĮĻ": 5224,
      "æ¸´": 5225,
      "ĠæĪĳå¸ĮæľĽ": 5226,
      "çļĦä¸ĢåĪĩ": 5227,
      "}+": 5228,
      "åį«çĶŁ": 5229,
      "çī¹åĪ«çļĦ": 5230,
      "ĠéĿŀå¸¸": 5231,
      "ĠåĪ°æĹ¶åĢĻ": 5232,
      "æ¡Īä»¶": 5233,
      "éĥ½è¯´": 5234,
      "å¹²äºĨ": 5235,
      "Ġæ¶": 5236,
      "å¿ĥä¸Ń": 5237,
      "çĤ¹åķĬ": 5238,
      "æĪĳæīį": 5239,
      "äººçī©": 5240,
      "æİ¨èįĲ": 5241,
      "æ¤ħ": 5242,
      "ä¼ª": 5243,
      "æĭĽåĳ¼": 5244,
      "åŀĭçļĦ": 5245,
      ":$$": 5246,
      "åŃŁ": 5247,
      "æĪĳä¸įçŁ¥éģĵ": 5248,
      "åĴĲ": 5249,
      "éħ·": 5250,
      "æŃ£ç¡®çļĦ": 5251,
      "ä¸Ĭè¯¾": 5252,
      "æ²ŁéĢļ": 5253,
      "ĠçĪ¹": 5254,
      "Ġé¦ĸåħĪ": 5255,
      "å¥Ī": 5256,
      "è¾°": 5257,
      "Ġå·¥": 5258,
      "å®ŀåľ¨æĺ¯": 5259,
      "çľĭèµ·æĿ¥": 5260,
      "èĲĮ": 5261,
      "é½¿": 5262,
      "åĬ²åĦ¿": 5263,
      "åıĳæĮ¥": 5264,
      "æ®¿ä¸ĭ": 5265,
      "Ġæĸ¹": 5266,
      "è¿Ļä¹Īåģļ": 5267,
      "æĭ¿åĩº": 5268,
      "ç³Ĭæ¶Ĥ": 5269,
      "çļĦæĸ°": 5270,
      "éĹºå¥³": 5271,
      "èµ°çļĦ": 5272,
      "èĴ¸": 5273,
      "å¥³åŃĲ": 5274,
      "åĳ¢å°±æĺ¯": 5275,
      "èªī": 5276,
      "Ġä¹Ŀ": 5277,
      "è¾¹çļĦ": 5278,
      "è±¹": 5279,
      "ä¸įæĺ¯è¯´": 5280,
      "Ġä½łç»ĻæĪĳ": 5281,
      "Ġä½łå°±æĺ¯": 5282,
      "é£İéĻ©": 5283,
      "é¹ı": 5284,
      "di": 5285,
      "ä¸Ģèµ·åİ»": 5286,
      "å¾¡": 5287,
      "çĽ¼": 5288,
      "æľīä¸Ģæ¬¡": 5289,
      "ĠæĪĲ": 5290,
      "åģļä¸Ģä¸ª": 5291,
      "ç©¿çĿĢ": 5292,
      "ä¸ĸçºª": 5293,
      "çĥŃéĹ¹": 5294,
      "å°ıèĬ±": 5295,
      "èŁ¹": 5296,
      "åŁ¹åħ»": 5297,
      "å°±è¢«": 5298,
      "åı¶åŃĲ": 5299,
      "åĽŀäºĨ": 5300,
      "ä¸¤äºº": 5301,
      "æĹ¨": 5302,
      "å°½å¿«": 5303,
      "è·ª": 5304,
      "éĩįçĤ¹": 5305,
      "Ġè¥¿": 5306,
      "Ġå¤§äºº": 5307,
      "Ġä¹°": 5308,
      "Ġä½łä½ł": 5309,
      "å²³": 5310,
      "ĠèĤ¯å®ļ": 5311,
      "é¸£": 5312,
      "å¯¿": 5313,
      "çľĭå¾Ĺ": 5314,
      "é¥°": 5315,
      "Ġæ²¡äºĭåĦ¿": 5316,
      "éĿ¢åĮħ": 5317,
      "å¢ĵ": 5318,
      "çĬ¶åĨµ": 5319,
      "ĠåŃĲ": 5320,
      "å¤§çİĭ": 5321,
      "Ġå¼Ģå§ĭ": 5322,
      "å°ĳå¹´": 5323,
      "ä¹Łå°±æĺ¯": 5324,
      "å·¡": 5325,
      "å¯º": 5326,
      "å´ĩ": 5327,
      "ĠåĦ¿": 5328,
      "Ġå¾Ģ": 5329,
      "BC": 5330,
      "åĨ¬å¤©": 5331,
      "åı¯æĢľ": 5332,
      "åĳ¢ä½ł": 5333,
      "å¤±åİ»": 5334,
      "è°ģåĳĢ": 5335,
      "æĭ¿åĪ°": 5336,
      "æĢİä¹Īæł·äºĨ": 5337,
      "åįģä¸ĩ": 5338,
      "å½ĵåľ°": 5339,
      "åĽŀæĿ¥çļĦ": 5340,
      "æĸĩæĺİ": 5341,
      "ä¸ĢåĲį": 5342,
      "åħ¬ä¼Ĺ": 5343,
      "åĩºåİ»äºĨ": 5344,
      "å½¢è±¡": 5345,
      "åŁºåĽł": 5346,
      "å°¿": 5347,
      "ĠçĤ¹": 5348,
      "æĶ¶åħ¥": 5349,
      "éĿ¢åŃĲ": 5350,
      "å½¢å¼ı": 5351,
      "å¾ĭå¸Ī": 5352,
      "ä¸°å¯Į": 5353,
      "ä¸Ģè·¯": 5354,
      "å¤§å§Ĳ": 5355,
      "ä¸Ģæĥ³": 5356,
      "èĤ¤": 5357,
      "è¯¢": 5358,
      "ç½Ĳ": 5359,
      "çľĭä¸Ģä¸ĭ": 5360,
      "æĬļ": 5361,
      "åĤ¨": 5362,
      "æº¶æ¶²": 5363,
      "Ġå¯¹äºĨ": 5364,
      "Ġ+": 5365,
      "çļĦæĦıæĢĿ": 5366,
      "Ġ=": 5367,
      "ä¸»æĮģ": 5368,
      "çľĭä½ł": 5369,
      "èģĶåĲĪ": 5370,
      "æīĵçļĦ": 5371,
      "åĸľé©¬æĭīéĽħ": 5372,
      "æķ°çļĦ": 5373,
      "å°±è¡Į": 5374,
      "èĺ": 5375,
      "èĦĸ": 5376,
      "å¼łå¾·": 5377,
      "Ġæŀľ": 5378,
      "Ġå»": 5379,
      "æķ°åŃĹ": 5380,
      "âĢ": 5381,
      "çĲĨæĥ³": 5382,
      "èº«åŃĲ": 5383,
      "æĪĳä¹Łä¸į": 5384,
      "ç´¯äºĨ": 5385,
      "åķĬè¿Ļ": 5386,
      "åĽĽå¹´": 5387,
      "è¯´è¿Ļä¸ª": 5388,
      "å®´": 5389,
      "åŃ¦çļĦ": 5390,
      "åĺ»": 5391,
      "æĪĳæĬĬ": 5392,
      "å¼Ģè½¦": 5393,
      "å¼ķèµ·": 5394,
      "æ²¡äºĭåĲ§": 5395,
      "éī": 5396,
      "åħģè®¸": 5397,
      "å°±å¼Ģå§ĭ": 5398,
      "çľĭçļĦ": 5399,
      "èľľèľĤ": 5400,
      "éī´": 5401,
      "èĻ¹": 5402,
      "æĸĳ": 5403,
      "åĩ½": 5404,
      "ä»Ģä¹ĪæĦıæĢĿ": 5405,
      "è¯¦": 5406,
      "éĥ½è¢«": 5407,
      "ä¾¿å®ľ": 5408,
      "éģĹæĨ¾": 5409,
      "ĠåħŃ": 5410,
      "å¨ĩ": 5411,
      "åłµ": 5412,
      "ĠæĢķ": 5413,
      "ĠæĪĳå¦Ī": 5414,
      "ĠæĺİçĻ½": 5415,
      "æİ©": 5416,
      "åľ¨å®¶éĩĮ": 5417,
      "çĲ³": 5418,
      "å²ģçļĦ": 5419,
      "$$(": 5420,
      "eng": 5421,
      "Ġä¸Ģä¸ĭ": 5422,
      "ĠåĲĮæĹ¶": 5423,
      "Ġè°¢": 5424,
      "æ´¾äºº": 5425,
      "èĢ¶": 5426,
      "Ġç¾İ": 5427,
      "æĿ¥æī¾": 5428,
      "åĪ°ä½ł": 5429,
      "Ġå±±": 5430,
      "çĮ¬": 5431,
      "çĲĥåĳĺ": 5432,
      "ç¿ł": 5433,
      "ĠæĹ¶éĹ´": 5434,
      "ä½ľèĢħ": 5435,
      "ĠD": 5436,
      "Ġæ£": 5437,
      "èĩªä¿¡": 5438,
      "ĠçļĦæĹ¶åĢĻ": 5439,
      "çĶŁçĹħ": 5440,
      "æ¼ł": 5441,
      "éĻ¢éķ¿": 5442,
      "ä¸ĢåįĬ": 5443,
      "è¯´åĲ§": 5444,
      "çĽ´çº¿": 5445,
      "çľŁå¿ĥ": 5446,
      "çķħ": 5447,
      "éĿĴå¹´": 5448,
      "ir": 5449,
      "éªĦ": 5450,
      "å°ĺ": 5451,
      "æĪĳå¾Ī": 5452,
      "æĦ¤": 5453,
      "æĪĳå¯¹": 5454,
      "åįģä¸ĥ": 5455,
      "å¹²æ´»": 5456,
      "çİ©æĦı": 5457,
      "Ġæ´Ĺ": 5458,
      "ĠæŃ»": 5459,
      "çļĦäººçĶŁ": 5460,
      "å¦Ĥä»Ĭ": 5461,
      "ç»Ļèĩªå·±": 5462,
      "ä¹ĥ": 5463,
      "åįĹæĸ¹": 5464,
      "èĲ§": 5465,
      "è¾©": 5466,
      "ĠåĶĲ": 5467,
      "å®¢äºº": 5468,
      "è¯´çĿĢ": 5469,
      "æ°ĶçļĦ": 5470,
      "åįĹäº¬": 5471,
      "éĩĮå¤´": 5472,
      "åķ¥åĳĢ": 5473,
      "ĠæĪĳåĨį": 5474,
      "è¿ĺå¥½": 5475,
      "å¾®åįļ": 5476,
      "æľ¨å¤´": 5477,
      "éĻĮ": 5478,
      "åı°æ¹¾": 5479,
      "å®ł": 5480,
      "å¤©ä¸Ĭ": 5481,
      "Ġå¯¹ä¸įå¯¹": 5482,
      "åĩłæ¬¡": 5483,
      "ä¸įæĺ¯ä½ł": 5484,
      "å§¿": 5485,
      "ĠæĪĳè¯´ä½ł": 5486,
      "Ġl": 5487,
      "å¾Ģåīį": 5488,
      "èĢģå¤´": 5489,
      "11": 5490,
      "ni": 5491,
      "è¿ĺæľīä»Ģä¹Ī": 5492,
      "åľŁåľ°": 5493,
      "èĪĮ": 5494,
      "æĥ³åİ»": 5495,
      "çľŁçĽ¸": 5496,
      "å°ıåħĶ": 5497,
      "co": 5498,
      "æŃ¦åĻ¨": 5499,
      "å¼ºçļĦ": 5500,
      "æ¸ħæ¥ļäºĨ": 5501,
      "å¸½åŃĲ": 5502,
      "èĢģçĻ¾å§ĵ": 5503,
      "å¸¸å¸¸": 5504,
      "æķ´å¤©": 5505,
      "è´¡": 5506,
      "éĢĲæ¸Ĳ": 5507,
      "å¹³è¡¡": 5508,
      "æĺ¯ä»İ": 5509,
      "äºĨå¤§": 5510,
      "æĭ¨": 5511,
      "éĥ¨çļĦ": 5512,
      "éĿŀè¦ģ": 5513,
      "å¾Ĺå¤ļ": 5514,
      "æŃ¤æĹ¶": 5515,
      "åĩºçİ°åľ¨": 5516,
      "ä¸ĢæĹ¦": 5517,
      "Ġç¥Ŀ": 5518,
      "åºĻ": 5519,
      "åħ¬åħ¬": 5520,
      "çł´åĿı": 5521,
      "æĹħè¡Į": 5522,
      "ä¸įè¦ģåĨį": 5523,
      "éľį": 5524,
      "æī¿æĭħ": 5525,
      "æ±ĩæĬ¥": 5526,
      "æĿ¥å¾Ĺ": 5527,
      "ä½ĵéªĮ": 5528,
      "åı£æ°Ķ": 5529,
      "åĨĽäºĭ": 5530,
      "åľ¨å¤§": 5531,
      "éħĴåºĹ": 5532,
      "Ġæ²Ī": 5533,
      "åĽ½å®¶çļĦ": 5534,
      "Ġå°½": 5535,
      "Ġä½łåİ»": 5536,
      "è¡Įä¸įè¡Į": 5537,
      "æľŁçļĦ": 5538,
      "ä¸Ńåįİ": 5539,
      "æľĪä»½": 5540,
      "ä½łç»ĻæĪĳ": 5541,
      "åħ¬å®ī": 5542,
      "å¨ĥå¨ĥ": 5543,
      "ä¸Ģå¼Ģå§ĭ": 5544,
      "åħ´å¥ĭ": 5545,
      "Ġæ¯Ķå¦Ĥè¯´": 5546,
      "Ġä½łè¿Ļæĺ¯": 5547,
      "æĸľ": 5548,
      "å°ıé¸Ł": 5549,
      "Ġä¸ĢçĤ¹": 5550,
      "åĳ½è¿Ĳ": 5551,
      "å¥³å£«": 5552,
      "å¼łå¾·èĬ¬": 5553,
      "è·³èĪŀ": 5554,
      "å¦Īå¦ĪçļĦ": 5555,
      "Ġji": 5556,
      "å¹²çļĦ": 5557,
      "ĠæĪĳåıª": 5558,
      "ä¸Ģçľ¼": 5559,
      "å¸ĪåħĦ": 5560,
      "é»İ": 5561,
      "ç¨İ": 5562,
      "Ġåħ¶ä¸Ń": 5563,
      "Ġæł¹æį®": 5564,
      "Ġå¤ı": 5565,
      "å®īéĿĻ": 5566,
      "è¿Ļä¹Īå¤ļå¹´": 5567,
      "åĩºçĶŁ": 5568,
      "åĽŀå¿Ĩ": 5569,
      "å±ĭéĩĮ": 5570,
      "Ġåıĺ": 5571,
      "Ġå¥½åĲ§": 5572,
      "éĥ½ä¸įä¼ļ": 5573,
      "ä»ĸä¼ļ": 5574,
      "å·¥ä¸ļ": 5575,
      "åĩĨç¡®": 5576,
      "åĪºçĮ¬": 5577,
      "ä½Ĳ": 5578,
      "è·Łä»ĸä»¬": 5579,
      "åĨľæ°ĳ": 5580,
      "åĻľ": 5581,
      "åĨ»": 5582,
      "Ġå¤§è±¡": 5583,
      "åĪºæ¿Ģ": 5584,
      "ä»Ģä¹ĪäºĭåĦ¿": 5585,
      "ç»Łä¸Ģ": 5586,
      "æĻºèĥ½": 5587,
      "ä¸¤çĻ¾": 5588,
      "äº¤æĺĵ": 5589,
      "æĪĳå®¶": 5590,
      "çĹķ": 5591,
      "æĪĳåĽ½": 5592,
      "åĸľæ¬¢çľĭ": 5593,
      "æĥ§": 5594,
      "Ġå¸ĪçĪ¶": 5595,
      "åħīçļĦ": 5596,
      "ä¸ĢçĤ¹çĤ¹": 5597,
      "è·ŁæĤ¨": 5598,
      "è¿ĺæĺ¯è¦ģ": 5599,
      "Ġä¸Ģèµ·": 5600,
      "ç§ĳéķ¿": 5601,
      "è°ĪæģĭçĪ±": 5602,
      "Ġè½¦": 5603,
      "éĿ¢ç§¯": 5604,
      "è¯´åĳ¢": 5605,
      "èıĩ": 5606,
      "çĶŁæ´»çļĦ": 5607,
      "è¯ŀ": 5608,
      "çŃīå¾ħ": 5609,
      "æĪĳåĳ¢": 5610,
      "å¿ĥäºĨ": 5611,
      "ĠéĤ£å°±æĺ¯": 5612,
      "Ġå§Ĳå§Ĳ": 5613,
      "Ġæ¯ķç«Ł": 5614,
      "éĤ¦": 5615,
      "è¿Ļä¸ªæĹ¶åĢĻ": 5616,
      "åī²": 5617,
      "åĳĺå·¥": 5618,
      "æĬĳ": 5619,
      "æĺİç¡®": 5620,
      "Ġba": 5621,
      "çķĻä¸ĭæĿ¥": 5622,
      "éĿĴæĺ¥": 5623,
      "åĬ³åĬ¨": 5624,
      "16": 5625,
      "äºĨåĺĽ": 5626,
      "Ġä½łä»¥ä¸º": 5627,
      "å¤ªåŃĲ": 5628,
      "éļ¾ä»¥": 5629,
      "ĠæĶ¶": 5630,
      "ä¸Ģä¸ĩ": 5631,
      "å¥½å¥ĩ": 5632,
      "Ġå©": 5633,
      "å¯Ĥ": 5634,
      "è¿Ļä¸ªéĹ®é¢ĺ": 5635,
      "éģµ": 5636,
      "äº§ä¸ļ": 5637,
      "è¿Ľä¸ĢæŃ¥": 5638,
      "éĶ»": 5639,
      "è¦": 5640,
      "ç»ıèĲ¥": 5641,
      "å®īæħ°": 5642,
      "Ġå°ıå¿ĥ": 5643,
      "åįģåĽĽ": 5644,
      "Ġä½łèĩªå·±": 5645,
      "ĠåĬ¨": 5646,
      "Ġ3": 5647,
      "åİŁåĪĻ": 5648,
      "åīĤ": 5649,
      "èĽĭç³ķ": 5650,
      "ä¼ļçļĦ": 5651,
      "å©¶": 5652,
      "ç¡®å®ŀæĺ¯": 5653,
      "åĭĩæķ¢": 5654,
      "ä¼ĻåŃĲ": 5655,
      "Ġåı¦å¤ĸ": 5656,
      "ä¹ĭåĲİåĳ¢": 5657,
      "å°±æĥ³": 5658,
      "ä¸ĭæĿ¥äºĨ": 5659,
      "å¯¹æĪĳä»¬": 5660,
      "çĶŁåŃĺ": 5661,
      "èĳĽ": 5662,
      "è¿Ļä¸į": 5663,
      "è£Ļ": 5664,
      "ĠæĹ¶": 5665,
      "æľīæĦıæĢĿ": 5666,
      "åĲĮæł·": 5667,
      "èĥģ": 5668,
      "ä¸įçĦ¶": 5669,
      "æļĤæĹ¶": 5670,
      "åľ¨çľĭ": 5671,
      "ç©ºä¸Ń": 5672,
      "åģĩçļĦ": 5673,
      "ĠåĴ±ä¿©": 5674,
      "ĠæģĲ": 5675,
      "Ġèĥ½å¤Ł": 5676,
      "ķæīĢ": 5677,
      "æĻļäºĨ": 5678,
      "å©ļç¤¼": 5679,
      "æľºæŀĦ": 5680,
      "éĺħè¯»": 5681,
      "åľ¨åĵªéĩĮ": 5682,
      "çİĭçĪ·": 5683,
      "å§Ķåĳĺ": 5684,
      "æĬ¹": 5685,
      "ä¸Ģæ®µæĹ¶éĹ´": 5686,
      "éĥ½å¾Ĺ": 5687,
      "Ġæ¼": 5688,
      "çĶĦ": 5689,
      "ç¨įå¾®": 5690,
      "Ġé£ŀ": 5691,
      "èĢ½è¯¯": 5692,
      "100": 5693,
      "æĹłèģĬ": 5694,
      "ç¾½æ¯Ľ": 5695,
      "ä»ĸå°±æĺ¯": 5696,
      "çļĦèĬ±": 5697,
      "ä¸Ģæł¹": 5698,
      "äººåĵª": 5699,
      "èµļéĴ±": 5700,
      "Ġåıĳçİ°": 5701,
      ".(": 5702,
      "åľ¨æ°´": 5703,
      "ä¹ŁæĮº": 5704,
      "æĪĳä»¬çİ°åľ¨": 5705,
      "Ġå¥½çļĦ": 5706,
      "Ġä¹ĭåīį": 5707,
      "åĪ¸": 5708,
      "çī¹å¾ģ": 5709,
      "ä¸ĢåĲ¬": 5710,
      "åĻ¢": 5711,
      "æĪĸèĢħæĺ¯": 5712,
      "æ£ī": 5713,
      "Ġèĥ¡": 5714,
      "Ġå¥¶": 5715,
      "ĠçĿ¡": 5716,
      "Ġå¿«çĤ¹": 5717,
      "è¸ıå®ŀ": 5718,
      "åı¸æľº": 5719,
      "$$ãĢģ": 5720,
      "è¾±": 5721,
      "âĢķ": 5722,
      "çĶ·åŃĲ": 5723,
      "å¯¸": 5724,
      "åİ¨æĪ¿": 5725,
      "ä¸įè¶³": 5726,
      "å¦Ĥæŀľä½ł": 5727,
      "ç«ŀäºī": 5728,
      "åĲĬ": 5729,
      "å¼ĢéĹ¨": 5730,
      "æµªè´¹": 5731,
      "Ġæ¯Ķå¦Ĥ": 5732,
      "è·¨": 5733,
      "ĠæĪĳåĴĮ": 5734,
      "åº¦çļĦ": 5735,
      "å°ıçĮ´": 5736,
      "åĪĽæĸ°": 5737,
      "qu": 5738,
      "åĳľ": 5739,
      "è¦Ĩ": 5740,
      "Ġæĺ¯ä½ł": 5741,
      "æĪĳæĦŁè§ī": 5742,
      "åħ¬å¹³": 5743,
      "Ġä½łåĪ°åºķ": 5744,
      "Ġåı¶": 5745,
      "ä¸¤åįĥ": 5746,
      "åī©ä¸ĭ": 5747,
      "æĮģç»Ń": 5748,
      "å§ĭç»Ī": 5749,
      "èİİ": 5750,
      "æĸ¹ç¨ĭ": 5751,
      "Ġå¦Ĥä»Ĭ": 5752,
      "æīĽ": 5753,
      "åĨĽéĺŁ": 5754,
      "åĺ´éĩĮ": 5755,
      "è¶ħçº§": 5756,
      "ç½©": 5757,
      "çļĦæĹ¶åĢĻåķĬ": 5758,
      "åĲĪåĲĮ": 5759,
      "æĻºæħ§": 5760,
      "åı¯çľŁ": 5761,
      "è¿Ļåľº": 5762,
      "æłĳæŀĹ": 5763,
      "è½»æĿ¾": 5764,
      "è¯¥æĢİä¹ĪåĬŀ": 5765,
      "ĠçĶ»": 5766,
      "æĳĬ": 5767,
      "åĿĲåĿĲ": 5768,
      "éķ¿å®ĺ": 5769,
      "BA": 5770,
      "çļĦæŃĮ": 5771,
      "ç¢°åĪ°": 5772,
      "ä»İæŃ¤": 5773,
      "ä¸įæĺİçĻ½": 5774,
      "æīĢè°ĵçļĦ": 5775,
      "éĢģä½ł": 5776,
      "ä½łå¾Ĺ": 5777,
      "å¹¿å·ŀ": 5778,
      "åĺīå®¾": 5779,
      "ĠæĪĳå¾Ĺ": 5780,
      "èĮ«": 5781,
      "ä½ľæĪĺ": 5782,
      "qi": 5783,
      "ä¸«å¤´": 5784,
      "å£¤": 5785,
      "å¥¹æĺ¯": 5786,
      "ä¹ĭåĨħ": 5787,
      "çĻ½çļĦ": 5788,
      "åŀĤ": 5789,
      "çĸı": 5790,
      "Ġ0": 5791,
      "äºĨéĤ£": 5792,
      "åŃ¦éĻ¢": 5793,
      "ä¸Ģåı·": 5794,
      "çŃ¹": 5795,
      "æīĭä¸Ĭ": 5796,
      "ä½łè¯´çļĦ": 5797,
      "éģĩè§ģ": 5798,
      "è¶³å¤Ł": 5799,
      "ĠæīĢæľī": 5800,
      "Ġbu": 5801,
      "ä»ĸè¦ģ": 5802,
      "æīĵæī°": 5803,
      "ä»ĸåıĪ": 5804,
      "çĥ«": 5805,
      "èĽĽ": 5806,
      "æ¨¡å¼ı": 5807,
      "å¤§äºĭ": 5808,
      "åĽ½å¤ĸ": 5809,
      "å²Ń": 5810,
      "äºīåıĸ": 5811,
      "æľĢé«ĺ": 5812,
      "å¾Īå°ĳ": 5813,
      "éĺŁåĳĺ": 5814,
      "å¯ŀ": 5815,
      "æĭĲ": 5816,
      "ä»ĸä¹Ł": 5817,
      "å°ıèĢģé¼ł": 5818,
      "ĠåĵĪ": 5819,
      "æĪĳåķĬ": 5820,
      "æµħ": 5821,
      "å°ıçĮ«": 5822,
      "å¾Īå¤ļçļĦ": 5823,
      "æĬ±çĿĢ": 5824,
      "éĶĢåĶ®": 5825,
      "ĠæĮº": 5826,
      "è¿Ļæł·ä¸Ģä¸ª": 5827,
      "å®ħ": 5828,
      "åĨ¯": 5829,
      "èµĦæľ¬": 5830,
      "ä¸ºæĪĳ": 5831,
      "Ġåħ±": 5832,
      "æ²¡æľīåĬŀæ³ķ": 5833,
      "å¤ļå¤ļ": 5834,
      "åĨ·éĿĻ": 5835,
      "ĠçĽ®åīį": 5836,
      "éĶ»çĤ¼": 5837,
      "Ġma": 5838,
      "ä¸Ģäºº": 5839,
      "ĠåĩĨå¤ĩ": 5840,
      "çļĦè¿ĩç¨ĭ": 5841,
      "hu": 5842,
      "æĪĳä»Ĭå¤©": 5843,
      "åįĳ": 5844,
      "ç¾¤ä¼Ĺ": 5845,
      "ä½łåĨį": 5846,
      "åħ¨æĺ¯": 5847,
      "ĠçĽ¸": 5848,
      "ä½ĳ": 5849,
      "ä¿ĿéĻ©": 5850,
      "åĽ¢éĺŁ": 5851,
      "æĺ¯æĥ³": 5852,
      "è±«": 5853,
      "Ġæ±Ł": 5854,
      "æĥ©": 5855,
      "æŃª": 5856,
      "Ġå®ĭ": 5857,
      "æııè¿°": 5858,
      "çļĦåıĳå±ķ": 5859,
      "å·¨å¤§çļĦ": 5860,
      "ä¸ĥåħ«": 5861,
      "Ġå¿ħé¡»": 5862,
      "çĤī": 5863,
      "äºĶä¸ª": 5864,
      "æ¯Ķä½ł": 5865,
      "xi": 5866,
      "ç¨»": 5867,
      "çļĦåĺĽ": 5868,
      "ä»ĸè¿ĺ": 5869,
      "ä¸ļåĬ¡": 5870,
      "æĪĺå£«": 5871,
      "ä½łæĬĬ": 5872,
      "æİı": 5873,
      "ç»ĨèĬĤ": 5874,
      "è¿ĲåĬ¨åĳĺ": 5875,
      "åįĥä¸ĩåĪ«": 5876,
      "ĠæĪĳä»¬è¦ģ": 5877,
      "æħİ": 5878,
      "ĠæĪĳçĪ¸": 5879,
      "ä»Ģä¹Īæł·": 5880,
      "éĢĤåºĶ": 5881,
      "Ġä¸ĭéĿ¢": 5882,
      "èĳ¬": 5883,
      "Ġæĸĩ": 5884,
      "Ġä½łæĬĬ": 5885,
      "å¥½å¥½åľ°": 5886,
      "ĠæķĻ": 5887,
      "è¿ľçļĦ": 5888,
      "æįŁå¤±": 5889,
      "éĩĩè®¿": 5890,
      "cos": 5891,
      "ä¸ŃåĮ»": 5892,
      "èµĦæł¼": 5893,
      "åĸĶ": 5894,
      "ç¬ĳè¯Ŀ": 5895,
      "ä½łä¸įæĺ¯": 5896,
      "å¹¿åĳĬ": 5897,
      "~~": 5898,
      "åĵĦ": 5899,
      "æĶ¾è¿ĩ": 5900,
      "æĦ¿æľĽ": 5901,
      "ä½łåĳĢ": 5902,
      "èĳ¡": 5903,
      "åĲĪçĲĨ": 5904,
      "åĮĸåŃ¦": 5905,
      "ç¥ŀå¥ĩ": 5906,
      "Ġshi": 5907,
      "Ġå¤«": 5908,
      "æľīéĹ®é¢ĺ": 5909,
      "éĥ½ä¸įçŁ¥éģĵ": 5910,
      "ä¸Ģä¸ªå¤§": 5911,
      "å¹³å¸¸": 5912,
      "æĪĳåıĪ": 5913,
      "æľīäºĭ": 5914,
      "ä¸ŃåįĪ": 5915,
      "éĽ¾": 5916,
      "ä»»ä½ķäºº": 5917,
      "æĸ¹éĿ¢çļĦ": 5918,
      "å¿ĥæĥ³": 5919,
      "çĶ¨æĿ¥": 5920,
      "åĲ¬çĿĢ": 5921,
      "æģĲæĢķ": 5922,
      "è§ĤçĤ¹": 5923,
      "ĠçªģçĦ¶": 5924,
      "åĵ²": 5925,
      "å¿ĥçĸ¼": 5926,
      "å¾Ģå¾Ģ": 5927,
      "çļĦåīį": 5928,
      "æĲģ": 5929,
      "æĪĳä»¬åı¯ä»¥": 5930,
      "åıįèĢĮ": 5931,
      "åıªè§ģ": 5932,
      "ç§°ä¸º": 5933,
      "å¹²åĲĹåĳĢ": 5934,
      "æ¸Ĳæ¸Ĳ": 5935,
      "ç»Ļä½łçļĦ": 5936,
      "å±ģèĤ¡": 5937,
      "çĽĳæİ§": 5938,
      "ä¸ĥå¹´": 5939,
      "åľ¨ä¸Ģ": 5940,
      "ä¸¢äºĨ": 5941,
      "åĲķ": 5942,
      "çĹħæ¯Ĵ": 5943,
      "åĽ½æ°ĳåħļ": 5944,
      "$,": 5945,
      "å¹´ä»£": 5946,
      "å¦¥": 5947,
      "ĠæĪĳä¹Łä¸į": 5948,
      "ç¥ŀç§ĺ": 5949,
      "çĶµåı°": 5950,
      "èĺĳ": 5951,
      "å·¾": 5952,
      "çľĭè§ģäºĨ": 5953,
      "æĲľç´¢": 5954,
      "éĽķ": 5955,
      "æĪĳåĳĬè¯īä½ł": 5956,
      "çĻ½å¤©": 5957,
      "æ¬£èµı": 5958,
      "èµĭ": 5959,
      "æ¸Ķ": 5960,
      "æİ¥è¿ĳ": 5961,
      "ç½²": 5962,
      "åŁİéĩĮ": 5963,
      "åĵĢ": 5964,
      "æĦŁåħ´è¶£": 5965,
      "æ³Ħ": 5966,
      "åįĬå¹´": 5967,
      "èĬ½": 5968,
      "è¿Ī": 5969,
      "ä¸įå®ļ": 5970,
      "Ġäºĭ": 5971,
      "è®¾å¤ĩ": 5972,
      "è¡ĮåķĬ": 5973,
      "éĩįè¦ģçļĦæĺ¯": 5974,
      "èĢģå®¶": 5975,
      "çļĦæĹ¶åĢĻåĳ¢": 5976,
      "è½¬ç§»": 5977,
      "èĪŀåı°": 5978,
      "Ġé»ĳ": 5979,
      "å°ıçĻ½åħĶ": 5980,
      "èĲĦ": 5981,
      "è´µçļĦ": 5982,
      "ç»£": 5983,
      "èĪįä¸įå¾Ĺ": 5984,
      "å®ŀæĸ½": 5985,
      "Ġxi": 5986,
      "çī¹åĪ«å¥½": 5987,
      "ĠæĪĳåħĪ": 5988,
      "çĶ©": 5989,
      "å¯¹å¥¹": 5990,
      "é©»": 5991,
      "æ°´æŀľ": 5992,
      "Ġå½ĵå¹´": 5993,
      "èĳ¡èĲĦ": 5994,
      "Ġäºĭæĥħ": 5995,
      "ĠæĪĳè¿ĺæĺ¯": 5996,
      "Ġå°±åľ¨": 5997,
      "ĠåĽŀæĿ¥": 5998,
      "Ġè§ģ": 5999,
      "Ġä½łåĨį": 6000,
      "å°±æĺ¯åľ¨": 6001,
      "åĬĽæ°Ķ": 6002,
      "åĸľæ¬¢ä½ł": 6003,
      "ing": 6004,
      "æī¾ä¸Ģä¸ª": 6005,
      "ä¸įèĪĴæľį": 6006,
      "å°±æĺ¯ä»ĸ": 6007,
      "ä¸ĢçĶŁ": 6008,
      "ä¹Įé¸¦": 6009,
      "åłª": 6010,
      "ĠæĪĳä¸įä¼ļ": 6011,
      "çĤ¹çĤ¹": 6012,
      "Â·": 6013,
      "Ġm": 6014,
      "è¿Ļä¸Ģæ¬¡": 6015,
      "æĸŃäºĨ": 6016,
      "ĠæĪĳè·Łä½ł": 6017,
      "çİĦ": 6018,
      "be": 6019,
      "ä¸ªå°ı": 6020,
      "çķĻè¨Ģ": 6021,
      "ç»ĦæĪĲ": 6022,
      "ä¾į": 6023,
      "æĩĤå¾Ĺ": 6024,
      "åĲĵå¾Ĺ": 6025,
      "éĤ®": 6026,
      "å¼ĢçļĦ": 6027,
      "çĲĥéĺŁ": 6028,
      "èĲ¥åħ»": 6029,
      "åľ°éĹ®": 6030,
      "ä¸¤åı¥": 6031,
      "ĠçľĭåĪ°": 6032,
      "ä¸įè§ģäºĨ": 6033,
      "æľ¬ä¹¦": 6034,
      "æĢĢåŃķ": 6035,
      "è¯ĳ": 6036,
      "åĩŃä»Ģä¹Ī": 6037,
      "çŁ®": 6038,
      "Ġéļ¾": 6039,
      "Ġä»Ĭå¹´": 6040,
      "æħĪ": 6041,
      "No": 6042,
      "èĬ±éĴ±": 6043,
      "æ¸¸æ³³": 6044,
      "çŁ¥ä¸įçŁ¥éģĵ": 6045,
      "èµ·çłģ": 6046,
      "è¿Ļæł·åķĬ": 6047,
      "è¹Ī": 6048,
      "Ġä¸ĩä¸Ģ": 6049,
      "ä»¬éĥ½": 6050,
      "æĻ´": 6051,
      "è¦ģä¸įçĦ¶": 6052,
      "å®¶éķ¿": 6053,
      "ä¿Ħ": 6054,
      "éĩįçļĦ": 6055,
      "ç¦»å¼ĢäºĨ": 6056,
      "Ġæľķ": 6057,
      "å¹½": 6058,
      "åħŃå¹´": 6059,
      "ĠæīĢä»¥è¯´": 6060,
      "Ġä½łè¯´ä½ł": 6061,
      "Ġå°ıå§Ĳ": 6062,
      "å¯¹çĿĢ": 6063,
      "å´©": 6064,
      "æıĲåįĩ": 6065,
      "åĸĿäºĨ": 6066,
      "ä¿¡å¿ĥ": 6067,
      "ä¹ı": 6068,
      "åıĻ": 6069,
      "é¼ĵåĬ±": 6070,
      "éĤª": 6071,
      "ha": 6072,
      "Ġ-": 6073,
      "åıįæĺł": 6074,
      "å¯¹å¾ħ": 6075,
      "ç¢§": 6076,
      "æĥ³äºĨ": 6077,
      "ä¸įéľĢè¦ģ": 6078,
      "æ¬§æ´²": 6079,
      "é¢Īé¹¿": 6080,
      "Ġå²": 6081,
      "åŃĲå¼¹": 6082,
      "çĲ¢": 6083,
      "æĸĩåŃĹ": 6084,
      "ä¸įåıĺ": 6085,
      "å¨ģèĥģ": 6086,
      "ç»ĻæĪĳçļĦ": 6087,
      "åľºçļĦ": 6088,
      "Ġç»Ļä½ł": 6089,
      "åıĬæĹ¶": 6090,
      "èĩĤ": 6091,
      "æ´Ĵ": 6092,
      "å®¢æĪ·": 6093,
      "é¢ĨåŁŁ": 6094,
      "èĺĳèıĩ": 6095,
      "ä¸ĢéĿ¢": 6096,
      "ä»¥ä¸Ĭ": 6097,
      "åĶ¤": 6098,
      "çľŁå¥½": 6099,
      "çĶŁæ´»ä¸Ń": 6100,
      "å½¢çĬ¶": 6101,
      "è·Łä½łä»¬": 6102,
      "éĺĶ": 6103,
      "çĳ°": 6104,
      "Ġè¯ķ": 6105,
      "å°ıçĭĹ": 6106,
      "çŁ¥éģĵçļĦ": 6107,
      "è§īå¾Ĺèĩªå·±": 6108,
      "åħĥç´ł": 6109,
      "åİķæīĢ": 6110,
      "åļ·": 6111,
      "æĽ´å¥½çļĦ": 6112,
      "ä¸ºä½ķ": 6113,
      "çĶ·ä¸»": 6114,
      "æĪĳåı«": 6115,
      "å¥³æĢ§": 6116,
      "éªĦåĤ²": 6117,
      "äºĴèģĶ": 6118,
      "ç¾İåħĥ": 6119,
      "Ġä¹¦": 6120,
      "Ġè¿ĻåĦ¿": 6121,
      "Ġè¿ĻäºĭåĦ¿": 6122,
      "ĠçĶŁ": 6123,
      "ĠæĬĵ": 6124,
      "çİ«": 6125,
      "æĺİçļĦ": 6126,
      "ĠæĪĳä»¬æĺ¯": 6127,
      "è¿Ļä¹Īå¤§çļĦ": 6128,
      "æĿ¥åĲ§": 6129,
      "åĳĬè¯īä»ĸ": 6130,
      "ä¼ļåľ¨": 6131,
      "çĶµæµģ": 6132,
      "éģ¿åħį": 6133,
      "Ġä¸ĩ": 6134,
      "å·®çĤ¹": 6135,
      "èµ«": 6136,
      "è¥¿çĵľ": 6137,
      "åĬ¨çļĦ": 6138,
      "è¶´": 6139,
      "èħ¹": 6140,
      "æĺ¯éĿŀå¸¸": 6141,
      "åıĳäºĨ": 6142,
      "ä½łè¿Ļæĺ¯": 6143,
      "åĴĮå¹³": 6144,
      "å½ĵæĪĲ": 6145,
      "åĽłä¸ºä½ł": 6146,
      "å±±ä¸Ĭ": 6147,
      "çŃĭ": 6148,
      "æ±ģ": 6149,
      "åħ¬é¸¡": 6150,
      "è§ĦåĪĻ": 6151,
      "ä¸įåĲĥ": 6152,
      "åıĳçļĦ": 6153,
      "ç¥ŀç»ı": 6154,
      "åĮºåŁŁ": 6155,
      "ĠçĶ±": 6156,
      "é¸ŃåŃĲ": 6157,
      "çº·çº·": 6158,
      "çıŃéķ¿": 6159,
      "åı¤ä»£": 6160,
      "çļĦç¡®": 6161,
      "æľīæķĪ": 6162,
      "åĴļ": 6163,
      "ĠæľīæĹ¶åĢĻ": 6164,
      "çļĦå½±åĵį": 6165,
      "hi": 6166,
      "æıŃ": 6167,
      "ä¸Ĭä¸ĭ": 6168,
      "èĤĥ": 6169,
      "éĽĨä¸Ń": 6170,
      "æľºåħ³": 6171,
      "ä¼¯ä¼¯": 6172,
      "ä¸įå°ıå¿ĥ": 6173,
      "é¡µ": 6174,
      "çħ¤": 6175,
      "å¤ªå¤ļäºĨ": 6176,
      "å¿Į": 6177,
      "çŁ¥éģĵä½ł": 6178,
      "Ġåįĥä¸ĩ": 6179,
      "èĳ£äºĭéķ¿": 6180,
      "éĩĮæľī": 6181,
      "ĠæĶ¾å¿ĥåĲ§": 6182,
      "è¯±": 6183,
      "çŃīä¸Ģä¸ĭ": 6184,
      "çĶ¨äºİ": 6185,
      "æĿĥåĪ©": 6186,
      "åľ¨éĤ£åĦ¿": 6187,
      "Ġ*": 6188,
      "æĪĳåı¯": 6189,
      "èº«ä¸ĬçļĦ": 6190,
      "æĺ¯å¤§": 6191,
      "åªĴä½ĵ": 6192,
      "ä»ĸæĥ³": 6193,
      "åĭĩæ°Ķ": 6194,
      "ä¸ªå¥½": 6195,
      "è½¦çļĦ": 6196,
      "èıĬ": 6197,
      "Ġèĥ½ä¸įèĥ½": 6198,
      "åı¨": 6199,
      "æľĿå»·": 6200,
      "Ġèĩ£": 6201,
      "ĠèĢģæĿ¿": 6202,
      "èł": 6203,
      "é«ĺä¸Ń": 6204,
      "()": 6205,
      "å±Ĭ": 6206,
      "çĥŃæĥħ": 6207,
      "ä¸įéĶĻçļĦ": 6208,
      "ä¸¤æ¬¡": 6209,
      "åĿĲä¸ĭ": 6210,
      "è¹²": 6211,
      "çĽ¯çĿĢ": 6212,
      "çŃĶæ¡Īä¸º": 6213,
      "éĢ¢": 6214,
      "éľī": 6215,
      "å¤Ħéķ¿": 6216,
      "Ġ\\\\": 6217,
      "èĤ¯å®ļä¼ļ": 6218,
      "æĥĬåĸľ": 6219,
      "æĹ¶åħī": 6220,
      "çł´äºĨ": 6221,
      "çŃīåĪ°": 6222,
      "Ġè®©ä½ł": 6223,
      "å°±ä¸įä¼ļ": 6224,
      "çī¹æĦı": 6225,
      "éĵ¶åŃĲ": 6226,
      "å«Įçĸĳäºº": 6227,
      "æİªæĸ½": 6228,
      "åħ¼": 6229,
      "Ġè°¢è°¢ä½ł": 6230,
      "å¥½åĥıæĺ¯": 6231,
      "äºĨä¸ĭæĿ¥": 6232,
      "æĬ¥ä»ĩ": 6233,
      "æ¯ħ": 6234,
      "èĢģå®ŀ": 6235,
      "è¿Ļä¸ĢåĪĩ": 6236,
      "åİ»å¹´": 6237,
      "å°ıå°ıçļĦ": 6238,
      "ç©Ĩ": 6239,
      "ĠéĻĨ": 6240,
      "åıĹä¸įäºĨ": 6241,
      "è¿Ļæł·åŃĲ": 6242,
      "ä»¤äºº": 6243,
      "ä½łåĲ¬": 6244,
      "çĦ¶åĲİå°±": 6245,
      "ĠåŃĻ": 6246,
      "å½Ń": 6247,
      "å§ļ": 6248,
      "ĠåĮ»çĶŁ": 6249,
      "çº¢èī²": 6250,
      "èĸĽ": 6251,
      "éĩĮéĿ¢çļĦ": 6252,
      "è¿Ļä¸¤ä¸ª": 6253,
      "åĨħçļĦ": 6254,
      "ä¸Ģè¯´": 6255,
      "ç»¿èī²": 6256,
      "æľĢåĸľæ¬¢": 6257,
      "æįĲ": 6258,
      "Ġæ®": 6259,
      "çļĦåĲįåŃĹ": 6260,
      "æīĵåĲ¬": 6261,
      "å°½ç®¡": 6262,
      "æĵįä½ľ": 6263,
      "è¿ĩåĪĨ": 6264,
      "åħ¬éĩĮ": 6265,
      "æķ°éĩı": 6266,
      "äº¦": 6267,
      "è¿Ļä¸ªä¸ľè¥¿": 6268,
      "Ġä¸ľ": 6269,
      "ä¸Ģèµ·æĿ¥": 6270,
      "æĹłåħ³": 6271,
      "ä»ĬæĹ¥": 6272,
      "Ġé£ŀæľº": 6273,
      "äºĨä¸Ģä¼ļåĦ¿": 6274,
      "åĳ¢å°±": 6275,
      "çªĹæĪ·": 6276,
      "Ġç»Īäºİ": 6277,
      "è¿ĽæĶ»": 6278,
      "éĤ£ä¸ªäºº": 6279,
      "ä¸Ģåº§": 6280,
      "å±±çļĦ": 6281,
      "ĠçĨĬ": 6282,
      "åĪ°è¾¾": 6283,
      "æĦıçļĦ": 6284,
      "è°¨": 6285,
      "æ³ķéĻ¢": 6286,
      "æ£į": 6287,
      "è·Łå¤§å®¶": 6288,
      "ĠçĲĥ": 6289,
      "èº«çļĦ": 6290,
      "Ġ).": 6291,
      "åŃ¤çĭ¬": 6292,
      "å±±ç¾Ĭ": 6293,
      "ä¼łè¯´": 6294,
      "å¾Ĺèµ·": 6295,
      "Ġæį¢": 6296,
      "åĲ§åķĬ": 6297,
      "å¤ļæķ°": 6298,
      "åįļå£«": 6299,
      "çļĦæĺ¯ä»Ģä¹Ī": 6300,
      "ĠåĴĭ": 6301,
      "æĴķ": 6302,
      "å¥½å¤Ħ": 6303,
      "çĸĨ": 6304,
      "ç»ĥä¹ł": 6305,
      "å«©": 6306,
      "Ġå¥¶å¥¶": 6307,
      "çİ©åħ·": 6308,
      "ä½łä¸įè¦ģ": 6309,
      "ĠåĲ¦": 6310,
      "è¡¨æĥħ": 6311,
      "ç¾İå¥½çļĦ": 6312,
      "éĩįå¤§": 6313,
      "åŃĻåŃĲ": 6314,
      "åĩºä¸Ģ": 6315,
      "éħ±": 6316,
      "ä¹ĸä¹ĸ": 6317,
      "çļĦå°±": 6318,
      "ä¸ĢåĪ»": 6319,
      "ĠæĪĳä¸įèĥ½": 6320,
      "åľ¨éĤ£": 6321,
      "Ġä¿Ŀ": 6322,
      "åķª": 6323,
      "çĲª": 6324,
      "ä»¿ä½Ľ": 6325,
      "ä¸ĭéĻį": 6326,
      "âĪ´": 6327,
      "ä¸įè®©": 6328,
      "ĠæĻĵ": 6329,
      "æ¦Ĥå¿µ": 6330,
      "åĪĽä¸ļ": 6331,
      "çĲĨè®º": 6332,
      "Ġå£": 6333,
      "å¦Īå¦Īè¯´": 6334,
      "åĿĢ": 6335,
      ",$$": 6336,
      "å¤´çļĦ": 6337,
      "ä¸¤ç§į": 6338,
      "ç¿Ķ": 6339,
      "æį§": 6340,
      "èµĲ": 6341,
      "å¿ĥæĢĿ": 6342,
      "åĨħéĥ¨": 6343,
      "éĥ½å¿«": 6344,
      "å¸Į": 6345,
      "ä¸įåı¯ä»¥": 6346,
      "æĬĬæı¡": 6347,
      "ä½łå°±æĺ¯": 6348,
      "ä¸ĢæĹ¶": 6349,
      "ä»¬çļĦ": 6350,
      "å¤§ä¼ļ": 6351,
      "ä¹ĭæīĢä»¥": 6352,
      "æĦī": 6353,
      "çģ¿": 6354,
      "ĠçĦ¶åĲİæĪĳ": 6355,
      "ä½łæ²¡": 6356,
      "Ġåıªèĥ½": 6357,
      "åĵªæľī": 6358,
      "çĲ¢ç£¨": 6359,
      "æ¼ĶçļĦ": 6360,
      "æĺ¯çĶ±": 6361,
      "äºĨå¥¹": 6362,
      "æĴŃæĬ¥": 6363,
      "ä»ĸçİ°åľ¨": 6364,
      "Ġåħī": 6365,
      "éķ¿å¤§äºĨ": 6366,
      "Ġè®©æĪĳä»¬": 6367,
      "ĠéŁ©": 6368,
      "ä¸ĢæĹ¥": 6369,
      "Ġåķ¥": 6370,
      "ĠéĢģ": 6371,
      "æĺ¯æĮĩ": 6372,
      "éĤ£å°±æĺ¯": 6373,
      "Ġå¥½åķĬ": 6374,
      "éģĩåĪ°äºĨ": 6375,
      "å·¥åİĤ": 6376,
      "ĠæıĲ": 6377,
      "æĦıåĳ³": 6378,
      "{}": 6379,
      "Ġæ¥": 6380,
      "å°¸ä½ĵ": 6381,
      "çİ«çĳ°": 6382,
      "çļĦæĸ¹æ³ķ": 6383,
      "éĩĩåıĸ": 6384,
      "Ġä½łä¸įè¦ģ": 6385,
      "æ£®æŀĹéĩĮ": 6386,
      "äºĮä½į": 6387,
      "åĲ¬è¯´è¿ĩ": 6388,
      "Ġç¬¬": 6389,
      "åĪ®": 6390,
      "ä¸ĢæĿ¯": 6391,
      "è¯´è¦ģ": 6392,
      "åĲĥçĤ¹": 6393,
      "åı¦ä¸Ģä¸ª": 6394,
      "ºåŃĲ": 6395,
      "Ġè¿ĩæĿ¥": 6396,
      "Ġä¿º": 6397,
      "æį·": 6398,
      "æ¢°": 6399,
      "Ġèĭ¹æŀľ": 6400,
      "äºĨåĩºæĿ¥": 6401,
      "æĪĲå°±": 6402,
      "å¤ŁäºĨ": 6403,
      "çģĮ": 6404,
      "ĠåĨĽ": 6405,
      "èµ°è¿Ľ": 6406,
      "è¯¥æĢİä¹Ī": 6407,
      "Ġå¾Ĳ": 6408,
      "Ġæ¯Ľ": 6409,
      "èĥ¡è¯´": 6410,
      "å¸½": 6411,
      "ç¥Ń": 6412,
      "ĠåĵªæĢķ": 6413,
      "ä¸įå¤§": 6414,
      "è¿Ļä»½": 6415,
      "çĸ²": 6416,
      "æľīè¶£": 6417,
      "å¾ª": 6418,
      "çĹ´": 6419,
      "Ġå¼Ł": 6420,
      "ä¸ºéļ¾": 6421,
      "å¯¹ä»ĺ": 6422,
      "æľīæľºä¼ļ": 6423,
      "Ġæ¸ħ": 6424,
      "æľªæĿ¥çļĦ": 6425,
      "åĪļå¥½": 6426,
      "åľŁå£¤": 6427,
      "èĥ¡åŃĲ": 6428,
      "ä¸įæ¸ħ": 6429,
      "ĠåĲ¦åĪĻ": 6430,
      "åĮĸçļĦ": 6431,
      "}}-": 6432,
      "å°±åĪ«": 6433,
      "å¹³åĿĩ": 6434,
      "èĹ¤": 6435,
      "æ¦ľ": 6436,
      "ant": 6437,
      "Ġä¸ĬéĿ¢": 6438,
      "æĺ¯ä½łçļĦ": 6439,
      "åĲĳä½ł": 6440,
      "Ġæ°¸": 6441,
      "èĬ±åĽŃ": 6442,
      "æĿ¥çĿĢ": 6443,
      "ĠæĪĳåĲ¬": 6444,
      "å°±å¾Ī": 6445,
      "éĩįåºĨ": 6446,
      "å¸®ä»ĸ": 6447,
      "Ġå°±æĺ¯è¯´": 6448,
      "}}$$,": 6449,
      "Ġä½łçŁ¥éģĵåĲĹ": 6450,
      "å°¬": 6451,
      "Ġæīįèĥ½": 6452,
      "ĠæĪĳä¹Łæĺ¯": 6453,
      "Ġå¹¿": 6454,
      "è¿Ļè¯Ŀ": 6455,
      "Ġå¹¶ä¸Ķ": 6456,
      "æķĻè®Ń": 6457,
      "Ġæ²¡éĶĻ": 6458,
      "åįĬå¤ľ": 6459,
      "Ġæľĭåıĭ": 6460,
      "åĽŀå®¶äºĨ": 6461,
      "çĶŃ": 6462,
      "å¤ıå¤©": 6463,
      "å¥ĳ": 6464,
      "æĹ©æĻ¨": 6465,
      "åĦ¿åĽŃ": 6466,
      "æĬĬä»ĸä»¬": 6467,
      "æ®ĸ": 6468,
      "å¼Ģå§ĭäºĨ": 6469,
      "èĮĤ": 6470,
      "å¤§çĪ·": 6471,
      "æ²¡æľīåķĬ": 6472,
      "èµ¢äºĨ": 6473,
      "ä¸ªåĦ¿": 6474,
      "é»Ħéĩĳ": 6475,
      "ĠåħĪçĶŁ": 6476,
      "åĶł": 6477,
      "äºĴèģĶç½ĳ": 6478,
      "ä¸Ģé¢Ĺ": 6479,
      "éķľåŃĲ": 6480,
      "åĨĮ": 6481,
      "ä¸Ģé¡¿": 6482,
      "åľ¨æĪĳçļĦ": 6483,
      "æŀļ": 6484,
      "æĦ£": 6485,
      "ĠæĪĳä¸ĢçĽ´": 6486,
      "å°ıè¯´": 6487,
      "è¿Ļåı¥è¯Ŀ": 6488,
      "æ¤Ĵ": 6489,
      "è½¦ä¸Ĭ": 6490,
      "çļĨ": 6491,
      "äº²æĪļ": 6492,
      "åħ¨éĿ¢": 6493,
      "å¾Īå¥½çļĦ": 6494,
      "ç±į": 6495,
      "æ¥ł": 6496,
      "div": 6497,
      "åħ«è·¯": 6498,
      "åĳ¢æĪĳä»¬": 6499,
      "ä½łå¦Ī": 6500,
      "åľ°åİ»": 6501,
      "æľ¬é¢ĺèĢĥæŁ¥": 6502,
      "Ġæļ": 6503,
      "çº¢çļĦ": 6504,
      "Ġä½ı": 6505,
      "çī¹åĬ¡": 6506,
      "Ġ.": 6507,
      "æ¸©æŁĶ": 6508,
      "åľ¨å¤ĸ": 6509,
      "ĠåĨĻ": 6510,
      "äºĨæĪĳçļĦ": 6511,
      "Ġge": 6512,
      "æĤ¦": 6513,
      "å¥½åĩł": 6514,
      "è·µ": 6515,
      "å¤ļå¤§": 6516,
      "åĲĥåĲ§": 6517,
      "è¯Ī": 6518,
      "Ġè¿ĺè¦ģ": 6519,
      "ä¸īè§Ĵ": 6520,
      "æĮºå¥½": 6521,
      "åľ¨åľ°": 6522,
      "æĬĬå°ı": 6523,
      "åģļè¿ĩ": 6524,
      "æĪĳåĸľæ¬¢": 6525,
      "ç»Ļå®ĥ": 6526,
      "æīĵåĩ»": 6527,
      "ĠæģĲæĢķ": 6528,
      "ä»ĸæľī": 6529,
      "lant": 6530,
      "å®¶æĹı": 6531,
      "è¯Ħä»·": 6532,
      "éĩĳèŀį": 6533,
      "Ġåĵİåĳ¦": 6534,
      "èİ¹": 6535,
      "æĺ¾å¾Ĺ": 6536,
      "©åĴĲ": 6537,
      "æĿ¥åķĬ": 6538,
      "ĠæĪĳæĢķ": 6539,
      "å¯¹è¿Ļä¸ª": 6540,
      "ä»ĸèĩªå·±": 6541,
      "æ±Ĥä½ł": 6542,
      "æĪĳè¿ĺæľī": 6543,
      "è¯´çļĦè¯Ŀ": 6544,
      "èĥ¶": 6545,
      "ĠçĽ´åĪ°": 6546,
      "ĠåĪ°äºĨ": 6547,
      "çİ©æĦıåĦ¿": 6548,
      "åĲ»": 6549,
      "çĶ¨åķĬ": 6550,
      "æ·ĭ": 6551,
      "Ġä½łå¾Ĺ": 6552,
      "åįģåĩł": 6553,
      "æĿ¥ä¸įåıĬ": 6554,
      "irc": 6555,
      "ĠåĤ": 6556,
      "æ»©": 6557,
      "åĨľæĿĳ": 6558,
      "æĨĭ": 6559,
      "qs": 6560,
      "æľĽçĿĢ": 6561,
      "éĩĳå±ŀ": 6562,
      "æ±Łæ¹ĸ": 6563,
      "æ°Ķä½ĵ": 6564,
      "è¿ĻäºĽä¸ľè¥¿": 6565,
      "å¤§éĥ¨åĪĨ": 6566,
      "qslant": 6567,
      "å®£ä¼ł": 6568,
      "æĪĳè·Łä½ł": 6569,
      "circ": 6570,
      "æł¡éķ¿": 6571,
      "Ġåģĩ": 6572,
      "ĠéĻ¤": 6573,
      "çĤ¹äºĨ": 6574,
      "éĹ´çļĦ": 6575,
      "æķ°åŃ¦": 6576,
      "åķĨä¸ļ": 6577,
      "æĢİä¹ĪåĬŀåĳ¢": 6578,
      "æĪĳè®°å¾Ĺ": 6579,
      "è¿Ļåıª": 6580,
      "æĸĩåŃ¦": 6581,
      "æĺĤ": 6582,
      "æŃ»æĪĳäºĨ": 6583,
      "æĢ¥å¿Ļ": 6584,
      "ç¬¬äºĮä¸ª": 6585,
      "ĠæĦŁè°¢": 6586,
      "ä»Ģä¹Īåľ°æĸ¹": 6587,
      "éĿŀå¾Ĺ": 6588,
      "çĪª": 6589,
      "åľ³": 6590,
      "ĠæĪĳçľŁ": 6591,
      "åľ°ä½į": 6592,
      "èĬ¦": 6593,
      "ä¼ĺåĬ¿": 6594,
      "ĠæĢİä¹Īä¼ļ": 6595,
      "çļĦä½įç½®": 6596,
      "çľĭæĪĳ": 6597,
      "åħħåĪĨ": 6598,
      "èĩªè¡Į": 6599,
      "ä½łè¿ĺæĺ¯": 6600,
      "è½»æĺĵ": 6601,
      "åĹ¨": 6602,
      "çıįæĥľ": 6603,
      "å¯¹åĲĹ": 6604,
      "æĬ«": 6605,
      "åĲĦä¸ª": 6606,
      "åĩĨå¤ĩå¥½äºĨ": 6607,
      "æłĳåı¶": 6608,
      "åİ»ä¸ĸ": 6609,
      "Ġæľīä¸Ģä¸ª": 6610,
      "ä¸įè¯¥": 6611,
      "éģĵè·¯": 6612,
      "Ġä»ĸåľ¨": 6613,
      "åĮĢ": 6614,
      "}_": 6615,
      "çłĸ": 6616,
      "å£«åħµ": 6617,
      "30": 6618,
      "æŁı": 6619,
      "åĮºåĪ«": 6620,
      "æĢ§åĳ½": 6621,
      "çļĦæ¯ĶèµĽ": 6622,
      "éĨĴæĿ¥": 6623,
      "äººæĺ¯": 6624,
      "ĠçĿ¡è§ī": 6625,
      "åĪ°å¤§": 6626,
      "èĬĿ": 6627,
      "çī©çĲĨ": 6628,
      "åįĬä¸ª": 6629,
      "ĠæĪĳåı¯": 6630,
      "è´¡çĮ®": 6631,
      "Ġè¶Ĭ": 6632,
      "é£İæł¼": 6633,
      "èľĺ": 6634,
      "æĪĳä»¬éĥ½": 6635,
      "åħ¨ä¸ĸçķĮ": 6636,
      "çģ°çĭ¼": 6637,
      "è¥¿æĸ¹": 6638,
      "çº§çļĦ": 6639,
      "ä¸īåįĥ": 6640,
      "åĲ©åĴĲ": 6641,
      "è¦ģä¸įè¦ģ": 6642,
      "è¿Ļä¸ªæł·åŃĲ": 6643,
      "è§Ħå¾ĭ": 6644,
      "ĠåĪļåĪļ": 6645,
      "Ġåĵ¥åĵ¥": 6646,
      "å¥½ä¹ħ": 6647,
      "ĠæĿ¥äºĨ": 6648,
      "çľ¼ç¥ŀ": 6649,
      "åĬŁå¤«": 6650,
      "ç»ĵå©ļäºĨ": 6651,
      "èł¢": 6652,
      "æĪĲè¿Ļæł·": 6653,
      "å°Ŀè¯ķ": 6654,
      "æĭŁ": 6655,
      "ĠæĪĳä»¬å°±": 6656,
      "ĠæĪĳåĪļæīį": 6657,
      "Ġæľīä¸Ģå¤©": 6658,
      "åĲįåı«": 6659,
      "é©¬ä¸Ĭå°±": 6660,
      "æĪĳä»¬è¿Ļä¸ª": 6661,
      "å¥¹å°±": 6662,
      "çĥĪçļĦ": 6663,
      "åįµ": 6664,
      "çŀħ": 6665,
      "åıĸå¾Ĺ": 6666,
      "åĨ³å¿ĥ": 6667,
      "æĶ»åĩ»": 6668,
      "çļĦéĩįè¦ģ": 6669,
      "æ³Ľ": 6670,
      "å¸¦æĿ¥çļĦ": 6671,
      "åħ«åįģ": 6672,
      "æ±¡æŁĵ": 6673,
      "æħ¢æħ¢åľ°": 6674,
      "å®Įæķ´": 6675,
      "æĺ¯è¿Ļæł·çļĦ": 6676,
      "Ġä½łæ²¡": 6677,
      "æ°¢": 6678,
      "æĢİä¹Īåı¯èĥ½": 6679,
      "Ġä¸ĢåĪĩ": 6680,
      "ç»´æĮģ": 6681,
      "ĠåĬŀ": 6682,
      "èľĺèĽĽ": 6683,
      "æŀī": 6684,
      "çļĦå¥³äºº": 6685,
      "ç§ĳåŃ¦å®¶": 6686,
      "ç³»åĪĹ": 6687,
      "ä¸įèĥ½åĨį": 6688,
      "å¼Ģä¼ļ": 6689,
      "æĬĦ": 6690,
      "æ¹ĺ": 6691,
      "å¥½å¥½çļĦ": 6692,
      "çļĦè·¯": 6693,
      "éķ¿æľŁ": 6694,
      "åĲĥå®Į": 6695,
      "æ²¡æľīä»»ä½ķ": 6696,
      "ĠæĪĳæīį": 6697,
      "åĿĬ": 6698,
      "åĵĹ": 6699,
      "åıįå¯¹": 6700,
      "åĬłå¼º": 6701,
      "éŃĶæ³ķ": 6702,
      "ĠæĴ": 6703,
      "å·²çŁ¥": 6704,
      "çİīç±³": 6705,
      "Ġç½Ĺ": 6706,
      "é¸¿": 6707,
      "å¼ºè°ĥ": 6708,
      "ç¿ģ": 6709,
      "ä¸įåºĶè¯¥": 6710,
      "æŃ¦æ±ī": 6711,
      "ä¸īçĤ¹": 6712,
      "éĻįä½İ": 6713,
      "å¿įä¸įä½ı": 6714,
      "çĬ¹è±«": 6715,
      "è°ģåķĬ": 6716,
      "éĥ½å¸Ĥ": 6717,
      "ä»Ģä¹ĪæĦıæĢĿåķĬ": 6718,
      "ç¾İå¥½": 6719,
      "å¼ºå¤§": 6720,
      "åį¢": 6721,
      "´å°¬": 6722,
      "èĪŁ": 6723,
      "Ġå°±ä¼ļ": 6724,
      "åĺİ": 6725,
      "æĶ¾äºĨ": 6726,
      "Ġæķĳ": 6727,
      "åıĮæĸ¹": 6728,
      "ä½łä»¬å®¶": 6729,
      "åıĹäºĨ": 6730,
      "åĲĦèĩª": 6731,
      "ç°": 6732,
      "ä»ĸäºº": 6733,
      "è°¢è°¢è°¢è°¢": 6734,
      "Ġä¸įçĦ¶": 6735,
      "ä¸ºæŃ¢": 6736,
      "èĵī": 6737,
      "æĭ¼åĳ½": 6738,
      "ĠæĪĳä»¬ä¿©": 6739,
      "ä¸ĢåĪĨ": 6740,
      "å²Ĥ": 6741,
      "ä¸Ĭæľī": 6742,
      "ä¸ĭçıŃ": 6743,
      "èĬ±çļĦ": 6744,
      "é£ŀè¡Į": 6745,
      "Ġå½ĵåĪĿ": 6746,
      "ä¸įçĽ¸ä¿¡": 6747,
      "Ġåħ¶å®ŀæĪĳ": 6748,
      "èµ´": 6749,
      "éķ¿äºĨ": 6750,
      "è¡¨éĿ¢": 6751,
      "è¿Ļä¹Īä¸Ģä¸ª": 6752,
      "èģĬèģĬ": 6753,
      "éģ®": 6754,
      "åĵ¦åĵ¦": 6755,
      "è¯Ħè®º": 6756,
      "åĴ¯": 6757,
      "éĨĭ": 6758,
      "åĩ½æķ°": 6759,
      "ä¸įæĺ¯å¾Ī": 6760,
      "éĿ¢ä¸´": 6761,
      "è¯´åĳĢ": 6762,
      "Ġä½łåıĪ": 6763,
      "æĦŁè§īåĪ°": 6764,
      "å¯¹èĩªå·±": 6765,
      "çĿ¡çĿĢäºĨ": 6766,
      "å¯¹æĪĳçļĦ": 6767,
      "ä¸¥æł¼": 6768,
      "å´ĸ": 6769,
      "ĠæĦŁè§ī": 6770,
      "ä½Ĩæĺ¯æĪĳ": 6771,
      "è¶Ĭå¤§": 6772,
      "æĪĺçķ¥": 6773,
      "äºĮçĻ¾": 6774,
      "å¤§ä¼Ļ": 6775,
      "è¿ŀç»Ń": 6776,
      "ç»µ": 6777,
      "ä½łæĺ¯ä¸įæĺ¯": 6778,
      "æľīçļĦæĹ¶åĢĻ": 6779,
      "è¿ĩæĪĳ": 6780,
      "æİ¥åĪ°": 6781,
      "æľīä¸ĢçĤ¹": 6782,
      "éĤ£åıª": 6783,
      "æ²¡æ³ķ": 6784,
      "èĨľ": 6785,
      "çİ°åľ¨æĺ¯": 6786,
      "åºŁè¯Ŀ": 6787,
      "è°¦": 6788,
      "åĿĽ": 6789,
      "éĩįè§Ĩ": 6790,
      "æĬĺèħ¾": 6791,
      "æľīçĿĢ": 6792,
      "æľīè¯·": 6793,
      "è¾ħ": 6794,
      "å¤Ħäºİ": 6795,
      "æĪĳä¸įæĥ³": 6796,
      "ĠåĶī": 6797,
      "æĤ£èĢħ": 6798,
      "åĽĽçĻ¾": 6799,
      "åľ¨ä¹İ": 6800,
      "ç»ĺ": 6801,
      "è®©ä½łä»¬": 6802,
      "è½¯ä»¶": 6803,
      "ä¸Ģåħ±": 6804,
      "å¸ĿåĽ½": 6805,
      "Ġå¤§å®¶å¥½": 6806,
      "Ġç»ıè¿ĩ": 6807,
      "ĠéĤ£ä½łå°±": 6808,
      "å¸¦æĿ¥äºĨ": 6809,
      "çĿĢå°ı": 6810,
      "ĠåĨįè¯´äºĨ": 6811,
      "æĬķåħ¥": 6812,
      "ä¸īä¸ªæľĪ": 6813,
      "æ§½": 6814,
      "é©±": 6815,
      "ĠèĢģçĪ·": 6816,
      "ĠçĦ¶èĢĮ": 6817,
      "ä¸Ģä¸ĭåķĬ": 6818,
      "Ġå¹¸": 6819,
      "èĴĤ": 6820,
      "åĪ©äºİ": 6821,
      "ĠéĿĴ": 6822,
      "å¨±ä¹Ĳ": 6823,
      "Ġä¼ļä¸įä¼ļ": 6824,
      "è¯´å¥¹": 6825,
      "åĨįåİ»": 6826,
      "è®©èĩªå·±": 6827,
      "è¿ĻåŃ©åŃĲ": 6828,
      "éĴĵ": 6829,
      "å¼Ģåıĳ": 6830,
      "çļĩåĲİ": 6831,
      "ĠåıĹ": 6832,
      "}}\\": 6833,
      "æ´Ĺæ¾¡": 6834,
      "ä»ĸä»ĸ": 6835,
      "åĪĨå¼Ģ": 6836,
      "æ·±åĪ»": 6837,
      "Ġä¾¿": 6838,
      "ä¸Ģç¾¤": 6839,
      "çī©çļĦ": 6840,
      "æĹº": 6841,
      "å°±è·Ł": 6842,
      "åľ¨å¤ĸéĿ¢": 6843,
      "ĠæĪĳå½ĵæĹ¶": 6844,
      "å¼¥": 6845,
      "å®Įç¾İ": 6846,
      "æĶ¾æĿ¾": 6847,
      "çĶ³è¯·": 6848,
      "Ġä½łä¸ºä»Ģä¹Ī": 6849,
      "å°ıåŃ¦": 6850,
      "çıĬ": 6851,
      "åĴ±ä»¬çļĦ": 6852,
      "ç½ĳåıĭ": 6853,
      "æł¸å¿ĥ": 6854,
      "50": 6855,
      "Ġä½łè¿ĺæĺ¯": 6856,
      "}+\\": 6857,
      "ä¼º": 6858,
      "Ġçľĭè§ģ": 6859,
      "å°´å°¬": 6860,
      "èľĹ": 6861,
      "é»ĺé»ĺ": 6862,
      "çĽĪ": 6863,
      "åĨįä¹Łä¸į": 6864,
      "å¿«éĢĴ": 6865,
      "æļ´éľ²": 6866,
      "äººæīį": 6867,
      "Ġæ²¡åħ³ç³»": 6868,
      "Ġå»º": 6869,
      "è¾½": 6870,
      "è¿ĩä½ł": 6871,
      "æīĭæ®µ": 6872,
      "æ°ĳä¸»": 6873,
      "14": 6874,
      "ĠçĶŁæ´»": 6875,
      "ä¸įå°±æĺ¯": 6876,
      "æīĵä»Ĺ": 6877,
      "æĮ½": 6878,
      "èĦĤ": 6879,
      "éĻªæĪĳ": 6880,
      "æĿĳæ°ĳ": 6881,
      "äººè¯´": 6882,
      "Ġä¸įåı¯èĥ½": 6883,
      "Ġç§¦": 6884,
      "è¿Ļæł·çļĦè¯Ŀ": 6885,
      "çªģçł´": 6886,
      "åŁºéĩĳ": 6887,
      "çĪĨçĤ¸": 6888,
      "å®ª": 6889,
      "ĠåıĶ": 6890,
      "ç»ĵæĿŁäºĨ": 6891,
      "æľīå¤ļå°ĳ": 6892,
      "å¥½äºĭ": 6893,
      "çĿĢä¸Ģä¸ª": 6894,
      "éĻķ": 6895,
      "æĿŃ": 6896,
      "ä¸ĭéĽ¨": 6897,
      "ç¾İå¥³": 6898,
      "Ġæ¯ıæ¬¡": 6899,
      "åĦ": 6900,
      "åıĳå±ķçļĦ": 6901,
      "çİ¯èĬĤ": 6902,
      "è¡Ĺä¸Ĭ": 6903,
      "åį¿": 6904,
      "Ġæĭľ": 6905,
      "æĮĩå¯¼": 6906,
      "çŀª": 6907,
      "Ġyi": 6908,
      "åħ¨åĬĽ": 6909,
      "ĠéĤ£éĤ£": 6910,
      "äºĭæķħ": 6911,
      "åĺ±": 6912,
      "ĠæĪĳè¦ģæĺ¯": 6913,
      "Ġåĵĩ": 6914,
      "æ½ĺ": 6915,
      "ĠæĪĳåıĪ": 6916,
      "åıĤè°ĭ": 6917,
      "ä»ĸä¿©": 6918,
      "å°ıå§ĳå¨ĺ": 6919,
      "åİŁæľ¬": 6920,
      "åħħæ»¡": 6921,
      "ĠåıĳçĶŁ": 6922,
      "å®¶äºĨ": 6923,
      "ĠéĢļè¿ĩ": 6924,
      "ç®±åŃĲ": 6925,
      "æĪĳåĲ¬": 6926,
      "ç¬¦åĲĪé¢ĺæĦı": 6927,
      "åľ¨åľ°ä¸Ĭ": 6928,
      "ä»Ģä¹ĪäºĨ": 6929,
      "ç¤¾ä¼ļä¸»ä¹ī": 6930,
      "å¤ķ": 6931,
      "çļĦæĹ¶åĢĻå°±": 6932,
      "Ġå¯¹å¯¹å¯¹": 6933,
      "éª¨å¤´": 6934,
      "åıªä¼ļ": 6935,
      "è¥¿å®ī": 6936,
      "èĬ±äºĨ": 6937,
      "æ²³è¾¹": 6938,
      "ĠåĲĥé¥Ń": 6939,
      "åĲĳåīį": 6940,
      "ä¸įç®Ĺ": 6941,
      "è¿Ļä¸ªè¿Ļä¸ª": 6942,
      "ui": 6943,
      "Ġde": 6944,
      "Ġä¸Ģä¸ªäºº": 6945,
      "ä¸ºä»ĸ": 6946,
      "Ġä½Ĩæĺ¯ä½ł": 6947,
      "çļĦåĲį": 6948,
      "åħľ": 6949,
      "ä»Ģä¹Īäºĭæĥħ": 6950,
      "æ¸£": 6951,
      "ä»ħä»ħ": 6952,
      "ç²¾çģµ": 6953,
      "ä¸¸": 6954,
      "å£¶": 6955,
      "å·²ç»ıè¢«": 6956,
      "è¿Ľè¡ĮäºĨ": 6957,
      "è¯´çļĦæĺ¯": 6958,
      "Ġä½łå¥½åķĬ": 6959,
      "Ġæł¹æľ¬": 6960,
      "ä»ĸæĬĬ": 6961,
      "éľŀ": 6962,
      "çº¿çļĦ": 6963,
      "å°±å°±": 6964,
      "æĬ¥èŃ¦": 6965,
      "åĳ½åķĬ": 6966,
      "åĢĴäºĨ": 6967,
      "è¿Ļæł·åĲ§": 6968,
      "éļıåĲİ": 6969,
      "åį³ä½¿": 6970,
      "å®ı": 6971,
      "å¥½äºº": 6972,
      "ä¾£": 6973,
      "ĠæĪĳè®°å¾Ĺ": 6974,
      "è¾ĵäºĨ": 6975,
      "è¦ģæĬĬ": 6976,
      "çĶ¨æĪ·": 6977,
      "ä¹³": 6978,
      "ä¸įè®¸": 6979,
      "éĢ»": 6980,
      "èįīåİŁ": 6981,
      "ĠæĪĳä»¬çİ°åľ¨": 6982,
      "è¿ĩæĿ¥çļĦ": 6983,
      "èµ·åºĬ": 6984,
      "Ġç«Ļä½ı": 6985,
      "Ġè®°å¾Ĺ": 6986,
      "è¾ľ": 6987,
      "åıĺäºĨ": 6988,
      "al": 6989,
      "Yes": 6990,
      "Ġç®Ĺ": 6991,
      "è¾¨": 6992,
      "åĿ¤": 6993,
      "ĠçĶ±äºİ": 6994,
      "å¾Īéĩįè¦ģ": 6995,
      "è¿ĻçĤ¹": 6996,
      "å¿ĥåľ°": 6997,
      "åĲ¸æĶ¶": 6998,
      "}}+{{": 6999,
      "Ġè¿Ļå°±": 7000,
      "æĦŁæŁĵ": 7001,
      "ĠçĮª": 7002,
      "çļĦä¸»è¦ģ": 7003,
      "å¤§éĩı": 7004,
      "å¯¹ä½łçļĦ": 7005,
      "åģľæŃ¢": 7006,
      "Ġç©¿": 7007,
      "è¿Ļä¸¤": 7008,
      "çļĦç»ĵæŀľ": 7009,
      "è¿ĺä¸įéĶĻ": 7010,
      "èĢģå¤ªå¤ª": 7011,
      "ĠåĲĵ": 7012,
      "å¡Į": 7013,
      "èĦĸåŃĲ": 7014,
      "è¿Ļæ®µ": 7015,
      "å¤ĸåĽ½": 7016,
      "è¿ľå¤Ħ": 7017,
      "æĺŃ": 7018,
      "ä»ĸåİ»": 7019,
      "çļĦæ°Ķ": 7020,
      "æĶ¾åĪ°": 7021,
      "æ¼Ķåĩº": 7022,
      "ĠäºĮéĽ¶ä¸Ģ": 7023,
      "ĠæĪĳèĩªå·±": 7024,
      "æ¶µ": 7025,
      "ä¹Łéĥ½": 7026,
      "æĬ¥çº¸": 7027,
      "éĢ¸": 7028,
      "æĹłæķ°": 7029,
      "å·²ç»ıæĺ¯": 7030,
      "ä½łéĤ£": 7031,
      "çĽĳçĭ±": 7032,
      "å¥³åŃ©åĦ¿": 7033,
      "çĹĴ": 7034,
      "ĠåĨįè¯´": 7035,
      "è¿Ļä¸ĢçĤ¹": 7036,
      "æĽ¿ä½ł": 7037,
      "çļĦçĶµ": 7038,
      "å½±åŃĲ": 7039,
      "13": 7040,
      "åħ¬åĽŃ": 7041,
      "æĭ¿åĩºæĿ¥": 7042,
      "Ġç»§ç»Ń": 7043,
      "å°±æĺ¯ä¸ª": 7044,
      "è¿Ļå°±": 7045,
      "èµ°çĿĢ": 7046,
      "å¥³ä¸»": 7047,
      "ä¸įçĪ±": 7048,
      "æĥ³åķĬ": 7049,
      "åĽŀäºĭåĦ¿": 7050,
      "ä¼łéĢĴ": 7051,
      "åĮ»çĸĹ": 7052,
      "èľĹçīĽ": 7053,
      "ä½łçľĭçľĭ": 7054,
      "$$ãĢģ$$": 7055,
      "èĤĿ": 7056,
      "Ġä¸Ģå¤©": 7057,
      "æĶ¶èİ·": 7058,
      "å¿ħé¡»å¾Ĺ": 7059,
      "åı®": 7060,
      "ä½©æľį": 7061,
      "ä½łæĪĳ": 7062,
      "åĩłä¸ªäºº": 7063,
      "Ġå¤ªå¥½äºĨ": 7064,
      "åħ¬äº¤": 7065,
      "Ġ4": 7066,
      "æµ·æ´ĭ": 7067,
      "ä¸Ģä¹Ŀå¹´": 7068,
      "Ġå«Ĥ": 7069,
      "Ġä½łæĶ¾å¿ĥ": 7070,
      "çľ¼éķľ": 7071,
      "æ³¼": 7072,
      "ç©´": 7073,
      "ç»Ŀå¯¹ä¸įä¼ļ": 7074,
      "åı½": 7075,
      "èĤĮ": 7076,
      "æµĭè¯ķ": 7077,
      "ä½łè¿Ļæł·": 7078,
      "Ġyou": 7079,
      "ä»ĸèĥ½": 7080,
      "ãĢĳ": 7081,
      "æīĵæŃ»": 7082,
      "åĪĽä½ľ": 7083,
      "èĪŀè¹Ī": 7084,
      "æĺ¯è¿Ļä¸ª": 7085,
      "èĢĮè¨Ģ": 7086,
      "å¸¦é¢Ĩ": 7087,
      "ãĢĲ": 7088,
      "åİ»åİ»": 7089,
      "çĳ¶": 7090,
      "åĬ¨åĬĽ": 7091,
      "ä¹ħäºĨ": 7092,
      "ĠæĪĳå¾Ī": 7093,
      "Ġä¸¤ä¸ª": 7094,
      "å¥½åĲĥçļĦ": 7095,
      "æĹ©å·²": 7096,
      "Ġå®ŀåľ¨": 7097,
      "æłĳæŀĿ": 7098,
      "è´¯": 7099,
      "åŁİçļĦ": 7100,
      "æī¹è¯Ħ": 7101,
      "çļ®èĤ¤": 7102,
      "äºĮåįģåĽĽ": 7103,
      "è¯·æ±Ĥ": 7104,
      "å¦ĸæĢª": 7105,
      "è§īå¾Ĺå¾Ī": 7106,
      "å°ģä¿¡": 7107,
      "åģļäºĭ": 7108,
      "ä¸Ģå¤´": 7109,
      "è½´": 7110,
      "åīįçļĦ": 7111,
      "æ¡ĮåŃĲ": 7112,
      "ä¸ĬåįĪ": 7113,
      "æĸĩä»¶": 7114,
      "ä¸įåģľåľ°": 7115,
      "çĵ£": 7116,
      "ä¸Ģå®¶äºº": 7117,
      "è¿ľè¿ľ": 7118,
      "ĠçĦ¶åĲİæĪĳå°±": 7119,
      "è·Łä»ĸè¯´": 7120,
      "æ²¾": 7121,
      "ĠåĲĮå¿Ĺ": 7122,
      "çİ©çļĦ": 7123,
      "å°½éĩı": 7124,
      "å°ıæĿ¾é¼ł": 7125,
      "ĠåŃ©åĦ¿": 7126,
      "åĲĥåķĬ": 7127,
      "åĲ¬åĪ°äºĨ": 7128,
      "ç«ĸ": 7129,
      "Ġè¿Ļä»¶äºĭæĥħ": 7130,
      "Ġå·®": 7131,
      "æ¯«æĹł": 7132,
      "é¹Ĭ": 7133,
      "åĩºåı£": 7134,
      "AB": 7135,
      "æĬ¤å£«": 7136,
      "å¤§æłĳ": 7137,
      "åĦ¿ç«¥": 7138,
      "ä¾Ħ": 7139,
      "æĹ©é¤Ĳ": 7140,
      "æĪĳåĲ§": 7141,
      "ä¿Ŀéļľ": 7142,
      "èĥĮæĻ¯": 7143,
      "é¤Ĳåİħ": 7144,
      "çļĦå¤©": 7145,
      "é«ĺåº¦": 7146,
      "åĵİåĳ¦": 7147,
      "æĪĳä¸ĢçĽ´": 7148,
      "éĻĮçĶŁ": 7149,
      "å¾ĹæĦı": 7150,
      "Ġæĺ¥": 7151,
      "å¼Ģåı£": 7152,
      "å°±æĺ¯åĽłä¸º": 7153,
      "èµ°è·¯": 7154,
      "æĶ¶åĪ°": 7155,
      "ä½įäºİ": 7156,
      "çļĦäººéĥ½": 7157,
      "ä¸įä½Ĩ": 7158,
      "èĢĥéªĮ": 7159,
      "ç»§æī¿": 7160,
      "ä¸įåĲĮæĦı": 7161,
      "ol": 7162,
      "æ¯ıå¹´": 7163,
      "äº®çļĦ": 7164,
      "Ġè·Łä½ł": 7165,
      "ç£Ĭ": 7166,
      "çļĦæĥħåĨµä¸ĭ": 7167,
      "å¯Ĥå¯ŀ": 7168,
      "å¦¾": 7169,
      "å¾Ĺä¸į": 7170,
      "è¡¨æĺİ": 7171,
      "åĿĲçĿĢ": 7172,
      "ä¹Ĵ": 7173,
      "æĲħ": 7174,
      "å¤±åİ»äºĨ": 7175,
      "ä¸Ģä¸ªä¸ª": 7176,
      "å¤§å®¶çļĦ": 7177,
      "æłĭ": 7178,
      "ä¿¡åı·": 7179,
      "åįĸäºĨ": 7180,
      "äºĽä»Ģä¹Ī": 7181,
      "Ġä¸Ĭæ¬¡": 7182,
      "å·¥äºº": 7183,
      "Ġä»Ģä¹ĪæĹ¶åĢĻ": 7184,
      "å²ģäºĨ": 7185,
      "Ġå¦¹": 7186,
      "æĭ¿èµ·": 7187,
      "æĢİä¹Īæł·åķĬ": 7188,
      "çľĭä»ĸ": 7189,
      "è¯·éĹ®": 7190,
      "ä»Ĭå¤©æĻļä¸Ĭ": 7191,
      "é¹¤": 7192,
      "ä¸įèĤ¯": 7193,
      "éĹ®éģĵ": 7194,
      "æĵħ": 7195,
      "æĺ¯è¢«": 7196,
      "ĠåĪ«äºº": 7197,
      "ĠçīĽ": 7198,
      "'''": 7199,
      "çļĦæ¶Īæģ¯": 7200,
      "åħ«çĻ¾": 7201,
      "æ³ķåĽ½": 7202,
      "ä½łåıĪ": 7203,
      "æŃ¹": 7204,
      "ĠåıĤ": 7205,
      "å¤ļä¸ª": 7206,
      "æ¾³": 7207,
      "ĠåĲ¬è¯´": 7208,
      "è´¸æĺĵ": 7209,
      "æĪĳçľŁ": 7210,
      "ä½łåĸľæ¬¢": 7211,
      "æĸĮ": 7212,
      "æľĢå¤ļ": 7213,
      "Ġç¾İåĽ½": 7214,
      "çļĦå¯¹": 7215,
      "ä½łå¿«": 7216,
      "å°±æĺ¯æĪĳä»¬": 7217,
      "ĠåĬłæ²¹": 7218,
      "çļĦéķ¿": 7219,
      "ä»ĬæĻļ": 7220,
      "ĠæĢª": 7221,
      "çļĵ": 7222,
      "tri": 7223,
      "Ġè·³": 7224,
      "åĽĬ": 7225,
      "éĿłè¿ĳ": 7226,
      "å¤§åıĶ": 7227,
      "é©¾é©¶": 7228,
      "ä¸Ģå®ļçļĦ": 7229,
      "èļķ": 7230,
      "å°ĳäºĨ": 7231,
      "åħ¥äºĨ": 7232,
      "Ġä½łçľŁçļĦ": 7233,
      "å°ıåħĶåŃĲ": 7234,
      "å°Ŀå°Ŀ": 7235,
      "éĤ£ä¹Īå¤§": 7236,
      "æĹłäºº": 7237,
      "æĥ³çŁ¥éģĵ": 7238,
      "æĢİä¹ĪçĿĢ": 7239,
      "å©´": 7240,
      "å¹¼åĦ¿åĽŃ": 7241,
      "æīĢåľ¨": 7242,
      "æħ¢çĤ¹": 7243,
      "åĳ³åĦ¿": 7244,
      "ç§»åĬ¨": 7245,
      "åľ°æĬĬ": 7246,
      "åĬ¨çī©ä»¬": 7247,
      "åı«ä½ł": 7248,
      "Ġèİ«": 7249,
      "Ġèĩ³äºİ": 7250,
      "çļĦåĦ¿åŃĲ": 7251,
      "åĩºä¸Ģä¸ª": 7252,
      "æĦīå¿«": 7253,
      "ä»Ģä¹Īéĥ½ä¸į": 7254,
      "åĹĵ": 7255,
      "æĦıåĳ³çĿĢ": 7256,
      "ä¼Ĳ": 7257,
      "å¤§åľ°": 7258,
      "å¯¡": 7259,
      "åĸĺ": 7260,
      "æīĭæĮĩ": 7261,
      "çĮİäºº": 7262,
      "çļĦè¿ĻäºĽ": 7263,
      "çĶ»éĿ¢": 7264,
      "è¾Ľèĭ¦äºĨ": 7265,
      "ä¸Ģéģĵ": 7266,
      "åīįæĿ¥": 7267,
      "æĽ´æĺ¯": 7268,
      "ä¿Ŀå¯Ĩ": 7269,
      "ca": 7270,
      "é«ĺèĢĥ": 7271,
      "äº¤å¾Ģ": 7272,
      "åľ¨éĩĮéĿ¢": 7273,
      "èĤ¡ä»½": 7274,
      "Ġåı¸": 7275,
      "éĴ±çļĦ": 7276,
      "^\\": 7277,
      "æĪĳä¸įèĥ½": 7278,
      "ĠçĦ¶åĲİå°±": 7279,
      "èµĦäº§": 7280,
      ".\"": 7281,
      "è¡°": 7282,
      "èĸª": 7283,
      "çļĦç¬¬ä¸Ģ": 7284,
      "ä¸Ģå¤ľ": 7285,
      "æ´ŀéĩĮ": 7286,
      "ä½łåĴĮ": 7287,
      "ä¸Ģéĥ¨": 7288,
      "åį±æľº": 7289,
      "åŃĲäºĨ": 7290,
      "å¹¸è¿Ĳ": 7291,
      "ä½łåºĶè¯¥": 7292,
      "ä¸ĭæīĭ": 7293,
      "åįİä¸º": 7294,
      "èĽĭçĻ½": 7295,
      "è®¾è®¡å¸Ī": 7296,
      "è¿Ļå¼ł": 7297,
      "çļĦæĹ¶åĢĻæĪĳ": 7298,
      "}}^{": 7299,
      "åĲ«æľī": 7300,
      "èĮ¹": 7301,
      "èĬ±åĦ¿": 7302,
      "ç¡®è®¤": 7303,
      "17": 7304,
      "uai": 7305,
      "è¿Ļä¸ªäºĭæĥħ": 7306,
      "ä½ĵç³»": 7307,
      "åŁĥ": 7308,
      "å¸¦èµ°": 7309,
      "å°±ä¸įèĥ½": 7310,
      "Ġå®³": 7311,
      "èħĶ": 7312,
      "å°ıå°ı": 7313,
      "çĩķåŃĲ": 7314,
      "ç®ĢåįķçļĦ": 7315,
      "bu": 7316,
      "ĠæĪĳéĹ®ä½ł": 7317,
      "æŀ¯": 7318,
      "åį³å°Ĩ": 7319,
      "å²©çŁ³": 7320,
      "],": 7321,
      "è´·æ¬¾": 7322,
      "ä½łä¸įèĥ½": 7323,
      "å°±ä¸įæĺ¯": 7324,
      "æłı": 7325,
      "æ¶¯": 7326,
      "Ġæ±Ĥ": 7327,
      "è®¶": 7328,
      "èģĺ": 7329,
      "çĶŁæ°ĶäºĨ": 7330,
      "æĪĳä»¬ä¹Ł": 7331,
      "å¥½åĲ¬": 7332,
      "åģļä¸ª": 7333,
      "ç¨¿": 7334,
      "æ¯Ķä¾ĭ": 7335,
      ",$$\\": 7336,
      "ä¸ºäºº": 7337,
      "ç¦Ģ": 7338,
      "ç»¼åĲĪ": 7339,
      "åģļæ³ķ": 7340,
      "å¯Ĩçłģ": 7341,
      "ĠæĪĳä¹Łä¸įçŁ¥éģĵ": 7342,
      "Ġä¸ĢæĹ¦": 7343,
      "æĪĺåľº": 7344,
      "Ġèĩªä»İ": 7345,
      "éĥ¡": 7346,
      "ĠæĪĳä»¬å®¶": 7347,
      "éĴī": 7348,
      "lai": 7349,
      "å¤§å¸Ī": 7350,
      "äº²çĪ±çļĦ": 7351,
      "ãĢĭ,": 7352,
      "ä½łè¦ģæĺ¯": 7353,
      "Ġèµ°äºĨ": 7354,
      "æľīéĻĲ": 7355,
      "æĥ³åĲĥ": 7356,
      "è¿Ĳæ°Ķ": 7357,
      "ç»´æĬ¤": 7358,
      "ĠåĵªåĦ¿": 7359,
      "Ġé£İ": 7360,
      ")\\": 7361,
      "Ġs": 7362,
      "Ġçİī": 7363,
      "æľīè¿Ļä¸ª": 7364,
      "æł½": 7365,
      "åľ°éĩĮ": 7366,
      "ç¢Į": 7367,
      "Ġæľ±": 7368,
      "å°±æĺ¯è¦ģ": 7369,
      "æĥĬè®¶": 7370,
      "è§ĦåĪĴ": 7371,
      "éĴĪå¯¹": 7372,
      "ä¸įåĲ¬": 7373,
      "æĪĲå¹´": 7374,
      "Ġè¦ģä¸įè¦ģ": 7375,
      "Ġf": 7376,
      "éĥ½ä¸įèĥ½": 7377,
      "å¾Ģä¸ĭ": 7378,
      "Ġè¿Ľ": 7379,
      "åĲĮåŃ¦ä»¬": 7380,
      "ä½ĵç§¯": 7381,
      "æįŀ": 7382,
      "èµĦè®¯": 7383,
      "èĢ»": 7384,
      "çŃĴ": 7385,
      "èĹıåľ¨": 7386,
      "èĬĴ": 7387,
      "äººåĲĹ": 7388,
      "å¾Ĺä¸Ĭ": 7389,
      "å·¥ä½ľçļĦ": 7390,
      "èĢģåŃĲ": 7391,
      "å´Ķ": 7392,
      "åĴ¸": 7393,
      "è¿Ļå¤©": 7394,
      "ä¸ĭè½¦": 7395,
      "ä¿Ŀå®ī": 7396,
      "æĺİçĻ½åĲĹ": 7397,
      "å¤ªåĲİ": 7398,
      "æĺ¯æ²¡æľī": 7399,
      "çİĭåĲİ": 7400,
      "æĿ¥æĿ¥æĿ¥": 7401,
      "äºŃ": 7402,
      "å®¿èĪį": 7403,
      "åĸ»": 7404,
      "æĶ¾å¤§": 7405,
      "æī¿è¯º": 7406,
      "æĺ¨å¤©æĻļä¸Ĭ": 7407,
      "ĠæĪĳæĬĬ": 7408,
      "ä»İèĢĮ": 7409,
      "ä»²": 7410,
      "ä»ĸä¸Ģ": 7411,
      "ä¸¾è¡Į": 7412,
      "å¾Ĺè¿Ļä¹Ī": 7413,
      "å°±æĺ¯è¿Ļä¸ª": 7414,
      "éĺ»æŃ¢": 7415,
      "ä¼ļä¸Ĭ": 7416,
      "ä»ĬåĦ¿": 7417,
      "å°ıé±¼": 7418,
      "ç¬¬åĽĽ": 7419,
      "éĤ£æĪĳä»¬": 7420,
      "ĠåŁº": 7421,
      "Ġé¾Ļ": 7422,
      "å°±æĺ¯éĤ£ä¸ª": 7423,
      "å¾Īä¸į": 7424,
      "\"\"": 7425,
      "çļĦèĥ½åĬĽ": 7426,
      "Ġä½łåĲ¬": 7427,
      "èĢģäºĨ": 7428,
      "æľºæ¢°": 7429,
      "ç¼¸": 7430,
      "æ¯Ļ": 7431,
      "ä¸´æĹ¶": 7432,
      "åħ¬å¼Ģ": 7433,
      "Ġæ»¡": 7434,
      "æĪĳåģļ": 7435,
      "ä¸Ģèĩ´": 7436,
      "èĥ½æºĲ": 7437,
      "å§¬": 7438,
      "æµªæ¼«": 7439,
      "è¿ĻæĹ¶åĢĻ": 7440,
      "Ġè¿Ļäºĭ": 7441,
      "åĩıèĤ¥": 7442,
      "æľīåħ³ç³»": 7443,
      "å°±æĺ¯æĥ³": 7444,
      "Ġå¯¹åĳĢ": 7445,
      "æįı": 7446,
      "æĢ§è´¨": 7447,
      "äººå¿ĥ": 7448,
      "çĽ¸äº²": 7449,
      "çĳŁ": 7450,
      "çīĻé½¿": 7451,
      "éĦ": 7452,
      "æĳĩå¤´": 7453,
      "åĲ±": 7454,
      "Ġä½łåºĶè¯¥": 7455,
      "ä»İåīį": 7456,
      "åıĪæľī": 7457,
      "ç´§ç´§": 7458,
      "è¿ŀå¿Ļ": 7459,
      "èħ»": 7460,
      "ä¸ĺ": 7461,
      "ä»ĸä»¬åľ¨": 7462,
      "çļĦè¯´": 7463,
      "åı£è¢ĭ": 7464,
      "é¼İ": 7465,
      "åıĪè¦ģ": 7466,
      "é¡¹æĺ¯": 7467,
      "çªĥ": 7468,
      "ĠåĩŃ": 7469,
      "ĠãĢĤ": 7470,
      "çļĦçĪ±": 7471,
      "åĽŀåĪ°äºĨ": 7472,
      "çŁ¥éģĵæĪĳ": 7473,
      "ç´§æĢ¥": 7474,
      "Ġæ¸¸": 7475,
      "åı¯æĺ¯æĪĳ": 7476,
      "å¥½çľĭçļĦ": 7477,
      "èĳ±": 7478,
      "ç»ıåħ¸": 7479,
      "Ġæ²¡ä»Ģä¹Ī": 7480,
      "Ġå§ĳå¨ĺ": 7481,
      "å½ª": 7482,
      "æīĵçĲĥ": 7483,
      "çķĻçĿĢ": 7484,
      "ä½łä»¬ä¸¤ä¸ª": 7485,
      "angle": 7486,
      "æĸ©": 7487,
      "Ġä½łåĳĢ": 7488,
      "èī°éļ¾": 7489,
      "ĠéĹ®": 7490,
      "Ġä½łéĥ½": 7491,
      "æĿ¥æºĲ": 7492,
      "å¿«éĢŁ": 7493,
      "ĠåĽ¢": 7494,
      "éĵģè·¯": 7495,
      "èĪ°": 7496,
      "Ġè¿Ļè¾¹": 7497,
      "ä½łå¥½ä½łå¥½": 7498,
      "è¿Ļæł·çļĦä¸Ģä¸ª": 7499,
      "æĥ©ç½ļ": 7500,
      "æīĵå·¥": 7501,
      "æī¾ä»ĸ": 7502,
      "Ġå®ŀéĻħ": 7503,
      "äºĶåįĥ": 7504,
      "ä¼łæĿ¥": 7505,
      "äºĴåĬ¨": 7506,
      "ä»ĭç»įä¸Ģä¸ĭ": 7507,
      "25": 7508,
      "Ġä½łä»Ĭå¤©": 7509,
      "è¿ĺæĺ¯å¾Ī": 7510,
      "ä¸Ģæ£µ": 7511,
      "ĠåĦ¿åŃĲ": 7512,
      "å®ļä¹ī": 7513,
      "åħŃçĻ¾": 7514,
      "çļĦä½ľçĶ¨": 7515,
      "Ġåľ¨è¿Ļä¸ª": 7516,
      "yi": 7517,
      "çļĦè½¦": 7518,
      "çĬ¬": 7519,
      "è¾ŀèģĮ": 7520,
      "è¿ĻåĽŀ": 7521,
      "åľ°çľĭçĿĢ": 7522,
      "$$;": 7523,
      "ĠæĪĳä»¬åľ¨": 7524,
      "æĪĳå°±ä¸į": 7525,
      "è¿Ľåİ»äºĨ": 7526,
      "æĪĲæľ¬": 7527,
      "è®²çļĦ": 7528,
      "æ¨¡æł·": 7529,
      "æľīä»Ģä¹Īåħ³ç³»": 7530,
      "å±ħæ°ĳ": 7531,
      "æĿŃå·ŀ": 7532,
      "éŁ¦": 7533,
      "åĳĬè¯īæĪĳä»¬": 7534,
      "æĬĵç´§": 7535,
      "ä¾ĭå¦Ĥ": 7536,
      "æĢİä¹Īåģļ": 7537,
      "ä¸¤æĿ¡": 7538,
      "Ġæĺ¯åĲĹ": 7539,
      "å¾ĢåĲİ": 7540,
      "Ġè¿ĻéĩĮæĺ¯": 7541,
      "æĶ¾å¼Ģ": 7542,
      "ç«ĭé©¬": 7543,
      "æľºåĻ¨äºº": 7544,
      "ĠæŃ£å¥½": 7545,
      "å®¢åİħ": 7546,
      "éŀĭåŃĲ": 7547,
      "è¿Ļä¸ªæĺ¯": 7548,
      "åĨĽäºº": 7549,
      "è¯´å®ŀè¯Ŀ": 7550,
      "åĵ©": 7551,
      "ç»Ļäºº": 7552,
      "Ġä»ĸä¼ļ": 7553,
      "Ġå¯¹åķĬ": 7554,
      "åĩĿ": 7555,
      "å½¢å®¹": 7556,
      "å°±æĺ¯è¿Ļæł·": 7557,
      "éĽĨåĲĪ": 7558,
      "ä¸ºä»Ģä¹Īä¼ļ": 7559,
      "éĶĻè¯¯çļĦ": 7560,
      "è¿ĺæĥ³": 7561,
      "æµĩ": 7562,
      "èĪħèĪħ": 7563,
      "åĪ°æĿ¥": 7564,
      "å¼Ģæŀª": 7565,
      "ä¸īä½į": 7566,
      "æ·±åľ³": 7567,
      "æĶ¶åĲ¬": 7568,
      "èº«åĲİ": 7569,
      "èŀĥ": 7570,
      "çľ¨": 7571,
      "çĻĮ": 7572,
      "âĳłâĳ¡": 7573,
      "ä½łæ²¡æľī": 7574,
      "ä¸ªå¤§": 7575,
      "ĠæĮīçħ§": 7576,
      "å®Ļ": 7577,
      "ç§ĺä¹¦": 7578,
      "Ġæĺ¯åĽłä¸º": 7579,
      "åĨľä¸ļ": 7580,
      "åİīå®³äºĨ": 7581,
      "èŀĥèŁ¹": 7582,
      "æĢĸ": 7583,
      "ĠæľīçĤ¹": 7584,
      "åĳ¨æľ«": 7585,
      "æīĵå¾Ĺ": 7586,
      "çº¢åĨĽ": 7587,
      "ç£ķ": 7588,
      "ä¹ĵ": 7589,
      "ĠéĤ£æĤ¨": 7590,
      "è®©å®ĥ": 7591,
      "Ġåį³ä½¿": 7592,
      "å¸¦ä½ł": 7593,
      "æķħçŃĶæ¡Īä¸º": 7594,
      "å¹²éĥ¨": 7595,
      "ç©¿ä¸Ĭ": 7596,
      "Ġé¥Ń": 7597,
      "äººåı£": 7598,
      "ä»ĸå¯¹": 7599,
      "å®¶ä¹¡": 7600,
      "Ġå¤Ħ": 7601,
      "åħ¶å®ŀæĺ¯": 7602,
      "æĪĳä¸įä¼ļ": 7603,
      "åĥıæĺ¯": 7604,
      "æĶ¹éĢł": 7605,
      "ä¸ĵè¾ĳ": 7606,
      "Ġè®¸": 7607,
      "æĥħåĨµä¸ĭ": 7608,
      "æ¶īåıĬ": 7609,
      "æĪĳå¿ĥéĩĮ": 7610,
      "çħİ": 7611,
      "å¹¿ä¸ľ": 7612,
      "æ²Ļåıĳ": 7613,
      "çºłç»ĵ": 7614,
      "ä¼ºåĢĻ": 7615,
      "å®°": 7616,
      "æīĭä¸ĭ": 7617,
      "ä»ĸä»¬ä¿©": 7618,
      "Ġæ¯į": 7619,
      "åŀ«": 7620,
      "è¶ħå¸Ĥ": 7621,
      "æİĮå£°": 7622,
      "éĩĬæĶ¾": 7623,
      "Ġä¸īåįģ": 7624,
      "ĠèĵĿ": 7625,
      "èĥ³": 7626,
      "Ġåħ³äºİ": 7627,
      "æ¶Į": 7628,
      "ĠæĶ¹": 7629,
      "åĦĴ": 7630,
      "Ġè¿ĩåİ»": 7631,
      "è½¬èº«": 7632,
      "Ġæ·±": 7633,
      "ä¸ºåķ¥": 7634,
      "ä½ĵä¼ļ": 7635,
      "å²ģæķ°": 7636,
      "å¤±è¸ª": 7637,
      "ĠçĻ¾": 7638,
      "å¾Ĺä½ı": 7639,
      "ä¸¤åı£": 7640,
      "éĥ½ä¸įæĺ¯": 7641,
      "èĤ¿": 7642,
      "è·¯è¿ĩ": 7643,
      "åĵĪåĵĪåĵĪåĵĪ": 7644,
      "çĵ·": 7645,
      "æĮ£éĴ±": 7646,
      "åı¦å¤ĸä¸Ģä¸ª": 7647,
      "å¹´æĿ¥": 7648,
      "è¿Ĳè¾ĵ": 7649,
      "åħ¬åħ±": 7650,
      "ç»³åŃĲ": 7651,
      "Ġé¢ľèī²": 7652,
      "åıĮæīĭ": 7653,
      "è¯´ä¸įå®ļ": 7654,
      "çĸ¾çĹħ": 7655,
      "ä¹°åįĸ": 7656,
      "æģŃåĸľ": 7657,
      "ä¸įåĲĪéĢĤ": 7658,
      "èµ°åİ»": 7659,
      "æ¸Ĭ": 7660,
      "å°ıåĮº": 7661,
      "è§£çŃĶ": 7662,
      "çļĦä¸įæĺ¯": 7663,
      "ä½¿åĬ²": 7664,
      "çļĦè¯Ŀåĳ¢": 7665,
      "èŀº": 7666,
      "è¿Ļéĥ¨çĶµå½±": 7667,
      "å§Ĳå¤«": 7668,
      "Ġå¸¸": 7669,
      "éĹ®é¢ĺçļĦ": 7670,
      "é£İåĲ¹": 7671,
      "åķ¦åķ¦": 7672,
      "æ°Ľ": 7673,
      "ä½¿å¾Ĺ": 7674,
      "Ġhao": 7675,
      "è®²è¯Ŀ": 7676,
      "Ġç¬¬äºĮå¤©": 7677,
      "éº»éĽĢ": 7678,
      "Ġè¯Ŀ": 7679,
      "ä¸Ģä¼ļ": 7680,
      "Ġä½łä¸įèĥ½": 7681,
      "è¿Ļæĺ¯ä¸Ģä¸ª": 7682,
      "åħ¬ä¼Ĺåı·": 7683,
      "ä¸įè®¤è¯Ĩ": 7684,
      "å¦¨": 7685,
      "å¤ĸå©Ĩ": 7686,
      "Ġç¡®å®ŀ": 7687,
      "60": 7688,
      "èĬĤå¥ı": 7689,
      "Ġæ°Ķ": 7690,
      "ä¸ĥçĤ¹": 7691,
      "å¤ľéĩĮ": 7692,
      "Âł": 7693,
      "åİ»ä¹°": 7694,
      "èº«æĿĲ": 7695,
      "èĩ³ä»Ĭ": 7696,
      "èĭ±è¯Ń": 7697,
      "å¾ĹåĪ°äºĨ": 7698,
      "çº±": 7699,
      "èĲ½åľ¨": 7700,
      "ç½ĳçĲĥ": 7701,
      "æīįçŁ¥éģĵ": 7702,
      "åįķçĭ¬": 7703,
      "Ġä½łè¯´ä»Ģä¹Ī": 7704,
      "å°±åı¯ä»¥äºĨ": 7705,
      "Ġä½łèĥ½ä¸įèĥ½": 7706,
      "è¿ĩå¹´": 7707,
      "åı¯å¾Ĺ": 7708,
      "å¼łå¾·èĬ¬ç©ºéĹ´": 7709,
      "èµ°åĲĳ": 7710,
      "åĮĹå¹³": 7711,
      "æĶ¯ä»ĺ": 7712,
      "è¿ĩåĲĹ": 7713,
      "åĺ²": 7714,
      "æĢĿç»´": 7715,
      "çľĭåĪ°çļĦ": 7716,
      "æĺ¯å°ı": 7717,
      "æĿī": 7718,
      "éĥ½æĥ³": 7719,
      "çĪ¶çİĭ": 7720,
      "äºĨä¸įèµ·": 7721,
      "åķĬå°±": 7722,
      "åı¯çĪ±çļĦ": 7723,
      "åĵģçīĮ": 7724,
      "åģļæ¢¦": 7725,
      "ä¸Ģä¸ĭåĲ§": 7726,
      "çľĭä¸Ģçľĭ": 7727,
      "äºĨä»Ģä¹Ī": 7728,
      "Ġä½łä»¬ä¸¤ä¸ª": 7729,
      "Ġä»İæĿ¥": 7730,
      "æķ´æķ´": 7731,
      "æ·±æ·±": 7732,
      "æĪĳä¹ĭåīį": 7733,
      "æ²¡è§ģè¿ĩ": 7734,
      "è¢ĸ": 7735,
      "ä¸ĥåįģ": 7736,
      "è´¢äº§": 7737,
      "çĽ¸æ¯Ķ": 7738,
      "è¿ŀéº¦": 7739,
      "å¤ľæĻļ": 7740,
      "ç¡®ä¿Ŀ": 7741,
      "åİŁåŃĲ": 7742,
      "æľĭåıĭåľĪ": 7743,
      "äººéĹ´": 7744,
      "è§ĴèĲ½": 7745,
      "çŃĶåºĶäºĨ": 7746,
      "æĦŁåĨĴ": 7747,
      "äºĨä¸ĢæĿ¡": 7748,
      "æĬ±æĢ¨": 7749,
      "äºĨä¸Ģåıª": 7750,
      "é£Łåĵģ": 7751,
      "çĿĢçļĦ": 7752,
      "ä¸īä¸ªäºº": 7753,
      "æķĻå®¤": 7754,
      "äºĮå¹´": 7755,
      "ç½¢äºĨ": 7756,
      "NBA": 7757,
      "åĩºæīĭ": 7758,
      "åĪ«è¯´": 7759,
      "åľ¨äºİ": 7760,
      "ĠåıĮ": 7761,
      "æĿĥåĬĽ": 7762,
      "ä¿ĥè¿Ľ": 7763,
      "}-": 7764,
      "æĪĳæľĢ": 7765,
      "æĦŁæ¿Ģ": 7766,
      "æĢ¡": 7767,
      "åĲİæŀľ": 7768,
      "å¦ŀ": 7769,
      "æĪĳåıª": 7770,
      "èĨĬ": 7771,
      "Ġèµ·": 7772,
      "Ġçľ¼": 7773,
      "ĠéĤ£æĹ¶åĢĻ": 7774,
      "éģĵçļĦ": 7775,
      "å¸¦ä¸Ĭ": 7776,
      "èĢĥå¯Ł": 7777,
      "pha": 7778,
      "ä½łæĶ¾å¿ĥ": 7779,
      "è¯´åĪ°": 7780,
      "Ġä½łæĿ¥": 7781,
      "ĠåĽłä¸ºä»ĸ": 7782,
      "å±ĭåŃĲ": 7783,
      "åŃ¦å®¶": 7784,
      "ç¥ŀä»Ļ": 7785,
      "è¶ĭ": 7786,
      "da": 7787,
      "ç½Ĺæĸ¯": 7788,
      "åįķèº«": 7789,
      "æī©å¤§": 7790,
      "ä¸Ĭå¸Ĥ": 7791,
      "çľĭä¸įè§ģ": 7792,
      "æīĢæľīäºº": 7793,
      "ä¹¡äº²": 7794,
      "ĠæĪĳåı«": 7795,
      "å¥½ä¸įå®¹æĺĵ": 7796,
      "ĬåŃĲ": 7797,
      "çĽ²": 7798,
      "çĽ¸ä¿¡æĪĳ": 7799,
      "è´±": 7800,
      "ä¸ºä¸»": 7801,
      "è´¢ç»ı": 7802,
      "Ġä¸įå¥½æĦıæĢĿ": 7803,
      "Ġè¿ĻåĽŀ": 7804,
      "æĤ¨å¥½": 7805,
      "å°±å·²ç»ı": 7806,
      "èĩªä»İ": 7807,
      "æĹłå¥Ī": 7808,
      "Ġä¹ĭåĲİ": 7809,
      "åħīäºĨ": 7810,
      "ĠåĽŀåİ»": 7811,
      "æľīåķ¥": 7812,
      "çºªå¿µ": 7813,
      "Ġå«ĤåŃĲ": 7814,
      "ä½łåĲĹ": 7815,
      "è´¢å¯Į": 7816,
      "åĶ¯ä¸ĢçļĦ": 7817,
      "æľīæĹ¶": 7818,
      "Ġä¸įå¦Ĥ": 7819,
      "æľºåľº": 7820,
      "ä»£ä»·": 7821,
      "Ġå£°": 7822,
      "åĽĽå¤Ħ": 7823,
      "æľĪçļĦ": 7824,
      "å±±ä¸ľ": 7825,
      "æ¯įé¸¡": 7826,
      ")$$,": 7827,
      "å°¤åħ¶æĺ¯": 7828,
      "åĬ¨éĿĻ": 7829,
      "å¦¹åŃĲ": 7830,
      "æĬĬæĪĳä»¬": 7831,
      "çĭ¬èĩª": 7832,
      "å°ıçĭĲçĭ¸": 7833,
      "æĥ³ä¸Ģæĥ³": 7834,
      "çĻ½èī²": 7835,
      "ç¨ĭåºı": 7836,
      "ĠäººçĶŁ": 7837,
      "ä¹Ĵä¹ĵ": 7838,
      "é¢ĺä¿¡æģ¯": 7839,
      "Ġåħ¬åı¸": 7840,
      "ä¸įæ¸ħæ¥ļ": 7841,
      "åĲĥè¿ĩ": 7842,
      "åħŃä¸ª": 7843,
      "Ġè¯ķé¢ĺä¿¡æģ¯": 7844,
      "è¿Ļä¸Ģå¤©": 7845,
      "æģĲæĢĸ": 7846,
      "æ°§æ°Ķ": 7847,
      "æ»¨": 7848,
      "æ£Ģæµĭ": 7849,
      "40": 7850,
      "å¿ĥæĢģ": 7851,
      "å¿«èµ°": 7852,
      "åĪ°æľĢåĲİ": 7853,
      "ç¢ĳ": 7854,
      "Ġæķ´ä¸ª": 7855,
      "æľĪçĲĥ": 7856,
      "åľ¨æĦı": 7857,
      "å±ķå¼Ģ": 7858,
      "å¿ĥçģµ": 7859,
      "æĢ»ç»Ł": 7860,
      "è´©": 7861,
      "or": 7862,
      "ĠæĪĳè¿Ļä¸ª": 7863,
      "ĠæĪĳæĪĳæĪĳ": 7864,
      "èĢķ": 7865,
      "Ġæ´»": 7866,
      "åģļçĶŁæĦı": 7867,
      "æĭ¿äºĨ": 7868,
      "èĥ³èĨĬ": 7869,
      "æ²¡çľĭ": 7870,
      "ä¸įäºĨè§£": 7871,
      "æĽ¿æĪĳ": 7872,
      "Ġåĩºåİ»": 7873,
      "alpha": 7874,
      "Ġäºĳ": 7875,
      "åľ¨æĥ³": 7876,
      "çĿ¡ä¸įçĿĢ": 7877,
      "åĭĥ": 7878,
      "å±ķç¤º": 7879,
      "çļĦéĢŁåº¦": 7880,
      "Ġä½łåĪļæīį": 7881,
      "èĢģæĺ¯": 7882,
      "åį«æĺŁ": 7883,
      "æºĥ": 7884,
      "Ġéĥĳ": 7885,
      "è°Ĳ": 7886,
      "ä¼ļè¢«": 7887,
      "æ²¡æľīäºĨ": 7888,
      "çī¹åĪ«åĸľæ¬¢": 7889,
      "åįıè®®": 7890,
      "ä½łçĪ¸": 7891,
      "çļĦåĪĨ": 7892,
      "æĪĳåħĪèµ°äºĨ": 7893,
      "ĠæĪĳä¸Ģå®ļä¼ļ": 7894,
      "æīĢä»¥è¯´": 7895,
      "éĻĲåĪ¶": 7896,
      "åı¯èĥ½æĢ§": 7897,
      "æ¢³": 7898,
      "æľīè¿ĩ": 7899,
      "æłª": 7900,
      "å©¿": 7901,
      "ä¸ĭåİ»äºĨ": 7902,
      "åİŁæĿ¥çļĦ": 7903,
      "Ġå±ħ": 7904,
      "Ġya": 7905,
      "ĠæģŃ": 7906,
      "ä¸įå¤ļäºĨ": 7907,
      "ä¹ĿçĤ¹": 7908,
      "æ´¾åĩº": 7909,
      "ä»ĭçŁ³": 7910,
      "é¥¿äºĨ": 7911,
      "Ġä½łä¸įä¼ļ": 7912,
      "ä¸ŃäºĨ": 7913,
      "é¢ł": 7914,
      "é¡½": 7915,
      "ĠçĽ´æİ¥": 7916,
      "åĳ¨æľŁ": 7917,
      "åİ»è¿ĩ": 7918,
      "é¥ŃåºĹ": 7919,
      "è±ĨèħĲ": 7920,
      "åį°åº¦": 7921,
      "zhei": 7922,
      "åįģçĤ¹": 7923,
      "æľīéģĵçĲĨ": 7924,
      "ĠæĽ¾ç»ı": 7925,
      "ĠæīĢæľīçļĦ": 7926,
      "æĬ¬å¤´": 7927,
      "åºŀ": 7928,
      "èµ°åĩº": 7929,
      "ä¸ĭæĿ¥çļĦ": 7930,
      "Ġå®¶éĩĮ": 7931,
      "Ġæķ¢": 7932,
      "mei": 7933,
      "ç²¥": 7934,
      "ä¸įéĢļ": 7935,
      "æŃ¤äºĭ": 7936,
      "ä¸Ģå¯¹": 7937,
      "æĤ¨æĺ¯": 7938,
      "å½ĵäºĨ": 7939,
      "èºģ": 7940,
      "Ġçļ®": 7941,
      "æŀķ": 7942,
      "èĲį": 7943,
      "è½¬åĮĸ": 7944,
      "âĳ¢âĳ£": 7945,
      "é£İæĻ¯": 7946,
      "å¾Ĺç½ª": 7947,
      "å¥½å¥½å¥½": 7948,
      "åĨ²åĬ¨": 7949,
      "åĲ¼": 7950,
      "æĪĲåĳĺ": 7951,
      "Ġä½Ĩæĺ¯åĳ¢": 7952,
      "ĠåĿı": 7953,
      "å°ıä¼ĻåŃĲ": 7954,
      "éªļ": 7955,
      "ä¸ĭåĪĹè¯´æ³ķ": 7956,
      "çĶŁæŃ»": 7957,
      "ä¹ĭäºº": 7958,
      "æ¼ĶæĬĢ": 7959,
      "åľ°çĤ¹": 7960,
      "æīĵæŀ¶": 7961,
      "éŃħ": 7962,
      "ĠåĨįè§ģ": 7963,
      "åİīå®³çļĦ": 7964,
      "äº¬åŁİ": 7965,
      "ä¹Łè¢«": 7966,
      "çĶŁäºĨ": 7967,
      "äºĮåįģäºĶ": 7968,
      "æ²³é©¬": 7969,
      "çĥ¦æģ¼": 7970,
      "çıįçıł": 7971,
      "å¹¿æĴŃ": 7972,
      "èĶ¬": 7973,
      "è¿ĩæĹ¥åŃĲ": 7974,
      "æľīä¸¤ä¸ª": 7975,
      "å°±çŁ¥éģĵ": 7976,
      "æĪĳä»¬åİ»": 7977,
      "çģ«ç®Ń": 7978,
      "åħ±åħļ": 7979,
      "çĽ´æĴŃéĹ´": 7980,
      "çļĦéĥ½æĺ¯": 7981,
      "æĪĲåĪĨ": 7982,
      "Ġå¤§æ¦Ĥ": 7983,
      "æĮĩç¤º": 7984,
      "éģŃéģĩ": 7985,
      "å¤§èĩ£": 7986,
      "å¸¦åĪ°": 7987,
      "ç»Łæ²»": 7988,
      "é©¬ä¸Ĭå°±è¦ģ": 7989,
      "ĠçŃīæĪĳ": 7990,
      "èĴĭä»ĭçŁ³": 7991,
      "çĽ¸å½ĵäºİ": 7992,
      "æĢªæĪĳ": 7993,
      "çļĦéĤ£äºĽ": 7994,
      "æį£": 7995,
      "å¨¥": 7996,
      "Ġè¿Ļä¸ªäºº": 7997,
      "æĿĳéĩĮ": 7998,
      "å°±æĺ¯ä¸ºäºĨ": 7999,
      "ä¼ĺç§ĢçļĦ": 8000,
      "éķĸ": 8001,
      "Ġæĥ³è¦ģ": 8002,
      "ä½łå¯¹": 8003,
      "äºĮäºº": 8004,
      "åĸĿçĤ¹": 8005,
      "åķĨåĵģ": 8006,
      "åľ¨ä¸ŃåĽ½": 8007,
      "å®ĮæĪĲäºĨ": 8008,
      "èľ¡": 8009,
      "Ġä½łè¯´è¿Ļ": 8010,
      "ĠéĤ£ä¸ªæĹ¶åĢĻ": 8011,
      "å¤ļæ¬¡": 8012,
      "æĪĳçļĦè¯Ŀ": 8013,
      "ä½ľä¸ºä¸Ģä¸ª": 8014,
      "ĠæĿĢ": 8015,
      "çľĭä¸įåĪ°": 8016,
      "æīĢä»¥æĪĳ": 8017,
      "ç¥Ŀç¦ı": 8018,
      "çĤ¹éĴ±": 8019,
      "çķı": 8020,
      "éģĹä¼ł": 8021,
      "åķĬéĤ£": 8022,
      "ĠæīĢä»¥æĪĳä»¬": 8023,
      "Ġå°±è¿Ļä¹Ī": 8024,
      "çļĦåħī": 8025,
      "Ġå¾ħ": 8026,
      "å¿«åİ»": 8027,
      "éĹ¨çļĦ": 8028,
      "çľĭæ³ķ": 8029,
      "çĦ¶åĲİåĳ¢": 8030,
      "æģĲæĥ§": 8031,
      "å¹º": 8032,
      "å®¶éĩĮçļĦ": 8033,
      "åľ°éĿ¢": 8034,
      "Ġä»ĸçİ°åľ¨": 8035,
      "è¤": 8036,
      "ĠæĪĸè®¸": 8037,
      "è®²è¿°": 8038,
      "ĠåĽŀå¤´": 8039,
      "å¡ĳæĸĻ": 8040,
      "è¦ģåģļ": 8041,
      "æī¿åıĹ": 8042,
      "æ³½ä¸ľ": 8043,
      "Ġå°¤åħ¶æĺ¯": 8044,
      "åı£æ°´": 8045,
      "çĶľçļĦ": 8046,
      "æļĳ": 8047,
      "ç¥ĸåĽ½": 8048,
      "è§ģçļĦ": 8049,
      "åĲĥé¥±": 8050,
      "åĭī": 8051,
      "ä»Ĩ": 8052,
      "éĢ®": 8053,
      "èĩªæĿĢ": 8054,
      "è£¹": 8055,
      "äº²äºº": 8056,
      "åĪļå¼Ģå§ĭ": 8057,
      "æĪĳå°±è§īå¾Ĺ": 8058,
      "Ġè¿Ļè¿Ļ": 8059,
      "å¼ŁåħĦ": 8060,
      "å°ıé»ĳ": 8061,
      "ä¸Ģä¸ªéĹ®é¢ĺ": 8062,
      "èĩªè¡Įè½¦": 8063,
      "å¼¦": 8064,
      "è·ĳåİ»": 8065,
      "Ġè¿ĺèĥ½": 8066,
      "åŃĹåĦ¿": 8067,
      "èµ¶åĪ°": 8068,
      "Ġä¸¤ä¸ªäºº": 8069,
      "éĥ½å¸ĤæĬ¥": 8070,
      "åħ«çĤ¹": 8071,
      "è·ĳæŃ¥": 8072,
      "æª": 8073,
      "å¸Īéķ¿": 8074,
      "é¥ºåŃĲ": 8075,
      "æ¯ıå¤©éĥ½": 8076,
      "è°Ĭ": 8077,
      "ä¾¿æĺ¯": 8078,
      "\\%": 8079,
      "ä»¥ä¸ĭ": 8080,
      "Ġä¸įçŁ¥": 8081,
      "å¤ªéļ¾": 8082,
      "è¿Ļä¸ĭ": 8083,
      "åĪ°åºķæĺ¯": 8084,
      "èĢģçĪ¸": 8085,
      "æĹ¥å¸¸": 8086,
      "Ġç§į": 8087,
      "è¡·": 8088,
      "ĠåįĬ": 8089,
      "ä¸ĢåĬ¨": 8090,
      "ä¸ĸä¸Ĭ": 8091,
      "ä¸Ģå®ļèĥ½": 8092,
      "ç»ĵè®º": 8093,
      "æľĢéĩįè¦ģçļĦ": 8094,
      "åīįå¾Ģ": 8095,
      "åľŁåĮª": 8096,
      "æīĵæī®": 8097,
      "æĻ°": 8098,
      "Ġåĺī": 8099,
      "åĩłåįģ": 8100,
      "æıĲåĪ°": 8101,
      "æĬ±æŃī": 8102,
      "åĬ¨æľº": 8103,
      "åıįå¤į": 8104,
      "ĠéĤ£ä»ĸ": 8105,
      "éķ¿å®ī": 8106,
      "è¯·æĤ¨": 8107,
      "åĳĢä½ł": 8108,
      "å¥¹è¯´": 8109,
      "æķ´ä½ĵ": 8110,
      "æĭīçĿĢ": 8111,
      "å¾®ç¬ĳ": 8112,
      "æĪĳçĽ¸ä¿¡": 8113,
      "Ġè¦ģä¸įæĺ¯": 8114,
      "ä¸įäºĨä½ł": 8115,
      "ĠçľŁæŃ£": 8116,
      "æĬĬèĩªå·±çļĦ": 8117,
      "åķ¥åĳ¢": 8118,
      "æµ´": 8119,
      "èĭıèģĶ": 8120,
      "ä¸ĢåĽŀ": 8121,
      "åĵªåĦ¿åķĬ": 8122,
      "Ġå¹²åĺĽ": 8123,
      "çŃīä¼ļåĦ¿": 8124,
      "Ġä¹Ķ": 8125,
      "ä¸Ģè¾Ĩ": 8126,
      "ä¹¾": 8127,
      "äº¤ç»Ļä½ł": 8128,
      "ä¼¤åı£": 8129,
      "ĠæĪĳçŁ¥éģĵä½ł": 8130,
      "è°ģçļĦ": 8131,
      "èī¯å¿ĥ": 8132,
      "è¦ģæľī": 8133,
      "èĢĮä¸į": 8134,
      "åĲ¬è¿ĩ": 8135,
      "ĠæĪĳä»¬åı¯ä»¥": 8136,
      "ç¿»è¯ĳ": 8137,
      "Ġå®ĥä»¬": 8138,
      "çħ§é¡¾å¥½": 8139,
      "æĲº": 8140,
      "æĺ¯ä»Ģä¹Īåĳ¢": 8141,
      "åĳĪçİ°": 8142,
      ",[": 8143,
      "æĥ³è¯´": 8144,
      "è¯ķéªĮ": 8145,
      "ä»Ļå¥³": 8146,
      "æµĳèº«": 8147,
      "å¥ĭæĸĹ": 8148,
      "éĤ£ä¼ļåĦ¿": 8149,
      "Ġæľīä¸Ģæ¬¡": 8150,
      "Ġè¯·éĹ®": 8151,
      "ĠæĦ¿": 8152,
      "æī¾äºĨ": 8153,
      "æĻļå®ī": 8154,
      "Ġæĭį": 8155,
      "æĪĳåĪ°": 8156,
      "çĥĽ": 8157,
      "å°±è§īå¾Ĺ": 8158,
      "æĸĹäºī": 8159,
      "éĴ¢çĲ´": 8160,
      "ä¸Ģå¥Ĺ": 8161,
      "æĹŃ": 8162,
      "çĭ¡": 8163,
      "è¿ĺä¸įæĺ¯": 8164,
      "èĩªåĬ¨": 8165,
      "ç¤¼è²Į": 8166,
      "èĵĦ": 8167,
      "åħ¨èº«": 8168,
      "å¹³éĿĻ": 8169,
      "åĲĦç§įåĲĦ": 8170,
      "åī¿": 8171,
      "è¯Ŀé¢ĺ": 8172,
      "éĽ¶çĤ¹": 8173,
      "Ġå¤«äºº": 8174,
      "éĵŃ": 8175,
      "èĥĨåŃĲ": 8176,
      "èĥĸåŃĲ": 8177,
      "èķī": 8178,
      "çĶŁæĪĲ": 8179,
      "Ġç¦»": 8180,
      "çĪ±å¥½": 8181,
      "ä¼¤äºĨ": 8182,
      "åĴ¦": 8183,
      "èĢĮä¸įæĺ¯": 8184,
      "è¿Ļæł·çļĦäºº": 8185,
      "éĥ¨éķ¿": 8186,
      "èĮħ": 8187,
      "Ġå°ĨåĨĽ": 8188,
      "hao": 8189,
      "å°ıäºĨ": 8190,
      "ä¸Ģä¸ªäººçļĦ": 8191,
      "çļĦçĶ·äºº": 8192,
      "ä¹Łæĥ³": 8193,
      "æĿ¥å¾ĹåıĬ": 8194,
      "çļĦè¡£æľį": 8195,
      "è¯·åĿĲ": 8196,
      "å¥¹åľ¨": 8197,
      "éĴ±äºĨ": 8198,
      "åįļçī©": 8199,
      "æĪĲä¸ºäºĨ": 8200,
      "è±Ĩè±Ĩ": 8201,
      "ĠçĦ¶åĲİä»ĸ": 8202,
      "ĠæĪĳä¸Ģ": 8203,
      "åĪ°æĪĳä»¬": 8204,
      "æ±łå¡ĺ": 8205,
      "åķĬè¿Ļä¸ª": 8206,
      "éĶĲ": 8207,
      "ç»ĦåĲĪ": 8208,
      "éĥ½æĺ¯æĪĳ": 8209,
      "éĿŀå¸¸å¥½": 8210,
      "çī©ä½ĵçļĦ": 8211,
      "ä¸įé«ĺåħ´": 8212,
      "Ġä¹Łå°±æĺ¯": 8213,
      "ĠæľĢç»Ī": 8214,
      "Ġäºİ": 8215,
      "æķ´çĲĨ": 8216,
      "äºĭçļĦ": 8217,
      "ä¾¦æŁ¥": 8218,
      "ä¸ŀ": 8219,
      "å½¢çļĦ": 8220,
      "çĸ¯äºĨ": 8221,
      "åĲ§ä½ł": 8222,
      "å¼Ģå±ķ": 8223,
      "æľįè£ħ": 8224,
      "Ġåħ¬ä¸»": 8225,
      "éĹºèľľ": 8226,
      "åĨ¤æŀī": 8227,
      "ç»ĵäºĨ": 8228,
      "åĴĴ": 8229,
      "åħ®": 8230,
      "ĠåĲĪ": 8231,
      "çİĭçļĦ": 8232,
      "åĮĹæĸ¹": 8233,
      "é»ĳæļĹ": 8234,
      "çĵ¶åŃĲ": 8235,
      "åĨįä¹Ł": 8236,
      "æ°ĶçĲĥ": 8237,
      "ç¼ĺåĪĨ": 8238,
      "åĴ½": 8239,
      "åĪ¶çļĦ": 8240,
      "ä¸Ģä¸ªå¥½": 8241,
      "æĬĬéĤ£ä¸ª": 8242,
      "è¿Ļæł·åģļ": 8243,
      "åĥıæĪĳ": 8244,
      "ç¬¬äºĮæ¬¡": 8245,
      "é³Ħ": 8246,
      "çĻ¾ä¸ĩ": 8247,
      "è¿ĻäºĽäºº": 8248,
      "Ġè°¢è°¢åķĬ": 8249,
      "å·«å©Ĩ": 8250,
      "Ġä¸ĢèĪ¬": 8251,
      "ĠåĲį": 8252,
      "Ġå¤§å®¶éĥ½": 8253,
      "åĨĴéĻ©": 8254,
      "Ġè¿ĻæĹ¶": 8255,
      "è¹Ń": 8256,
      "æ²¡æľīæ²¡æľī": 8257,
      "æĢİä¹Īè¿Ļä¹Ī": 8258,
      "æľ¬é¢Ĩ": 8259,
      "é¢ĳçİĩ": 8260,
      "ä¸ĭä¸Ģä¸ª": 8261,
      "æķĳäºĨ": 8262,
      "åľ¨éĤ£éĩĮ": 8263,
      "ä¸Ĭåįĩ": 8264,
      "å¤©åĵª": 8265,
      "æĭĵ": 8266,
      "äºĮä¸ī": 8267,
      "ĠåĵŃ": 8268,
      "ĠçľĭçĿĢ": 8269,
      "åı¯å°±": 8270,
      "ä¸Ńæľī": 8271,
      "ä¸ªåŃĲ": 8272,
      "éĤ£éĤ£": 8273,
      "èĢģå¸ĪçļĦ": 8274,
      "ä¸įå¥½çļĦ": 8275,
      "éĴ©": 8276,
      "è¿Ļä¸ªåľ°æĸ¹": 8277,
      "æ·ĳ": 8278,
      "Ġä¸ģ": 8279,
      "çī¡": 8280,
      "èĢĮæĿ¥": 8281,
      "Ġä»¥åıĬ": 8282,
      "ĠæĲŀ": 8283,
      "Ġè¿ĳ": 8284,
      "æĺ¯åı¯ä»¥": 8285,
      "åĲĳæĪĳ": 8286,
      "çľŁæĺ¯å¤ª": 8287,
      "ä¸Ĭè½¦": 8288,
      "Ġçħ§": 8289,
      "Ġä½łåĴĮ": 8290,
      "Ġçī¹": 8291,
      "ç«Ļèµ·æĿ¥": 8292,
      "éŀŃ": 8293,
      "Ġæ³ķ": 8294,
      "åľ¨éĤ£ä¸ª": 8295,
      "ä¼ļéķ¿": 8296,
      "ä»Ģä¹Īäºº": 8297,
      "Ġå¢": 8298,
      "å°ıç»Ħ": 8299,
      "é©¼": 8300,
      "ĠåĮĹäº¬": 8301,
      "Ġåĵİä½ł": 8302,
      "çħĮ": 8303,
      "Ġåħ³éĶ®": 8304,
      "Ġåĭ": 8305,
      "å¹´çļĦæĹ¶éĹ´": 8306,
      "Ġå·¥ä½ľ": 8307,
      "åģ¶å°Ķ": 8308,
      "å°¤": 8309,
      "ç²¾åĬĽ": 8310,
      "å¾Ĵå¼Ł": 8311,
      "ĠçĪ·çĪ·": 8312,
      "çľ¯": 8313,
      "åĬłçıŃ": 8314,
      "çģµéŃĤ": 8315,
      "çŀ§çŀ§": 8316,
      "ong": 8317,
      "ãĢĤ(": 8318,
      "Ġæķ°": 8319,
      "åºĹéĩĮ": 8320,
      "åħĦå¼Łä»¬": 8321,
      "çļĦæĥħ": 8322,
      "æĺ¯å¯¹": 8323,
      "å¥³æİĴ": 8324,
      "you": 8325,
      "äºĮåĵ¥": 8326,
      "Ġå®ŀéĻħä¸Ĭ": 8327,
      "æĭįæĳĦ": 8328,
      "æĶĢ": 8329,
      "äº²æīĭ": 8330,
      "éļĶå£ģ": 8331,
      "è¿ľäºĨ": 8332,
      "éĹŃåĺ´": 8333,
      "çļĦç¾İ": 8334,
      "æīĢè¯´çļĦ": 8335,
      "å½ĵæĪĳ": 8336,
      "ç¤¼æĭľ": 8337,
      "æ±īå¥¸": 8338,
      "èĶ¬èıľ": 8339,
      "åĳ±": 8340,
      "è®²ç©¶": 8341,
      "åĢĴéľī": 8342,
      "ä¸įä½ıäºĨ": 8343,
      "ç¬¨ç¬¨": 8344,
      "çļĦä»ĸ": 8345,
      "ĠæĢİä¹ĪåĽŀäºĭ": 8346,
      "å¤§ç¬ĳ": 8347,
      "ä»¥å¤ĸ": 8348,
      "ä¹ĭå¤Ħ": 8349,
      "Ġä¸ĭæĿ¥": 8350,
      "Ġæĩ": 8351,
      "æŃ£ç»ı": 8352,
      "éĿŀå¸¸åľ°": 8353,
      "ä¸ĭèĲ½": 8354,
      "anr": 8355,
      "Ġç§ĭ": 8356,
      "åŃ£èĬĤ": 8357,
      "çļĦæĸ°éĹ»": 8358,
      "äººå£«": 8359,
      "èģĶç»ľ": 8360,
      "äººåĴĮ": 8361,
      "åĲ§æĪĳ": 8362,
      "ĠæĦı": 8363,
      "éĤ£ä½į": 8364,
      "å¼Ĺ": 8365,
      "Ġè¿ĺæ²¡": 8366,
      "è¿ĺè¯´": 8367,
      "èĶ½": 8368,
      "çĩĥçĥ§": 8369,
      "Ġæħ¢æħ¢": 8370,
      "äººå°±": 8371,
      "èħĬ": 8372,
      "çļĦçĬ¶æĢģ": 8373,
      "åı«ä»ĸ": 8374,
      "èĿĩ": 8375,
      "Ġzhei": 8376,
      "æĿł": 8377,
      "æĿ¥çľĭçľĭ": 8378,
      "å¤©åľ°": 8379,
      "è¿Ļæĺ¯æĪĳ": 8380,
      "Ġåľ°æĸ¹": 8381,
      "ĠéĤ£ä½łè¯´": 8382,
      "æ²Ļæ¼ł": 8383,
      "ä»ĸä»¬å®¶": 8384,
      "åģ¶åĥı": 8385,
      "ä½łä¸įçŁ¥éģĵ": 8386,
      "éĤ£æĪĳå°±": 8387,
      "åĪ«åĬ¨": 8388,
      "åĮĸå¦Ĩ": 8389,
      "çĿ¡äºĨ": 8390,
      "åĺŁåĺŁ": 8391,
      "¿ä¸ĭ": 8392,
      "äºĮåı·": 8393,
      "éĺ²æŃ¢": 8394,
      "å·¢": 8395,
      "èĩªèº«": 8396,
      "é«ĺåħ´åľ°": 8397,
      "å§¥å§¥": 8398,
      "è§ģä»ĸ": 8399,
      "Ġæĭī": 8400,
      "åľĨåľĨ": 8401,
      "åħ¬å¸ĥ": 8402,
      "éĿĻéĿĻ": 8403,
      "æĪĳçŁ¥éģĵäºĨ": 8404,
      "äº§çĶŁçļĦ": 8405,
      "èĢ¿": 8406,
      "çİ©äºĨ": 8407,
      "ä¸įæĸŃåľ°": 8408,
      "Ġæ°¸è¿ľ": 8409,
      "åľ¨æŃ¤": 8410,
      "æ°´ä¸Ń": 8411,
      "Ġè¯´ä¸įå®ļ": 8412,
      "å¥¥è¿Ĳ": 8413,
      "Ġæº": 8414,
      "æĺ¯æĢİä¹ĪåĽŀäºĭ": 8415,
      "ĠåĽŀå®¶": 8416,
      "è¿Ļä¹Łæĺ¯": 8417,
      "å¾ĹæĽ´": 8418,
      "çĶ¨æīĭ": 8419,
      "ĠåĨħ": 8420,
      "ä¸įäºĨäºĨ": 8421,
      "æīĵä¸ªçĶµè¯Ŀ": 8422,
      "çº¢èī²çļĦ": 8423,
      "æľ´": 8424,
      "æıī": 8425,
      "éĿłè°±": 8426,
      "é¡ºä¾¿": 8427,
      "ç¬ĳçĿĢè¯´": 8428,
      "çļĦèĩªå·±": 8429,
      "$$=": 8430,
      "Ġè½¬": 8431,
      "åıĪä¸į": 8432,
      "Ġä¸Ģè¾¹": 8433,
      "åĵ¥ä»¬åĦ¿": 8434,
      "Ġå¤ĸéĿ¢": 8435,
      "åĲĳä¸Ĭ": 8436,
      "å½ĵå¤©": 8437,
      "åĪ©çļĦ": 8438,
      "æľªå¿ħ": 8439,
      "æ¼Ĩ": 8440,
      "ä¹ĭç±»çļĦ": 8441,
      "çĭłçĭł": 8442,
      "çľĭåķĬ": 8443,
      "æĦŁåıĹåĪ°": 8444,
      "Ġä½Ĩæĺ¯ä»ĸ": 8445,
      "Ġè¿Ļä¹Łæĺ¯": 8446,
      "éŁ©åĽ½": 8447,
      "äººä¸į": 8448,
      "äººä½ĵ": 8449,
      "ä¹ŁåĪ«": 8450,
      "äº¤ç»ĻæĪĳ": 8451,
      "ĠæŃ¦": 8452,
      ")}^{": 8453,
      "æĬĬæĪĳçļĦ": 8454,
      "åī¥": 8455,
      "åķ¥çļĦ": 8456,
      "ĠæĪĳä¸Ģå®ļ": 8457,
      "ä»¶äºĭåĦ¿": 8458,
      "Ġè¿Ļä¸ªæĹ¶åĢĻ": 8459,
      "æĽ¦": 8460,
      "æľīç©º": 8461,
      "ĠéĻĽä¸ĭ": 8462,
      "è§Ī": 8463,
      "å¤§å®¶å¥½": 8464,
      "åŁ¹è®Ń": 8465,
      "å°ıçĮ´åŃĲ": 8466,
      "Ġå¹³æĹ¶": 8467,
      "ĶåŃĲ": 8468,
      "ä¸ĩåħĥ": 8469,
      "æĪĳä¸Ģå®ļ": 8470,
      "æĿ¥åĳĢ": 8471,
      "çİ°åľ¨å·²ç»ı": 8472,
      "åķĦ": 8473,
      "æ°´éĩĮ": 8474,
      "æŃ»èĢħ": 8475,
      "æľīè¿Ļä¹Ī": 8476,
      "åį¦": 8477,
      "AC": 8478,
      "åĦ¿äºĨ": 8479,
      "ä»ĸä»¬éĥ½": 8480,
      "éĩįåĬĽ": 8481,
      "ä¾ĿæĹ§": 8482,
      "ä»ĵåºĵ": 8483,
      "æĸ¥": 8484,
      "éģ£": 8485,
      "ä¸ĭå±±": 8486,
      "æİ¨åĬ¨": 8487,
      "æĪĳå¥½": 8488,
      "è¯´åĩº": 8489,
      "çĤ¹ä»Ģä¹Ī": 8490,
      "èĦļæŃ¥": 8491,
      "æŀ«": 8492,
      "è¿Ļä¸ªå°ı": 8493,
      "çĶµè·¯": 8494,
      "Ġåıªè¦ģä½ł": 8495,
      "èµ·æĿ¥çļĦ": 8496,
      "ç«Ļéķ¿": 8497,
      "ĠåĹ¯åĹ¯": 8498,
      "ä»ªå¼ı": 8499,
      "æľĢåĲİçļĦ": 8500,
      "å°Ĩä¼ļ": 8501,
      "200": 8502,
      "ä¸ľæĸ¹": 8503,
      "çīĽå¥¶": 8504,
      "Ġä½łè¿Ļä¹Ī": 8505,
      "Ġä½łæľīä»Ģä¹Ī": 8506,
      "è¿Ļä¸ªäºĭåĦ¿": 8507,
      "åıĳæĺİ": 8508,
      "å¹¶éĿŀ": 8509,
      "ĠçľŁçļĦæĺ¯": 8510,
      "æľĢåĲİä¸Ģ": 8511,
      "çĹķè¿¹": 8512,
      "åŁİåł¡": 8513,
      "å½¢åĬ¿": 8514,
      "Ġç¬ĳ": 8515,
      "ĠçĶ°": 8516,
      "ä¸Ģæĸ¹éĿ¢": 8517,
      "å¦Ħ": 8518,
      "æ¨±": 8519,
      "é¸ŁåĦ¿": 8520,
      "å½©èĻ¹": 8521,
      "èĩªä¸ªåĦ¿": 8522,
      "ä¾ĿéĿł": 8523,
      "å¿ĥèĦı": 8524,
      "åıªæľīä¸Ģä¸ª": 8525,
      "æ¾ľ": 8526,
      "è¿Ļæīį": 8527,
      "è¿ĽçļĦ": 8528,
      "èľĢ": 8529,
      "åįĥä¸ĩä¸įè¦ģ": 8530,
      "æīĵè¿ĩ": 8531,
      "äºĮæ°§åĮĸ": 8532,
      "åĴĮæĪĳä»¬": 8533,
      "åĺ¿åĺ¿": 8534,
      "åĥ§": 8535,
      "å¥½åĺŀ": 8536,
      "æĪĳåıĳçİ°": 8537,
      "åıī": 8538,
      "éĥ½ä¸įæķ¢": 8539,
      "è¡ĮåĲ§": 8540,
      "åİŁçĲĨ": 8541,
      "ĠåıĶåıĶ": 8542,
      "Ġå¦¹å¦¹": 8543,
      "ĠçĥŃ": 8544,
      "ä½ľå®¶": 8545,
      "çĸ¯çĭĤ": 8546,
      "çĽ¸éģĩ": 8547,
      "åıł": 8548,
      "å¾ħçĿĢ": 8549,
      "éĢĥè·ĳ": 8550,
      "çļĦæľī": 8551,
      "è¿ĻåĿĹ": 8552,
      "çĿĢå¤´": 8553,
      "å¸ĮæľĽä½ł": 8554,
      "Ġä»İåīį": 8555,
      "çī¡ä¸¹": 8556,
      "Ġè¿Ļä¸ªæĺ¯": 8557,
      "ä¹Ĵä¹ĵçĲĥ": 8558,
      "èĢģçļĦ": 8559,
      "æĥħçļĦ": 8560,
      "è¡¥åħħ": 8561,
      "åįĵ": 8562,
      "å¾·åĽ½": 8563,
      "ĠæĪĳåĲ¬è¯´": 8564,
      "èµł": 8565,
      "å°½åĬĽ": 8566,
      "ĠåĿļ": 8567,
      "å°ıçº¢": 8568,
      "å®ŀçļĦ": 8569,
      "ç«Ļä½ı": 8570,
      "çĶ¨åĬĽ": 8571,
      "åħįè´¹": 8572,
      "ĠåĽłæŃ¤": 8573,
      "ä¸ªäººçļĦ": 8574,
      "æľīéĤ£ä¹Ī": 8575,
      "éĽģ": 8576,
      "æ¸ħæĻ°": 8577,
      "éģĵå¾·": 8578,
      "æĸ°é²ľ": 8579,
      "Ġä½łå¹²åĲĹ": 8580,
      "çļĦä¸Ģé¡¹æĺ¯": 8581,
      "æĿ¥æİ¥": 8582,
      "åĪ°ä¸Ģä¸ª": 8583,
      "çĨĻ": 8584,
      "å¥½äºĨåĲĹ": 8585,
      "åıªä¸įè¿ĩ": 8586,
      "ç±»ä¼¼": 8587,
      "åºĨç¥Ŀ": 8588,
      "Ġå¤©å¤©": 8589,
      "ĠæĪĳåĪļ": 8590,
      "ç²ĺ": 8591,
      "ĠåĶ¯": 8592,
      "é³Ħé±¼": 8593,
      "å¤´æĿ¥": 8594,
      "çĶ·å¥³": 8595,
      "æĬĬéĴ±": 8596,
      "åİŁæĿ¥æĺ¯": 8597,
      "èķ¾": 8598,
      "ä½łå®¶": 8599,
      "åľ°äº§": 8600,
      "çİĭæľĿ": 8601,
      "æ·±å¤Ħ": 8602,
      "å¤´é¹°": 8603,
      "äºĨä¸ĢçĤ¹": 8604,
      "ç»Łè®¡": 8605,
      "Ġèĩ³å°ĳ": 8606,
      "å¤§åı«": 8607,
      "éĥ½ç»Ļ": 8608,
      "æīĵæĪĳ": 8609,
      "å¸¦ä½łåİ»": 8610,
      "åĿļåĨ³": 8611,
      "èº²åľ¨": 8612,
      "24": 8613,
      "çĿĢå¥¹": 8614,
      "åĲĮä¸Ģ": 8615,
      "è°ģéĥ½": 8616,
      "ĠæĪĳçŁ¥éģĵäºĨ": 8617,
      "æ·±åħ¥": 8618,
      "å¾ĹçŁ¥": 8619,
      "Ġä¹Łå°±æĺ¯è¯´": 8620,
      "åĲ¬ä½łçļĦ": 8621,
      "çĶ·åıĭ": 8622,
      "æľªçŁ¥": 8623,
      "(\\": 8624,
      "åıĳè¡¨": 8625,
      "å¿«åľ°": 8626,
      "æĺ¨æĻļ": 8627,
      "ç¼ºä¹ı": 8628,
      "æľīä¸Ģåıª": 8629,
      "æ¯Ķè¾ĥåĸľæ¬¢": 8630,
      "ç´łè´¨": 8631,
      "Ġå±ŀ": 8632,
      "çĦ¦èĻĳ": 8633,
      "Ġå°±è¿Ļæł·": 8634,
      "Ġå¯¼": 8635,
      "ä¸įå¾Ĺä¸į": 8636,
      "çļĦå¤´": 8637,
      "æİ¢ç´¢": 8638,
      "ç«¥è¯Ŀ": 8639,
      "æį¢äºĨ": 8640,
      "æľµæľµ": 8641,
      "åľºæĻ¯": 8642,
      "ä¸įå¿ħ": 8643,
      "ä¸Ģå¸¦": 8644,
      "Ġè£ħ": 8645,
      "ä»ĸä»¬æĺ¯": 8646,
      "è¥¿åĮĹ": 8647,
      "å¤ĸè¾¹": 8648,
      "æŁĲç§į": 8649,
      "æĪĴæĮĩ": 8650,
      "te": 8651,
      "çļĦä»»åĬ¡": 8652,
      "éĹ®äºĨ": 8653,
      "ĠåĽłä¸ºä½ł": 8654,
      "çļĦåıĺåĮĸ": 8655,
      "Ġå¤ļè°¢": 8656,
      "ä¸įè¡ĮåķĬ": 8657,
      "ĠæĤ": 8658,
      "Ġå°±æĺ¯æĪĳ": 8659,
      "è¿ŀæİ¥": 8660,
      "Ġé¦Ļ": 8661,
      "æĦļ": 8662,
      "æĬĹæĪĺ": 8663,
      "ä¸įå¤ªå¥½": 8664,
      "åĵ¨": 8665,
      "Ġä½łæľīæ²¡æľī": 8666,
      "åĨ³èµĽ": 8667,
      "è¯´åĩºæĿ¥": 8668,
      "æ´»äºĨ": 8669,
      "ĠèĢģåħ¬": 8670,
      "äºĭåĲĹ": 8671,
      "æĬĬéĤ£": 8672,
      "çĹħäºĨ": 8673,
      "é¡¿æĹ¶": 8674,
      "Ġé±¼": 8675,
      "Ġç»Ŀ": 8676,
      "å°±èµ°": 8677,
      "å¦Ĵ": 8678,
      "å©ī": 8679,
      "åħŃçĤ¹": 8680,
      "åįķçº¯": 8681,
      "æĥ¦": 8682,
      "å¤ĸåįĸ": 8683,
      "Ġè®©ä»ĸä»¬": 8684,
      "ĠæģŃåĸľ": 8685,
      "Ġç¬¬ä¸ī": 8686,
      "çĽĴåŃĲ": 8687,
      "FF": 8688,
      "ä¹ĭåľ°": 8689,
      "å©¢": 8690,
      "æ¢¨": 8691,
      "Ġä»ĬæĻļ": 8692,
      "åĬ©çĲĨ": 8693,
      "ä¸įä¸Ģæł·çļĦ": 8694,
      "æĿı": 8695,
      "æľīæľī": 8696,
      "ä¸ºæĪĳä»¬": 8697,
      "ç§ĥ": 8698,
      "Ġä¸įä»ħ": 8699,
      "éªĹåŃĲ": 8700,
      "ĠæŀľçĦ¶": 8701,
      "å®Įä¹ĭåĲİ": 8702,
      "éªĨ": 8703,
      "æĶ¯æĴĳ": 8704,
      "},": 8705,
      "ä¸įèµ°": 8706,
      "ĠéĤ£ä½łä»¬": 8707,
      "ä¸ĢæĿ¥": 8708,
      "ĠæĪĳåıĳçİ°": 8709,
      "ä¸ĬéĹ¨": 8710,
      "çĪ±åĲĥ": 8711,
      "äººå·¥": 8712,
      "å¼ĵ": 8713,
      "æĹłæ¯Ķ": 8714,
      "Ġä½łè®©æĪĳ": 8715,
      "æĬĬæīĭ": 8716,
      "æĪĲæŀľ": 8717,
      "å¤ªå¤§äºĨ": 8718,
      "åĪł": 8719,
      "ĠæĪĳè¯´æĪĳ": 8720,
      "Ġä½łçľŁ": 8721,
      "æµĻ": 8722,
      "å¤ªå¤§": 8723,
      "æħ¨": 8724,
      "çĽ¸çŃī": 8725,
      "æ·Ģ": 8726,
      "çļĦéĿ¢": 8727,
      "åĪĨä¸º": 8728,
      "ĠçĪ¬": 8729,
      "æĿ¥åģļ": 8730,
      "éĶ¤": 8731,
      "âħ": 8732,
      "ĠæĹ¥": 8733,
      "ä¸įå®ī": 8734,
      "Ġè¿ĻåŃ©åŃĲ": 8735,
      "è¡Ļ": 8736,
      "æµĨ": 8737,
      "é«ĺäºĨ": 8738,
      "æŃ¤åĪ»": 8739,
      "Ġåįķ": 8740,
      "æķĳåĳ½": 8741,
      "é¦ĸéķ¿": 8742,
      "çļĦåĳ³éģĵ": 8743,
      "æĤ¨è¯´": 8744,
      "æıį": 8745,
      "å®ĺåĳĺ": 8746,
      "æĭ¥æĬ±": 8747,
      "åĽĽçĤ¹": 8748,
      "è´Ńä¹°": 8749,
      "æĹłæīĢè°ĵ": 8750,
      "è§ģè¯Ĩ": 8751,
      "æłĳä¸ĭ": 8752,
      "--\"": 8753,
      "å«ģç»Ļ": 8754,
      "å¤ļå¹´çļĦ": 8755,
      "çľ¼åħī": 8756,
      "èŃ¦å®ĺ": 8757,
      "åºĶçĶ¨": 8758,
      "ä¸ĸçķĮçļĦ": 8759,
      "å§ĳå§ĳ": 8760,
      "åĥıä¸ª": 8761,
      "æĺŁçĲĥ": 8762,
      "åħ¨å®¶": 8763,
      "ç¿°": 8764,
      "å±ĢçļĦ": 8765,
      "éľ²åĩº": 8766,
      "ĠæĪĳä»¥ä¸º": 8767,
      "æĽ´æĸ°": 8768,
      "äººä¹ĭ": 8769,
      "çĪµ": 8770,
      "éĩįå¤į": 8771,
      "Ġdi": 8772,
      "ä¼Łå¤§çļĦ": 8773,
      "{}^\\": 8774,
      "èº«é«ĺ": 8775,
      "åºĶçļĦ": 8776,
      "è¿ĩäºİ": 8777,
      "ä¸Ńåħ±": 8778,
      "å«Įå¼ĥ": 8779,
      "åĩºè½¨": 8780,
      "åķĨäºº": 8781,
      "çľĭäºĨçľĭ": 8782,
      "ä¸ĢçļĦ": 8783,
      "åıĳè¾¾": 8784,
      "æķĳæĪĳ": 8785,
      "Ġä½ĨæĪĳ": 8786,
      "åĸľåī§": 8787,
      "è®¤åı¯": 8788,
      "Ġèıľ": 8789,
      "äºĨä¸¤": 8790,
      "åħ¶ä»ĸäºº": 8791,
      "åĩºåĽ½": 8792,
      "å¢ŀå¤§": 8793,
      "ĠåĲĮå¿Ĺä»¬": 8794,
      "Ġä½łå¿«": 8795,
      "å°ıé¸¡": 8796,
      "çĬ¯äºĨ": 8797,
      "Ġå¥½äºĨå¥½äºĨ": 8798,
      "ä¾ĭåŃĲ": 8799,
      "ä¸Ģé¦ĸ": 8800,
      "Ġé¡¾": 8801,
      "æķħA": 8802,
      "ä¼łå¥ĩ": 8803,
      "æĶ¿å§Ķ": 8804,
      "ä¾Ŀæį®": 8805,
      "çĪĨåıĳ": 8806,
      "Ġä¸įæĺ¯ä½ł": 8807,
      "ä»ĸä¸įæĺ¯": 8808,
      "NA": 8809,
      "çº½": 8810,
      "åĽ¢çļĦ": 8811,
      "Ġæ¯ıä¸ªäºº": 8812,
      "å®ĩå®Ļ": 8813,
      "å¸Ĩ": 8814,
      "è§īå¾ĹæĪĳ": 8815,
      "éĿŀæ´²": 8816,
      "è·¯äºĨ": 8817,
      "äºĨä¸Ģå¤§": 8818,
      "åĺ»åĺ»": 8819,
      "åĸµ": 8820,
      "è½»è½»åľ°": 8821,
      "ĠæĪĳå¿ĥéĩĮ": 8822,
      "åħīæĺİ": 8823,
      "æĺ¯ä¸ŃåĽ½": 8824,
      "ç¡«": 8825,
      "ĠæĮĩ": 8826,
      "Ġè¿ĽæĿ¥": 8827,
      "çļĦå±±": 8828,
      "éļ¾åº¦": 8829,
      "æķĪçİĩ": 8830,
      "ä»ĸæ²¡æľī": 8831,
      "æłĩå¿Ĺ": 8832,
      "Ġæ®¿ä¸ĭ": 8833,
      "æĬĬä½łçļĦ": 8834,
      "ç»Ħéķ¿": 8835,
      "æ³ķçļĦ": 8836,
      "Ġä¸Ģæł·": 8837,
      "å¼Ĥå¸¸": 8838,
      "ä¸Ĭå±±": 8839,
      "èĪĶ": 8840,
      "çĺ¾": 8841,
      "åĸĿæ°´": 8842,
      "Ġä½łè¯´æĪĳ": 8843,
      "èİ·å¾ĹäºĨ": 8844,
      "äº²çĶŁ": 8845,
      "æł¡åĽŃ": 8846,
      "çļĦå¥³åĦ¿": 8847,
      "æīĵçĿĢ": 8848,
      "å¤ĸäºº": 8849,
      "Ġåľ¨æĪĳ": 8850,
      "Ġåįİ": 8851,
      "åĿıäºº": 8852,
      "åĪ«åĨį": 8853,
      "ä¹Ŀå¹´": 8854,
      "é£ŀåĪ°": 8855,
      "æ¯Ľæ¯Ľ": 8856,
      "èĻ«åŃĲ": 8857,
      "æ©¡": 8858,
      "Ġç©º": 8859,
      "ä¸ĢæĶ¯": 8860,
      "æĢľ": 8861,
      "å¯ĩ": 8862,
      "çľĭåĩº": 8863,
      "åĴĮå°ļ": 8864,
      "}}_{": 8865,
      "Ġåį«": 8866,
      "ä»ĸå·²ç»ı": 8867,
      "å¤§åĪ©": 8868,
      "åĵĳ": 8869,
      "è°Īè°Ī": 8870,
      "Ġå·¦": 8871,
      "ä¸įä¸Ģå®ļ": 8872,
      "åķĬå°±æĺ¯": 8873,
      "æĮł": 8874,
      "åĩ³": 8875,
      "åĿİ": 8876,
      "å¿ĻçĿĢ": 8877,
      "æ²³éĩĮ": 8878,
      "é¡ºçĿĢ": 8879,
      "å¹´è½»çļĦ": 8880,
      "æĶĴ": 8881,
      "çĶµèį·": 8882,
      "å¯ĨåĪĩ": 8883,
      "æĺ¾çĦ¶": 8884,
      "èĤļåŃĲéĩĮ": 8885,
      "ĠéĥŃ": 8886,
      "çļĦä¹¦": 8887,
      "åĵªæĢķ": 8888,
      "åľ¨æĤ¨": 8889,
      "æµģåĬ¨": 8890,
      "æĽ²çº¿": 8891,
      "æŁ¯": 8892,
      "èĥĮä¸Ĭ": 8893,
      "Ġä»ĸå°±æĺ¯": 8894,
      "Ġå®Ŀå®Ŀ": 8895,
      "å®ĥä»¬çļĦ": 8896,
      "æĵįå¿ĥ": 8897,
      "æĦıè¯ĨåĪ°": 8898,
      "è¢«ä½ł": 8899,
      "éĢ»è¾ĳ": 8900,
      "è¿ĺçľŁæĺ¯": 8901,
      "è¢«åŃĲ": 8902,
      "å°ıå§Ĳå§Ĳ": 8903,
      "éŃĶé¬¼": 8904,
      "è£¤åŃĲ": 8905,
      "ä¸ĩåĿĹéĴ±": 8906,
      "è¯Ĺäºº": 8907,
      "Ġä½łä¿©": 8908,
      "åĽ½è¶³": 8909,
      "ĠéļıçĿĢ": 8910,
      "å°ıåŃ©åŃĲ": 8911,
      "é¢ĸ": 8912,
      "çİ°åľ¨å°±": 8913,
      "æł¹æľ¬å°±ä¸į": 8914,
      "æĿ¥æī¾æĪĳ": 8915,
      "ä¸ºèĩªå·±": 8916,
      "cdots": 8917,
      "ĠéĺŁéķ¿": 8918,
      "å¤§éĺŁ": 8919,
      "éģįäºĨ": 8920,
      "gin": 8921,
      "Ġda": 8922,
      "è¯¸ä½į": 8923,
      "éĥĬ": 8924,
      "åı¯æĢľçļĦ": 8925,
      "æĪĳå½ĵæĹ¶": 8926,
      "ä¸įè§ī": 8927,
      "çĥŃçĪ±": 8928,
      "è£ħå¤ĩ": 8929,
      "çļĦèĦ¸": 8930,
      "åĲĥæİī": 8931,
      "åĵªåĦ¿åİ»äºĨ": 8932,
      "æĤĦæĤĦåľ°": 8933,
      "Ġæ¶Ī": 8934,
      "å®ŀè·µ": 8935,
      "Ġå¤±": 8936,
      "å¹²èĦĨ": 8937,
      "æĭ¿æĿ¥": 8938,
      "è¯¾æłĩ": 8939,
      "èĵĿèī²": 8940,
      "ç½ķ": 8941,
      "æ¸¸åĩ»": 8942,
      "è´¢ç»ıèµĦè®¯": 8943,
      "å¤§çģ°çĭ¼": 8944,
      "çĶ»çĶ»": 8945,
      "èĤºçĤİ": 8946,
      "è¡ĮæĶ¿": 8947,
      "éĢļéģĵ": 8948,
      "ĠæīĢä»¥åĳ¢": 8949,
      "èĪįå¾Ĺ": 8950,
      "çī©èµĦ": 8951,
      "åĽŀåĪ°å®¶": 8952,
      "Ġå±ħçĦ¶": 8953,
      "ĠèĦļ": 8954,
      "åĲ¨": 8955,
      "ä¼Ļä¼´ä»¬": 8956,
      "æŁ¿": 8957,
      "begin": 8958,
      "æĲı": 8959,
      "ä¹Ĳä¹Ĳ": 8960,
      "çļ±": 8961,
      "å¥¹äºĨ": 8962,
      "æŀľåŃĲ": 8963,
      "Na": 8964,
      "ä¸įå¹¸": 8965,
      "æĥ³èµ·æĿ¥": 8966,
      "æ¼ĶåĶ±": 8967,
      "Ġå¿ĥéĩĮ": 8968,
      "è®°è½½": 8969,
      "Ġåįĸ": 8970,
      "éĨĴéĨĴ": 8971,
      "åĳ³çļĦ": 8972,
      "åĲ¦åĪĻ": 8973,
      "æĪ¿éĹ´éĩĮ": 8974,
      "éĻķè¥¿": 8975,
      "Ġç«ŁçĦ¶": 8976,
      "çļĦè¡¨çİ°": 8977,
      "éĿĸ": 8978,
      "ĠåĪĽ": 8979,
      "ä½ķåĨµ": 8980,
      "ç£ģéĵģ": 8981,
      "Ġå¾®": 8982,
      "Ġè¿Ļåı¯æĺ¯": 8983,
      "å®ĪæĬ¤": 8984,
      "æĹ¶æľº": 8985,
      "æ²¡éĴ±": 8986,
      "åĳĬè¯īä½łä»¬": 8987,
      "Ġä»Ĭå¤©æĻļä¸Ĭ": 8988,
      "éĽĨä½ĵ": 8989,
      "ä¼Łå¤§": 8990,
      "åħĨ": 8991,
      "Ġä»ĸä¹Ł": 8992,
      "ĠæĪĳè·Łä½łè¯´åķĬ": 8993,
      "è¿ĺæĺ¯æľī": 8994,
      "äºĶçĤ¹": 8995,
      "éļ¾å¾Ĺ": 8996,
      "èĤ¡ç¥¨": 8997,
      "åĲĹä½ł": 8998,
      "æĹ©æĻļ": 8999,
      "æĴĴè°İ": 9000,
      "åĲĥä¸ª": 9001,
      "åıĪèĥ½": 9002,
      "äº¤æį¢": 9003,
      "æĬĺç£¨": 9004,
      "è¿Ļä¹Īå¥½": 9005,
      "æ°´åĪĨ": 9006,
      "Ġå¼º": 9007,
      "the": 9008,
      "ä»Ģä¹Īåı«": 9009,
      "éĥĿ": 9010,
      "æ¼ĶæĪı": 9011,
      "ä½łä¹Łæĺ¯": 9012,
      "è¿Ļé¦ĸæŃĮ": 9013,
      "{{\\": 9014,
      "çļĦè¡Įä¸º": 9015,
      "ä¸įåĲĪ": 9016,
      "å®ĺæĸ¹": 9017,
      "è©": 9018,
      "èĩªç§ģ": 9019,
      "å¥³åıĭ": 9020,
      "å¿«äºĨ": 9021,
      "çİ©æ¸¸æĪı": 9022,
      "èİĵ": 9023,
      "ĠæĪĸèĢħæĺ¯": 9024,
      "ä¸Ģä¸ªæĺ¯": 9025,
      "åĪĨå¸ĥ": 9026,
      "åĶ¬": 9027,
      "æľīçĤ¹åĦ¿": 9028,
      "Ġåľ¨è¿Ļ": 9029,
      "åĽĽåĳ¨": 9030,
      "Ġæĺ¨å¤©æĻļä¸Ĭ": 9031,
      "çĽ®åħī": 9032,
      "åªĽ": 9033,
      "åľ¨å°ı": 9034,
      "}{\\": 9035,
      "ä¸Ģä»¶äºĭæĥħ": 9036,
      "Ġè¿Ľåİ»": 9037,
      "çļĦä¸ĸçķĮ": 9038,
      "ä¸įåłª": 9039,
      "æŁľçļĦ": 9040,
      "åı«å£°": 9041,
      "äº²çľ¼": 9042,
      "ä¸ĢçĤ¹éĥ½ä¸į": 9043,
      "çĨĬçĮ«": 9044,
      "èĳĹåĲįçļĦ": 9045,
      "å¸ĺ": 9046,
      "çĤ¹å¤´": 9047,
      "ä¸īæľĪ": 9048,
      "æıĲèµ·": 9049,
      "éħ¬": 9050,
      "æ¯ıä¸Ģ": 9051,
      "æĥħæĦ¿": 9052,
      "åĹ¯åĳ¢": 9053,
      "æ¤įçī©çļĦ": 9054,
      "çĨ¬å¤ľ": 9055,
      "Ġç¿»": 9056,
      "å¤«å¦ĩ": 9057,
      "åĮºçļĦ": 9058,
      "Ġä»İæŃ¤": 9059,
      "åĩłä¸ªæľĪ": 9060,
      "çĤ¹è¯Ħ": 9061,
      "æİĺ": 9062,
      "åħ¶å®ĥ": 9063,
      "çľŁçļĦåĲĹ": 9064,
      "ä½ıçĿĢ": 9065,
      "Ġåľ¨è¿ĻéĩĮ": 9066,
      "åĨĻäºĨ": 9067,
      "Ġéº»çĥ¦": 9068,
      "æĬĬè¿ĻäºĽ": 9069,
      "åīĬ": 9070,
      "Ġå¤ľ": 9071,
      "é¡ºåºı": 9072,
      "åĽ¢ç»ĵ": 9073,
      "èĳ«": 9074,
      "è·Łè¸ª": 9075,
      "æ·¹": 9076,
      "éķ¿é¢Īé¹¿": 9077,
      "çĭ¬çī¹": 9078,
      "ä¸įè¯´äºĨ": 9079,
      "ĠæĪĳåĸľæ¬¢": 9080,
      "å¾Īå¿«å°±": 9081,
      "ç»¸": 9082,
      "å½ĵçļĦ": 9083,
      "æīĭä¸Ń": 9084,
      "çĪ±ä¸Ĭ": 9085,
      "è°ģèĥ½": 9086,
      "Ġä¹Łæ²¡æľī": 9087,
      "åıĸæ¶Ī": 9088,
      "å¹¸ç¦ıçļĦ": 9089,
      "Ġä½łä¸įçĶ¨": 9090,
      "ä¹ĭè·¯": 9091,
      "Ġåı¤": 9092,
      "æķ°åĪĹ": 9093,
      "ä¼ĳæģ¯åĲ§": 9094,
      "ĠåĪĻ": 9095,
      "æ¶ĪçģŃ": 9096,
      "æ¸´æľĽ": 9097,
      "çľĭä¸Ĭåİ»": 9098,
      "ä¹ĭäºĭ": 9099,
      "å¤ªå¹³": 9100,
      "ç©¿è¿ĩ": 9101,
      "æĺ¯ä¸Ģåıª": 9102,
      "åĽºå®ļ": 9103,
      "Ġæ¡Į": 9104,
      "çĶ¨å¿ĥ": 9105,
      "é¡¶ä¸Ĭ": 9106,
      "è¯¸èĳĽ": 9107,
      "è¯¦ç»Ĩ": 9108,
      "Ġåħ·": 9109,
      "è¿ŀéķ¿": 9110,
      "ĠéĿ¢å¯¹": 9111,
      "èº«ä¸º": 9112,
      "æĪĺåıĭ": 9113,
      "æĦ¤æĢĴ": 9114,
      "åĬ£": 9115,
      "å¤§å¤ļæķ°": 9116,
      "åħĪåİ»": 9117,
      "è¯ģåĪ¸": 9118,
      "è£ĻåŃĲ": 9119,
      "Ġä¼°è®¡": 9120,
      "åĪ°ä»ĸ": 9121,
      "ĠåĨ¬": 9122,
      "éªĹæĪĳ": 9123,
      ")$": 9124,
      "ĠæĪ´": 9125,
      "éĢīæĭ©äºĨ": 9126,
      "è¾£æ¤Ĵ": 9127,
      "åı·çłģ": 9128,
      "çļĦèº«ä»½": 9129,
      "ä¸įåħī": 9130,
      "å¾Īé«ĺ": 9131,
      "åŁºåľ°": 9132,
      "ĠæĶ¿": 9133,
      "ä¸įæŃ¢": 9134,
      "æľīæĹ¶éĹ´": 9135,
      "æīĵè´¥": 9136,
      "åįģä¸ª": 9137,
      "æ³ķå®ĺ": 9138,
      "æĭ¯": 9139,
      "ĠæĪĳåĳ¢": 9140,
      "åĳµåĳµ": 9141,
      "è¯´æĪĳä»¬": 9142,
      "å¾Īå®¹æĺĵ": 9143,
      "å¾Īç®Ģåįķ": 9144,
      "é»ı": 9145,
      "åĵİåĵŁ": 9146,
      "å·®å¼Ĥ": 9147,
      "æİ¨è¿Ľ": 9148,
      "ä»£çļĦ": 9149,
      "ç»ĳæŀ¶": 9150,
      "ä¸Ĭåīį": 9151,
      "ä¸¤çĤ¹": 9152,
      "å¤ªå¥½": 9153,
      "Ġå®¢": 9154,
      "Ġä¹Łä¸įçŁ¥éģĵ": 9155,
      "çĶµæ±ł": 9156,
      "è©¹": 9157,
      "çļĦå¦Īå¦Ī": 9158,
      "ä»ĸåĴĮ": 9159,
      "ĠæĪĳå¯¹": 9160,
      "ĠæĪĳè¿ĺæľī": 9161,
      "ä»¥åĲİåķĬ": 9162,
      "æĬķç¥¨": 9163,
      "ĠéĽª": 9164,
      "å®µ": 9165,
      "æ£ļ": 9166,
      "éĢĿ": 9167,
      "ç¦»äºĨ": 9168,
      "èĪŀåı°ä¸Ĭ": 9169,
      "çĶŁåĳ½çļĦ": 9170,
      "Ġä½łçĪ¸": 9171,
      "åĩºå·®": 9172,
      "æµģæµª": 9173,
      "çĸĳéĹ®": 9174,
      "åıĻè¿°": 9175,
      "æĪĳä¸Ģä¸ªäºº": 9176,
      "å¤§å¤§": 9177,
      "è¢ľ": 9178,
      "Ġne": 9179,
      "ç±»åŀĭ": 9180,
      "ç»ĵå±Ģ": 9181,
      "Ġæĵ": 9182,
      "è§ģä½ł": 9183,
      "è§Ĥå¿µ": 9184,
      "ç¾İé£Ł": 9185,
      "åĴ±ä»¬å°±": 9186,
      "åĨ²çªģ": 9187,
      "åĲĹæĪĳ": 9188,
      "åıĹå®³": 9189,
      "ä¸¾åĬŀ": 9190,
      "éĽ¯": 9191,
      "çĮ©": 9192,
      "åĲįåįķ": 9193,
      "ä¸ĵä¸ļçļĦ": 9194,
      "æ¸ł": 9195,
      "å¼ŁåŃĲ": 9196,
      "å¯¹è¯Ŀ": 9197,
      "éĤ£ä¸ªå°ı": 9198,
      "Ġä¹Łä¸įæĺ¯": 9199,
      "åĴ³": 9200,
      "æ³Ĭ": 9201,
      "æĮĩçĿĢ": 9202,
      "Ġp": 9203,
      "æµ¸": 9204,
      "è´§å¸ģ": 9205,
      "æ»¡æ»¡": 9206,
      "èŃ¦åĳĬ": 9207,
      "ĠåºĶè¯¥æĺ¯": 9208,
      "ä»Ģä¹ĪæĥħåĨµ": 9209,
      "åİļçļĦ": 9210,
      "äºĳåįĹ": 9211,
      "éĴ¦": 9212,
      "åĬŀäºĭ": 9213,
      "ä¸įçŁ¥éģĵåķĬ": 9214,
      "åĢŁåı£": 9215,
      "åı¯ä»¥åľ¨": 9216,
      "è¢«æĬĵ": 9217,
      "æĢ»ç»ĵ": 9218,
      "æĶ¶éĽĨ": 9219,
      "åı£ç½©": 9220,
      "æĿĢæŃ»": 9221,
      "äºĮéĽ¶å¹´": 9222,
      "æĮĤåľ¨": 9223,
      "åķĬæĺ¯": 9224,
      "æ²¸": 9225,
      "åĲ¬æĪĳ": 9226,
      "äº²å¯Ĩ": 9227,
      "æķħC": 9228,
      "èµĽåŃ£": 9229,
      "åĮĨåĮĨ": 9230,
      "theta": 9231,
      "è¿ĺæĺ¯æĮº": 9232,
      "æīĵç¯®çĲĥ": 9233,
      "äºĶæľĪ": 9234,
      "çŁ¥éģĵåķĬ": 9235,
      "æŁĲäºĽ": 9236,
      "ä¸»é¢ĺ": 9237,
      "Ġåı¯æĥľ": 9238,
      "é£İéĽ¨": 9239,
      "é»Ħèī²": 9240,
      "åĳ¢åķĬ": 9241,
      "Ġä¸įæĥ³": 9242,
      "è®°ä½ıäºĨ": 9243,
      "åĪ©æ¶¦": 9244,
      "äºĮéĽ¶éĽ¶": 9245,
      "å°ıåĪºçĮ¬": 9246,
      "å®¶éĹ¨": 9247,
      "Ġå¥´": 9248,
      "éĩįéĩı": 9249,
      "Ġå°±æĺ¯ä½ł": 9250,
      "Ġå¥¹ä»¬": 9251,
      "éĤ£æł·çļĦ": 9252,
      "åĪ«çĿĢæĢ¥": 9253,
      "Ġå°ıæľĭåıĭ": 9254,
      "åįĥéĩĮ": 9255,
      "åĹ¦": 9256,
      "ä»ĳ": 9257,
      "ç»Ĵ": 9258,
      "æĤ¨äºĨ": 9259,
      "æĸ°è¯¾æłĩ": 9260,
      "å±±åºĦ": 9261,
      "å¿«è¦ģ": 9262,
      "èĥĮçĿĢ": 9263,
      "åĪĿä¸Ń": 9264,
      "æĺ¯å¥½": 9265,
      "äºļæ´²": 9266,
      "åħ±åĨĽ": 9267,
      "åĽŀæĬ¥": 9268,
      "åĸ³": 9269,
      "æŃ£å¸¸çļĦ": 9270,
      "å¤§éĻĨ": 9271,
      "çİ°åľ¨å¼Ģå§ĭ": 9272,
      "å¾Ģä¸Ĭ": 9273,
      "è¿ĲçĶ¨": 9274,
      "Ġæ³¨": 9275,
      "å¥³äººçļĦ": 9276,
      "åģļä¸įåĪ°": 9277,
      "çļĦå¤ĸ": 9278,
      "éķ¿æ±Ł": 9279,
      "æµģè¡Į": 9280,
      "Ġä¸įæĺ¯æĪĳ": 9281,
      "å±ıå¹ķ": 9282,
      "èĳ«èĬ¦": 9283,
      "ä¸įé¡¾": 9284,
      "éĤ£ä¹Īå¥½": 9285,
      "el": 9286,
      "Ġä½łå¦Ī": 9287,
      "æĪĳä»¬ä¼ļ": 9288,
      "éĩĳåŃĲ": 9289,
      "å¼Ħå¾Ĺ": 9290,
      "äºĨä»ĸçļĦ": 9291,
      "å¤§äºİ": 9292,
      "æµ¦": 9293,
      "èĤĨ": 9294,
      "æĪĳå°±æĥ³": 9295,
      "çĪ¶äº²çļĦ": 9296,
      "æĪĳçľĭåĪ°": 9297,
      "åıªæľīä¸Ģ": 9298,
      "Ġä»ĸè¦ģ": 9299,
      "çĶ·åŃ©åŃĲ": 9300,
      "åĽŀçŃĶè¯´": 9301,
      "Ġqi": 9302,
      "ä»İæľª": 9303,
      "çļĦçİ¯å¢ĥ": 9304,
      "éĴ±åĳ¢": 9305,
      "æīĵæī«": 9306,
      "åīįä¸¤å¤©": 9307,
      "ç»ĻæĪĳæīĵçĶµè¯Ŀ": 9308,
      "çĶŁæ´»åľ¨": 9309,
      "èĵ¬": 9310,
      "Ġèº²": 9311,
      "æĤ¨çľĭ": 9312,
      "çĻ½çĻ½": 9313,
      "ä¸ĥæľĪ": 9314,
      "Ġæī¾åĪ°": 9315,
      "å±ł": 9316,
      "è¯ĿäºĨ": 9317,
      "åħŃæľĪ": 9318,
      "Ġ|": 9319,
      "Ġä¼ł": 9320,
      "ä¸Ģçķª": 9321,
      "æĪĲåĬŁçļĦ": 9322,
      "Ġåıªä¸įè¿ĩ": 9323,
      "èĢģäººå®¶": 9324,
      "èĤ¾": 9325,
      "æĢ§åĴĮ": 9326,
      "å¼ºå¤§çļĦ": 9327,
      "é»ĳäºĨ": 9328,
      "æķ£æŃ¥": 9329,
      "é¡¿é¥Ń": 9330,
      "è´Ŀè´Ŀ": 9331,
      "===": 9332,
      "ä½łçľŁ": 9333,
      "èĢģçĪ·çĪ·": 9334,
      "åħħæ»¡äºĨ": 9335,
      "}}=\\": 9336,
      "ä¸ĢåĪ°": 9337,
      "çļĦå¤§å°ı": 9338,
      "èĪĮå¤´": 9339,
      "åľ°åľ¨": 9340,
      "è¿Ļäºº": 9341,
      "æľĢéĩįè¦ģ": 9342,
      "åĽĽå·Ŀ": 9343,
      "æĳ©æĵ¦": 9344,
      "æīģ": 9345,
      "è½¿": 9346,
      "åĩłåı¥": 9347,
      "æ½Ń": 9348,
      "åľ°å¯¹": 9349,
      "åħĪçĶŁçļĦ": 9350,
      "Ġåħ¶ä»ĸ": 9351,
      "ç±³çļĦ": 9352,
      "è°£": 9353,
      "Ġä»ĸè¿ĺ": 9354,
      "æĥ¦è®°": 9355,
      "çļĦå¿ĥæĥħ": 9356,
      "åįļçī©é¦Ĩ": 9357,
      "Ġæ¨": 9358,
      "çģ«çļĦ": 9359,
      "ç«ĻçĿĢ": 9360,
      "è´¹çĶ¨": 9361,
      "å¤§éĩıçļĦ": 9362,
      "èµĶåģ¿": 9363,
      "é¥¥": 9364,
      "Ġä¸ºä»Ģä¹Īè¦ģ": 9365,
      "ä¸įçĲĨ": 9366,
      "åıĳèªĵ": 9367,
      "éº»çĥ¦äºĨ": 9368,
      "æľįåĬ¡åĳĺ": 9369,
      "å°±åºĶè¯¥": 9370,
      "ç»Ļå°ı": 9371,
      "å¤ĸçķĮ": 9372,
      "ä¹īåĬ¡": 9373,
      "Ġåģľ": 9374,
      "æīĭçļĦ": 9375,
      "æ¥¼ä¸ĭ": 9376,
      "éĩĩçĶ¨": 9377,
      "è§īå¾Ĺä½ł": 9378,
      "æĪĳä»¬ä¸¤ä¸ª": 9379,
      "æ··åĲĪ": 9380,
      "çļĦæĸ¹åĲĳ": 9381,
      "åĲİè¾¹": 9382,
      "åıĳå°Ħ": 9383,
      "è¢«ä»ĸ": 9384,
      "è£ķ": 9385,
      "å¤ļéķ¿æĹ¶éĹ´": 9386,
      "æľ¬äºº": 9387,
      "å°ĳå¥³": 9388,
      "æĬ¥å¤į": 9389,
      "Ġæ²¡æľīäºº": 9390,
      "Ġä»ĬæĹ¥": 9391,
      "äºĭåĦ¿äºĨ": 9392,
      "ĠæŁ¥": 9393,
      "å¥³ç¥ŀ": 9394,
      "çļĦè¿ĩç¨ĭä¸Ń": 9395,
      "è¿Ļå®¶": 9396,
      "åĥıä½ł": 9397,
[...]
