{
  "version": "1.0",
  "truncation": null,
  "padding": null,
  "added_tokens": [
    {
      "id": 0,
      "content": "<|endoftext|>",
      "single_word": false,
      "lstrip": false,
      "rstrip": false,
      "normalized": false,
      "special": true
    },
    {
      "id": 1,
      "content": "<|pad|>",
      "single_word": false,
      "lstrip": false,
      "rstrip": false,
      "normalized": false,
      "special": true
    },
    {
      "id": 2,
      "content": "<|im_start|>",
      "single_word": false,
      "lstrip": false,
      "rstrip": false,
      "normalized": false,
      "special": true
    },
    {
      "id": 3,
      "content": "<|im_end|>",
      "single_word": false,
      "lstrip": false,
      "rstrip": false,
      "normalized": false,
      "special": true
    }
  ],
  "normalizer": null,
  "pre_tokenizer": {
    "type": "ByteLevel",
    "add_prefix_space": true,
    "trim_offsets": true,
    "use_regex": true
  },
  "post_processor": {
    "type": "TemplateProcessing",
    "single": [
      {
        "Sequence": {
          "id": "A",
          "type_id": 0
        }
      }
    ],
    "pair": [
      {
        "Sequence": {
          "id": "A",
          "type_id": 0
        }
      },
      {
        "Sequence": {
          "id": "B",
          "type_id": 1
        }
      }
    ],
    "special_tokens": {}
  },
  "decoder": {
    "type": "ByteLevel",
    "add_prefix_space": true,
    "trim_offsets": true,
    "use_regex": true
  },
  "model": {
    "type": "BPE",
    "dropout": null,
    "unk_token": null,
    "continuing_subword_prefix": null,
    "end_of_word_suffix": null,
    "fuse_unk": false,
    "byte_fallback": false,
    "ignore_merges": false,
    "vocab": {
      "<|endoftext|>": 0,
      "<|pad|>": 1,
      "<|im_start|>": 2,
      "<|im_end|>": 3,
      "!": 4,
      "\"": 5,
      "#": 6,
      "$": 7,
      "%": 8,
      "&": 9,
      "'": 10,
      "(": 11,
      ")": 12,
      "*": 13,
      "+": 14,
      ",": 15,
      "-": 16,
      ".": 17,
      "/": 18,
      "0": 19,
      "1": 20,
      "2": 21,
      "3": 22,
      "4": 23,
      "5": 24,
      "6": 25,
      "7": 26,
      "8": 27,
      "9": 28,
      ":": 29,
      ";": 30,
      "<": 31,
      "=": 32,
      ">": 33,
      "?": 34,
      "@": 35,
      "A": 36,
      "B": 37,
      "C": 38,
      "D": 39,
      "E": 40,
      "F": 41,
      "G": 42,
      "H": 43,
      "I": 44,
      "J": 45,
      "K": 46,
      "L": 47,
      "M": 48,
      "N": 49,
      "O": 50,
      "P": 51,
      "Q": 52,
      "R": 53,
      "S": 54,
      "T": 55,
      "U": 56,
      "V": 57,
      "W": 58,
      "X": 59,
      "Y": 60,
      "Z": 61,
      "[": 62,
      "\\": 63,
      "]": 64,
      "^": 65,
      "_": 66,
      "a": 67,
      "b": 68,
      "c": 69,
      "d": 70,
      "e": 71,
      "f": 72,
      "g": 73,
      "h": 74,
      "i": 75,
      "j": 76,
      "k": 77,
      "l": 78,
      "m": 79,
      "n": 80,
      "o": 81,
      "p": 82,
      "q": 83,
      "r": 84,
      "s": 85,
      "t": 86,
      "u": 87,
      "v": 88,
      "w": 89,
      "x": 90,
      "y": 91,
      "z": 92,
      "{": 93,
      "|": 94,
      "}": 95,
      "~": 96,
      "¡": 97,
      "¢": 98,
      "£": 99,
      "¤": 100,
      "¥": 101,
      "¦": 102,
      "§": 103,
      "¨": 104,
      "©": 105,
      "ª": 106,
      "«": 107,
      "¬": 108,
      "®": 109,
      "¯": 110,
      "°": 111,
      "±": 112,
      "²": 113,
      "³": 114,
      "´": 115,
      "µ": 116,
      "¶": 117,
      "·": 118,
      "¸": 119,
      "¹": 120,
      "º": 121,
      "»": 122,
      "¼": 123,
      "½": 124,
      "¾": 125,
      "¿": 126,
      "Â": 127,
      "Ã": 128,
      "Ä": 129,
      "Å": 130,
      "Ç": 131,
      "É": 132,
      "Ë": 133,
      "Î": 134,
      "Ï": 135,
      "Ð": 136,
      "Ñ": 137,
      "à": 138,
      "á": 139,
      "â": 140,
      "ã": 141,
      "ä": 142,
      "å": 143,
      "æ": 144,
      "ç": 145,
      "è": 146,
      "é": 147,
      "î": 148,
      "ï": 149,
      "ð": 150,
      "ĉ": 151,
      "Ċ": 152,
      "Č": 153,
      "Ġ": 154,
      "Ģ": 155,
      "ģ": 156,
      "Ĥ": 157,
      "ĥ": 158,
      "Ħ": 159,
      "ħ": 160,
      "Ĩ": 161,
      "ĩ": 162,
      "Ī": 163,
      "ī": 164,
      "Ĭ": 165,
      "ĭ": 166,
      "Į": 167,
      "į": 168,
      "İ": 169,
      "ı": 170,
      "Ĳ": 171,
      "ĳ": 172,
      "Ĵ": 173,
      "ĵ": 174,
      "Ķ": 175,
      "ķ": 176,
      "ĸ": 177,
      "Ĺ": 178,
      "ĺ": 179,
      "Ļ": 180,
      "ļ": 181,
      "Ľ": 182,
      "ľ": 183,
      "Ŀ": 184,
      "ŀ": 185,
      "Ł": 186,
      "ł": 187,
      "Ń": 188,
      "ä¸": 189,
      "äº": 190,
      "çļ": 191,
      "çļĦ": 192,
      "ä»": 193,
      "æĪ": 194,
      "ä½": 195,
      "è¿": 196,
      "æĪĳ": 197,
      "æĺ": 198,
      "Ġå": 199,
      "æĺ¯": 200,
      "ä½ł": 201,
      "äºĨ": 202,
      "æľ": 203,
      "ä¹": 204,
      "å¤": 205,
      "åĲ": 206,
      "ä¸į": 207,
      "ä¸Ģ": 208,
      "åı": 209,
      "å°": 210,
      "è¯": 211,
      "è¿Ļ": 212,
      "å®": 213,
      "åľ": 214,
      "åĪ": 215,
      "æĿ": 216,
      "ä¸ª": 217,
      "åħ": 218,
      "æľī": 219,
      "å¥": 220,
      "ãĢ": 221,
      "ĥ½": 222,
      "ä»¬": 223,
      "åŃ": 224,
      "åĳ": 225,
      "ãĢĤ": 226,
      "ç»": 227,
      "ä»ĸ": 228,
      "æī": 229,
      "å¾": 230,
      "å°±": 231,
      "åľ¨": 232,
      "ä¹Ī": 233,
      "æĿ¥": 234,
      "äºº": 235,
      "ĠæĪĳ": 236,
      "çĶ": 237,
      "åķ": 238,
      "çľ": 239,
      "æĹ": 240,
      "è¯´": 241,
      "éĤ": 242,
      "ä¼": 243,
      "åĽ": 244,
      "éĤ£": 245,
      "åķĬ": 246,
      "æĢ": 247,
      "åİ": 248,
      "æ²": 249,
      "Ġä½ł": 250,
      "¦ģ": 251,
      "è¦ģ": 252,
      "å¥½": 253,
      "æĥ": 254,
      "éĩ": 255,
      "èµ": 256,
      "è®": 257,
      "åĬ": 258,
      "åį": 259,
      "å¿": 260,
      "è§": 261,
      "èĢ": 262,
      "åĩ": 263,
      "ä¸Ĭ": 264,
      "åŃĲ": 265,
      "åĪ°": 266,
      "æĬ": 267,
      "çİ": 268,
      "å·": 269,
      "å¹": 270,
      "å¤§": 271,
      "å¼": 272,
      "å¸": 273,
      "æ²¡": 274,
      "åĨ": 275,
      "å¯": 276,
      "ä¹Ł": 277,
      "éĥ½": 278,
      "çľĭ": 279,
      "è¿ĺ": 280,
      "åİ»": 281,
      "æł": 282,
      "åĵ": 283,
      "å¾Ĺ": 284,
      "æĸ": 285,
      "ä¼ļ": 286,
      "ä¸º": 287,
      "éĹ": 288,
      "èĥ½": 289,
      "è·": 290,
      "Ħ¿": 291,
      "æĹ¶": 292,
      "æŃ": 293,
      "çĿ": 294,
      "ä»Ģ": 295,
      "ä»¥": 296,
      "ä»Ģä¹Ī": 297,
      "å°ı": 298,
      "å¦": 299,
      "éĿ": 300,
      "ä¸ĭ": 301,
      "åĦ¿": 302,
      "åĴ": 303,
      "åĲİ": 304,
      "å¤©": 305,
      "è¿ĩ": 306,
      "éģ": 307,
      "éĢ": 308,
      "åº": 309,
      "åı¯": 310,
      "çĪ": 311,
      "å®¶": 312,
      "Ġæ": 313,
      "èĩ": 314,
      "çĽ": 315,
      "æĥ³": 316,
      "è¡": 317,
      "äºĭ": 318,
      "çĿĢ": 319,
      "éĩĮ": 320,
      "å¯¹": 321,
      "æķ": 322,
      "åĳ¢": 323,
      "ä¸Ģä¸ª": 324,
      "Ġè¿Ļ": 325,
      "è°": 326,
      "$$": 327,
      "çī": 328,
      "çŁ": 329,
      "åĩº": 330,
      "å½": 331,
      "æĦ": 332,
      "æĭ": 333,
      "åĲĹ": 334,
      "æ°": 335,
      "çĶŁ": 336,
      "åĲ§": 337,
      "ç§": 338,
      "æĪĳä»¬": 339,
      "ç»Ļ": 340,
      "å¤ļ": 341,
      "çĦ": 342,
      "åľ°": 343,
      "æŀ": 344,
      "éģĵ": 345,
      "æ¯": 346,
      "çĤ": 347,
      "çĦ¶": 348,
      "çİ°": 349,
      "èĩª": 350,
      "è¾": 351,
      "ä¸Ń": 352,
      "åĢ": 353,
      "è¿Ļä¸ª": 354,
      "æł·": 355,
      "åģ": 356,
      "å¿ĥ": 357,
      "æ¬": 358,
      "åĴĮ": 359,
      "è·Ł": 360,
      "Ġå°": 361,
      "çĤ¹": 362,
      "è´": 363,
      "æĶ": 364,
      "èĢģ": 365,
      "çŁ¥": 366,
      "æĬĬ": 367,
      "ä¿": 368,
      "å§": 369,
      "æĢİ": 370,
      "æ²¡æľī": 371,
      "å°±æĺ¯": 372,
      "åĮ": 373,
      "å¾Ī": 374,
      "æĢİä¹Ī": 375,
      "å±": 376,
      "æİ": 377,
      "ä¸įæĺ¯": 378,
      "éĻ": 379,
      "åī": 380,
      "èµ·": 381,
      "ĠéĤ£": 382,
      "çŃ": 383,
      "éķ": 384,
      "æ³": 385,
      "çľŁ": 386,
      "åĳĢ": 387,
      "éĺ": 388,
      "é¢": 389,
      "éĿ¢": 390,
      "å¹´": 391,
      "æĮ": 392,
      "åĽŀ": 393,
      "çº": 394,
      "è½": 395,
      "è¯Ŀ": 396,
      "å¼Ģ": 397,
      "åĽ½": 398,
      "CH": 399,
      "å¥¹": 400,
      "è¡Į": 401,
      "çŁ¥éģĵ": 402,
      "ä¹ĭ": 403,
      "éķ¿": 404,
      "Ġåı": 405,
      "çĲ": 406,
      "åĸ": 407,
      "æĪĲ": 408,
      "çĻ": 409,
      "è®©": 410,
      "Ġä»ĸ": 411,
      "æĥħ": 412,
      "èµ°": 413,
      "æīĢ": 414,
      "åĪ«": 415,
      "åıĳ": 416,
      "å®ļ": 417,
      "å·±": 418,
      "æ´": 419,
      "çĶ¨": 420,
      "ç»ı": 421,
      "è§ī": 422,
      "èĩªå·±": 423,
      "æĦı": 424,
      "åĢĻ": 425,
      "æµ": 426,
      "æľĢ": 427,
      "å®ŀ": 428,
      "åģļ": 429,
      "ç¬": 430,
      "çİ°åľ¨": 431,
      "å¦Ī": 432,
      "ä½Ĩ": 433,
      "æĹ¶åĢĻ": 434,
      "åįģ": 435,
      "äºĽ": 436,
      "ç®": 437,
      "æĸ¹": 438,
      "æīĵ": 439,
      "ER": 440,
      "IL": 441,
      "CHIL": 442,
      "CHILD": 443,
      "åīį": 444,
      "å½ĵ": 445,
      "åĿ": 446,
      "ä¸ī": 447,
      "èĬ": 448,
      "éĴ": 449,
      "Ġå°±": 450,
      "éĽ": 451,
      "æĤ": 452,
      "AR": 453,
      "ET": 454,
      "ä¸¤": 455,
      "GET": 456,
      "TAR": 457,
      "TARGET": 458,
      "ç«": 459,
      "åıª": 460,
      "æ¸": 461,
      "è§ģ": 462,
      "æīĭ": 463,
      "åŃ¦": 464,
      "åĬ¨": 465,
      "äºĮ": 466,
      "åĪĨ": 467,
      "é¡": 468,
      "Ġä¸į": 469,
      "ç§į": 470,
      "æĺİ": 471,
      "äºİ": 472,
      "èĤ": 473,
      "éĹ®": 474,
      "Ġå¥": 475,
      "éļ": 476,
      "æŀľ": 477,
      "èĢĮ": 478,
      "éĹ´": 479,
      "è¢": 480,
      "èº": 481,
      "é£": 482,
      "è¶": 483,
      "æĻ": 484,
      "å¤ª": 485,
      "æ±": 486,
      "åĨį": 487,
      "æŃ£": 488,
      "ä»İ": 489,
      "åĲĥ": 490,
      "åı¯ä»¥": 491,
      "ä½ľ": 492,
      "ä»ĸä»¬": 493,
      "ç¾": 494,
      "å¤´": 495,
      "åĲ¬": 496,
      "æĽ": 497,
      "Ġå¤": 498,
      "TH": 499,
      "THER": 500,
      "å¥³": 501,
      "æī¾": 502,
      "éĶ": 503,
      "è¿Ľ": 504,
      "æľ¬": 505,
      "ä¸»": 506,
      "æģ": 507,
      "çĦ¶åĲİ": 508,
      "åĺ": 509,
      "çĭ": 510,
      "æ¬¡": 511,
      "Ġæĺ¯": 512,
      "åħ¬": 513,
      "å¹²": 514,
      "æ¯Ķ": 515,
      "é«": 516,
      "æīį": 517,
      "ä¾": 518,
      "é«ĺ": 519,
      "åıĪ": 520,
      "æ³ķ": 521,
      "è§īå¾Ĺ": 522,
      "åĬĽ": 523,
      "å®ĥ": 524,
      "ä»Ĭ": 525,
      "åħ³": 526,
      "åĲĮ": 527,
      "åĽł": 528,
      "èĦ": 529,
      "èº«": 530,
      "è°¢": 531,
      "Ĺ¯": 532,
      "çŃī": 533,
      "èĭ": 534,
      "è¾¹": 535,
      "é¢ĺ": 536,
      "å¦Ĥ": 537,
      "OTHER": 538,
      "çĪ¸": 539,
      "MOTHER": 540,
      "æ¡": 541,
      "¥¿": 542,
      "å£": 543,
      "ä½łä»¬": 544,
      "åħĪ": 545,
      "è¢«": 546,
      "å·²": 547,
      "éĤ£ä¸ª": 548,
      "ĠæĪĳä»¬": 549,
      "èĥ": 550,
      "å¿«": 551,
      "è¿Ļä¹Ī": 552,
      "æ°Ķ": 553,
      "çģ": 554,
      "éĥ": 555,
      "ç©": 556,
      "æĦŁ": 557,
      "é©": 558,
      "çĶµ": 559,
      "ĥı": 560,
      "çĥ": 561,
      "ç½": 562,
      "çļĦæĹ¶åĢĻ": 563,
      "è¿Ļæł·": 564,
      "æĤ¨": 565,
      "è¥¿": 566,
      "åºĶ": 567,
      "çĲĨ": 568,
      "è§£": 569,
      "èģ": 570,
      "çĽ¸": 571,
      "éĩį": 572,
      "çķ": 573,
      "èī": 574,
      "åŃ©": 575,
      "å¸¸": 576,
      "æ°´": 577,
      "Ġä¸Ģ": 578,
      "æĹł": 579,
      "ä¸ľ": 580,
      "æĶ¾": 581,
      "çī©": 582,
      "ç¥": 583,
      "è¯¥": 584,
      "æĪĳçļĦ": 585,
      "èĪ": 586,
      "æį": 587,
      "ĠåĲ": 588,
      "ç´": 589,
      "åĥı": 590,
      "çĻ½": 591,
      "åĵª": 592,
      "çĽ´": 593,
      "åħ¨": 594,
      "ä½ĵ": 595,
      "ä½Ĩæĺ¯": 596,
      "æĹ¥": 597,
      "Ġåħ": 598,
      "åŁ": 599,
      "æŁ": 600,
      "ç³": 601,
      "å¨": 602,
      "çĮ": 603,
      "æľº": 604,
      "éĴ±": 605,
      "ç¦": 606,
      "ĠåĪ": 607,
      "è¿ĺæĺ¯": 608,
      "çĪ±": 609,
      "çī¹": 610,
      "åĹ¯": 611,
      "çİĭ": 612,
      "æīĢä»¥": 613,
      "æĸ°": 614,
      "ä½į": 615,
      "åħ¶": 616,
      "åĸľ": 617,
      "è°ģ": 618,
      "æ´»": 619,
      "å·¥": 620,
      "æŃ»": 621,
      "ãĢģ": 622,
      "å¸Ī": 623,
      "å¤ĸ": 624,
      "ä¿¡": 625,
      "åĵ¥": 626,
      "Ġæľī": 627,
      "æ¬¢": 628,
      "Ġåľ": 629,
      "èĬ±": 630,
      "çļĦäºº": 631,
      "ç¡": 632,
      "èĻ": 633,
      "éľ": 634,
      "èį": 635,
      "å©": 636,
      "æı": 637,
      "ç¬¬": 638,
      "åıĭ": 639,
      "çľŁçļĦ": 640,
      "åĩł": 641,
      "åı«": 642,
      "Ġåĵ": 643,
      "è¿ĺæľī": 644,
      "ä½łçļĦ": 645,
      "é»": 646,
      "å·²ç»ı": 647,
      "Ġå¥½": 648,
      "æĿ¥äºĨ": 649,
      "å¸¦": 650,
      "é©¬": 651,
      "ç¾İ": 652,
      "ãĢĤ\"": 653,
      "è½¦": 654,
      "ä½ı": 655,
      "å°ĳ": 656,
      "å®Į": 657,
      "åĨĽ": 658,
      "å§Ĳ": 659,
      "åĲĪ": 660,
      "ä¸įèĥ½": 661,
      "Ġåľ¨": 662,
      "ç»ĵ": 663,
      "ä»Ĭå¤©": 664,
      "ä¸Ģä¸ĭ": 665,
      "æ¶": 666,
      "Ġå¦": 667,
      "Ġåı¯": 668,
      "æİ¥": 669,
      "äºĶ": 670,
      "é¦": 671,
      "éħ": 672,
      "éª": 673,
      "å®ī": 674,
      "éĥ¨": 675,
      "çĻ¾": 676,
      "åĳĬ": 677,
      "çĹ": 678,
      "æ¼": 679,
      "æĢĿ": 680,
      "éĥ½æĺ¯": 681,
      "æľĪ": 682,
      ":\"": 683,
      "éļ¾": 684,
      "åľº": 685,
      "åıĺ": 686,
      "åĽłä¸º": 687,
      "éĢī": 688,
      "é¥": 689,
      "äº²": 690,
      "éĿŀ": 691,
      "å±±": 692,
      "éĶĻ": 693,
      "åŃ©åŃĲ": 694,
      "çĸ": 695,
      "ç¨": 696,
      "è¯·": 697,
      "ç¤": 698,
      "åĪ°äºĨ": 699,
      "éĹ¨": 700,
      "Ġå°ı": 701,
      "è·¯": 702,
      "ç²": 703,
      "åĽĽ": 704,
      "èĲ": 705,
      "æŃ¤": 706,
      "åĪļ": 707,
      "æ»": 708,
      "ĠåĽ": 709,
      "åĬŀ": 710,
      "åĵĪ": 711,
      "åı£": 712,
      "åı¯èĥ½": 713,
      "éĢļ": 714,
      "çľ¼": 715,
      "åĬł": 716,
      "Ġå®": 717,
      "æľĭ": 718,
      "åĲį": 719,
      "å¹³": 720,
      "ç¡®": 721,
      "æľĭåıĭ": 722,
      "æĢ»": 723,
      "äºĭåĦ¿": 724,
      "çŃĶ": 725,
      "æ·": 726,
      "æĽ´": 727,
      "åº¦": 728,
      "éĺŁ": 729,
      "åĸľæ¬¢": 730,
      "åĴ±": 731,
      "è±": 732,
      "åıĹ": 733,
      "èĢħ": 734,
      "è®°": 735,
      "è¡¨": 736,
      "æĹ¶éĹ´": 737,
      "çĲĥ": 738,
      "çł": 739,
      "åĲĳ": 740,
      "ä¸ļ": 741,
      "ç®Ĺ": 742,
      "åĺĽ": 743,
      "è®¤": 744,
      "ç³»": 745,
      "ä¸ĩ": 746,
      "ä¹Łä¸į": 747,
      "æ¡Ī": 748,
      "æĸĩ": 749,
      "å¸®": 750,
      "ä»¶": 751,
      "éĩı": 752,
      "Ġå¤§": 753,
      "çĶ·": 754,
      "éĵ": 755,
      "ä»»": 756,
      "äºĨä¸Ģ": 757,
      "å£°": 758,
      "ä¹Łæĺ¯": 759,
      "å°Ĩ": 760,
      "çļĦè¯Ŀ": 761,
      "é¸": 762,
      "å²": 763,
      "æķ°": 764,
      "æħ": 765,
      "çĪ·": 766,
      "äºĭæĥħ": 767,
      "æĢ§": 768,
      "æĭ¿": 769,
      "ä¿Ŀ": 770,
      "ä¸İ": 771,
      "åĶ": 772,
      "çĽ®": 773,
      "å¤Ħ": 774,
      "æĹ©": 775,
      "æľĽ": 776,
      "æµ·": 777,
      "åĮĸ": 778,
      "ç®¡": 779,
      "ç¦»": 780,
      "Ġåķ": 781,
      "æķħ": 782,
      "è¯ī": 783,
      "åħī": 784,
      "å¼ł": 785,
      "åİŁ": 786,
      "åĳ½": 787,
      "éĤ£ä¹Ī": 788,
      "èµ·æĿ¥": 789,
      "çİ©": 790,
      "ä¸ľè¥¿": 791,
      "ä¸Ģå®ļ": 792,
      "æ¸ħ": 793,
      "è®²": 794,
      "çļĦæĺ¯": 795,
      "æ®": 796,
      "æĬ¥": 797,
      "ç±": 798,
      "æĴ": 799,
      "ä½ķ": 800,
      "éĩĳ": 801,
      "Ġå¯": 802,
      "çħ": 803,
      "ç»ĻæĪĳ": 804,
      "åĩºæĿ¥": 805,
      "Ġåĳ": 806,
      "ä¸įä¼ļ": 807,
      "è¶Ĭ": 808,
      "ä»ĸçļĦ": 809,
      "ĠçĦ¶åĲİ": 810,
      "æĢķ": 811,
      "ä¸ºä»Ģä¹Ī": 812,
      "æĪĺ": 813,
      "Ġè¦ģ": 814,
      "çı": 815,
      "ç¼": 816,
      "ä¸ĸ": 817,
      "æĪ¿": 818,
      "å¦Īå¦Ī": 819,
      "èī²": 820,
      "çª": 821,
      "å§ĭ": 822,
      "æĳ": 823,
      "æ¯ı": 824,
      "ä»£": 825,
      "éĹ®é¢ĺ": 826,
      "å¢": 827,
      "Ġä½Ĩæĺ¯": 828,
      "æıĲ": 829,
      "åħ¥": 830,
      "ä¸Ģèµ·": 831,
      "åħ«": 832,
      "æ°ĳ": 833,
      "TI": 834,
      "äº¤": 835,
      "è£": 836,
      "åĳĺ": 837,
      "é£İ": 838,
      "å¤§å®¶": 839,
      "æĿ¡": 840,
      "æ¢": 841,
      "}$$": 842,
      "æ£": 843,
      "ä¸ŃåĽ½": 844,
      "å¥½çļĦ": 845,
      "VE": 846,
      "æĻļ": 847,
      "Ġå°±æĺ¯": 848,
      "Ġå¯¹": 849,
      "åºĶè¯¥": 850,
      "AT": 851,
      "OR": 852,
      "IN": 853,
      "ĠåĴ": 854,
      "STI": 855,
      "GAT": 856,
      "VESTI": 857,
      "INVESTI": 858,
      "GATOR": 859,
      "INVESTIGATOR": 860,
      "åĨħ": 861,
      "éŁ": 862,
      "Ġå¦Ĥ": 863,
      "ä»¥åĲİ": 864,
      "èĽ": 865,
      "æĪĳå°±": 866,
      "å¼Ł": 867,
      "å¨ĺ": 868,
      "å½±": 869,
      "æ¥": 870,
      "Ġè¿Ļä¸ª": 871,
      "å¤Ł": 872,
      "ä¸Ķ": 873,
      "Ġä½łä»¬": 874,
      "ä½łè¯´": 875,
      "è¿ĳ": 876,
      "æľį": 877,
      "éĢģ": 878,
      "ä¹°": 879,
      "ĠåķĬ": 880,
      "è·ĳ": 881,
      "å»": 882,
      "çĪ¶": 883,
      "$$\\": 884,
      "!\"": 885,
      "åĳĬè¯ī": 886,
      "æĲ": 887,
      "ĠäºĨ": 888,
      "è°¢è°¢": 889,
      "èĢĥ": 890,
      "{{": 891,
      "ä¹Ŀ": 892,
      "ä¸Ģæł·": 893,
      "çĨ": 894,
      "è¿ŀ": 895,
      "ĠæīĢä»¥": 896,
      "çī¹åĪ«": 897,
      "ç»Ļä½ł": 898,
      "æľŁ": 899,
      "èĩªå·±çļĦ": 900,
      "éľĢ": 901,
      "é£ŀ": 902,
      "äººçļĦ": 903,
      "è¿ĻäºĽ": 904,
      "ä¹Ĳ": 905,
      "ä¹¦": 906,
      "èİ": 907,
      "äº§": 908,
      "ä¸ĢçĤ¹": 909,
      "ä¸¤ä¸ª": 910,
      "åºķ": 911,
      "å®³": 912,
      "ç¥ŀ": 913,
      "é¡¹": 914,
      "è¿ľ": 915,
      "åĪ©": 916,
      "éĿŀå¸¸": 917,
      "Ġçľĭ": 918,
      "çº¢": 919,
      "åıį": 920,
      "å¼º": 921,
      "æ±Ĥ": 922,
      "é¼": 923,
      "çĬ": 924,
      "ç©º": 925,
      "å©ļ": 926,
      "æķĻ": 927,
      "xx": 928,
      "ä¿©": 929,
      "Ġä¹Ł": 930,
      "é¥Ń": 931,
      "ĠæĢİä¹Ī": 932,
      "æł¹": 933,
      "çħ§": 934,
      "ç¬ĳ": 935,
      "å¼Ģå§ĭ": 936,
      "çĶ±": 937,
      "è®¡": 938,
      "æĮº": 939,
      "Ġå¦Ĥæŀľ": 940,
      "æĶ¶": 941,
      "åŁİ": 942,
      "è¿Ļæĺ¯": 943,
      "é¾": 944,
      "Ġä»Ģä¹Ī": 945,
      "åı¸": 946,
      "å¥½äºĨ": 947,
      "åħŃ": 948,
      "å¾Ģ": 949,
      "ä¸ĥ": 950,
      "ç´§": 951,
      "ä¸ºäºĨ": 952,
      "}}": 953,
      "å¾Īå¤ļ": 954,
      "åİ»äºĨ": 955,
      "åŃĹ": 956,
      "æģ¯": 957,
      "Ġå¥¹": 958,
      "çļĦä¸Ģ": 959,
      "åĩĨ": 960,
      "è·ŁæĪĳ": 961,
      "çģ«": 962,
      "ä¸įçŁ¥éģĵ": 963,
      "ĠèĢĮ": 964,
      "éĻ¢": 965,
      "ä¾¿": 966,
      "åĴ±ä»¬": 967,
      "çĹħ": 968,
      "å¤«": 969,
      "Ġè¯´": 970,
      "Ġåĵİ": 971,
      "èĬĤ": 972,
      "åľ¨è¿Ļ": 973,
      "æ¼Ķ": 974,
      "ç«ĭ": 975,
      "èħ": 976,
      "ä¼ł": 977,
      "ä¸įè¦ģ": 978,
      "æľīä¸Ģ": 979,
      "Ġè¿ĺ": 980,
      "èı": 981,
      "Ġå½": 982,
      "ç¢": 983,
      "åĿĲ": 984,
      "æĦıæĢĿ": 985,
      "å¤ĩ": 986,
      "è¿Ĳ": 987,
      "Ġä¸ª": 988,
      "åĪ¶": 989,
      "ĠåĨ": 990,
      "èµ¶": 991,
      "å¸Ĥ": 992,
      "åįĥ": 993,
      "è¿Ļç§į": 994,
      "èĢģå¸Ī": 995,
      "åĨ³": 996,
      "Ġ\\": 997,
      "æłĳ": 998,
      "ä¼¤": 999,
      "çķĻ": 1000,
      "åįķ": 1001,
      "åĸĿ": 1002,
      "çĪ¸çĪ¸": 1003,
      "çĶŁæ´»": 1004,
      "çĿ¡": 1005,
      "Ġåį": 1006,
      "å·¥ä½ľ": 1007,
      "éľĢè¦ģ": 1008,
      "èĮ": 1009,
      "æŁ¥": 1010,
      "çº¿": 1011,
      "æµģ": 1012,
      "å¤§çļĦ": 1013,
      "éĺ¿": 1014,
      "ä¸įå¥½": 1015,
      "å¿ħ": 1016,
      "ĠçļĦ": 1017,
      "çķĮ": 1018,
      "åĮ»": 1019,
      "å®Ŀ": 1020,
      "æĿİ": 1021,
      "åĵİ": 1022,
      "Ġæ²¡": 1023,
      "ĠåĽł": 1024,
      "ä¹ĭåĲİ": 1025,
      "åı¥": 1026,
      "ç¨ĭ": 1027,
      "è¯Ĩ": 1028,
      "è±¡": 1029,
      "æĪĸ": 1030,
      "åķ¦": 1031,
      "éĿĴ": 1032,
      "è®¸": 1033,
      "åĿĹ": 1034,
      "ä¸ĢçĽ´": 1035,
      "åĽŀæĿ¥": 1036,
      "æĿĢ": 1037,
      "åĮĹ": 1038,
      "Ĥ¨": 1039,
      "æ¯į": 1040,
      "åı·": 1041,
      "Ġåİ": 1042,
      "æļ": 1043,
      "å®¹": 1044,
      "..": 1045,
      "çīĩ": 1046,
      "Ġåıª": 1047,
      "åıĳçİ°": 1048,
      "æĺ¯ä¸įæĺ¯": 1049,
      "ĠæĿ¥": 1050,
      "è½»": 1051,
      "çľĭçľĭ": 1052,
      "è¾ĥ": 1053,
      "å¤±": 1054,
      "è¯ģ": 1055,
      "ä½¿": 1056,
      "æŀĹ": 1057,
      "Ġå¾": 1058,
      "äº®": 1059,
      "å¹¶": 1060,
      "æķ´": 1061,
      "æĺŁ": 1062,
      "ä¸ĭæĿ¥": 1063,
      "æĺ¯æĪĳ": 1064,
      "åĮħ": 1065,
      "æ»¡": 1066,
      "æĮĩ": 1067,
      "èĤ¯": 1068,
      "éĽ¶": 1069,
      "åĲĦ": 1070,
      "éŁ³": 1071,
      "èµĦ": 1072,
      "åħ³ç³»": 1073,
      "åħ´": 1074,
      "èµ°äºĨ": 1075,
      "ĠåĽłä¸º": 1076,
      "éĩĮéĿ¢": 1077,
      "æĮģ": 1078,
      "ä¸Ģæ¬¡": 1079,
      "å¦Ĥæŀľ": 1080,
      "è½¬": 1081,
      "æº": 1082,
      "çŃĶæ¡Ī": 1083,
      "Ġçİ°åľ¨": 1084,
      "è®©æĪĳ": 1085,
      "åįĹ": 1086,
      "æĢª": 1087,
      "Ġä»ĸä»¬": 1088,
      "åı°": 1089,
      "æĭī": 1090,
      "Ġå½ĵ": 1091,
      "åĵģ": 1092,
      "åĬ¡": 1093,
      "ĠæĤ¨": 1094,
      "å»º": 1095,
      "èĩ³": 1096,
      "ç¿": 1097,
      "Ġæ¯": 1098,
      "åįĬ": 1099,
      "in": 1100,
      "å¼ı": 1101,
      "æĦ¿": 1102,
      "åħ¶å®ŀ": 1103,
      "EA": 1104,
      "TEA": 1105,
      "TEACH": 1106,
      "TEACHER": 1107,
      "è°ĥ": 1108,
      "ĮæľĽ": 1109,
      "æ®µ": 1110,
      "æŃ¥": 1111,
      "çľĭåĪ°": 1112,
      "éĺ³": 1113,
      "Ġå¿": 1114,
      "åľ°æĸ¹": 1115,
      "è´¨": 1116,
      "èµĽ": 1117,
      "åĨĻ": 1118,
      "æĭľ": 1119,
      "éħĴ": 1120,
      "åħ±": 1121,
      "Ġå¹": 1122,
      "en": 1123,
      "å¥¶": 1124,
      "Ń¦": 1125,
      "äºĨæĪĳ": 1126,
      "âĳ": 1127,
      "åķ¥": 1128,
      "Ġä½Ĩ": 1129,
      "é»ĳ": 1130,
      "è¿ĩæĿ¥": 1131,
      "å½¢": 1132,
      "æĢ¥": 1133,
      "Ġåħ¶": 1134,
      "ç«Ļ": 1135,
      "ĠèĢģ": 1136,
      "å¦¹": 1137,
      "ä¹ī": 1138,
      "å¯¼": 1139,
      "è¯ķ": 1140,
      "è¦ģæĺ¯": 1141,
      "æ¶Ī": 1142,
      "åĬŁ": 1143,
      "ç²¾": 1144,
      "æħ¢": 1145,
      "äºĨåĲĹ": 1146,
      "æ¸¸": 1147,
      "æĺĵ": 1148,
      "åĳ¨": 1149,
      "å¿Ļ": 1150,
      "çĥŃ": 1151,
      "é»Ħ": 1152,
      "è§Ĥ": 1153,
      "çŀ": 1154,
      "åĨµ": 1155,
      "æį®": 1156,
      "æĶ¹": 1157,
      "åĢĴ": 1158,
      "å«": 1159,
      "æĦŁè§ī": 1160,
      "åĮº": 1161,
      "åĭ": 1162,
      "é±": 1163,
      "æĪĳæĺ¯": 1164,
      "åł": 1165,
      "ĠåĴ±": 1166,
      "èģĶ": 1167,
      "çıŃ": 1168,
      "æķ¢": 1169,
      "çŁ³": 1170,
      "å¥½å¥½": 1171,
      "åĵĪåĵĪ": 1172,
      "é±¼": 1173,
      "è§Ĩ": 1174,
      "æķĳ": 1175,
      "çļĩ": 1176,
      "åĻ": 1177,
      "æīĢæľī": 1178,
      "Ġ\"": 1179,
      "èĭ¦": 1180,
      "å®ĺ": 1181,
      "äººå®¶": 1182,
      "è¾¾": 1183,
      "ç»Ī": 1184,
      "ä¸ĬçļĦ": 1185,
      "åĽ¢": 1186,
      "éļı": 1187,
      "Ġéĥ½": 1188,
      "å±ķ": 1189,
      "æ³¨": 1190,
      "èĤ¯å®ļ": 1191,
      "éº": 1192,
      "é¦ĸ": 1193,
      "Ġä½łè¯´": 1194,
      "é¹": 1195,
      "æĪĳè§īå¾Ĺ": 1196,
      "è¡£": 1197,
      "åı¯æĺ¯": 1198,
      "äºĮåįģ": 1199,
      "æ·±": 1200,
      "è¨": 1201,
      "å¥ĩ": 1202,
      "çĶ»": 1203,
      "è¨Ģ": 1204,
      "èĲ½": 1205,
      "æİī": 1206,
      "æİĴ": 1207,
      "er": 1208,
      "è£ħ": 1209,
      "ĠæĬĬ": 1210,
      "æĩ": 1211,
      "éĨ": 1212,
      "å¾ħ": 1213,
      "ä¹ħ": 1214,
      "é¾Ļ": 1215,
      "ç§ĳ": 1216,
      "ç½ĳ": 1217,
      "æľĢåĲİ": 1218,
      "?\"": 1219,
      "åıĸ": 1220,
      "çļĦå°ı": 1221,
      "è¶³": 1222,
      "åĵ¦": 1223,
      "ä¸ĸçķĮ": 1224,
      "è®¾": 1225,
      "ĠåĪ°": 1226,
      "æĶ¿": 1227,
      "ĠåĪ«": 1228,
      "åķĨ": 1229,
      "é¢Ĩ": 1230,
      "ä¼ļåĦ¿": 1231,
      "äºĨä½ł": 1232,
      "Ġè¿Ļæĺ¯": 1233,
      "å¸ĮæľĽ": 1234,
      "èģĬ": 1235,
      "Ġå¸": 1236,
      "æł¼": 1237,
      "ä¹ĭåīį": 1238,
      "å·®": 1239,
      "ä¸Ģä¸ªäºº": 1240,
      "çªģ": 1241,
      "Ġå¼": 1242,
      "æľ¯": 1243,
      "æĪĳä»¬çļĦ": 1244,
      "æŃĮ": 1245,
      "è¯¯": 1246,
      "ç»Ħ": 1247,
      "ä¸ĢäºĽ": 1248,
      "å¤į": 1249,
      "æľīä»Ģä¹Ī": 1250,
      "æĬ¤": 1251,
      "ç»Ŀ": 1252,
      "éĥ½ä¸į": 1253,
      "ra": 1254,
      "åĳĥ": 1255,
      "è·Łä½ł": 1256,
      "ä¹ł": 1257,
      "å¿Ĺ": 1258,
      "å²ģ": 1259,
      "æĸŃ": 1260,
      "èŃ¦": 1261,
      "ĠæĪĳæĺ¯": 1262,
      "å®¢": 1263,
      "çĭĹ": 1264,
      "åĤ": 1265,
      "åıĬ": 1266,
      "éĩįè¦ģ": 1267,
      "è®º": 1268,
      "æĺİçĻ½": 1269,
      "æĿ¥çļĦ": 1270,
      "éĢł": 1271,
      "ç»Ń": 1272,
      "åħĦ": 1273,
      "åŁº": 1274,
      "èĦ¸": 1275,
      "éĻ¤": 1276,
      "éŃ": 1277,
      "Ġåĩ": 1278,
      "ĠæĪĳå°±": 1279,
      "åŀ": 1280,
      "åį´": 1281,
      "åħ»": 1282,
      "æ¯Ķè¾ĥ": 1283,
      "½çĦ¶": 1284,
      "æ¥ļ": 1285,
      "ä»½": 1286,
      "è·³": 1287,
      "åħĥ": 1288,
      "æĢģ": 1289,
      "å§ĳ": 1290,
      "èĥ½å¤Ł": 1291,
      "ç»Ĩ": 1292,
      "æĬĵ": 1293,
      "çľŁæĺ¯": 1294,
      "åĪĩ": 1295,
      "æľª": 1296,
      "çĵ": 1297,
      "æŀĲ": 1298,
      "è¿Ļä¸Ģ": 1299,
      "é¦Ļ": 1300,
      "ç±»": 1301,
      "rac": 1302,
      "åĵªåĦ¿": 1303,
      "æ²³": 1304,
      "é£Ł": 1305,
      "frac": 1306,
      "èľ": 1307,
      "åħĪçĶŁ": 1308,
      "èį¯": 1309,
      "æĪı": 1310,
      "åħ¬åı¸": 1311,
      "æĿ¿": 1312,
      "åħµ": 1313,
      "åĪĻ": 1314,
      "æĥħåĨµ": 1315,
      "ä¸įäºĨ": 1316,
      "å¤ľ": 1317,
      "ç±³": 1318,
      "Ġä¸įæĺ¯": 1319,
      "èįī": 1320,
      "ä»¤": 1321,
      "èĳ": 1322,
      "æ²»": 1323,
      "åĬŀæ³ķ": 1324,
      "å¸ĥ": 1325,
      "å£«": 1326,
      "é¼ł": 1327,
      "çĮ«": 1328,
      "æĪĳä¹Ł": 1329,
      "åıĶ": 1330,
      "ç¦ı": 1331,
      "æ¯Ľ": 1332,
      "ç©¿": 1333,
      "å¿ĥéĩĮ": 1334,
      "ä¸įè¿ĩ": 1335,
      "Ġåħ¶å®ŀ": 1336,
      "çĶµè¯Ŀ": 1337,
      "åĩºåİ»": 1338,
      "åĪ»": 1339,
      "å±Ģ": 1340,
      "æ¹": 1341,
      "çīĽ": 1342,
      "åĵį": 1343,
      "ç«Ł": 1344,
      "ä½łå°±": 1345,
      "åįĸ": 1346,
      "ä½łå¥½": 1347,
      "ĠåĨį": 1348,
      "ç»Ł": 1349,
      "å¾·": 1350,
      "è°Ī": 1351,
      "çĨĬ": 1352,
      "}{": 1353,
      "è¸": 1354,
      "æĺ¯ä¸Ģ": 1355,
      "æĸĻ": 1356,
      "çļ®": 1357,
      "ä»·": 1358,
      "å©Ĩ": 1359,
      "äºĨåĲ§": 1360,
      "_{": 1361,
      "åįİ": 1362,
      "è¿Ļæł·çļĦ": 1363,
      "Ġä»İ": 1364,
      "èĦĳ": 1365,
      "å·´": 1366,
      "Ġè¿ĺæľī": 1367,
      "é¡¾": 1368,
      "ä¸ĵ": 1369,
      "Ġè®©": 1370,
      "æĴŃ": 1371,
      "å¾®": 1372,
      "æĭħ": 1373,
      "é¢ĺå¹²": 1374,
      "Ġåı¯æĺ¯": 1375,
      "è´¹": 1376,
      "éĻĪ": 1377,
      "çł´": 1378,
      "è§Ĵ": 1379,
      "æľīçĤ¹": 1380,
      "ç¤º": 1381,
      "èıľ": 1382,
      "le": 1383,
      "Ġæ²¡æľī": 1384,
      "åĢ¼": 1385,
      "äºĳ": 1386,
      "Ġå®ĥ": 1387,
      "æĶ¯": 1388,
      "æŃ£ç¡®": 1389,
      "éĿĻ": 1390,
      "ä¸įèµ·": 1391,
      "Ġä»Ĭå¤©": 1392,
      "lin": 1393,
      "èĭ±": 1394,
      "åĩĨå¤ĩ": 1395,
      "éģĩ": 1396,
      "Ġåİ»": 1397,
      "åİĨ": 1398,
      "å°½": 1399,
      "ç¬¬ä¸Ģ": 1400,
      "æ¨": 1401,
      "è´Ł": 1402,
      "å½ĵæĹ¶": 1403,
      "line": 1404,
      "å¯Ĩ": 1405,
      "ç¤¾": 1406,
      "è¯´äºĨ": 1407,
      "ç¤¼": 1408,
      "è¯´çļĦ": 1409,
      "éĢŁ": 1410,
      "ç»§": 1411,
      "erline": 1412,
      "è¿ĻåĦ¿": 1413,
      "æł¡": 1414,
      "åħ·": 1415,
      "æĪĳä¸į": 1416,
      "æį¢": 1417,
      "éĤ£äºĽ": 1418,
      "å¯Ł": 1419,
      "èĦļ": 1420,
      "åĬ©": 1421,
      "æŀģ": 1422,
      "éĽ¨": 1423,
      "é¸¡": 1424,
      "ä¸ªäºº": 1425,
      "è§Ħ": 1426,
      "åıĤ": 1427,
      "xxx": 1428,
      "è¯Ń": 1429,
      "è¿ĻéĩĮ": 1430,
      "Ġé¢ĺå¹²": 1431,
      "èĻ½çĦ¶": 1432,
      "éªĮ": 1433,
      "çĽ¸ä¿¡": 1434,
      "æĢİä¹Īæł·": 1435,
      "åĽŀåİ»": 1436,
      "æĻļä¸Ĭ": 1437,
      "æľīä¸Ģä¸ª": 1438,
      "æķħäºĭ": 1439,
      "è¯´ä½ł": 1440,
      "^{": 1441,
      "ä¼Ĺ": 1442,
      "åħĭ": 1443,
      "æĩĤ": 1444,
      "èĥĮ": 1445,
      "åħļ": 1446,
      "æĿĳ": 1447,
      "é¡»": 1448,
      "æ±Ł": 1449,
      "Ġæĭ": 1450,
      "æĬĢ": 1451,
      "ç®Ģ": 1452,
      "éĻª": 1453,
      "æŃ¦": 1454,
      "æİ¨": 1455,
      "an": 1456,
      "äº¬": 1457,
      "é²": 1458,
      "è¿ĩåİ»": 1459,
      "äºĨä¸Ģä¸ª": 1460,
      "èĹ": 1461,
      "æ¢¦": 1462,
      "éĢīé¡¹": 1463,
      "å¡": 1464,
      "Ġä¸Ĭ": 1465,
      "$$,": 1466,
      "ç»ĥ": 1467,
      "æľ¨": 1468,
      "ĠåĹ¯": 1469,
      "äºī": 1470,
      "Ġåĸ": 1471,
      "éĽĨ": 1472,
      "è¿½": 1473,
      ",\"": 1474,
      "æľĿ": 1475,
      "ç¬¬äºĮ": 1476,
      "åıªæĺ¯": 1477,
      "æ¸ħæ¥ļ": 1478,
      "éĨĴ": 1479,
      "åĦ¿åŃĲ": 1480,
      "åĺ´": 1481,
      "é¬": 1482,
      "Ġæĥ³": 1483,
      "åī§": 1484,
      "åĻ¨": 1485,
      "åĳ³": 1486,
      "æĸ¯": 1487,
      "çº¦": 1488,
      "æ²¹": 1489,
      "å¥½åĥı": 1490,
      "çĬ¶": 1491,
      "åĪ«äºº": 1492,
      "åıĳçĶŁ": 1493,
      "èĽĭ": 1494,
      "çĸĳ": 1495,
      "ä¸½": 1496,
      "æłĩ": 1497,
      "éĢĤ": 1498,
      "æĭį": 1499,
      "åĿı": 1500,
      "éĹ»": 1501,
      "éĽª": 1502,
      "è´£": 1503,
      "æľĢè¿ĳ": 1504,
      "åģĩ": 1505,
      "åħĶ": 1506,
      "åľŁ": 1507,
      "åĪ°åºķ": 1508,
      "é¬¼": 1509,
      "æĺ¥": 1510,
      "æĪĸèĢħ": 1511,
      "å¤ļå°ĳ": 1512,
      "æĬķ": 1513,
      "ç£": 1514,
      "ä½łæĺ¯": 1515,
      "ä¸įåĪ°": 1516,
      "è¶ħ": 1517,
      "ri": 1518,
      "ä»¥åīį": 1519,
      "åĩ»": 1520,
      "ĠæĶ": 1521,
      "æĢĢ": 1522,
      "æĥ³åĪ°": 1523,
      "éĻ©": 1524,
      "åŃĺ": 1525,
      "å¿µ": 1526,
      "é©¬ä¸Ĭ": 1527,
      "çļĦäºĭæĥħ": 1528,
      "çº§": 1529,
      "åĶ±": 1530,
      "å±ŀ": 1531,
      "æĵ": 1532,
      "ä¸ŃçļĦ": 1533,
      "è®©ä½ł": 1534,
      "çİ¯": 1535,
      "è·Łä½łè¯´": 1536,
      "éĤ£ç§į": 1537,
      "éĩĮçļĦ": 1538,
      "å¹¸": 1539,
      "ç©¶": 1540,
      "ä¸¥": 1541,
      "ä¼Ļ": 1542,
      "åģľ": 1543,
      "å¿ĺ": 1544,
      "ä»¥ä¸º": 1545,
      "æĹ¢": 1546,
      "èĴ": 1547,
      "ĠåĴ±ä»¬": 1548,
      "ç»ĵæŀľ": 1549,
      "Ġè°ģ": 1550,
      "rm": 1551,
      "åĽŀå®¶": 1552,
      "è¡Ģ": 1553,
      "Ġè°¢è°¢": 1554,
      "åĽ½å®¶": 1555,
      "éĴŁ": 1556,
      "éĢļè¿ĩ": 1557,
      "çªģçĦ¶": 1558,
      "ĠæĪĳè§īå¾Ĺ": 1559,
      "æĺ¯ä»Ģä¹Ī": 1560,
      "éĵģ": 1561,
      "ä¹±": 1562,
      "Ġæķ": 1563,
      "å§ĳå¨ĺ": 1564,
      "èµ¶ç´§": 1565,
      "åľ¨ä¸Ģèµ·": 1566,
      "åı¶": 1567,
      "åİĭ": 1568,
      "å¢ĥ": 1569,
      "ä½łçľĭ": 1570,
      "åºĹ": 1571,
      "åĵŃ": 1572,
      "åĪĹ": 1573,
      "æĿ¾": 1574,
      "å°±ä¸į": 1575,
      "è§£æŀĲ": 1576,
      "èĥ¡": 1577,
      "çļĦå¤§": 1578,
      "è´µ": 1579,
      "åĪĿ": 1580,
      "è¿Ľè¡Į": 1581,
      "æĭ©": 1582,
      "è¯´æĪĳ": 1583,
      "Ġå¾Ī": 1584,
      "åı¤": 1585,
      "åĪļæīį": 1586,
      "éĿł": 1587,
      "æī¿": 1588,
      "çĭ¬": 1589,
      "æĿĥ": 1590,
      "å®¤": 1591,
      "èĢĮä¸Ķ": 1592,
      "èļ": 1593,
      "æ¸©": 1594,
      "çĶµå½±": 1595,
      "åŃĲçļĦ": 1596,
      "éº»": 1597,
      "åĪĺ": 1598,
      "çľĭè§ģ": 1599,
      "æ¥¼": 1600,
      "...": 1601,
      "è®¤è¯Ĩ": 1602,
      "è®®": 1603,
      "å¹¿": 1604,
      "åĽ´": 1605,
      "çİī": 1606,
      "äºĨåķĬ": 1607,
      "èĵ": 1608,
      "æĦ¿æĦı": 1609,
      "Ġäºº": 1610,
      "æ´¾": 1611,
      "å±ħ": 1612,
      "ä¸Ģå¤©": 1613,
      "åıĮ": 1614,
      "çļĦä¸Ģä¸ª": 1615,
      "ĠéĤ£ä½ł": 1616,
      "åĩłä¸ª": 1617,
      "Ġå¿«": 1618,
      "Ġå¦Ī": 1619,
      "åº§": 1620,
      "é¡º": 1621,
      "æ±ī": 1622,
      "èĤī": 1623,
      "å°Ķ": 1624,
      "æĺ¯ä¸Ģä¸ª": 1625,
      "ä¾Ŀ": 1626,
      "ĠæĪĳä¸į": 1627,
      "é«ĺåħ´": 1628,
      "æĽ¾": 1629,
      "è¯»": 1630,
      "ä¸įè¡Į": 1631,
      "è¯´è¯Ŀ": 1632,
      "åĨ²": 1633,
      "gh": 1634,
      "ä½İ": 1635,
      "æ¯ĶèµĽ": 1636,
      "çģµ": 1637,
      "éħį": 1638,
      "å®¶éĩĮ": 1639,
      "åĩºäºĨ": 1640,
      "ç»Ļä»ĸ": 1641,
      "åģ·": 1642,
      "éĢīæĭ©": 1643,
      "ĠèĢĮä¸Ķ": 1644,
      "ç¡®å®ŀ": 1645,
      "è·Łä»ĸ": 1646,
      "èĲ¥": 1647,
      "è¿İ": 1648,
      "ç½®": 1649,
      "ç¯": 1650,
      "æľºä¼ļ": 1651,
      "çĥ¦": 1652,
      "è¯¾": 1653,
      "ght": 1654,
      "å¼Ħ": 1655,
      "å°±ä¼ļ": 1656,
      "æ¤": 1657,
      "çĪ¹": 1658,
      "ä¼¼": 1659,
      "åĳĬè¯īä½ł": 1660,
      "æĪĲäºĨ": 1661,
      "ä¸¾": 1662,
      "è®°å¾Ĺ": 1663,
      "æĥĬ": 1664,
      "å¿ħé¡»": 1665,
      "å¼ķ": 1666,
      "çĮª": 1667,
      "Ġåģ": 1668,
      "ç½ª": 1669,
      "right": 1670,
      "åıĳå±ķ": 1671,
      "æī¾åĪ°": 1672,
      "ĠåŃ": 1673,
      "æĺ¾": 1674,
      "AD": 1675,
      "ç¦»å¼Ģ": 1676,
      "å§¨": 1677,
      "åĬ¿": 1678,
      "åĽŃ": 1679,
      "å®Ī": 1680,
      "ĠæĪĳæĥ³": 1681,
      "åıªæľī": 1682,
      "å®«": 1683,
      "æĹ¥æľ¬": 1684,
      "æ¦": 1685,
      "å®¹æĺĵ": 1686,
      "Ġå·": 1687,
      "åĪĽ": 1688,
      "æĿ¨": 1689,
      "ç»§ç»Ń": 1690,
      "ä¼ĳ": 1691,
      "éĹ¹": 1692,
      "å¢ŀ": 1693,
      "å¹´çļĦ": 1694,
      "ç¾¤": 1695,
      "èĹı": 1696,
      "ä¹İ": 1697,
      "ĠéĤ£ä¸ª": 1698,
      "å·ŀ": 1699,
      "åºľ": 1700,
      "åľ¨è¿ĻåĦ¿": 1701,
      "èĭı": 1702,
      "ä¿®": 1703,
      "æŀª": 1704,
      "éĻħ": 1705,
      "å¹²ä»Ģä¹Ī": 1706,
      "åĽ¾": 1707,
      "èĤ¡": 1708,
      "çĭ¼": 1709,
      "å¥³äºº": 1710,
      "ä»ħ": 1711,
      "ç´¯": 1712,
      "æ´Ĺ": 1713,
      "æĪĳæĥ³": 1714,
      "çłĶ": 1715,
      "æĬ±": 1716,
      "ĠçŃī": 1717,
      "ä¹ĭéĹ´": 1718,
      "ä»»ä½ķ": 1719,
      "ä¸įåĲĮ": 1720,
      "åħĦå¼Ł": 1721,
      "èĻİ": 1722,
      "å¥¹çļĦ": 1723,
      "é¸Ł": 1724,
      "åª": 1725,
      "å¸Ŀ": 1726,
      "æĺİå¤©": 1727,
      "åĳ¼": 1728,
      "Ġ)": 1729,
      "Ġä½łçľĭ": 1730,
      "èĪŀ": 1731,
      "å¦ĩ": 1732,
      "è¡£æľį": 1733,
      "ä¸ĭåİ»": 1734,
      "ä¸īåįģ": 1735,
      "}_{": 1736,
      "çľ¼çĿ": 1737,
      "UL": 1738,
      "è¿Ļæ¬¡": 1739,
      "Ġè¡Į": 1740,
      "ULT": 1741,
      "ADULT": 1742,
      "èĪ¹": 1743,
      "èº«ä½ĵ": 1744,
      "èģĮ": 1745,
      "Ġä½łæĺ¯": 1746,
      "æĶ¾å¿ĥ": 1747,
      "æľīäºº": 1748,
      "éĥ½æ²¡æľī": 1749,
      "åĪĴ": 1750,
      "Ġç»Ļ": 1751,
      "Ġæİ": 1752,
      "ç»ĵå©ļ": 1753,
      "èĩ´": 1754,
      "æĹı": 1755,
      "ä¸ĬäºĨ": 1756,
      "èĭ¥": 1757,
      "èĪ¬": 1758,
      "ĠåıĪ": 1759,
      "ä¸įå¯¹": 1760,
      "éĺ²": 1761,
      "ç´ł": 1762,
      "åį³": 1763,
      "åĨ·": 1764,
      "çĹĽ": 1765,
      "éĵ¶": 1766,
      "åį«": 1767,
      "ç§°": 1768,
      "æĪĳæĪĳ": 1769,
      "Ġä½łæĢİä¹Ī": 1770,
      "åı²": 1771,
      "èĤ²": 1772,
      "ç½Ĺ": 1773,
      "è®¤ä¸º": 1774,
      "åĿļ": 1775,
      "ç¤¾ä¼ļ": 1776,
      "Ġ$$\\": 1777,
      "çĬ¯": 1778,
      "æºĲ": 1779,
      "Ġåĳĥ": 1780,
      "ĠéĤ£ä¹Ī": 1781,
      "å±ĭ": 1782,
      "Ġè¿Ļæł·": 1783,
      "æĪ¿åŃĲ": 1784,
      "æĪĳè¦ģ": 1785,
      "åı¥è¯Ŀ": 1786,
      "æŃ¢": 1787,
      "æ¿": 1788,
      "æĢİä¹ĪåĬŀ": 1789,
      "çľ¼çĿĽ": 1790,
      "è¾Ī": 1791,
      "Ġä¸ºä»Ģä¹Ī": 1792,
      "éĩİ": 1793,
      "åĩºçİ°": 1794,
      "å¥³åĦ¿": 1795,
      "Ġä¸įè¿ĩ": 1796,
      "çļĦäºĭ": 1797,
      "è¿ĲåĬ¨": 1798,
      "æĸ¹éĿ¢": 1799,
      "æİ§": 1800,
      "æĪ·": 1801,
      "èĬĤçĽ®": 1802,
      "åĨ³å®ļ": 1803,
      "å°ıå§Ĳ": 1804,
      "çĶ·äºº": 1805,
      "æ¯Ĵ": 1806,
      "å½±åĵį": 1807,
      "æīĭæľº": 1808,
      "å§Ķ": 1809,
      "æĺ¨": 1810,
      "Ġä¼ļ": 1811,
      "ĠåĲĥ": 1812,
      "éĶĻè¯¯": 1813,
      "ä¸įå¾Ĺ": 1814,
      "æĺ¯åĲ§": 1815,
      "åłĤ": 1816,
      "æ¼Ĥ": 1817,
      "æ¨¡": 1818,
      "åŀĭ": 1819,
      "çĶ°": 1820,
      "çĽ´æİ¥": 1821,
      "çļĦè¿Ļä¸ª": 1822,
      "çľĭçĿĢ": 1823,
      "èīº": 1824,
      "åİī": 1825,
      "æł¹æľ¬": 1826,
      "è¹": 1827,
      "å¤ļäºĨ": 1828,
      "éĢĢ": 1829,
      "æĭĽ": 1830,
      "äºİæĺ¯": 1831,
      "å¾ĭ": 1832,
      "èİ·": 1833,
      "æ¿Ģ": 1834,
      "ä½łä¸į": 1835,
      "å¦»": 1836,
      "å¤ļçļĦ": 1837,
      "ä¸īä¸ª": 1838,
      "æĿĲ": 1839,
      "æĿ¥è¯´": 1840,
      "çĪ¶äº²": 1841,
      "æľµ": 1842,
      "ä¸Ģå®ļè¦ģ": 1843,
      "æĲŀ": 1844,
      "å½ĵçĦ¶": 1845,
      "Ġå§": 1846,
      "èĿ": 1847,
      "åı¦": 1848,
      "æ²Ļ": 1849,
      "æĪĳè¿ĺ": 1850,
      "ç§¯": 1851,
      "æĪĳè¯´": 1852,
      "Ġæ¯ı": 1853,
      "æĺ¯åķĬ": 1854,
      "æ°¸": 1855,
      "ç¾İåĽ½": 1856,
      "ĠæĪĳä¹Ł": 1857,
      "éªĹ": 1858,
      "è¿ĩäºĨ": 1859,
      "ä»ĭ": 1860,
      "äºĴ": 1861,
      "}^{": 1862,
      "ç¾Ĭ": 1863,
      "çİĩ": 1864,
      "æĺ¯ä¸ª": 1865,
      "æ½": 1866,
      "ĠåĲ¬": 1867,
      "æµĭ": 1868,
      "æĪĳéĥ½": 1869,
      "èī¯": 1870,
      "èĻĳ": 1871,
      "ç¿»": 1872,
      "Ġåĳ¢": 1873,
      "ao": 1874,
      "ä¼ĺ": 1875,
      "ä¸įéĶĻ": 1876,
      "çļĦåľ°æĸ¹": 1877,
      "çľģ": 1878,
      "æ¯ıå¤©": 1879,
      "è´¢": 1880,
      "ĠåĮ": 1881,
      "æĻ¯": 1882,
      "æľīæ²¡æľī": 1883,
      "å½©": 1884,
      "åĲĥé¥Ń": 1885,
      "Ġxxx": 1886,
      "ft": 1887,
      "ĠåĽŀ": 1888,
      "Ġè¿ĺæĺ¯": 1889,
      "ä¸Ģç§į": 1890,
      "éĢĥ": 1891,
      "æŁĲ": 1892,
      "æĪĲä¸º": 1893,
      "æŃ»äºĨ": 1894,
      "Ġèµ°": 1895,
      "ç»¿": 1896,
      "æµİ": 1897,
      "çĨŁ": 1898,
      "åĨľ": 1899,
      "æīįèĥ½": 1900,
      "èµµ": 1901,
      "Ġä¸ĭ": 1902,
      "Ġåĵª": 1903,
      "é¡¶": 1904,
      "ä»ĺ": 1905,
      "Ġèĥ½": 1906,
      "æĸĹ": 1907,
      "me": 1908,
      "å¼¹": 1909,
      "ĠäºĮ": 1910,
      "åĨįè§ģ": 1911,
      "çºª": 1912,
      "é½": 1913,
      "è´Ŀ": 1914,
      "æľīä¸ª": 1915,
      "çļĦä¸ľè¥¿": 1916,
      "äºĨè§£": 1917,
      "Ġä½łå°±": 1918,
      "æ¯ķ": 1919,
      "æŃ£åľ¨": 1920,
      "åįĪ": 1921,
      "Ġå¤§å®¶": 1922,
      "æĽ¿": 1923,
      "åį¡": 1924,
      "ç»´": 1925,
      "èĥľ": 1926,
      "Ġåº": 1927,
      "åĲ¸": 1928,
      "åĢŁ": 1929,
      "ä½łè¦ģ": 1930,
      "æŀ¶": 1931,
      "$${": 1932,
      "æĮī": 1933,
      "å§ĵ": 1934,
      "ä¹¡": 1935,
      "Ġè¯·": 1936,
      "éľ²": 1937,
      "æł·åŃĲ": 1938,
      "å®īåħ¨": 1939,
      "ä½ľä¸º": 1940,
      "å¼Ģå¿ĥ": 1941,
      "çĭĲ": 1942,
      "éĩĩ": 1943,
      "æ²¡äºĭ": 1944,
      "æķĪ": 1945,
      "åį±": 1946,
      "å¯Į": 1947,
      "ç§Ģ": 1948,
      "ĠæĽ": 1949,
      "èº«è¾¹": 1950,
      "ä½łä¹Ł": 1951,
      "çĳ": 1952,
      "åĪĨä¹ĭ": 1953,
      "Ġæĺ¯ä¸įæĺ¯": 1954,
      "æĹ¥åŃĲ": 1955,
      "ĠæĪĳçļĦ": 1956,
      "èº«ä¸Ĭ": 1957,
      "å½ĵä¸Ń": 1958,
      "ç»Īäºİ": 1959,
      "åĲĽ": 1960,
      "å¤§äºº": 1961,
      "å®¶çļĦ": 1962,
      "åĮ»éĻ¢": 1963,
      "éŀ": 1964,
      "ĠåĬ": 1965,
      "è®©ä»ĸ": 1966,
      "çĥ§": 1967,
      "æİĮ": 1968,
      "èĨ": 1969,
      "çĪ¶æ¯į": 1970,
      "æĺ¯åľ¨": 1971,
      "ãĢĭ": 1972,
      "ãĢĬ": 1973,
      "æĬĹ": 1974,
      "å£°éŁ³": 1975,
      "åİīå®³": 1976,
      "çĮ´": 1977,
      "left": 1978,
      "çŁŃ": 1979,
      "ĠåĲİ": 1980,
      "æĺ¯ä½ł": 1981,
      "äº«": 1982,
      "å¥Ĺ": 1983,
      "åºŃ": 1984,
      "ä¸įçĶ¨": 1985,
      "åºĬ": 1986,
      "Ġå¤ª": 1987,
      "å®ĥä»¬": 1988,
      "ä¸ĢåĿĹ": 1989,
      "åįĩ": 1990,
      "èĸ": 1991,
      "Ġè·Ł": 1992,
      "åĪ¤": 1993,
      "æł·çļĦ": 1994,
      "åĬ¨çī©": 1995,
      "åŃĻ": 1996,
      "å¤§åĵ¥": 1997,
      "æĹ¢çĦ¶": 1998,
      "ç´¢": 1999,
      "ĠæĶ¾": 2000,
      "å¯¹å¯¹": 2001,
      "ĠæĪĳçŁ¥éģĵ": 2002,
      "åıªèĥ½": 2003,
      "è¿ĩç¨ĭ": 2004,
      "æ³¢": 2005,
      "åľĨ": 2006,
      "çĶļ": 2007,
      "ä¼´": 2008,
      "ĠåĴĮ": 2009,
      "åĪĢ": 2010,
      "Ġä¸Ģä¸ª": 2011,
      "åĲİæĿ¥": 2012,
      "æĭħå¿ĥ": 2013,
      "ä¸Ŀ": 2014,
      "åĸĦ": 2015,
      "çĸ¼": 2016,
      "çº¸": 2017,
      "æ¼Ĥäº®": 2018,
      "æĸ¹å¼ı": 2019,
      "åĲĮåŃ¦": 2020,
      "åº·": 2021,
      "ä¸Ģåıª": 2022,
      "åĽłæŃ¤": 2023,
      "Ġåı¯ä»¥": 2024,
      "æĿ¯": 2025,
      "20": 2026,
      "åľĪ": 2027,
      "ç¬Ķ": 2028,
      "ai": 2029,
      "è¢ĭ": 2030,
      "åħ°": 2031,
      "éĻį": 2032,
      "è¯Ħ": 2033,
      "å±Ĥ": 2034,
      "åĲĮå¿Ĺ": 2035,
      "ç¥¨": 2036,
      "èĢ³": 2037,
      "åıªè¦ģ": 2038,
      "æ´ŀ": 2039,
      "èŀ": 2040,
      "è´§": 2041,
      "Ġ$": 2042,
      "ä¹Łæ²¡": 2043,
      "æĥ³è¦ģ": 2044,
      "Ġå¤ļ": 2045,
      "å¼ĥ": 2046,
      "ä¼¯": 2047,
      "åĹ¯åĹ¯": 2048,
      "æķ£": 2049,
      "è¿ĺæ²¡": 2050,
      "åŃ¦ä¹ł": 2051,
      "æĺ¨å¤©": 2052,
      "ªåĬĽ": 2053,
      "æ¶Īæģ¯": 2054,
      "çĽĳ": 2055,
      "åħ³æ³¨": 2056,
      "æĿ¥æĿ¥": 2057,
      "å¹´è½»": 2058,
      "è±Ĩ": 2059,
      "çĩ": 2060,
      "éĥ½ä¼ļ": 2061,
      "ç§ĺ": 2062,
      "æĹģ": 2063,
      "éĤ£åĦ¿": 2064,
      "ç§ĭ": 2065,
      "æĹħ": 2066,
      "è¿Ľåİ»": 2067,
      "æĬĬæĪĳ": 2068,
      "çļĦéĤ£": 2069,
      "ent": 2070,
      "åĹ": 2071,
      "åĪº": 2072,
      "å®Įåħ¨": 2073,
      "ä¸´": 2074,
      "èĵĿ": 2075,
      "æīĢæľīçļĦ": 2076,
      "Ġä½łè¦ģ": 2077,
      "åŃ¦çĶŁ": 2078,
      "10": 2079,
      "ä¸Ģä¼ļåĦ¿": 2080,
      "å°ģ": 2081,
      "æģĭ": 2082,
      "å´": 2083,
      "ma": 2084,
      "è¾Ľ": 2085,
      "è¿·": 2086,
      "cent": 2087,
      "ç²ī": 2088,
      "åĲ¦": 2089,
      "ľçļĦ": 2090,
      "è®¨": 2091,
      "çĪ·çĪ·": 2092,
      "è¶ĬæĿ¥": 2093,
      "Ġè¿Ļä¹Ī": 2094,
      "èĮ¶": 2095,
      "çľŁçļĦæĺ¯": 2096,
      "å¥¶å¥¶": 2097,
      "ĠæĪĳè¦ģ": 2098,
      "Ġä¸ī": 2099,
      "èĢģæĿ¿": 2100,
      "centerline": 2101,
      "æł¹æį®": 2102,
      "è®Ń": 2103,
      "éĺµ": 2104,
      "å¹²åĲĹ": 2105,
      "éģį": 2106,
      "è¯į": 2107,
      "æĸ°éĹ»": 2108,
      "è¿ĺè¦ģ": 2109,
      "æĪĳåİ»": 2110,
      "è¶ĬæĿ¥è¶Ĭ": 2111,
      "èī²çļĦ": 2112,
      "é¢ľ": 2113,
      "åĨ°": 2114,
      "è¡¥": 2115,
      "Ġä½łå¥½": 2116,
      "æĮĳ": 2117,
      "åĽŀæĿ¥äºĨ": 2118,
      "Ġå¹²": 2119,
      "Ġåĩº": 2120,
      "çĻ¾åĪĨä¹ĭ": 2121,
      "ä¸įæĥ³": 2122,
      "çŃĶåºĶ": 2123,
      "èĥ½åĬĽ": 2124,
      "æĭ¬": 2125,
      "åģļçļĦ": 2126,
      "ä¾Ľ": 2127,
      "è´¥": 2128,
      "æ¹ĸ": 2129,
      "åŃ¦æł¡": 2130,
      "å½ķ": 2131,
      "ĠåĪļ": 2132,
      "æ´ĭ": 2133,
      "éĥ¨åĪĨ": 2134,
      "éĺ¿å§¨": 2135,
      "ä¿ĿæĬ¤": 2136,
      "ä»Ļ": 2137,
      "æ¬¾": 2138,
      "åįļ": 2139,
      "åħ¬ä¸»": 2140,
      "åħħ": 2141,
      "å¤ı": 2142,
      "Ġå¤©": 2143,
      "è¯Ĺ": 2144,
      "ç¢°": 2145,
      "æķĮ": 2146,
      "åĵ¥åĵ¥": 2147,
      "å§Ĳå§Ĳ": 2148,
      "è¿Ļä¹Īå¤ļ": 2149,
      "åĴĭ": 2150,
      "å°±è¦ģ": 2151,
      "åĬªåĬĽ": 2152,
      "å®ĮäºĨ": 2153,
      "å¸¦çĿĢ": 2154,
      "ä½łäºĨ": 2155,
      "åĲįåŃĹ": 2156,
      "çĲĨè§£": 2157,
      "çĭ¸": 2158,
      "ä»ĸä»¬çļĦ": 2159,
      "éĥ½æľī": 2160,
      "éŃĶ": 2161,
      "ä¸¢": 2162,
      "éª¨": 2163,
      "ĠæĪĳè¯´": 2164,
      "ĠæľĢ": 2165,
      "æģ©": 2166,
      "å¾ĹåĪ°": 2167,
      "çīĮ": 2168,
      "åģ¥": 2169,
      "ä½łè¿Ļ": 2170,
      "æĿ¥åĪ°": 2171,
      "é¢Ħ": 2172,
      "åĩłå¤©": 2173,
      "æĪĳçľĭ": 2174,
      "æĭľæĭľ": 2175,
      "ä¸ĭçļĦ": 2176,
      "åĩı": 2177,
      "ä¾ĭ": 2178,
      "éĻĨ": 2179,
      "å³": 2180,
      "Ġæīĵ": 2181,
      "æĻº": 2182,
      "å·¦": 2183,
      "ç»ĩ": 2184,
      "ç»ıæµİ": 2185,
      "ä¹Łæ²¡æľī": 2186,
      "å¦Ĥä½ķ": 2187,
      "éĩĬ": 2188,
      "ĠéĤ£æĪĳ": 2189,
      "æĪĲåĬŁ": 2190,
      "çģ¯": 2191,
      "èĩ£": 2192,
      "è¿ĺä¸į": 2193,
      "äºļ": 2194,
      "ç»ıå¸¸": 2195,
      "æİ¢": 2196,
      "ä½łæĢİä¹Ī": 2197,
      "ç§ģ": 2198,
      "æ£Ģ": 2199,
      "ä¸»è¦ģ": 2200,
      "é¦Ĩ": 2201,
      "èħ¿": 2202,
      "ç¼º": 2203,
      "æĬ¢": 2204,
      "æĬĺ": 2205,
      "åĲ¬è¯´": 2206,
      "ä½Ļ": 2207,
      "çĶļèĩ³": 2208,
      "ä½łçŁ¥éģĵ": 2209,
      "¤Ĳ": 2210,
      "åıĺæĪĲ": 2211,
      "åħ¶ä»ĸ": 2212,
      "éļ¾éģĵ": 2213,
      "Ġä½łçļĦ": 2214,
      "åľ°è¯´": 2215,
      "åĲĵ": 2216,
      "æĪĳåľ¨": 2217,
      "èĮĥ": 2218,
      "çĭĲçĭ¸": 2219,
      "çłĶç©¶": 2220,
      "å¹¸ç¦ı": 2221,
      "è¦ģæ±Ĥ": 2222,
      "èĽĻ": 2223,
      "æ¦Ĥ": 2224,
      "Ġæ¯Ķ": 2225,
      "éĥ½æ²¡": 2226,
      "æĻ®": 2227,
      "ç®Ģåįķ": 2228,
      "ĠçľŁ": 2229,
      "å®ĥçļĦ": 2230,
      "æŀĦ": 2231,
      "åĸĬ": 2232,
      "è¾ĵ": 2233,
      "éĥ½åľ¨": 2234,
      "åī¯": 2235,
      "=\\": 2236,
      "è¿Ļä»¶": 2237,
      "æľīäºĽ": 2238,
      "åĽ°": 2239,
      "å½Ĵ": 2240,
      "å°Ħ": 2241,
      "do": 2242,
      "å¿į": 2243,
      "èĩªçĦ¶": 2244,
      "èĪĴ": 2245,
      "--": 2246,
      "Ġåģļ": 2247,
      "FA": 2248,
      "çļĦéĤ£ä¸ª": 2249,
      "ä¸ģ": 2250,
      "æĦŁæĥħ": 2251,
      "åĵªéĩĮ": 2252,
      "èĦ±": 2253,
      "åİŁæĿ¥": 2254,
      "çīĻ": 2255,
      "æĸ½": 2256,
      "Ġåī": 2257,
      "çĿ¡è§ī": 2258,
      "ĠæĮ": 2259,
      "Ġå¦Īå¦Ī": 2260,
      "éĤ£è¾¹": 2261,
      "FATHER": 2262,
      "ä¼ĳæģ¯": 2263,
      "æľ¬æĿ¥": 2264,
      "æĸ°çļĦ": 2265,
      "é¤Ĳ": 2266,
      "åĪļåĪļ": 2267,
      "æµª": 2268,
      "æĺ¯è°ģ": 2269,
      "é½Ĳ": 2270,
      "è§£åĨ³": 2271,
      "çĶŁæ°Ķ": 2272,
      "æĸĩåĮĸ": 2273,
      "åį°": 2274,
      "æī¹": 2275,
      "Ġåıªè¦ģ": 2276,
      "çħ§é¡¾": 2277,
      "æ¸¸æĪı": 2278,
      "å¼Ĥ": 2279,
      "{{{": 2280,
      "åĭĩ": 2281,
      "Ġæ°": 2282,
      "ĠæĻ": 2283,
      "çļĦäºĭåĦ¿": 2284,
      "èĥĸ": 2285,
      "çĪ¬": 2286,
      "åĬ²": 2287,
      "æ³¨æĦı": 2288,
      "åĶĲ": 2289,
      "åŃĲéĩĮ": 2290,
      "çĽĺ": 2291,
      "ä¸įä½ı": 2292,
      "éķľ": 2293,
      "å¥³åŃ©": 2294,
      "un": 2295,
      "é¡¿": 2296,
      "ĠåĳĢ": 2297,
      "æĿ¡ä»¶": 2298,
      "å¯¹äºİ": 2299,
      "å¯»": 2300,
      "åı³": 2301,
      "éĻ¤äºĨ": 2302,
      "æ£®": 2303,
      "Ġæĭ¿": 2304,
      "çİ¯å¢ĥ": 2305,
      "èĢĥèĻĳ": 2306,
      "åĲµ": 2307,
      "å¤§äºĨ": 2308,
      "ĠåħĪ": 2309,
      "å¸ħ": 2310,
      "éĽ·": 2311,
      "ç¨³": 2312,
      "ä»»åĬ¡": 2313,
      "å¤ªéĺ³": 2314,
      "è¶£": 2315,
      "æĳĨ": 2316,
      "ä¸ĬéĿ¢": 2317,
      "éĿ©": 2318,
      "è½®": 2319,
      "æģ¶": 2320,
      "å¾Īå¥½": 2321,
      "éĿĴèĽĻ": 2322,
      "æĽ²": 2323,
      "åĮ»çĶŁ": 2324,
      "èº²": 2325,
      "å°±æĺ¯è¯´": 2326,
      "å¿«ä¹Ĳ": 2327,
      "æ²ī": 2328,
      "åľ¨æĪĳ": 2329,
      "ä¼ļæľī": 2330,
      "åĳĹ": 2331,
      "çĥŁ": 2332,
      ".$$": 2333,
      "åĬ³": 2334,
      "æ¤į": 2335,
      "é¢ĳ": 2336,
      "éº»çĥ¦": 2337,
      "åŃ£": 2338,
      "å°ıå¿ĥ": 2339,
      "æļĹ": 2340,
      "çĤ¹åĦ¿": 2341,
      "çĺ": 2342,
      "å°ıæĹ¶": 2343,
      "he": 2344,
      "éħ¸": 2345,
      "æīĺ": 2346,
      "und": 2347,
      "åĲ¬åĪ°": 2348,
      "ĠåĲĮ": 2349,
      "çĿĢæĪĳ": 2350,
      "æĬĢæľ¯": 2351,
      "Ġè¿ĻäºĽ": 2352,
      "åİ¿": 2353,
      "åİ»æī¾": 2354,
      "éķ¿çļĦ": 2355,
      "åĨ¬": 2356,
      "ĠæĪĳçİ°åľ¨": 2357,
      "}$$,": 2358,
      "å¯¹æĪĳ": 2359,
      "è®¾è®¡": 2360,
      "ç¥ĸ": 2361,
      "äºĮéĽ¶": 2362,
      "çģ°": 2363,
      "ä¸ĢèĪ¬": 2364,
      "ä»Ģä¹ĪåĳĢ": 2365,
      "çłģ": 2366,
      "æĪ´": 2367,
      "äººä»¬": 2368,
      "åĤ»": 2369,
      "åķĬä½ł": 2370,
      "ç«¯": 2371,
      "ä¼ģ": 2372,
      "èĢģé¼ł": 2373,
      "æķ´ä¸ª": 2374,
      "è¡Ĺ": 2375,
      "åķĬæĪĳ": 2376,
      "æĢ»æĺ¯": 2377,
      "åİŁåĽł": 2378,
      "ĠçľŁçļĦ": 2379,
      "ä½ľçĶ¨": 2380,
      "æĶ»": 2381,
      "åıĤåĬł": 2382,
      "ä¿¡æģ¯": 2383,
      "underline": 2384,
      "åİĤ": 2385,
      "Ġåıį": 2386,
      "å·§": 2387,
      "èĥ½ä¸įèĥ½": 2388,
      "å¦ĤæŃ¤": 2389,
      "ç§¦": 2390,
      "ä¹Į": 2391,
      "ä¸Ģçľĭ": 2392,
      "éŀĭ": 2393,
      "åĲ¹": 2394,
      "èĶ": 2395,
      "æĿŁ": 2396,
      "³å¦ĩ": 2397,
      "å°±åľ¨": 2398,
      "å¯¹åķĬ": 2399,
      "æħ¢æħ¢": 2400,
      "éĩĮè¾¹": 2401,
      "éģĹ": 2402,
      "å¸®æĪĳ": 2403,
      "ç«ł": 2404,
      "Ġæ¬": 2405,
      "ĠåĿ": 2406,
      "æĶ¹åıĺ": 2407,
      "Ġå¼Ģ": 2408,
      "å¤§åŃ¦": 2409,
      "ä»İæĿ¥": 2410,
      "äºĨä»ĸ": 2411,
      "ç»ıè¿ĩ": 2412,
      "æĹłæ³ķ": 2413,
      "å±ŀäºİ": 2414,
      "èĤļ": 2415,
      "çŀ§": 2416,
      "åĽŀçŃĶ": 2417,
      "å®ģ": 2418,
      "æĬĬä½ł": 2419,
      "æĿ°": 2420,
      "æĵį": 2421,
      "ä¸¤å¤©": 2422,
      "æĮ¥": 2423,
      "å¸®åĬ©": 2424,
      "çĶŁåĳ½": 2425,
      "çļĦåĲĹ": 2426,
      "æĳĩ": 2427,
      "Ġå±": 2428,
      "ĠçŁ¥éģĵ": 2429,
      "å°¾": 2430,
      "çļĩä¸Ĭ": 2431,
      "éĻĲ": 2432,
      "éĹ®ä½ł": 2433,
      "ç³ĸ": 2434,
      "çĶµè§Ĩ": 2435,
      "çļĦåķĬ": 2436,
      "ä¸Ģå®ļä¼ļ": 2437,
      "éĢı": 2438,
      "æļĸ": 2439,
      "èĭ¹": 2440,
      "çĵľ": 2441,
      "ç»į": 2442,
      "ä»Ģä¹ĪæĹ¶åĢĻ": 2443,
      "è¿Ľåħ¥": 2444,
      "å®¶äºº": 2445,
      "åĳĬè¯īæĪĳ": 2446,
      "èĪį": 2447,
      "æ¶²": 2448,
      "æĪĳçŁ¥éģĵ": 2449,
      "Ġåĵ¦": 2450,
      "ä»ĸæĺ¯": 2451,
      "ç¥Ŀ": 2452,
      "æ¾": 2453,
      "è¡ĮäºĨ": 2454,
      "é¢Ĺ": 2455,
      "Ġæŀ": 2456,
      "è¾ĪåŃĲ": 2457,
      "ä¸Ĭåİ»": 2458,
      "åºĨ": 2459,
      "äººæ°ĳ": 2460,
      "çľŁæŃ£": 2461,
      "ä½łåľ¨": 2462,
      "åħį": 2463,
      "èĭ¹æŀľ": 2464,
      "{}$$": 2465,
      "èĻ«": 2466,
      "Ġy": 2467,
      "ä¸ĢæĿ¡": 2468,
      "è·¯ä¸Ĭ": 2469,
      "ç¯®": 2470,
      "çľĭäºĨ": 2471,
      "ä½³": 2472,
      "ä¸Ģè¾¹": 2473,
      "çĪ±çļĦ": 2474,
      "åĪĨéĴŁ": 2475,
      "Ġçİĭ": 2476,
      "Ġä¸º": 2477,
      "æł¸": 2478,
      "åĮĹäº¬": 2479,
      "èİ«": 2480,
      "æī§": 2481,
      "éķĩ": 2482,
      "ä¸įè§ģ": 2483,
      "ç»Ŀå¯¹": 2484,
      "çĿĢæĢ¥": 2485,
      "è§ģè¿ĩ": 2486,
      "ti": 2487,
      "æĿĤ": 2488,
      "Ġä½łä¸į": 2489,
      "ç²¾ç¥ŀ": 2490,
      "ä¸¤ä¸ªäºº": 2491,
      "éļĲ": 2492,
      "Ġè¦ģä¸į": 2493,
      "æ¯įäº²": 2494,
      "èµ¢": 2495,
      "å°±åı¯ä»¥": 2496,
      "æĥľ": 2497,
      "çıł": 2498,
      "éĢ¼": 2499,
      "Ġä½łè¿Ļ": 2500,
      "é¹¿": 2501,
      "åıĺåĮĸ": 2502,
      "å°Ŀ": 2503,
      "äº¿": 2504,
      "è·ŁæĪĳè¯´": 2505,
      "éĽĦ": 2506,
      "å¥ĸ": 2507,
      "åľ¨è¿ĻéĩĮ": 2508,
      "è¡¨ç¤º": 2509,
      "çļĦæĹ¶éĹ´": 2510,
      "sh": 2511,
      "æİ¥åıĹ": 2512,
      "æĪĳè¿Ļ": 2513,
      "æĬĬä»ĸ": 2514,
      "ç¬¬ä¸Ģæ¬¡": 2515,
      "æĺ¯æľī": 2516,
      "æĥ¯": 2517,
      "éĽħ": 2518,
      "å«Į": 2519,
      "åĽŀåĪ°": 2520,
      "åª³å¦ĩ": 2521,
      "çĽĸ": 2522,
      "åĩĢ": 2523,
      "Ġ$$": 2524,
      "ĠåİŁ": 2525,
      "åĽŀäºĭ": 2526,
      "æ¸Ĳ": 2527,
      "è¡¨çİ°": 2528,
      "å®Ĺ": 2529,
      "äºĶåįģ": 2530,
      "çĶ²": 2531,
      "ä¹Łæľī": 2532,
      "æĸ¹åĲĳ": 2533,
      "Ġä½łè¿ĺ": 2534,
      "æĽ¾ç»ı": 2535,
      "ä¸ĢçĻ¾": 2536,
      "å¥½å¤ļ": 2537,
      "éº¦": 2538,
      "èģĶç³»": 2539,
      "Ġä¸įè¦ģ": 2540,
      "ä¸ĭäºĨ": 2541,
      "å¨ģ": 2542,
      "æĬĬå®ĥ": 2543,
      "åĲ´": 2544,
      "dot": 2545,
      "å¥½ä¸įå¥½": 2546,
      "æģĲ": 2547,
      "è¿°": 2548,
      "çĮľ": 2549,
      "åŁİå¸Ĥ": 2550,
      "æĪ¿éĹ´": 2551,
      "Ġb": 2552,
      "é»ĺ": 2553,
      "ä»ĸå°±": 2554,
      "æĿ¥çľĭ": 2555,
      "æ¢ħ": 2556,
      "Ġn": 2557,
      "å¸Ĥåľº": 2558,
      "æĻĵ": 2559,
      "çŃĸ": 2560,
      "ç§»": 2561,
      "æĹ©å°±": 2562,
      "éĢŁåº¦": 2563,
      "çĶŁçļĦ": 2564,
      "éŁ©": 2565,
      "éĿ¢åīį": 2566,
      "Ġå®¶": 2567,
      "èģª": 2568,
      "å®ĮæĪĲ": 2569,
      "è¿Ļä¸ªäºº": 2570,
      "æĺ¯åĽłä¸º": 2571,
      "æ°¸è¿ľ": 2572,
      "é¼ĵ": 2573,
      "å°ĨåĨĽ": 2574,
      "ĠæĪĳè¿Ļ": 2575,
      "è®¡åĪĴ": 2576,
      "Ġä»¥": 2577,
      "ä½łè¿ĺ": 2578,
      "å¹³æĹ¶": 2579,
      "æĮĤ": 2580,
      "ç£¨": 2581,
      "åĲĥçļĦ": 2582,
      "ç¾İä¸½": 2583,
      "ĠæĿİ": 2584,
      "çªĹ": 2585,
      "é¥¿": 2586,
      "æĳ¸": 2587,
      "åĪ«çļĦ": 2588,
      "éĴĪ": 2589,
      "æ²Ī": 2590,
      "å°Ĭ": 2591,
      "å«ģ": 2592,
      "ĠçĪ¸çĪ¸": 2593,
      "æĢĿèĢĥ": 2594,
      "çĥĪ": 2595,
      "ä»Ĭå¹´": 2596,
      "çĽĬ": 2597,
      "Ġä»¥åĲİ": 2598,
      "åĨĴ": 2599,
      "å¨ĥ": 2600,
      "å¥½åķĬ": 2601,
      "ä»£è¡¨": 2602,
      "éĿ¢çļĦ": 2603,
      "æ¡Į": 2604,
      "å®£": 2605,
      "Ġä¸Ģå®ļ": 2606,
      "èį£": 2607,
      "ä¸ĢæŃ¥": 2608,
      "å·¨": 2609,
      "çıį": 2610,
      "çļĦå°±æĺ¯": 2611,
      "å®ŀåľ¨": 2612,
      "ä½łåİ»": 2613,
      "è¡ĮåĬ¨": 2614,
      "æķ¬": 2615,
      "é²ľ": 2616,
      "åŁºæľ¬": 2617,
      "æ··": 2618,
      "Ġæ±": 2619,
      "å¾ģ": 2620,
      "éĤ£ä¹Īå¤ļ": 2621,
      "ä½łæĥ³": 2622,
      "æ®µæĹ¶éĹ´": 2623,
      "Ġä½łçŁ¥éģĵ": 2624,
      "æľīçļĦ": 2625,
      "ç¡¬": 2626,
      "æĪĳçİ°åľ¨": 2627,
      "ä½įç½®": 2628,
      "ĠçĶ¨": 2629,
      "çĤ¸": 2630,
      "åĨł": 2631,
      "éĶ®": 2632,
      "æĸ¹æ³ķ": 2633,
      "éĺŁéķ¿": 2634,
      "åĩºæĿ¥äºĨ": 2635,
      "åĤħ": 2636,
      "}\\": 2637,
      "éģĩåĪ°": 2638,
      "ä½ıäºĨ": 2639,
      "åİĨåı²": 2640,
      "è§¦": 2641,
      "åĽ½çİĭ": 2642,
      "Ġä½łåĪ«": 2643,
      "ĠæĦ": 2644,
      "å¼ĢäºĨ": 2645,
      "ä¸įåı¯": 2646,
      "èľľ": 2647,
      "çļĦåĳĢ": 2648,
      "æľīäºĨ": 2649,
      "ä»Ģä¹Īåĳ¢": 2650,
      "èĢģå©Ĩ": 2651,
      "è¯ļ": 2652,
      "çĬ¶æĢģ": 2653,
      "Ġå¼ł": 2654,
      "å¦¹å¦¹": 2655,
      "åŃĺåľ¨": 2656,
      "æ£Ĵ": 2657,
      "ä¸Ĭæµ·": 2658,
      "çĶľ": 2659,
      "åĲĮæĹ¶": 2660,
      "åľ°ä¸Ĭ": 2661,
      "å°ıçļĦ": 2662,
      "æļ´": 2663,
      "Ġéķ¿": 2664,
      "è¿ĺåľ¨": 2665,
      "ä»ĭç»į": 2666,
      "Ġè¿ĻéĩĮ": 2667,
      "ä¸įå¤ª": 2668,
      "æĪĳäºĨ": 2669,
      "å¾ĹäºĨ": 2670,
      "è½¯": 2671,
      "å¾Ĺå¾Ī": 2672,
      "éªĤ": 2673,
      "Ġæį": 2674,
      "è´Łè´£": 2675,
      "ç«¥": 2676,
      "\",": 2677,
      "åıįåºĶ": 2678,
      "ä»ĸè¯´": 2679,
      "ä¸įä¸Ģæł·": 2680,
      "çĵ¶": 2681,
      "æīĵçĶµè¯Ŀ": 2682,
      "Ġåı¯èĥ½": 2683,
      "åĵĩ": 2684,
      "çģŃ": 2685,
      "Ġå¹¶": 2686,
      "éŁ³ä¹Ĳ": 2687,
      "æĬ¥åĳĬ": 2688,
      "æ³¡": 2689,
      "æŁĵ": 2690,
      "ä¸įç®¡": 2691,
      "èħ¾": 2692,
      "ĠåºĶ": 2693,
      "la": 2694,
      "å¼±": 2695,
      "è·Ŀ": 2696,
      "Ġéĥ½æĺ¯": 2697,
      "ä¸Ģå¹´": 2698,
      "æĭ¼": 2699,
      "è¿ĽæĿ¥": 2700,
      "åħ¨éĥ¨": 2701,
      "åģļäºĨ": 2702,
      "å®¶åºŃ": 2703,
      "th": 2704,
      "æĬ½": 2705,
      "åĽĽåįģ": 2706,
      "æĢİä¹ĪäºĨ": 2707,
      "å®īæİĴ": 2708,
      "ĠåĲİæĿ¥": 2709,
      "æŃ£å¸¸": 2710,
      "ç»Ħç»ĩ": 2711,
      "åįł": 2712,
      "æ¡¥": 2713,
      "ĠåĶ": 2714,
      "åħ³äºİ": 2715,
      "å¥½åĲĹ": 2716,
      "ä¸ĢåĪĩ": 2717,
      "å°±åĥı": 2718,
      "æ»ļ": 2719,
      "çİ°åľº": 2720,
      "å¤ĦçĲĨ": 2721,
      "å¥¹ä»¬": 2722,
      "Ġè®²": 2723,
      "çŃ¾": 2724,
      "Ġx": 2725,
      "è·ŁçĿĢ": 2726,
      "åģı": 2727,
      "çĻ»": 2728,
      "æĶ¾åľ¨": 2729,
      "å¥½åĲ§": 2730,
      "èŃ¦å¯Ł": 2731,
      "ä½łåķĬ": 2732,
      "æ´»åĬ¨": 2733,
      "Ġåħ¨": 2734,
      "æĶ¯æĮģ": 2735,
      "Ġz": 2736,
      "ä¸¹": 2737,
      "ĠæĹł": 2738,
      "ç®Ĺæĺ¯": 2739,
      "åį±éĻ©": 2740,
      "å¯¹ä¸įèµ·": 2741,
      "åįĥä¸ĩ": 2742,
      "ĠæĪĳçľĭ": 2743,
      "éĹŃ": 2744,
      "æ¬§": 2745,
      "åĲ«": 2746,
      "çļĦå¿ĥ": 2747,
      "æĲ¬": 2748,
      "èµ·äºĨ": 2749,
      "âĳł": 2750,
      "çĸĹ": 2751,
      "åĿĹéĴ±": 2752,
      "ĠéĤ£å°±": 2753,
      "éģĵçĲĨ": 2754,
      "ang": 2755,
      "å®ĭ": 2756,
      "å®³æĢķ": 2757,
      "è§£éĩĬ": 2758,
      "è°ĵ": 2759,
      "ä¸įä¸Ĭ": 2760,
      "å¿ĥçļĦ": 2761,
      "å¤©å¤©": 2762,
      "è°ĭ": 2763,
      "çĽĽ": 2764,
      "äº¡": 2765,
      "ĠæĪĳè¿ĺ": 2766,
      "æ¸¯": 2767,
      "æľ±": 2768,
      "èĻļ": 2769,
      "åºĦ": 2770,
      "æĻ¨": 2771,
      "å¦Ĥè¯´": 2772,
      "ä¸įåľ¨": 2773,
      "time": 2774,
      "ĠåĵİåĳĢ": 2775,
      "èĥĨ": 2776,
      "å¤®": 2777,
      "times": 2778,
      "éĤ£ä½ł": 2779,
      "âĳ¡": 2780,
      "ç¦»å©ļ": 2781,
      "Ġä¸¤": 2782,
      "è¿¹": 2783,
      "ç¬¦": 2784,
      "çī©ä½ĵ": 2785,
      "æĪĳæĿ¥": 2786,
      "åİħ": 2787,
      "é£ŀæľº": 2788,
      "åĲĦç§į": 2789,
      "Ġæ´": 2790,
      "AN": 2791,
      "ĠèĻ½çĦ¶": 2792,
      "ä½¿çĶ¨": 2793,
      "è°·": 2794,
      "éĿ¢å¯¹": 2795,
      "Ġå·²": 2796,
      "æĤ¨çļĦ": 2797,
      "å¿ĺäºĨ": 2798,
      "å¸®ä½ł": 2799,
      "ä¹Łä¸įçŁ¥éģĵ": 2800,
      "è¾Ľèĭ¦": 2801,
      "åľ¨è¿Ļä¸ª": 2802,
      "Ġä¸ºäºĨ": 2803,
      "ä¸»ä»»": 2804,
      "ç®±": 2805,
      "è¯´æĺİ": 2806,
      "ä½łåĪ«": 2807,
      "Ġä½łæĥ³": 2808,
      "ä¸Ģä½į": 2809,
      "æģ¨": 2810,
      "Ġåįģ": 2811,
      "è®¸å¤ļ": 2812,
      "ç»ª": 2813,
      "éĤ£éĩĮ": 2814,
      "åī©": 2815,
      "ä¸Ī": 2816,
      "èģļ": 2817,
      "éĶĻäºĨ": 2818,
      "æĶ¿åºľ": 2819,
      "ĠåŃ©": 2820,
      "å¤ĸéĿ¢": 2821,
      "ç¼ĸ": 2822,
      "æķħéĢī": 2823,
      "å³°": 2824,
      "çĪĨ": 2825,
      "åįı": 2826,
      "å¸Ń": 2827,
      "éģ¿": 2828,
      "å¥½çľĭ": 2829,
      "Ġåıĳ": 2830,
      "åĬĿ": 2831,
      "äººéĥ½": 2832,
      "èĳ£": 2833,
      "ar": 2834,
      "å®¡": 2835,
      "éĶĢ": 2836,
      "èĢģåħ¬": 2837,
      "åĩ¶": 2838,
      "éĹª": 2839,
      "ä¼ģä¸ļ": 2840,
      "æŃ£å¥½": 2841,
      "é¸Ń": 2842,
      "åįģäºĮ": 2843,
      "å¯¹æĸ¹": 2844,
      "çļĦéĹ®é¢ĺ": 2845,
      "Ġåı«": 2846,
      "ä¼°": 2847,
      "æ³ª": 2848,
      "æĲľ": 2849,
      "éĺ»": 2850,
      "Ġå½ĵæĹ¶": 2851,
      "èĴĻ": 2852,
      "è¿ĽäºĨ": 2853,
      "é¦ĸåħĪ": 2854,
      "ä¸Ģä»¶": 2855,
      "æı¡": 2856,
      "è¯´æ³ķ": 2857,
      "æ±¤": 2858,
      "Ġå®Į": 2859,
      "å«Ĥ": 2860,
      "åŁŁ": 2861,
      "è°ĥæŁ¥": 2862,
      "åĿĩ": 2863,
      "çħ§çīĩ": 2864,
      "æĿĲæĸĻ": 2865,
      "Ġæģ": 2866,
      "æ´²": 2867,
      "é¢Ĩå¯¼": 2868,
      "å¤ªå¤ª": 2869,
      "åĩŃ": 2870,
      "Ġåīį": 2871,
      "å¿Ĩ": 2872,
      "èº«ä»½": 2873,
      "Ġå¾Ĺ": 2874,
      "Ġå½ĵçĦ¶": 2875,
      "ç»ıåİĨ": 2876,
      "ç§ĳåŃ¦": 2877,
      "å¯¹ä½ł": 2878,
      "ä¸įå¤ļ": 2879,
      "ç¬¨": 2880,
      "èĥŀ": 2881,
      "å¼Łå¼Ł": 2882,
      "Ġæī¾": 2883,
      "åĿļæĮģ": 2884,
      "ĠåºĶè¯¥": 2885,
      "åĺī": 2886,
      "èŀį": 2887,
      "éĥ½è¦ģ": 2888,
      "åĲİéĿ¢": 2889,
      "è¯´æĺ¯": 2890,
      "ĠæĽ´": 2891,
      "éĤ£æĺ¯": 2892,
      "èµ°åĲ§": 2893,
      "ä¸įæķ¢": 2894,
      "çĶ±äºİ": 2895,
      "ä»ĩ": 2896,
      "ç¼ĺ": 2897,
      "æľīä¸Ģå¤©": 2898,
      "Ġæľ¬": 2899,
      "åŃ¤": 2900,
      "æĹ§": 2901,
      "åİ»åĲ§": 2902,
      "æľªæĿ¥": 2903,
      "åĩºçļĦ": 2904,
      "æķĻèĤ²": 2905,
      "ç»ĵæĿŁ": 2906,
      "æ¤įçī©": 2907,
      "éĺ¶": 2908,
      "æĭ¥": 2909,
      "æīįæĺ¯": 2910,
      "end": 2911,
      "ä¸ĭåĪĹ": 2912,
      "Ġd": 2913,
      "å°±èĥ½": 2914,
      "åĽº": 2915,
      "åĩºæĿ¥çļĦ": 2916,
      "âĳ¢": 2917,
      "çĪ±æĥħ": 2918,
      "åĽ½çļĦ": 2919,
      "åĲī": 2920,
      "çĽ®åīį": 2921,
      "æĤĦ": 2922,
      "Ġè¢«": 2923,
      "äººç±»": 2924,
      "ĠæĪĳåľ¨": 2925,
      "éĶħ": 2926,
      "èĪª": 2927,
      "äº§åħļ": 2928,
      "åĮħæĭ¬": 2929,
      "åĲĪä½ľ": 2930,
      "æĥ³æ³ķ": 2931,
      "åĴĮä½ł": 2932,
      "æ¬º": 2933,
      "åĲĥäºĨ": 2934,
      "æ²¡æĥ³åĪ°": 2935,
      "æĪĳæľī": 2936,
      "è®©äºº": 2937,
      "Ġåħ¬": 2938,
      "ä½łä»¬çļĦ": 2939,
      "èµı": 2940,
      "Ġæİ¥": 2941,
      "Ġåħ³": 2942,
      "Ġæµ": 2943,
      "ä½Ľ": 2944,
      "æĪĳä¼ļ": 2945,
      "æĢĢçĸĳ": 2946,
      "Ġå¸Ī": 2947,
      "ä¹ĸ": 2948,
      "è´´": 2949,
      "å¢Ļ": 2950,
      "è¿ĺèĥ½": 2951,
      "çĻ¾å§ĵ": 2952,
      "éļĶ": 2953,
      "ä¸»äºº": 2954,
      "çļĦæķħäºĭ": 2955,
      "ç²®": 2956,
      "äººåĳĺ": 2957,
      "ä¿Ŀè¯ģ": 2958,
      "å²Ľ": 2959,
      "ä¼Ł": 2960,
      "åħĪèµ°äºĨ": 2961,
      "ĠæĹ¢çĦ¶": 2962,
      "ĠæĢ»": 2963,
      "è¯ģæĺİ": 2964,
      "é¼»": 2965,
      "å¥ĩæĢª": 2966,
      "ä½łä½ł": 2967,
      "å¾Īæľī": 2968,
      "æĲŃ": 2969,
      "ĠåĢ": 2970,
      "çº³": 2971,
      "ĠåĲĹ": 2972,
      "æ¡ĥ": 2973,
      "æ°§": 2974,
      "å¯¹åĲ§": 2975,
      "ç»©": 2976,
      "æī¬": 2977,
      "éĥ¨éĺŁ": 2978,
      "èģªæĺİ": 2979,
      "æ£®æŀĹ": 2980,
      "è¾Ĩ": 2981,
      "ä¹Łä¼ļ": 2982,
      "æīĶ": 2983,
      "ä¸įçĿĢ": 2984,
      "åĪ©çĶ¨": 2985,
      "æīĵå¼Ģ": 2986,
      "äºı": 2987,
      "ç«ŁçĦ¶": 2988,
      "ç¡®å®ļ": 2989,
      "åºŁ": 2990,
      "é¬¼åŃĲ": 2991,
      "ou": 2992,
      "èºº": 2993,
      "åıĹåĪ°": 2994,
      "åħĶåŃĲ": 2995,
      "ç¢Ĺ": 2996,
      "çķ¥": 2997,
      "åĲĮæĦı": 2998,
      "Ġä»ĸè¯´": 2999,
      "çĶŁæĦı": 3000,
      "å¯¹ä¸įå¯¹": 3001,
      "Ġä¸Ń": 3002,
      "ç¬¬ä¸ī": 3003,
      "éĩįè¦ģçļĦ": 3004,
      "æĹģè¾¹": 3005,
      "ä¸įåı¯èĥ½": 3006,
      "éĢĴ": 3007,
      "ĠæĪĳä¼ļ": 3008,
      "æ»ĳ": 3009,
      "éĻĦ": 3010,
      "ä»Ķ": 3011,
      "ge": 3012,
      "åĩī": 3013,
      "è§ģåĪ°": 3014,
      "$${{": 3015,
      "Ġå°Ĩ": 3016,
      "éĥİ": 3017,
      "åıĺå¾Ĺ": 3018,
      "éĥĳ": 3019,
      "Ġåĥı": 3020,
      "çĴ": 3021,
      "æĹ©ä¸Ĭ": 3022,
      "è´£ä»»": 3023,
      "å¦ĸ": 3024,
      "è´¦": 3025,
      "åĲĪéĢĤ": 3026,
      "åĵĪåĵĪåĵĪ": 3027,
      "å¹´åīį": 3028,
      "æĴŀ": 3029,
      "æĭ¾": 3030,
      "ä¸°": 3031,
      "æ¯ķç«Ł": 3032,
      "éªĳ": 3033,
      "æ®¿": 3034,
      "è¯º": 3035,
      "èµļ": 3036,
      "è§Ĥå¯Ł": 3037,
      "æīĵç®Ĺ": 3038,
      "ç³Ĭ": 3039,
      "è¸¢": 3040,
      "åĶ¯": 3041,
      "åħ¸": 3042,
      "èĪĴæľį": 3043,
      "æĮ£": 3044,
      "åĪ·": 3045,
      "ĠåıįæŃ£": 3046,
      "å¾Īå¿«": 3047,
      "æĺ¯åĲĹ": 3048,
      "ĠæĪĸèĢħ": 3049,
      "ĠæĪĳå°±æĺ¯": 3050,
      "è®©æĪĳä»¬": 3051,
      "Ġéĺ¿": 3052,
      "Ġçİ©": 3053,
      "æĹ¶ä»£": 3054,
      "ä¸įçŁ¥": 3055,
      "æįķ": 3056,
      "ä¹Łä¸įä¼ļ": 3057,
      "ä¸¥éĩį": 3058,
      "çĭł": 3059,
      "å®ŀè¯Ŀ": 3060,
      "åĩ¡": 3061,
      "ä»Ģä¹Īäºĭ": 3062,
      "æĦıæĢĿåķĬ": 3063,
      "æĨ": 3064,
      "å¥ĭ": 3065,
      "æİ§åĪ¶": 3066,
      "ä»į": 3067,
      "æĦŁè°¢": 3068,
      "åĨįè¯´": 3069,
      "Ġå·²ç»ı": 3070,
      "åĵİåĳĢ": 3071,
      "è¦ģä¸į": 3072,
      "è¿Ļè¾¹": 3073,
      "æīĢè°ĵ": 3074,
      "æ¼«": 3075,
      "math": 3076,
      "Ġè¿ĩ": 3077,
      "éĤ£æł·": 3078,
      "å¨ľ": 3079,
      "çŃīçĿĢ": 3080,
      "å¾Ĳ": 3081,
      "å®ŀéªĮ": 3082,
      "çŃīçŃī": 3083,
      "å¯¹äºĨ": 3084,
      "çĲ´": 3085,
      "åįģåĪĨ": 3086,
      "Ġä¹Łæĺ¯": 3087,
      "éĢĶ": 3088,
      "ä¼¸": 3089,
      "ç©·": 3090,
      "Ġä½łçİ°åľ¨": 3091,
      "åīĳ": 3092,
      "æľįåĬ¡": 3093,
      "çļĦæĪĳ": 3094,
      "æĥħç»ª": 3095,
      "è¾ŀ": 3096,
      "æĦıä¹ī": 3097,
      "æ±½": 3098,
      "ç«Ļåľ¨": 3099,
      "ä¸Ģå£°": 3100,
      "æİĪ": 3101,
      "åķĨéĩı": 3102,
      "è¦ģåİ»": 3103,
      "è¿ĺæ²¡æľī": 3104,
      "Ġsh": 3105,
      "âĳ£": 3106,
      "å°¼": 3107,
      "äº§çĶŁ": 3108,
      "Ġä¸įç®¡": 3109,
      "ä»ĸåľ¨": 3110,
      "åıįæŃ£": 3111,
      "æĮºå¥½çļĦ": 3112,
      "é¾Ħ": 3113,
      "ç»ĻæĪĳä»¬": 3114,
      "åįģäºĶ": 3115,
      "åİļ": 3116,
      "æĴĴ": 3117,
      "Ġéļ¾éģĵ": 3118,
      "éĩįæĸ°": 3119,
      "ç©ºéĹ´": 3120,
      "èŁ": 3121,
      "ç¤¼çī©": 3122,
      "çŁ¥éģĵäºĨ": 3123,
      "æŃī": 3124,
      "ä¸įå®¹æĺĵ": 3125,
      "è¿Ł": 3126,
      "çĸ¯": 3127,
      "å¿ł": 3128,
      "sq": 3129,
      "èĤ¥": 3130,
      "å§»": 3131,
      "æįŁ": 3132,
      "å¥³æľĭåıĭ": 3133,
      "å°ļ": 3134,
      "ä¸»ä¹ī": 3135,
      "åĵªä¸ª": 3136,
      "ä¹łæĥ¯": 3137,
      "æĬĬè¿Ļä¸ª": 3138,
      "é¢Ŀ": 3139,
      "åºĶè¯¥æĺ¯": 3140,
      "åħ±äº§åħļ": 3141,
      "ĠåĲ§": 3142,
      "ĠåĪĺ": 3143,
      "åģ¥åº·": 3144,
      "çļĦå¥½": 3145,
      "è¡Įä¸º": 3146,
      "åĪĨäº«": 3147,
      "Ġä½łä¹Ł": 3148,
      "ç»ľ": 3149,
      "æĪĳä»¬å°±": 3150,
      "çĶŁçī©": 3151,
      "é²ģ": 3152,
      "å¥Ķ": 3153,
      "ç³»ç»Ł": 3154,
      "ä»Ĺ": 3155,
      "å·Ŀ": 3156,
      "åļ": 3157,
      "çŁ¥è¯Ĩ": 3158,
      "ĠæŃ¤": 3159,
      "é¡¹çĽ®": 3160,
      "ç§Ł": 3161,
      "è¯´ä»Ģä¹Ī": 3162,
      "éĤ£å¤©": 3163,
      "æ¬¢è¿İ": 3164,
      "è¿Ļä¹Īè¯´": 3165,
      "è²": 3166,
      "äºĨä¸ª": 3167,
      "éĺ´": 3168,
      "æ¢ģ": 3169,
      "åĪĨæŀĲ": 3170,
      "çĸ«": 3171,
      "åºı": 3172,
      "çļĦæĥħåĨµ": 3173,
      "æĵ¦": 3174,
      "ç¬¬ä¸Ģä¸ª": 3175,
      "ä½łèĩªå·±": 3176,
      "æĹ¥æľ¬äºº": 3177,
      "å¹²åĺĽ": 3178,
      "æ±ł": 3179,
      "æĪĳèĩªå·±": 3180,
      "åĬĽéĩı": 3181,
      "Ġå¿ĥ": 3182,
      "çº·": 3183,
      "æĺł": 3184,
      "å±ģ": 3185,
      "çĮİ": 3186,
      "å¯Ĵ": 3187,
      "è¶³çĲĥ": 3188,
      "æĪĲçļĦ": 3189,
      "è®¿": 3190,
      "ç©ºæ°Ķ": 3191,
      "ä¼¼çļĦ": 3192,
      "æīİ": 3193,
      "Ġäººå®¶": 3194,
      "Ġé«ĺ": 3195,
      "æĭĸ": 3196,
      "æī°": 3197,
      "æĥ³æĥ³": 3198,
      "æĤĶ": 3199,
      "èĤļåŃĲ": 3200,
      "ĠæĦŁ": 3201,
      "Ġåĺ": 3202,
      "å®ŀéĻħ": 3203,
      "æī«": 3204,
      "æĽ´åĬł": 3205,
      "èª": 3206,
      "ä¸įä»ħ": 3207,
      "èĩªçĶ±": 3208,
      "Ġåį´": 3209,
      "è¶Ł": 3210,
      "ç£ģ": 3211,
      "è´¨éĩı": 3212,
      "éļıä¾¿": 3213,
      "ĠåİŁæĿ¥": 3214,
      "éĹ²": 3215,
      "å°ıåŃĲ": 3216,
      "äºĨåĳ¢": 3217,
      "è½½": 3218,
      "Ġèĩªå·±": 3219,
      "é£Łçī©": 3220,
      "åĲ¬è§ģ": 3221,
      "å¾Ĵ": 3222,
      "å¦Ļ": 3223,
      "åĲĦä½į": 3224,
      "ĠéĻĪ": 3225,
      "å¾Īéļ¾": 3226,
      "å¹´äºĨ": 3227,
      "åİĭåĬĽ": 3228,
      "æľĢå¥½çļĦ": 3229,
      "æ²¡éĶĻ": 3230,
      "ĠæĢİä¹Īæł·": 3231,
      "è´Ń": 3232,
      "åĨħå®¹": 3233,
      "æĪĳä¸Ģ": 3234,
      "éĹ¨åı£": 3235,
      "ä¹Ķ": 3236,
      "åĪ¤æĸŃ": 3237,
      "ç¦ģ": 3238,
      "$$.": 3239,
      "Ġå¥³": 3240,
      "éķ¿å¾Ĺ": 3241,
      "æĬĬè¿Ļ": 3242,
      "rt": 3243,
      "å¤«äºº": 3244,
      "æĭ¿çĿĢ": 3245,
      "è¯´ä¸į": 3246,
      "çļĦçĶŁæ´»": 3247,
      "ä¸įæĸŃ": 3248,
      "çº¯": 3249,
      "çŀİ": 3250,
      "é¢ľèī²": 3251,
      "æĢ¨": 3252,
      "ç»Ĩèĥŀ": 3253,
      "ĠåĪļæīį": 3254,
      "æĬ¬": 3255,
      "éĤ£æĪĳ": 3256,
      "æĹ¦": 3257,
      "èµŀ": 3258,
      "éģŃ": 3259,
      "Ġæ¸": 3260,
      "sqrt": 3261,
      "æĺ¯çļĦ": 3262,
      "Ġæ¬¢": 3263,
      "èı²": 3264,
      "æĺ¯æĢİä¹Ī": 3265,
      "\"ãĢĤ": 3266,
      "åºĵ": 3267,
      "æľīå¾Īå¤ļ": 3268,
      "å¥¥": 3269,
      "èĦı": 3270,
      "æĶ¾å¼ĥ": 3271,
      "å®ŀçİ°": 3272,
      "åĳĲ": 3273,
      "ĠæĪĳéĥ½": 3274,
      "æľīåħ³": 3275,
      "æ²¡ä»Ģä¹Ī": 3276,
      "åıĶåıĶ": 3277,
      "ä¸ĵä¸ļ": 3278,
      "è¯´å¾Ĺ": 3279,
      "çĮ®": 3280,
      "åĢį": 3281,
      "...\"": 3282,
      "å£®": 3283,
      "æ¼Ķåĳĺ": 3284,
      "æıĲä¾Ľ": 3285,
      "Ġåĵ¥": 3286,
      "Ġå¯¹ä¸įèµ·": 3287,
      "ä¸ĬçıŃ": 3288,
      "åĿĲåľ¨": 3289,
      "çĶ·åŃ©": 3290,
      "æľīå¤ļ": 3291,
      "æħ§": 3292,
      "è¸ı": 3293,
      "ç¨į": 3294,
      "åŁ¹": 3295,
      "å®¾": 3296,
      "å¾®ä¿¡": 3297,
      "åģ¶": 3298,
      "fla": 3299,
      "flag": 3300,
      "centerlineend": 3301,
      "centerlineendflag": 3302,
      "æľĢå¤§çļĦ": 3303,
      "æĺİçĻ½äºĨ": 3304,
      "éŃĤ": 3305,
      "æ·¡": 3306,
      "çĶ·æľĭåıĭ": 3307,
      "éĻ·": 3308,
      "çī©è´¨": 3309,
      "æľ«": 3310,
      "çĩķ": 3311,
      "ä¸ĬæĿ¥": 3312,
      "çĶ¨çļĦ": 3313,
      "ĠæĢİä¹ĪäºĨ": 3314,
      "å®ĩ": 3315,
      "ä¸ĢçĽ´åľ¨": 3316,
      "åľ£": 3317,
      "ä½łèĥ½": 3318,
      "ä¸ĩä¸Ģ": 3319,
      "Ġè¿ŀ": 3320,
      "åĦ¿åķĬ": 3321,
      "éĴ»": 3322,
      "ä¸įåİ»": 3323,
      "éĢĤåĲĪ": 3324,
      "è§Ĥä¼Ĺ": 3325,
      "åĲ¯": 3326,
      "çĶŁäº§": 3327,
      "æ³¥": 3328,
      "Ġå¸¦": 3329,
      "åĴ¬": 3330,
      "è¿ĩçļĦ": 3331,
      "ç´§å¼ł": 3332,
      "è¯ģæį®": 3333,
      "èµ°èµ°": 3334,
      "éĴ¢": 3335,
      "æĦŁåĪ°": 3336,
      "ä¸ºä»Ģä¹Īè¦ģ": 3337,
      "Ġå¨": 3338,
      "Ġ(": 3339,
      "æ»´": 3340,
      "Ġé©¬": 3341,
      "æ¯ıæ¬¡": 3342,
      "å¦»åŃĲ": 3343,
      "Ġæīį": 3344,
      "Ġå§Ĳ": 3345,
      "åħ¶ä¸Ń": 3346,
      "ä¼¤å®³": 3347,
      "Ġå¥½äºĨ": 3348,
      "Ġä½Ĩæĺ¯æĪĳ": 3349,
      "Ġåĸľ": 3350,
      "è·Łå¥¹": 3351,
      "ĠçĿĢ": 3352,
      "ä¸ĭéĿ¢": 3353,
      "å²¸": 3354,
      "ç§ĺå¯Ĩ": 3355,
      "å®½": 3356,
      "æĤ²": 3357,
      "ĠæĪĳæĪĳ": 3358,
      "è¸ª": 3359,
      "Ġèĩª": 3360,
      "æī¾æĪĳ": 3361,
      "éĥ½èĥ½": 3362,
      "æĬķèµĦ": 3363,
      "åĽĽä¸ª": 3364,
      "ç½ļ": 3365,
      "ĠåĽĽ": 3366,
      "ä»·åĢ¼": 3367,
      "Ġh": 3368,
      "ä¿º": 3369,
      "åľ¨åĵªåĦ¿": 3370,
      "éļĨ": 3371,
      "ç®¡çĲĨ": 3372,
      "ä¸įå°ĳ": 3373,
      "åİ¨": 3374,
      "ĠéĩĮ": 3375,
      "Ġä»Ĭ": 3376,
      "ç»Ļå¥¹": 3377,
      "ĠæľĢåĲİ": 3378,
      "åľ°çĲĥ": 3379,
      "è·Ŀç¦»": 3380,
      "ä¸įæĩĤ": 3381,
      "æĢ§çļĦ": 3382,
      "ä¹Łä¸įæĺ¯": 3383,
      "å°±æ²¡æľī": 3384,
      "å°ĸ": 3385,
      "æĸ¹ä¾¿": 3386,
      "å¹ħ": 3387,
      "æķı": 3388,
      "Ġè¿Ļæ¬¡": 3389,
      "éĶģ": 3390,
      "æİ¥çĿĢ": 3391,
      "ä»¥åıĬ": 3392,
      "ç¢İ": 3393,
      "}{{{": 3394,
      "ta": 3395,
      "åŃĶ": 3396,
      "åľ°åĮº": 3397,
      "æĢģåº¦": 3398,
      "mathrm": 3399,
      "æīĭéĩĮ": 3400,
      "æĴ¤": 3401,
      "æ£µ": 3402,
      "åı¯èĥ½æĺ¯": 3403,
      "Ġå®ŀ": 3404,
      "å±Ī": 3405,
      "ä½©": 3406,
      "ç¬¬äºĮå¤©": 3407,
      "Ġæ¬¢è¿İ": 3408,
      "Ġæĺİå¤©": 3409,
      "åį·": 3410,
      "è²Į": 3411,
      "ĠåĲĦ": 3412,
      "åİ»çľĭ": 3413,
      "ä½łæľī": 3414,
      "ĠæĪĳæĢİä¹Ī": 3415,
      "==": 3416,
      "æŀĿ": 3417,
      "å¿«çĤ¹": 3418,
      "èĩŃ": 3419,
      "åħ³éĶ®": 3420,
      "åĸ½": 3421,
      "åı¸ä»¤": 3422,
      "å»¶": 3423,
      "èĦ¾": 3424,
      "ĠæĪĳåĳĬè¯īä½ł": 3425,
      "åĩ¤": 3426,
      "ç¾½": 3427,
      "è®©å¥¹": 3428,
      "éĵº": 3429,
      "ä»İå°ı": 3430,
      "Ġä¸įèĥ½": 3431,
      "æ²Ł": 3432,
      "éĢĲ": 3433,
      "èĽĩ": 3434,
      "æŁĶ": 3435,
      "çļĦä¸ĢäºĽ": 3436,
      "å£ģ": 3437,
      "å®¢æ°Ķ": 3438,
      "åı¦å¤ĸ": 3439,
      "ä¸Ģä¹Ŀ": 3440,
      "ä¿ĿæĮģ": 3441,
      "åłĨ": 3442,
      "è¡¨è¾¾": 3443,
      "çĹĩ": 3444,
      "æľĪäº®": 3445,
      "æ¬ł": 3446,
      "Ġä¸ŃåĽ½": 3447,
      "å¯¹åĳĢ": 3448,
      "åīįéĿ¢": 3449,
      "äººäºĨ": 3450,
      "çľĭæĿ¥": 3451,
      "çŁ³å¤´": 3452,
      "èľĤ": 3453,
      "æĺ¯æĪĳä»¬": 3454,
      "è®Ńç»ĥ": 3455,
      "éľĩ": 3456,
      "å°±è¯´": 3457,
      "çļĦèĢģ": 3458,
      "èµ·æĿ¥äºĨ": 3459,
      "èħ°": 3460,
      "å°±æ²¡": 3461,
      "åĴĮå°ı": 3462,
      "åģļä»Ģä¹Ī": 3463,
      "çĭĤ": 3464,
      "Ġa": 3465,
      "Ġ2": 3466,
      "é«ĺçļĦ": 3467,
      "è®¯": 3468,
      "äºĨè¿Ļ": 3469,
      "æĢĴ": 3470,
      "ç¯®çĲĥ": 3471,
      "å¤©ä¸ĭ": 3472,
      "æ¯«": 3473,
      "å¹¶ä¸į": 3474,
      "åĳĨ": 3475,
      "Ġè¿Ļå°±æĺ¯": 3476,
      "çļĦè¿Ļ": 3477,
      "çĽ¸åħ³": 3478,
      "ä½łçİ°åľ¨": 3479,
      "æĭĶ": 3480,
      "æĤ£": 3481,
      "åħ¬åŃĲ": 3482,
      "ç«ĭåĪ»": 3483,
      "çªĿ": 3484,
      "çĮ´åŃĲ": 3485,
      "ä¹Łå¾Ī": 3486,
      "çĶŁæĹ¥": 3487,
      "äº²èĩª": 3488,
      "æ®ĭ": 3489,
      "æ³½": 3490,
      "éĵ¶è¡Į": 3491,
      "åĽ½éĻħ": 3492,
      "ãĢĤ\"\"": 3493,
      "æ¶Ĥ": 3494,
      "å®ľ": 3495,
      "ç¬¦åĲĪ": 3496,
      "ä¸Īå¤«": 3497,
      "çļĦæł·åŃĲ": 3498,
      "åĲĲ": 3499,
      "Ġå°±ç®Ĺ": 3500,
      "å¯¼èĩ´": 3501,
      "Ġç»ĵæŀľ": 3502,
      "Ġåıªæľī": 3503,
      "è§Ĩé¢ĳ": 3504,
      "æº¶": 3505,
      "ĠåĮħ": 3506,
      "å¤§å®¶éĥ½": 3507,
      "æľķ": 3508,
      "èĪħ": 3509,
      "Ġæĺ¯åķĬ": 3510,
      "ĠçľĭæĿ¥": 3511,
      "æĪĳä»¬å®¶": 3512,
      "çİĭåŃĲ": 3513,
      "å±ħçĦ¶": 3514,
      "èİ·å¾Ĺ": 3515,
      "}=": 3516,
      "00": 3517,
      "ä¸Ģåı¥": 3518,
      "ä¸ĢåĿĹåĦ¿": 3519,
      "æ¢¦æĥ³": 3520,
      "æķ°æį®": 3521,
      "å®Ŀå®Ŀ": 3522,
      "é£ĺ": 3523,
      "é¾Ł": 3524,
      "ĠåĽ½": 3525,
      "ä¼°è®¡": 3526,
      "çīµ": 3527,
      "¤åħ¶": 3528,
      "Ġè¿Ļç§į": 3529,
      "çĤ®": 3530,
      "è¯´è¿ĩ": 3531,
      "Ġä½łä¸įæĺ¯": 3532,
      "ç®ĢçĽ´": 3533,
      "å©ļå§»": 3534,
      "åĳ½ä»¤": 3535,
      "è±ª": 3536,
      "æĳĶ": 3537,
      "+\\": 3538,
      "ĠåŃ¦": 3539,
      "çĭ®": 3540,
      "éĿ©åĳ½": 3541,
      "æĺ¯ä¸į": 3542,
      "æİīäºĨ": 3543,
      "çļĦåĳ¢": 3544,
      "æĿľ": 3545,
      "å¨¶": 3546,
      "è¿ĻæĹ¶": 3547,
      "åĵ¼": 3548,
      "è¿ĻäºĭåĦ¿": 3549,
      "èĩ³äºİ": 3550,
      "ä¼į": 3551,
      "Ġæ°´": 3552,
      "å»ºè®®": 3553,
      "æģĭçĪ±": 3554,
      "æĽ´å¤ļ": 3555,
      "äº§åĵģ": 3556,
      "çļĩå¸Ŀ": 3557,
      "ä¼ļä¸įä¼ļ": 3558,
      "çĽ´æĴŃ": 3559,
      "ĠçĻ½": 3560,
      "æĮ¯": 3561,
      "æľĭåıĭä»¬": 3562,
      "å°ıçĨĬ": 3563,
      "ç¯ĩ": 3564,
      "ç«¹": 3565,
      "Ġæ²¡äºĭ": 3566,
      "ĠæĪĳè·Łä½łè¯´": 3567,
      "ĠæŃ£": 3568,
      "å¢ŀåĬł": 3569,
      "çĿĢä½ł": 3570,
      "ä¸Ģçīĩ": 3571,
      "åħ´è¶£": 3572,
      "ä¸ĸçķĮä¸Ĭ": 3573,
      "å¤º": 3574,
      "æĪĳæ²¡": 3575,
      "æĺ¯åĲ¦": 3576,
      "åĽ°éļ¾": 3577,
      "èģĬå¤©": 3578,
      "æĦıè§ģ": 3579,
      "è¿ĩåİ»äºĨ": 3580,
      "æĶ¶æĭ¾": 3581,
      "åľ¾": 3582,
      "èīºæľ¯": 3583,
      "ä¸Ģåľº": 3584,
      "ĥåľ¾": 3585,
      "æĻ®éĢļ": 3586,
      "åĲ¬äºĨ": 3587,
      "é©¾": 3588,
      "æ¶¨": 3589,
      "½åŃĲ": 3590,
      "çĶĺ": 3591,
      "æĢĿæĥ³": 3592,
      "Ġåĳ¨": 3593,
      "æ°ĳæĹı": 3594,
      "ä¹ĺ": 3595,
      "åİĮ": 3596,
      "ro": 3597,
      "ç´«": 3598,
      "åĪ°çİ°åľ¨": 3599,
      "çĥĤ": 3600,
      "äºķ": 3601,
      "åĬĽçļĦ": 3602,
      "é¥±": 3603,
      "æİ¥ä¸ĭæĿ¥": 3604,
      "è¯¶": 3605,
      "èµĶ": 3606,
      "èĭ±éĽĦ": 3607,
      "å¹ķ": 3608,
      "è¿«": 3609,
      "æĺ¯è¦ģ": 3610,
      "å½ĵå¹´": 3611,
      "è§ģéĿ¢": 3612,
      "éŃı": 3613,
      "åĴĮæĪĳ": 3614,
      "çĽ®æłĩ": 3615,
      "èķ": 3616,
      "æ¯ģ": 3617,
      "æ¯ıä¸ª": 3618,
      "äºĨèµ·æĿ¥": 3619,
      "Ġæĺ¯æĪĳ": 3620,
      "èļģ": 3621,
      "æºľ": 3622,
      "Ġä¸įçĶ¨": 3623,
      "ç»Ļä½łä»¬": 3624,
      "Ġè®©æĪĳ": 3625,
      "ji": 3626,
      "Ġå¸ĮæľĽ": 3627,
      "Ġåıªæĺ¯": 3628,
      "è¯¸": 3629,
      "æĪĲç»©": 3630,
      "åĪĳ": 3631,
      "çļĦåħ³ç³»": 3632,
      "åĸĤ": 3633,
      "éķ¿æĹ¶éĹ´": 3634,
      "å¸®å¿Ļ": 3635,
      "æĦŁåıĹ": 3636,
      "ä¸Ńå¤®": 3637,
      "|$$\\": 3638,
      "éĢļçŁ¥": 3639,
      "èĢģèĻİ": 3640,
      "çİ°è±¡": 3641,
      "æ¬£": 3642,
      "Ġæľīä»Ģä¹Ī": 3643,
      "Ġ1": 3644,
      "çķĻä¸ĭ": 3645,
      "éĹº": 3646,
      "åĿıäºĨ": 3647,
      "å¸ģ": 3648,
      "çķª": 3649,
      "è¶ģ": 3650,
      "æ¶ī": 3651,
      "Ġçľĭçľĭ": 3652,
      "è¡¨æ¼Ķ": 3653,
      "è¯´ä»ĸ": 3654,
      "Ġæľīæ²¡æľī": 3655,
      "çļĦåľ°": 3656,
      "èį·": 3657,
      "ç³ķ": 3658,
      "æ±½è½¦": 3659,
      "éĺ³åħī": 3660,
      "å°¸": 3661,
      "åħ±åĲĮ": 3662,
      "åĸĿéħĴ": 3663,
      "åħ·æľī": 3664,
      "å¿ħè¦ģ": 3665,
      "ĠçľŁæĺ¯": 3666,
      "åľ¨ä½ł": 3667,
      "çĿĢåĳ¢": 3668,
      "ç²Ĵ": 3669,
      "åª³å¦ĩåĦ¿": 3670,
      "æĶ¿æ²»": 3671,
      "ĠæĻļ": 3672,
      "çŃĳ": 3673,
      "çľĭåĪ°äºĨ": 3674,
      "äºĭåķĬ": 3675,
      "å°±æĺ¯æĪĳ": 3676,
      "éĤ£å°±": 3677,
      "éĥŃ": 3678,
      "å¹¶æ²¡æľī": 3679,
      "ä»Ķç»Ĩ": 3680,
      "åħ³å¿ĥ": 3681,
      "å°ĳçĪ·": 3682,
      "Ġle": 3683,
      "$$,$$": 3684,
      "èĨĢ": 3685,
      "ĠæĪĳè·Ł": 3686,
      "çĮĽ": 3687,
      "Ġä¸įçŁ¥éģĵ": 3688,
      "éļıçĿĢ": 3689,
      "ä¸Ģå®¶": 3690,
      "è®°ä½ı": 3691,
      "æī¾åĪ°äºĨ": 3692,
      "æıı": 3693,
      "å½»": 3694,
      "Ġæħ": 3695,
      "è¡¡": 3696,
      "èİī": 3697,
      "å¤§æ¦Ĥ": 3698,
      "çĽ¯": 3699,
      "æĺ¯è¿Ļæł·": 3700,
      "è¿Ŀ": 3701,
      "ä¸ŃéĹ´": 3702,
      "èĦĳè¢ĭ": 3703,
      "èĿ¶": 3704,
      "è·ĳäºĨ": 3705,
      "èĢ³æľµ": 3706,
      "æĪĺäºī": 3707,
      "çļĦä½ł": 3708,
      "æ¢¯": 3709,
      "èµ°åĪ°": 3710,
      "è¿ª": 3711,
      "äºĨä¸Ģä¸ĭ": 3712,
      "çļĦæīĭ": 3713,
      "ç»ĻäºĨ": 3714,
      "å¤¸": 3715,
      "æĺ¯ä¸Ģç§į": 3716,
      "æĮīçħ§": 3717,
      "Ġåľ°": 3718,
      "ä¸ŃåĽ½çļĦ": 3719,
      "åĶ¯ä¸Ģ": 3720,
      "æ±ĩ": 3721,
      "ä¸»æĦı": 3722,
      "æĥħæĦŁ": 3723,
      "å§Ĩ": 3724,
      "å®Ŀè´Ŀ": 3725,
      "ä¸»åĬ¨": 3726,
      "åĳ¦": 3727,
      "å¯¹ä»ĸ": 3728,
      "æļĤ": 3729,
      "åĬłæ²¹": 3730,
      "}$": 3731,
      "åĲİçļĦ": 3732,
      "ç»ķ": 3733,
      "åħ¨åĽ½": 3734,
      "ä¸įå°±": 3735,
      "ĠæĪĳå·²ç»ı": 3736,
      "Ġæ³": 3737,
      "ä¸Ģä¸ªå°ı": 3738,
      "æ¹¾": 3739,
      "Ġæĺİ": 3740,
      "ç¼ĵ": 3741,
      "Ġä½łè¦ģæĺ¯": 3742,
      "å¥³çļĦ": 3743,
      "åĩłå¹´": 3744,
      "æĮĸ": 3745,
      "åįģåħ«": 3746,
      "å¹¼": 3747,
      "èĢĲ": 3748,
      "å¿«å¿«": 3749,
      "ä¸ĳ": 3750,
      "èĳĹ": 3751,
      "ĠåĸĶ": 3752,
      "åĪ°çļĦ": 3753,
      "Ġå¤§åĵ¥": 3754,
      "å¿ĥæĥħ": 3755,
      "çļĦå£°éŁ³": 3756,
      "å¤§å¤«": 3757,
      "ä¸īå¹´": 3758,
      "æ´»çĿĢ": 3759,
      "æįī": 3760,
      "å°±ç®Ĺ": 3761,
      "æĺ¯æĪĳçļĦ": 3762,
      "æĪĴ": 3763,
      "è½¨": 3764,
      "ĠçĶļèĩ³": 3765,
      "èĢģçĪ·": 3766,
      "åĺ¿": 3767,
      "ĠäºĶ": 3768,
      "åľ¨å®¶": 3769,
      "ä»Ģä¹ĪçļĦ": 3770,
      "ä¸įå¤Ł": 3771,
      "ç¡Ģ": 3772,
      "èļĤ": 3773,
      "æ£ĢæŁ¥": 3774,
      "åĵŁ": 3775,
      "ä»Ģä¹Īéĥ½": 3776,
      "è¾£": 3777,
      "åĢĴæĺ¯": 3778,
      "åŁĭ": 3779,
      "ĠåĬł": 3780,
      "çľŁå®ŀ": 3781,
      "ä¸įå¦Ĥ": 3782,
      "åĶ®": 3783,
      "Ġå¦Ĥæŀľä½ł": 3784,
      "èĦ¾æ°Ķ": 3785,
      "å½¼": 3786,
      "å¡Ķ": 3787,
      "ç§ĳæĬĢ": 3788,
      "äººåķĬ": 3789,
      "çģ¾": 3790,
      "æīĳ": 3791,
      "çİ°å®ŀ": 3792,
      "è°ħ": 3793,
      "çİ©ç¬ĳ": 3794,
      "ĠåĿĲ": 3795,
      "çŀĴ": 3796,
      "æ¬²": 3797,
      "ç®Ń": 3798,
      "å²©": 3799,
      "è¿ĩç¨ĭä¸Ń": 3800,
      "ä¸»æĴŃ": 3801,
      "å°±æĬĬ": 3802,
      "æĭĴ": 3803,
      "ä»ģ": 3804,
      "ĠA": 3805,
      "ä¸įè¯´": 3806,
      "Ġå¥½å¥½": 3807,
      "ĠæĪĳæ²¡": 3808,
      "èĽ®": 3809,
      "éĩıçļĦ": 3810,
      "åĴ±ä¿©": 3811,
      "èį¡": 3812,
      "èĤ¯å®ļæĺ¯": 3813,
      "èµ¶å¿«": 3814,
      "æĥ³çĿĢ": 3815,
      "ç»ıéªĮ": 3816,
      "ç¼Ŀ": 3817,
      "çĩĥ": 3818,
      "åĬ¨äºĨ": 3819,
      "ä¸Ģå¼ł": 3820,
      "ĠçĭĹ": 3821,
      "Ġä½łæĺ¯ä¸įæĺ¯": 3822,
      "å¿ĥçĲĨ": 3823,
      "è¿Ļä½į": 3824,
      "æĳ©": 3825,
      "Ġè¯¥": 3826,
      "è¿Ļä»¶äºĭæĥħ": 3827,
      "æĢİä¹Īè¯´": 3828,
      "ä¸«": 3829,
      "å°¾å·´": 3830,
      "åŁºç¡Ģ": 3831,
      "çī¢": 3832,
      "è®°èĢħ": 3833,
      "ä¾¯": 3834,
      "ĠæĪĳåİ»": 3835,
      "ç»ĵæŀĦ": 3836,
      "ä¸įåĩº": 3837,
      "åĶī": 3838,
      "éĻĦè¿ĳ": 3839,
      "èī¾": 3840,
      "Ġå¸®": 3841,
      "ä¸Ģæł·çļĦ": 3842,
      "æĪĳå°±æĺ¯": 3843,
      "åĬ±": 3844,
      "ĠåŃ©åŃĲ": 3845,
      "è®©ä»ĸä»¬": 3846,
      "éĺŁçļĦ": 3847,
      "ä¼ĺç§Ģ": 3848,
      "æķ²": 3849,
      "æľŁå¾ħ": 3850,
      "æ°´å¹³": 3851,
      "å¯»æī¾": 3852,
      "ä¼ı": 3853,
      "æĴĳ": 3854,
      "Ġ,": 3855,
      "çļĦåŃ©åŃĲ": 3856,
      "AND": 3857,
      "çĽĲ": 3858,
      "å¤ļä¹ħ": 3859,
      "æ»¡è¶³": 3860,
      "éĤ»": 3861,
      "åĸ·": 3862,
      "æı´": 3863,
      "GR": 3864,
      "èĢĮå·²": 3865,
      "XX": 3866,
      "GRAND": 3867,
      "ä¾¦": 3868,
      "åĪĨæīĭ": 3869,
      "ç§Ĵ": 3870,
      "ç¥¸": 3871,
      "æľīä¸ĢäºĽ": 3872,
      "é¹°": 3873,
      "åĢ¼å¾Ĺ": 3874,
      "å¸ĪåĤħ": 3875,
      "å·¦åı³": 3876,
      "å®¿": 3877,
      "å°ıåŃ©": 3878,
      "ä¸įåıĬ": 3879,
      "å°ıçĻ½": 3880,
      "éĵ¾": 3881,
      "Ġc": 3882,
      "èĬ¬": 3883,
      "è¯·ä½ł": 3884,
      "Ġåķ¦": 3885,
      "ä¼¦": 3886,
      "Ġä»ĸçļĦ": 3887,
      "è®¢": 3888,
      "æ»¡äºĨ": 3889,
      "Ġä¸İ": 3890,
      "ç¹": 3891,
      "æħĮ": 3892,
      "æĥ¨": 3893,
      "æģ¢": 3894,
      "ä»ª": 3895,
      "èµĸ": 3896,
      "çĤ¼": 3897,
      "æ¯Ķå¦Ĥè¯´": 3898,
      "æİ¥è§¦": 3899,
      "ä¹Łè¦ģ": 3900,
      "ç«ŀ": 3901,
      "éĽĢ": 3902,
      "é¢ĺçĽ®": 3903,
      "æ½ľ": 3904,
      "äººçĶŁ": 3905,
      "ä½ľåĵģ": 3906,
      "åľ¨äºĨ": 3907,
      "ĠçĪ¸": 3908,
      "ç¹ģ": 3909,
      "æĪĳè·Ł": 3910,
      "Ġä¸įä¼ļ": 3911,
      "ä½łè¿Ļä¸ª": 3912,
      "ĠæĪĳä¸įæĺ¯": 3913,
      "èµĮ": 3914,
      "çĦ¦": 3915,
      "Ġå°±åĥı": 3916,
      "ä¸įä¸į": 3917,
      "ä¹Łä¸įèĥ½": 3918,
      "ä¾ĿçĦ¶": 3919,
      "ä½łä¼ļ": 3920,
      "çĹĽèĭ¦": 3921,
      "æĺ¯ä»ĸ": 3922,
      "éĥ½å¾Ī": 3923,
      "Ġå¥½åĥı": 3924,
      "ä¸įåĲĮçļĦ": 3925,
      "ä½łåı¯ä»¥": 3926,
      "æ¹¿": 3927,
      "å¼¯": 3928,
      "æĽ´å¤ļçļĦ": 3929,
      "Ġæķħ": 3930,
      "ä½ĵçļĦ": 3931,
      "æıĲéĨĴ": 3932,
      "èĭĹ": 3933,
      "Ġå°ĳ": 3934,
      "èĩ³å°ĳ": 3935,
      "æıĴ": 3936,
      "åŃ¦ä¼ļ": 3937,
      "éĺħ": 3938,
      "åŃĿ": 3939,
      "{\\": 3940,
      "èĴĭ": 3941,
      "èµ°åķĬ": 3942,
      "åĽłä¸ºæĪĳ": 3943,
      "æĤī": 3944,
      "å»ºè®¾": 3945,
      "Ľä¸ĭ": 3946,
      "åı«åģļ": 3947,
      "è´¼": 3948,
      "çĽĹ": 3949,
      "æĥ¹": 3950,
      "é³": 3951,
      "æŁ³": 3952,
      "å¡ŀ": 3953,
      "æĿ¥èĩª": 3954,
      "ç»ĻæĤ¨": 3955,
      "æī¿è®¤": 3956,
      "äºĨå¾Īå¤ļ": 3957,
      "æĦıè¯Ĩ": 3958,
      "è£ģ": 3959,
      "row": 3960,
      "é¥®": 3961,
      "ä¸ĢæĬĬ": 3962,
      "ä¹Łå°±": 3963,
      "æ¨ª": 3964,
      "Ġä¹Łè®¸": 3965,
      "æľ¬é¢ĺ": 3966,
      "çĽ´åĪ°": 3967,
      "åı¯èĥ½ä¼ļ": 3968,
      "æķĻæİĪ": 3969,
      "ĠæŁ": 3970,
      "å·®ä¸įå¤ļ": 3971,
      "å½¢æĪĲ": 3972,
      "ä¹Łå¥½": 3973,
      "æ°ı": 3974,
      "ei": 3975,
      "arrow": 3976,
      "å¥¸": 3977,
      "åĬŀåħ¬": 3978,
      "éħįåĲĪ": 3979,
      "ĠæŀĹ": 3980,
      "å¤©çļĦ": 3981,
      "åįķä½į": 3982,
      "æĳĦ": 3983,
      "åİ»åĵªåĦ¿": 3984,
      "æĪĳæĢİä¹Ī": 3985,
      "æĩĴ": 3986,
      "ç§įåŃĲ": 3987,
      "æĽ¹": 3988,
      "åĸľæ¬¢çļĦ": 3989,
      "æīĭæľ¯": 3990,
      "Ġæĺ¨å¤©": 3991,
      "æĮĳæĪĺ": 3992,
      "ç¨³å®ļ": 3993,
      "å°±æľī": 3994,
      "æĹ¶æľŁ": 3995,
      "åįģå¹´": 3996,
      "ä»ĸå¦Ī": 3997,
      "æ²¿": 3998,
      "èļĤèļģ": 3999,
      "é¥¼": 4000,
      "å¯¹è±¡": 4001,
      "ä¹Ļ": 4002,
      "ĠæĿ¨": 4003,
      "ä¹Łåı¯ä»¥": 4004,
      "çĿĢäºĨ": 4005,
      "ç¿ħ": 4006,
      "è·ĳåĪ°": 4007,
      "ĠæīĢä»¥æĪĳ": 4008,
      "èŃ¦æĸ¹": 4009,
      "çīĪ": 4010,
      "èĢģäºº": 4011,
      "æ®Ĭ": 4012,
      "è¯¯ä¼ļ": 4013,
      "åŃĲä¸Ĭ": 4014,
      "æłĩåĩĨ": 4015,
      "å·¥ç¨ĭ": 4016,
      "å¸ĪçĪ¶": 4017,
      "ç¼©": 4018,
      "ĠéĿĴèĽĻ": 4019,
      "Ġè¿Ļä¸Ģ": 4020,
      "è®¤çľŁ": 4021,
      "åı¯çĪ±": 4022,
      "çİ©åĦ¿": 4023,
      "äºĭåĦ¿åķĬ": 4024,
      "ĠB": 4025,
      "ä»ĵ": 4026,
      "åįģä¸Ģ": 4027,
      "ä¼łç»Ł": 4028,
      "ä½ıåľ¨": 4029,
      "æľĢç»Ī": 4030,
      "Ġ$\\": 4031,
      "å¥³åŃ©åŃĲ": 4032,
      "éĨī": 4033,
      "ç³Ł": 4034,
      "çĽ¾": 4035,
      "æľīæĹ¶åĢĻ": 4036,
      "çŃĶæ¡Īæĺ¯": 4037,
      "çİ°åľ¨çļĦ": 4038,
      "åĳ³éģĵ": 4039,
      "äººåĳ¢": 4040,
      "ç»ĳ": 4041,
      "Ġæĸ°": 4042,
      "è¿ĺå¾Ĺ": 4043,
      "çĽĴ": 4044,
      "èĥ¸": 4045,
      "çĨ¬": 4046,
      "æĿĢäºĨ": 4047,
      "Ġåĩł": 4048,
      "ç½ĳç»ľ": 4049,
      "æī¾ä½ł": 4050,
      "æ¯ķä¸ļ": 4051,
      "è¯´åķĬ": 4052,
      "åĮª": 4053,
      "åŀĥåľ¾": 4054,
      "åĽŀå¤´": 4055,
      "ĠéĤ£æĺ¯": 4056,
      "å¹²åķ¥": 4057,
      "æī¯": 4058,
      "æ²¡åħ³ç³»": 4059,
      "èĲĿ": 4060,
      "æģ¢å¤į": 4061,
      "Ġç»ĻæĪĳ": 4062,
      "-\\": 4063,
      "åĭ¤": 4064,
      "æµ®": 4065,
      "æĺŁæĺŁ": 4066,
      "èįĴ": 4067,
      "åľ°çļĦ": 4068,
      "å¦ĥ": 4069,
      "ĠéĩĮéĿ¢": 4070,
      "æľĹ": 4071,
      "æĪĳä¹Łæĺ¯": 4072,
      "è¿Ļå°±æĺ¯": 4073,
      "ĠåĳĬ": 4074,
      "ç¨Ģ": 4075,
      "ä¸Ģåı¥è¯Ŀ": 4076,
      "ä¸Ńå¿ĥ": 4077,
      "å¹²åĩĢ": 4078,
      "æĪļ": 4079,
      "æħ°": 4080,
      "ĠçĮ«": 4081,
      "çľŁæŃ£çļĦ": 4082,
      "æĪĳä»¬è¦ģ": 4083,
      "æ´Ľ": 4084,
      "å¥ı": 4085,
      "å¸¦æĿ¥": 4086,
      "æĹĹ": 4087,
      "ç²Ĺ": 4088,
      "å¥´": 4089,
      "éĹ®æĪĳ": 4090,
      "æī£": 4091,
      "è¡ĮåĲĹ": 4092,
      "Ġçī¹åĪ«": 4093,
      "çĽ¸åĲĮ": 4094,
      "æ´ª": 4095,
      "æ§": 4096,
      "åıªå¥½": 4097,
      "ç¾İçļĦ": 4098,
      "éĥ½åı¯ä»¥": 4099,
      "Ġè¦ģæĺ¯": 4100,
      "çİ²": 4101,
      "æĪª": 4102,
      "æī§è¡Į": 4103,
      "æĽ¼": 4104,
      "å»·": 4105,
      "ä¿Ĺ": 4106,
      "ĠèĬ±": 4107,
      "åı¯æĢ": 4108,
      "}$$.": 4109,
      "çĺ¦": 4110,
      "ä¸Ģå®ļæĺ¯": 4111,
      "æ©": 4112,
      "å¤«å¦»": 4113,
      "ä»¿": 4114,
      "ĠC": 4115,
      "æ±Ĺ": 4116,
      "åıĳçĶŁäºĨ": 4117,
      "æ³ī": 4118,
      "åįľ": 4119,
      "å®ŀåĬĽ": 4120,
      "Ġä½ķ": 4121,
      "è¯ķè¯ķ": 4122,
      "æĪĳèĥ½": 4123,
      "æī¶": 4124,
      "æĬµ": 4125,
      "éĤ£ä¸ªæĹ¶åĢĻ": 4126,
      "çļĦåĲ§": 4127,
      "éĻĽä¸ĭ": 4128,
      "èĢį": 4129,
      "ä¸»è¦ģæĺ¯": 4130,
      "æ¡£": 4131,
      "çļĦå®¶": 4132,
      "å¥³çĶŁ": 4133,
      "çļĦæľĭåıĭ": 4134,
      "è§ģäºĨ": 4135,
      "äººåľ¨": 4136,
      "Ġä½łåľ¨": 4137,
      "è·ŁæĪĳä»¬": 4138,
      "å¾Īä¹ħ": 4139,
      "åİ»åģļ": 4140,
      "Ġåı¯æĺ¯æĪĳ": 4141,
      "è¹¦": 4142,
      "çĳŀ": 4143,
      "æ·»": 4144,
      "Ġä¹Łä¸į": 4145,
      "ä¸įå¥½æĦıæĢĿ": 4146,
      "åıĹä¼¤": 4147,
      "12": 4148,
      "å½ĵåĪĿ": 4149,
      "çĭ±": 4150,
      "Ġä¸ľè¥¿": 4151,
      "å¿§": 4152,
      "ä¸įæĺ¯æĪĳ": 4153,
      "è£Ĥ": 4154,
      "ä¸Ģåı£": 4155,
      "æĿ¾é¼ł": 4156,
      "ç½¢": 4157,
      "è¯´å®Į": 4158,
      "åĩºéĹ¨": 4159,
      "è¿ĺä¼ļ": 4160,
      "æıĲé«ĺ": 4161,
      "ä¸¤ä½į": 4162,
      "çļĦå·¥ä½ľ": 4163,
      "åı¯ä¸į": 4164,
      "æĪĲéķ¿": 4165,
      "å°ıæĹ¶åĢĻ": 4166,
      "Ġæį®": 4167,
      "Ġåĸľæ¬¢": 4168,
      "çŁĽ": 4169,
      "çĭ®åŃĲ": 4170,
      "ä½łçŁ¥éģĵåĲĹ": 4171,
      "æĸ¤": 4172,
      "æħķ": 4173,
      "Ġæħ¢": 4174,
      "æ¬ºè´Ł": 4175,
      "èĢĢ": 4176,
      "ä¸ĵéĹ¨": 4177,
      "çī²": 4178,
      "ĠåĸĤ": 4179,
      "çľī": 4180,
      "ĠæĹ©": 4181,
      "Ġæ²¡æĥ³åĪ°": 4182,
      "ä¸įå¼Ģ": 4183,
      "è¿ĺæĮº": 4184,
      "æĥ³è±¡": 4185,
      "æľĪäºĮåįģ": 4186,
      "åıĳçİ°äºĨ": 4187,
      "æķĮäºº": 4188,
      "Ġä¸ĢçĽ´": 4189,
      "éĺŁä¼į": 4190,
      "å¹´é¾Ħ": 4191,
      "åģļå¥½": 4192,
      "çĽ®çļĦ": 4193,
      "å¹´çºª": 4194,
      "åĲįçļĦ": 4195,
      "é¹ħ": 4196,
      "æŁľ": 4197,
      "ä½łä»¬ä¿©": 4198,
      "å«Įçĸĳ": 4199,
      "è¯Ĭ": 4200,
      "æ´ģ": 4201,
      "æĺ¯ä¸ºäºĨ": 4202,
      "è´«": 4203,
      "çĽŁ": 4204,
      "å¤´åıĳ": 4205,
      "Ġå¾Īå¤ļ": 4206,
      "ä»ĸä¸į": 4207,
      "è´¤": 4208,
      "ä¸Ģå¤§": 4209,
      "åĶ±æŃĮ": 4210,
      "Ġä½łè§īå¾Ĺ": 4211,
      "æĬĬå¥¹": 4212,
      "19": 4213,
      "ä¿ĥ": 4214,
      "åĿ¡": 4215,
      "æĪĳå·²ç»ı": 4216,
      "åĺŀ": 4217,
      "ĠåĸĿ": 4218,
      "åĨĽçļĦ": 4219,
      "çľĭè¿ĩ": 4220,
      "æ½®": 4221,
      "ĠæĪĳçľŁçļĦ": 4222,
      "Ġåı¦": 4223,
      "å¥ī": 4224,
      "åĢº": 4225,
      "åĳµ": 4226,
      "ĠæĪĳæľī": 4227,
      "å°±è¿Ļæł·": 4228,
      "è®°å½ķ": 4229,
      "æĢİæł·": 4230,
      "å¤±è´¥": 4231,
      "äº¤æµģ": 4232,
      "å°±åİ»": 4233,
      "æĮ¡": 4234,
      "Ġåį³": 4235,
      "æĶ¾å¿ĥåĲ§": 4236,
      "æĪĳæ²¡æľī": 4237,
      "åĪĨåĪ«": 4238,
      "åºķä¸ĭ": 4239,
      "æĺ¾ç¤º": 4240,
      "ä»¥æĿ¥": 4241,
      "è§Ħå®ļ": 4242,
      "æĢİä¹Īä¼ļ": 4243,
      "è¢«äºº": 4244,
      "æĮĩæĮ¥": 4245,
      "äºĨå¥½": 4246,
      "åħ½": 4247,
      "åģļåĪ°": 4248,
      "è¿ħ": 4249,
      "Ġå¹³": 4250,
      "ä¸ªæľĪ": 4251,
      "ç©¶ç«Ł": 4252,
      "ä¸īçĻ¾": 4253,
      "æĪĳåı¯ä»¥": 4254,
      "é¦ĸæŃĮ": 4255,
      "æķħæĦı": 4256,
      "çļĦæľĢ": 4257,
      "ĠåĪĨ": 4258,
      "ç¾İä¸½çļĦ": 4259,
      "è¯»ä¹¦": 4260,
      "ä¹Łå¾Ĺ": 4261,
      "åĿ¦": 4262,
      "å¹¶ä¸įæĺ¯": 4263,
      "åĪĨåŃĲ": 4264,
      "æĦıæĢĿæĺ¯": 4265,
      "çĶ³": 4266,
      "çĶµèĦĳ": 4267,
      "æĳĺ": 4268,
      "å¿½çĦ¶": 4269,
      "éļľ": 4270,
      "æĹ¶åĪ»": 4271,
      "Ġè¡ĮäºĨ": 4272,
      "è¡Įä¸ļ": 4273,
      "ĠéĤ£æĪĳä»¬": 4274,
      "ä¸ĢçĤ¹åĦ¿": 4275,
      "éĹ·": 4276,
      "å±ı": 4277,
      "æĪĳå¦Ī": 4278,
      "ä¸ĭåįĪ": 4279,
      "åıĳå¸ĥ": 4280,
      "æĸĩç«ł": 4281,
      "Ġæİī": 4282,
      "å°±è¿Ļä¹Ī": 4283,
      "è´º": 4284,
      "åŃķ": 4285,
      "åĭĴ": 4286,
      "ĠæĪĳä»¬çļĦ": 4287,
      "å¾Ĺå¥½": 4288,
      "å¾Īå¤§çļĦ": 4289,
      "éĤĢ": 4290,
      "cdot": 4291,
      "ä¸Ģæ®µ": 4292,
      "ä¸įä¸ĭ": 4293,
      "åŃ©åŃĲä»¬": 4294,
      "æģĴ": 4295,
      "ä½łæĿ¥": 4296,
      "å°±å¥½äºĨ": 4297,
      "çĴĥ": 4298,
      "åĩĮ": 4299,
      "èĥİ": 4300,
      "Ġå¤ĸ": 4301,
      "ä¼Ļä¼´": 4302,
      "ä¸»å¸Ń": 4303,
      "ĠæĲ": 4304,
      "æ»¡æĦı": 4305,
      "Ġä½łåħĪ": 4306,
      "å¤ļå¹´": 4307,
      "çĲĨçĶ±": 4308,
      "ä¸Ģéĺµ": 4309,
      "éĹ®ä»ĸ": 4310,
      "éĶ¦": 4311,
      "ä¹ĭéĹ´çļĦ": 4312,
      "Ġä»ĸæĺ¯": 4313,
      "æĥ³çļĦ": 4314,
      "éľ¸": 4315,
      "åı¬": 4316,
      "}}=": 4317,
      "æµĵ": 4318,
      "èĤĸ": 4319,
      "æ¾¡": 4320,
      "æ¸©åº¦": 4321,
      "å¯¼æ¼Ķ": 4322,
      "åĬŁèĥ½": 4323,
      "æĻ¶": 4324,
      "åıĪæĺ¯": 4325,
      "Ġæĳ": 4326,
      "?\"\"": 4327,
      "Ġäºİæĺ¯": 4328,
      "èİ²": 4329,
      "åĩºåıĳ": 4330,
      "æĺŁæľŁ": 4331,
      "ä»¶äºĭæĥħ": 4332,
      "å»ºç«ĭ": 4333,
      "èĤº": 4334,
      "éĽĨåĽ¢": 4335,
      "èĲ¨": 4336,
      "ä¿Ĭ": 4337,
      "åªĴ": 4338,
      "è¯´è¯´": 4339,
      "ä¿¡ä»»": 4340,
      "çĽĨ": 4341,
      "çºł": 4342,
      "æī®": 4343,
      "''": 4344,
      "å¤ªå¥½äºĨ": 4345,
      "éĿ¢ä¸Ĭ": 4346,
      "ç¨ĭåº¦": 4347,
      "å¾Īåĸľæ¬¢": 4348,
      "çļĦéĤ£ç§į": 4349,
      "é¼»åŃĲ": 4350,
      "è°İ": 4351,
      "è¿Ļéĥ¨": 4352,
      "åħ¶ä»ĸçļĦ": 4353,
      "æ·ĺ": 4354,
      "éģĵæŃī": 4355,
      "èµĦæºĲ": 4356,
      "çŁ¿": 4357,
      "åı«æĪĳ": 4358,
      "Ġæ¡": 4359,
      "å¾Īå¤§": 4360,
      "æ¡¶": 4361,
      "è½»è½»": 4362,
      "ä¹Łåľ¨": 4363,
      "åĬłåħ¥": 4364,
      "æŀģäºĨ": 4365,
      "ç»Ļå¤§å®¶": 4366,
      "åĴª": 4367,
      "åĪ°æĪĳ": 4368,
      "æģ°": 4369,
      "æ³ķå¾ĭ": 4370,
      "åĲİæĤĶ": 4371,
      "å¾Ħ": 4372,
      "æİª": 4373,
      "Ġèµ¶ç´§": 4374,
      "å§¥": 4375,
      "è¶ħè¿ĩ": 4376,
      "éĺ¶æ®µ": 4377,
      "ä¼¤å¿ĥ": 4378,
      "é¦Ļæ¸¯": 4379,
      "Ġå¯¹äºİ": 4380,
      "Ġé»Ħ": 4381,
      "çĦ¶èĢĮ": 4382,
      "æĪĳè¿ĺæĺ¯": 4383,
      "é©¬æĭī": 4384,
      "æĥħæĬ¥": 4385,
      "æŃ»çļĦ": 4386,
      "å¤ļå°ĳéĴ±": 4387,
      "çŁ©": 4388,
      "éķ¿å¤§": 4389,
      "åĪ«äººçļĦ": 4390,
      "åħŃåįģ": 4391,
      "æĶ¿çŃĸ": 4392,
      "ä»·æł¼": 4393,
      "Ġç«Ļ": 4394,
      "çī¹æ®Ĭ": 4395,
      "éļıæĹ¶": 4396,
      "ä½łåĳ¢": 4397,
      "ä¸ºä½ł": 4398,
      "ĠåįĹ": 4399,
      "å¤´ä¸Ĭ": 4400,
      "çĤİ": 4401,
      "æĺİæĺ¾": 4402,
      "åĽ½æ°ĳ": 4403,
      "å¿ĺè®°": 4404,
      "ä½łéĥ½": 4405,
      "è´ª": 4406,
      "Ġéĺ¿å§¨": 4407,
      "äºĭå®ŀ": 4408,
      "hei": 4409,
      "ä¸Ģéģį": 4410,
      "éĵľ": 4411,
      "ä¹Łå¤ª": 4412,
      "Ġèµ·æĿ¥": 4413,
      "åĺŁ": 4414,
      "ä½łåħĪ": 4415,
      "æĤł": 4416,
      "äº¤ä»£": 4417,
      "çĿĢä¸Ģ": 4418,
      "çĶ¨äºĨ": 4419,
      "Ġæ¢": 4420,
      "åı°ä¸Ĭ": 4421,
      "æ±ª": 4422,
      "åĤ²": 4423,
      "äºĶå¹´": 4424,
      "Ġæ·": 4425,
      "è¢Ń": 4426,
      "åĪĽéĢł": 4427,
      "ĠåŁ": 4428,
      "èĸĦ": 4429,
      "Ġè¿Ļä¸įæĺ¯": 4430,
      "åİ»åķĬ": 4431,
      "ä»Ĭå¤©çļĦ": 4432,
      "è®¨åİĮ": 4433,
      "è¡Įè¡Į": 4434,
      "è®°å¿Ĩ": 4435,
      "ç»ĵåĲĪ": 4436,
      "ä¼Ĭ": 4437,
      "ç»³": 4438,
      "åĴĮä»ĸ": 4439,
      "Ġéĩĳ": 4440,
      "rightarrow": 4441,
      "åĬ«": 4442,
      "è¿Ļä¹Īå¤§": 4443,
      "å°±å¥½": 4444,
      "å£³": 4445,
      "å¹´è½»äºº": 4446,
      "æĭĴç»Ŀ": 4447,
      "åĴĸ": 4448,
      "åĨłåĨĽ": 4449,
      "è¾¾åĪ°": 4450,
      "éĤĵ": 4451,
      "ĠæĪĳä»Ĭå¤©": 4452,
      "æ¶Īè´¹": 4453,
      "ov": 4454,
      "}}$$": 4455,
      "æ¶Ľ": 4456,
      "æĢİä¹ĪåĽŀäºĭ": 4457,
      "éĤ£æĹ¶åĢĻ": 4458,
      "çĿĢä»ĸ": 4459,
      "åĢ¾": 4460,
      "Ġä¸įè¡Į": 4461,
      "çł¸": 4462,
      "Ġèĭ¥": 4463,
      "æľºåĻ¨": 4464,
      "éĢģç»Ļ": 4465,
      "æ±¡": 4466,
      "æĢ§æł¼": 4467,
      "åįĬå¤©": 4468,
      "æĬĽ": 4469,
      "Ġä½łåı¯ä»¥": 4470,
      "ä¼¼ä¹İ": 4471,
      "èµĦæĸĻ": 4472,
      "è¿Ļä»¶äºĭ": 4473,
      "ç½ĳä¸Ĭ": 4474,
      "ä¸Ģåįĥ": 4475,
      "çĥ¤": 4476,
      "åķ¡": 4477,
      "ç®ĹäºĨ": 4478,
      "éĥ½å·²ç»ı": 4479,
      "äºĴçĽ¸": 4480,
      "åİ»çļĦ": 4481,
      "ĠçĪ±": 4482,
      "çħ®": 4483,
      "æĥ³è¿ĩ": 4484,
      "å¤ªå¤ļ": 4485,
      "ä¸įåĩºæĿ¥": 4486,
      "å¤©æ°Ķ": 4487,
      "è´¾": 4488,
      "Ġæīĭ": 4489,
      "æī©": 4490,
      "è¾ĳ": 4491,
      "èĦĨ": 4492,
      "çļĦæĦŁè§ī": 4493,
      "æŃĩ": 4494,
      "å¦®": 4495,
      "æŃ£ç¡®çŃĶæ¡Īæĺ¯": 4496,
      "åı¹": 4497,
      "æĹłè®º": 4498,
      "åĬ¨ä½ľ": 4499,
      "åĨħå¿ĥ": 4500,
      "ä¸įåĸľæ¬¢": 4501,
      "å¤ĸçļĦ": 4502,
      "äºĮéĽ¶ä¸Ģ": 4503,
      "ĠçĦ¶åĲİåĳ¢": 4504,
      "åĿĳ": 4505,
      "èĥĮåĲİ": 4506,
      "ä¸²": 4507,
      "äºĶçĻ¾": 4508,
      "Ġä½łèĥ½": 4509,
      "ä¸ľåĮĹ": 4510,
      "çĭ¬ç«ĭ": 4511,
      "åĨįæ¬¡": 4512,
      "ä¸§": 4513,
      "çŁĽçĽ¾": 4514,
      "å»ºçŃĳ": 4515,
      "ä¹Łè®¸": 4516,
      "æŁ±": 4517,
      "çĨŁæĤī": 4518,
      "Ġç¬¬äºĮ": 4519,
      "åıĤä¸İ": 4520,
      "æĬĵä½ı": 4521,
      "æķĻç»ĥ": 4522,
      "åĪ¶åº¦": 4523,
      "å¤§è±¡": 4524,
      "æ³³": 4525,
      "å¤©ç©º": 4526,
      "ä½łä¸Ģ": 4527,
      "åıĽ": 4528,
      "ĠäºĮéĽ¶": 4529,
      "éĹ¯": 4530,
      "æĥ³åĬŀæ³ķ": 4531,
      "æĬĬèĩªå·±": 4532,
      "æľĢå¥½": 4533,
      "åŃ©åŃĲçļĦ": 4534,
      "æį¡": 4535,
      "åĩłä¹İ": 4536,
      "éĢīæīĭ": 4537,
      "Ġä½łåı¯": 4538,
      "çĤĴ": 4539,
      "æīĵäºĨ": 4540,
      "çļĦä¸Ģç§į": 4541,
      "æĦģ": 4542,
      "ç»ıçĲĨ": 4543,
      "æĹ¶çļĦ": 4544,
      "æ²»çĸĹ": 4545,
      "ä¸Ľ": 4546,
      "å®ļäºĨ": 4547,
      "ĠæĪĳæ²¡æľī": 4548,
      "ä¸įæĦ¿æĦı": 4549,
      "å¥½æľĭåıĭ": 4550,
      "çīº": 4551,
      "ä¸įåĨį": 4552,
      "ĠèĢģå¸Ī": 4553,
      "è¿ģ": 4554,
      "æĭ¦": 4555,
      "Ġè¦ģä¸įçĦ¶": 4556,
      "ä¾§": 4557,
      "ä¸Ĭæ¬¡": 4558,
      "æ°§åĮĸ": 4559,
      "æĿĢäºº": 4560,
      "èĥ½éĩı": 4561,
      "çĽ¸å½ĵ": 4562,
      "Ġå¨ĺ": 4563,
      "Ġæľīäºº": 4564,
      "GRANDMOTHER": 4565,
      "åĥ": 4566,
      "çģ«è½¦": 4567,
      "æıĲåĩº": 4568,
      "ä»Ģä¹Īæł·çļĦ": 4569,
      "çīºçī²": 4570,
      "èģĮä¸ļ": 4571,
      "æĺİæĺŁ": 4572,
      "Ġåįĥ": 4573,
      "ä¸įåģľ": 4574,
      "äºĭä¸ļ": 4575,
      "èĩªæĪĳ": 4576,
      "Ġèµµ": 4577,
      "éĿŀå¸¸çļĦ": 4578,
      "å¿½": 4579,
      "çļĦæ°´": 4580,
      "çĬ¹": 4581,
      "åı¯ä¸įæĺ¯": 4582,
      "Ġæķ´": 4583,
      "åŃĲåķĬ": 4584,
      "ĠåĳĬè¯ī": 4585,
      "æ³°": 4586,
      "æīŃ": 4587,
      "äºĨä¸ĢäºĽ": 4588,
      "éģ¥": 4589,
      "åı¯æĥľ": 4590,
      "ä¸ĬåŃ¦": 4591,
      "ĠæĿ¥æĿ¥æĿ¥": 4592,
      "è·Į": 4593,
      "Ġ$${": 4594,
      "Ġå®ī": 4595,
      "èĢĥè¯ķ": 4596,
      "æĶ¾ä¸ĭ": 4597,
      "ç²¾å½©": 4598,
      "çĸ«æĥħ": 4599,
      "å¨ĺå¨ĺ": 4600,
      "ĠæĪĳä¸įçŁ¥éģĵ": 4601,
      "æ²¡æľīäºº": 4602,
      "ĠåĪ°åºķ": 4603,
      "å°ıçĮª": 4604,
      "æĪĳåĴĮ": 4605,
      "èī°": 4606,
      "ä¸ĭæ¬¡": 4607,
      "Ġw": 4608,
      "å¤įæĿĤ": 4609,
      "Ġæ¯ıå¤©": 4610,
      "æ¶¦": 4611,
      "è¿ĺåı¯ä»¥": 4612,
      "èĿ´": 4613,
      "è´·": 4614,
      "æĪĳåĨį": 4615,
      "Ġè¿Ļä½į": 4616,
      "æīįä¼ļ": 4617,
      "åĦ¿çļĦ": 4618,
      "éĢģåĪ°": 4619,
      "åĳ¨åĽ´": 4620,
      "ä¸įæĪĲ": 4621,
      "å¡«": 4622,
      "èĿ´èĿ¶": 4623,
      "ĠçĶ·": 4624,
      "æĦ§": 4625,
      "ĠåĮ»": 4626,
      "ĠæĹłè®º": 4627,
      "æĪĳçĪ¸": 4628,
      "æľ¬èº«": 4629,
      "æĪĳä»¬åľ¨": 4630,
      "ä¸ĵå®¶": 4631,
      "ä¹°äºĨ": 4632,
      "Ġå¦ĸ": 4633,
      "åħ¬åı¸çļĦ": 4634,
      "æŃ£å¼ı": 4635,
      "å°Ĭéĩį": 4636,
      "é¢Ī": 4637,
      "éĤ£ä¸Ģ": 4638,
      "çĿ£": 4639,
      "å§Ķå±Ī": 4640,
      "æ¼Ĥäº®çļĦ": 4641,
      "å¤§å£°": 4642,
      "ĠæĪĳåı¯ä»¥": 4643,
      "uo": 4644,
      "åĪ°å¤Ħ": 4645,
      "å¹»": 4646,
      "æĶ¹éĿ©": 4647,
      "æīĩ": 4648,
      "ä»°": 4649,
      "Ġè·ĳ": 4650,
      "åĬŀåħ¬å®¤": 4651,
      "æĺı": 4652,
      "å¢¨": 4653,
      "ç¿ħèĨĢ": 4654,
      "ä¹¦è®°": 4655,
      "ĠæĪĳæĿ¥": 4656,
      "æĸ¹æ¡Ī": 4657,
      "çĪ±ä½ł": 4658,
      "åĽ½åĨħ": 4659,
      "äº¤éĢļ": 4660,
      "Ġæ»": 4661,
      "çī§": 4662,
      "çŃīæĪĳ": 4663,
      "åıĺæĪĲäºĨ": 4664,
      "åįģåħŃ": 4665,
      "ä½ĵèĤ²": 4666,
      "åĲĮäºĭ": 4667,
      "èĥľåĪ©": 4668,
      "Ġçº¢": 4669,
      "ä¾µ": 4670,
      "Ġä½łæľī": 4671,
      "çİ»": 4672,
      "è¿ĩå¾Ĺ": 4673,
      "ä¸Ģè¶Ł": 4674,
      "èĸĩ": 4675,
      "äºĨåĳĢ": 4676,
      "Ġå¿ħ": 4677,
      "äº¿åħĥ": 4678,
      "å¥½åĲĥ": 4679,
      "åĩ¯": 4680,
      "ĠåĢĴ": 4681,
      "Ġä¸ĥ": 4682,
      "æĸ¹çļĦ": 4683,
      "æŃ£ç¡®çļĦæĺ¯": 4684,
      "å·«": 4685,
      "çľł": 4686,
      "æĪĳå¾Ĺ": 4687,
      "èĢĹ": 4688,
      "ĠæĮī": 4689,
      "è¿½æ±Ĥ": 4690,
      "è£¤": 4691,
      "çŀ¬": 4692,
      "}}+": 4693,
      "å¯¹çļĦ": 4694,
      "æĪĳç»Ļä½ł": 4695,
      "æ²¡äºº": 4696,
      "ä¸įåĬ¨": 4697,
      "æĥĳ": 4698,
      "ĠæľĢè¿ĳ": 4699,
      "ç»¼": 4700,
      "æ²¡æľīä»Ģä¹Ī": 4701,
      "è§Ĵåº¦": 4702,
      "éļ¾åıĹ": 4703,
      "åīª": 4704,
      "èħĲ": 4705,
      "åĩıå°ĳ": 4706,
      "éĹ®ä¸Ģä¸ĭ": 4707,
      "æ¶Īå¤±": 4708,
      "æĬĸ": 4709,
      "è°¢è°¢ä½ł": 4710,
      "ä¸Ĭä¸Ģ": 4711,
      "Ġè§īå¾Ĺ": 4712,
      "èįĲ": 4713,
      "âĪ": 4714,
      "çļĦé«ĺ": 4715,
      "åįģä¸ī": 4716,
      "ĠéĴ±": 4717,
      "ä¸Ģä¸ªæľĪ": 4718,
      "æĻĥ": 4719,
      "åģļå¾Ĺ": 4720,
      "çº¹": 4721,
      "çľŁçļĦå¾Ī": 4722,
      "Ġè¾¹": 4723,
      "äº¤ç»Ļ": 4724,
      "æĬ¥éģĵ": 4725,
      "Ġä»¥åīį": 4726,
      "èĬ³": 4727,
      "æ¯ıä¸ªäºº": 4728,
      "çľ¼åīį": 4729,
      "éĹ®éĹ®": 4730,
      "çº¿ç´¢": 4731,
      "è¸©": 4732,
      "åĴĸåķ¡": 4733,
      "}}_": 4734,
      "èĦĳåŃĲ": 4735,
      "æľīåı¯èĥ½": 4736,
      "åĨįæĿ¥": 4737,
      "ĠåĮħæĭ¬": 4738,
      "æĥ³èµ·": 4739,
      "çłį": 4740,
      "åħ«å¹´": 4741,
      "è§ĦçŁ©": 4742,
      "ä¼łæĴŃ": 4743,
      "Ġçļĩä¸Ĭ": 4744,
      "æĺ¯æľĢ": 4745,
      "æī¾ä¸įåĪ°": 4746,
      "çºµ": 4747,
      "çļĦæĸ¹å¼ı": 4748,
      "çķĻåľ¨": 4749,
      "ĠåĽłä¸ºæĪĳ": 4750,
      "çļĦéĴ±": 4751,
      "é©¬æĭīéĽħ": 4752,
      "ä¸īå¤©": 4753,
      "åĲ¸å¼ķ": 4754,
      "æĺĮ": 4755,
      "åĳ¢æĪĳ": 4756,
      "äºĪ": 4757,
      "çĽ¸äºĴ": 4758,
      "åı¯æĢķ": 4759,
      "èĢĥæŁ¥": 4760,
      "çļĦäºĨ": 4761,
      "æľīéĴ±": 4762,
      "çĿģ": 4763,
      "çĬ¯ç½ª": 4764,
      "ä¾ł": 4765,
      "æ²¡äºĨ": 4766,
      "å¦Ĩ": 4767,
      "over": 4768,
      "åĨ¤": 4769,
      "çļĦä¸į": 4770,
      "æĪĺæĸĹ": 4771,
      "Ġæİ¥ä¸ĭæĿ¥": 4772,
      "çī¹çĤ¹": 4773,
      "èĮĥåĽ´": 4774,
      "éĢĹ": 4775,
      "å¤§å°ı": 4776,
      "æĪĳä»¬ä¿©": 4777,
      "è¿Ķ": 4778,
      "Ġå®Ŀ": 4779,
      "æµĳ": 4780,
      "çŁ¥éģĵåĲĹ": 4781,
      "èĲĿåįľ": 4782,
      "æ²¡åĬŀæ³ķ": 4783,
      "å®¶ä¼Ļ": 4784,
      "åĪ«åĪ«": 4785,
      "é¡ºåĪ©": 4786,
      "Ġä¸Ģå®ļè¦ģ": 4787,
      "æ¸©æļĸ": 4788,
      "ĠåĹ": 4789,
      "æĭĨ": 4790,
      "çĸ¾": 4791,
      "æĤŁ": 4792,
      "Ġ{{": 4793,
      "!\"\"": 4794,
      "éĻ¶": 4795,
      "ä¸ĭä¸Ģ": 4796,
      "åħģ": 4797,
      "è¿Ļä¸įæĺ¯": 4798,
      "æĮ¤": 4799,
      "éĢłæĪĲ": 4800,
      "èĳ£äºĭ": 4801,
      "è½©": 4802,
      "å¯¹æīĭ": 4803,
      "ä¸Ģä¸ĭåŃĲ": 4804,
      "åĳ¢æĺ¯": 4805,
      "ĠåĮĹ": 4806,
      "çĽ¸å¤Ħ": 4807,
      "åı«ä»Ģä¹Ī": 4808,
      "å·¥èµĦ": 4809,
      "åĴķ": 4810,
      "ĠèĢĮæĺ¯": 4811,
      "åĽ¢éķ¿": 4812,
      "äº«åıĹ": 4813,
      "æ¸¡": 4814,
      "æĻĭ": 4815,
      "å«ĤåŃĲ": 4816,
      "ä¹ĭä¸Ń": 4817,
      "çŃīäºİ": 4818,
      "è§Ĵèī²": 4819,
      "é©¶": 4820,
      "äºĭäºĨ": 4821,
      "çļĦæĹ¥åŃĲ": 4822,
      "èĤ©": 4823,
      "çĪ¸çĪ¸å¦Īå¦Ī": 4824,
      "æĹĭ": 4825,
      "Ġå¦ĸæĢª": 4826,
      "ä¸įæĿ¥": 4827,
      "æĪĳä¸įæĺ¯": 4828,
      "åģ¿": 4829,
      "éĥ¨éĹ¨": 4830,
      "å°ĨæĿ¥": 4831,
      "æ¿ĢåĬ¨": 4832,
      "åİ»çľĭçľĭ": 4833,
      "å¤ļä¹Ī": 4834,
      "æĿ¥åĪ°äºĨ": 4835,
      "åı¯çŁ¥": 4836,
      "ç»Ļä»ĸä»¬": 4837,
      "æĹ¥åĨĽ": 4838,
      "æĺĨ": 4839,
      "æŀľçĦ¶": 4840,
      "Ġè¿Ļæĺ¯æĪĳ": 4841,
      "åł¡": 4842,
      "å°±æĺ¯ä½ł": 4843,
      "Ġä»ĸå°±": 4844,
      "èĤł": 4845,
      "åħ¨éĥ½": 4846,
      "è¯´éģĵ": 4847,
      "åħ¨çĲĥ": 4848,
      "ĠéĻ¤äºĨ": 4849,
      "ç¾ŀ": 4850,
      "åĪ¶éĢł": 4851,
      "éĢĨ": 4852,
      "æĺİæĺİ": 4853,
      "æłĳä¸Ĭ": 4854,
      "æ²¡äºĭåĦ¿": 4855,
      "ä¼ļè®®": 4856,
      "åıĪä¸įæĺ¯": 4857,
      "ä»¶äºĭ": 4858,
      "æµ©": 4859,
      "èĭį": 4860,
      "åģļåĩº": 4861,
      ".$$\\": 4862,
      "),": 4863,
      "æľŁéĹ´": 4864,
      "è¯´è¿Ļ": 4865,
      "overrightarrow": 4866,
      "ĠéľĢè¦ģ": 4867,
      "æĮ¨": 4868,
      "åĺ´å·´": 4869,
      "ä¸¤åıª": 4870,
      "å§ľ": 4871,
      "äºĭä»¶": 4872,
      "åĲ¬åĲ¬": 4873,
      "è¾ī": 4874,
      "è°±": 4875,
      "ç¬ĳçĿĢ": 4876,
      "èĢģå¤§": 4877,
      "æĪĲç«ĭ": 4878,
      "å½»åºķ": 4879,
      "Ġåħ«": 4880,
      "ĠåĲĳ": 4881,
      "å¤¹": 4882,
      "æŃ»äº¡": 4883,
      "åĽŀåİ»åĲ§": 4884,
      "äºĨå°±": 4885,
      "Ġèµ°åĲ§": 4886,
      "ä¸Ģä»½": 4887,
      "es": 4888,
      "çļĦæľºä¼ļ": 4889,
      "ä»ĺåĩº": 4890,
      "èµ¤": 4891,
      "åĪ°è¿ĻåĦ¿": 4892,
      "æĢİä¹Īèĥ½": 4893,
      "Ġk": 4894,
      "éĻµ": 4895,
      "ĠéĤ£æĪĳå°±": 4896,
      "æŁ´": 4897,
      "ĠæĻļä¸Ĭ": 4898,
      "åįģä¹Ŀ": 4899,
      "éĥģ": 4900,
      "æ»ĭ": 4901,
      "æĪĳåĳĢ": 4902,
      "Ġä¸įå¥½": 4903,
      "ç¥¥": 4904,
      "ä¹°çļĦ": 4905,
      "æĦıå¤ĸ": 4906,
      "é¢ĺæĦı": 4907,
      "åĬłä¸Ĭ": 4908,
      "èĭ±åĽ½": 4909,
      "åį°è±¡": 4910,
      "ĠåħĦ": 4911,
      "æĦŁåĬ¨": 4912,
      "äºĨè¿Ļä¸ª": 4913,
      "æ²¡éĹ®é¢ĺ": 4914,
      "Ġæ¯ķ": 4915,
      "ĠæĶ¾å¿ĥ": 4916,
      "åĪ°æĹ¶åĢĻ": 4917,
      "åĪ©çĽĬ": 4918,
      "æĪĳåħĪ": 4919,
      "Ġå¤´": 4920,
      "ä¸ŃåĽ½äºº": 4921,
      "æĤĦæĤĦ": 4922,
      "çİ»çĴĥ": 4923,
      "ĠåĲ´": 4924,
      "Ġæłĳ": 4925,
      "æĪĸè®¸": 4926,
      "æĭ³": 4927,
      "å®ŀéĻħä¸Ĭ": 4928,
      "15": 4929,
      "ä¸¤å¹´": 4930,
      "å·¥åħ·": 4931,
      "æıĲåīį": 4932,
      "åģ·åģ·": 4933,
      "Ġä½łè·Ł": 4934,
      "ä¹ĭä¸Ģ": 4935,
      "ç¾¡": 4936,
      "ä½ľä¸ļ": 4937,
      "çľ¼æ³ª": 4938,
      "æĺ¯æĺ¯": 4939,
      "Ġ{": 4940,
      "ĠåĵªéĩĮ": 4941,
      "ä½łè¿Ļä¹Ī": 4942,
      "æĻķ": 4943,
      "è¿Ļè¿Ļ": 4944,
      "èµĦéĩĳ": 4945,
      "è¡ĮçļĦ": 4946,
      "ç¿¼": 4947,
      "èĢ½": 4948,
      "äºĨæĪĳä»¬": 4949,
      "å¹³åı°": 4950,
      "ç¢į": 4951,
      "æ¯Ķå¦Ĥ": 4952,
      "èĻ½": 4953,
      "ä¹ĭå¤ĸ": 4954,
      "çĤ¹çļĦ": 4955,
      "å¾Ĺå¤ª": 4956,
      "æ¯ıä¸Ģä¸ª": 4957,
      "éĥ½çŁ¥éģĵ": 4958,
      "ng": 4959,
      "æĤ¬": 4960,
      "åķĬåķĬ": 4961,
      "å¤±æľĽ": 4962,
      "ä¹Įé¾Ł": 4963,
      "çĶŁéķ¿": 4964,
      "åĪ¶ä½ľ": 4965,
      "åºĬä¸Ĭ": 4966,
      "å°±æĺ¯ä¸Ģä¸ª": 4967,
      "æ´¥": 4968,
      "æ¡ĪåŃĲ": 4969,
      "ĠæĪĳçĽ¸ä¿¡": 4970,
      "å°ıæľĭåıĭ": 4971,
      "ä½łè§īå¾Ĺ": 4972,
      "åĬ¨æīĭ": 4973,
      "ç²®é£Ł": 4974,
      "é¸¦": 4975,
      "åħ·ä½ĵ": 4976,
      "¤åħ¶æĺ¯": 4977,
      "å°±è¡ĮäºĨ": 4978,
      "é¥¶": 4979,
      "éľĢæ±Ĥ": 4980,
      "èººåľ¨": 4981,
      "éĨĴäºĨ": 4982,
      "ç¢³": 4983,
      "èĥĥ": 4984,
      "ä¸įä¿¡": 4985,
      "æĪĳä»¬æĺ¯": 4986,
      "æ£ĭ": 4987,
      "ä¸įåĥı": 4988,
      "åĮ¹": 4989,
      "Ġå«": 4990,
      "æĹħæ¸¸": 4991,
      "ä»įçĦ¶": 4992,
      "æģŃ": 4993,
      "éĢļå¸¸": 4994,
      "è¿ĺçľŁ": 4995,
      "æĬ¼": 4996,
      "å¯Ħ": 4997,
      "æ¡ĳ": 4998,
      "çļĦä¸»": 4999,
      "å½¹": 5000,
      "ĠéĤ£äºĽ": 5001,
      "ä»¬åĦ¿": 5002,
      "çĶ·çļĦ": 5003,
      "Ġä¸Ģä¹Ŀ": 5004,
      "è¿ĺæľīä¸Ģä¸ª": 5005,
      "Ġä½łçľĭçľĭ": 5006,
      "è·ĥ": 5007,
      "çļĦè¿Ļç§į": 5008,
      "åĤ¬": 5009,
      "èªĵ": 5010,
      "æķĪæŀľ": 5011,
      "åİŁè°ħ": 5012,
      "ç«ĭåį³": 5013,
      "åľ°ä¸ĭ": 5014,
      "é¸¡èĽĭ": 5015,
      "Ġé©¬ä¸Ĭ": 5016,
      "çľ¼éĩĮ": 5017,
      "ç¼ł": 5018,
      "å®ļçļĦ": 5019,
      "æī¾ä¸ª": 5020,
      "Ġg": 5021,
      "åĲµæŀ¶": 5022,
      "åĳ¼åĲ¸": 5023,
      "æĦĪ": 5024,
      "}=\\": 5025,
      "Ġèĭı": 5026,
      "ç§¯æŀģ": 5027,
      "åĪ°è¿ĻéĩĮ": 5028,
      "æ¼ı": 5029,
      "ç¬ĳäºĨ": 5030,
      "ĠæĪĳèĥ½": 5031,
      "èĦī": 5032,
      "æİĮæı¡": 5033,
      "å°º": 5034,
      "Ġä¸Ģä¼ļåĦ¿": 5035,
      "æ¡Ĥ": 5036,
      "æľĢå¤§": 5037,
      "è¿ĻæĿ¡": 5038,
      "éĢĽ": 5039,
      "ĠåħĦå¼Ł": 5040,
      "éĵĥ": 5041,
      "Ġå¹´": 5042,
      "ĠåĩºæĿ¥": 5043,
      "Ġæµ·": 5044,
      "ä»ĸäºĨ": 5045,
      ")$$": 5046,
      "è½°": 5047,
      "éĶĭ": 5048,
      "è§£æĶ¾": 5049,
      "é©´": 5050,
      "äºĨåĩł": 5051,
      "çİĽ": 5052,
      "è¢ģ": 5053,
      "è¯Ŀè¯´": 5054,
      "æĨ¾": 5055,
      "ç±»çļĦ": 5056,
      "ä¹Łèĥ½": 5057,
      "éļ¾è¿ĩ": 5058,
      "ĠæĪĳç»Ļä½ł": 5059,
      "Ġä½łä¼ļ": 5060,
      "æīĵä¸ª": 5061,
      "çĶŁæĢģ": 5062,
      "Ġå¥½å¥½å¥½": 5063,
      "æľīä¸Ģç§į": 5064,
      "ä¸ºä»Ģä¹Īä¸į": 5065,
      "å©·": 5066,
      "åĩĳ": 5067,
      "æĽ´å¥½": 5068,
      "åĳĪ": 5069,
      "è®¡ç®Ĺ": 5070,
      "ä»İæĿ¥æ²¡æľī": 5071,
      "æĪĳè¿Ļä¸ª": 5072,
      "éĺģ": 5073,
      "åĵŃäºĨ": 5074,
      "çĪ¸å¦Ī": 5075,
      "Ġä½łä»¬ä¿©": 5076,
      "åľ¨æĪĳä»¬": 5077,
      "åĮĻ": 5078,
      "æľ¬äºĭ": 5079,
      "çļĦåİŁåĽł": 5080,
      "åĮł": 5081,
      "æİĴéĻ¤": 5082,
      "çĶµè§Ĩåī§": 5083,
      "éĻªä¼´": 5084,
      "æľīæīĢ": 5085,
      "èĶ¡": 5086,
      "Ġè·ŁæĪĳ": 5087,
      "å¢ŀéķ¿": 5088,
      "ĠéĤ£å¤©": 5089,
      "æĪĲçĨŁ": 5090,
      "è®¨è®º": 5091,
      ")=": 5092,
      "ç¬¼": 5093,
      "æĭ¥æľī": 5094,
      "Ġæı": 5095,
      "åıĳåĩº": 5096,
      "ä»Ģä¹Īä¸ľè¥¿": 5097,
      "æĺ¯åĳĢ": 5098,
      "è¿Ļäºĭ": 5099,
      "ä½ĵçİ°": 5100,
      "éĻªä½ł": 5101,
      "åľ¨ä»ĸ": 5102,
      "åĵªäºĽ": 5103,
      "ĠæľīäºĽ": 5104,
      "Ġni": 5105,
      "ä¹ĭä¸ĭ": 5106,
      "ä¸Ģè¾ĪåŃĲ": 5107,
      "æĺ¯å¾Ī": 5108,
      "åĮĨ": 5109,
      "è¿ĩæĿ¥äºĨ": 5110,
      "Ġä½łè¿Ļä¸ª": 5111,
      "çĪ½": 5112,
      "æĹ©çĤ¹": 5113,
      "åĪ°è¿Ļä¸ª": 5114,
      "ä½łåı¯": 5115,
      "è´¸": 5116,
      "èıĮ": 5117,
      "Ġè®©ä»ĸ": 5118,
      "ä¸įæĢķ": 5119,
      "Ġæķħäºĭ": 5120,
      "å¡ĺ": 5121,
      "åĸĦèī¯": 5122,
      "å¡ĳ": 5123,
      "æµĭéĩı": 5124,
      "å¤§æµ·": 5125,
      "èĢħçļĦ": 5126,
      "å¯¨": 5127,
      "éĤĢè¯·": 5128,
      "}}{": 5129,
      "å¹³å®ī": 5130,
      "±ä¹Ĳ": 5131,
      "åį§": 5132,
      "æ°´çļĦ": 5133,
      "Ġæľ¬æĿ¥": 5134,
      "çĶ·çĶŁ": 5135,
      "èĦ¸ä¸Ĭ": 5136,
      "ç¾¡æħķ": 5137,
      "éĴ¥": 5138,
      "å¼ĢæĶ¾": 5139,
      "18": 5140,
      "æºª": 5141,
      "Ġä½ľä¸º": 5142,
      "ä½łè·Ł": 5143,
      "åĽŀåİ»äºĨ": 5144,
      "ĠæĪĳä¸įæĥ³": 5145,
      "åģļé¥Ń": 5146,
      "sin": 5147,
      "ĠæĽ¾": 5148,
      "å©Ĩå©Ĩ": 5149,
      "ĠåĲĦä½į": 5150,
      "åĨĻçļĦ": 5151,
      "ANK": 5152,
      "çŀ¬éĹ´": 5153,
      "åĲŀ": 5154,
      "åĩºçİ°äºĨ": 5155,
      "æĬĹæĹ¥": 5156,
      "å¾Īå¤ļäºº": 5157,
      "è°ĥæķ´": 5158,
      "ĠåĹ¨": 5159,
      "èī³": 5160,
      "çŃīä½ł": 5161,
      "èĻ¾": 5162,
      "BL": 5163,
      "æĪĳè·Łä½łè¯´": 5164,
      "Ġè¿Ļä¸į": 5165,
      "åŁºæľ¬ä¸Ĭ": 5166,
      "æĪĳçľŁçļĦ": 5167,
      "çĵ¦": 5168,
      "æĪĳåĲĹ": 5169,
      "å®ĥæĺ¯": 5170,
      "å¹¶ä¸Ķ": 5171,
      "åĽłç´ł": 5172,
      "æ¯ĶæĪĳ": 5173,
      "Ġt": 5174,
      "çİ°ä»£": 5175,
      "æģ¼": 5176,
      "è¯Ńè¨Ģ": 5177,
      "å¹²ä»Ģä¹ĪåĳĢ": 5178,
      "å½¼æŃ¤": 5179,
      "pi": 5180,
      "Ġå¥½ä¸įå¥½": 5181,
      "å®£å¸ĥ": 5182,
      "æ¯ĽçĹħ": 5183,
      "è¿ĽæŃ¥": 5184,
      "ĠæĬ¥åĳĬ": 5185,
      "å¯¹å¯¹å¯¹": 5186,
      "åĭ¾": 5187,
      "ä¼ŀ": 5188,
      "æĥł": 5189,
      "åĽłä¸ºä»ĸ": 5190,
      "Ġäº²": 5191,
      "BLANK": 5192,
      "å§Ĳå¦¹": 5193,
      "è¿ħéĢŁ": 5194,
      "å°±å¾Ĺ": 5195,
      "ĠæĪĳåıªæĺ¯": 5196,
      "æĿĨ": 5197,
      "Ġå¼Ħ": 5198,
      "Ġå¹²åĲĹ": 5199,
      "è§Ħæ¨¡": 5200,
      "èİ±": 5201,
      "Ġå§ĳ": 5202,
      "éĤ»å±ħ": 5203,
      "å¼Ģçİ©ç¬ĳ": 5204,
      "æĻĴ": 5205,
      "æŃ£æĺ¯": 5206,
      "åľºä¸Ĭ": 5207,
      "æĺ¯çľŁçļĦ": 5208,
      "å¿ħé¡»è¦ģ": 5209,
      "çĹħäºº": 5210,
      "Ġç¬¬ä¸Ģ": 5211,
      "ĠåĩĨ": 5212,
      "åľ¨ä¸Ģä¸ª": 5213,
      "ç²īä¸Ŀ": 5214,
      "åĩ¶æīĭ": 5215,
      "ĠäºĮåįģ": 5216,
      "å±Ģéķ¿": 5217,
      "æĿ¥è®²": 5218,
      "ä½łå¥½åķĬ": 5219,
      "æĺ¥å¤©": 5220,
      "ä¸įä¹ħ": 5221,
      "çĶµåŃĲ": 5222,
      "èĢĮæĺ¯": 5223,
      "çĽ¸å¯¹": 5224,
      "å²Ĺ": 5225,
      "éĴ¥åĮĻ": 5226,
      "æ¸´": 5227,
      "ĠæĪĳå¸ĮæľĽ": 5228,
      "çļĦä¸ĢåĪĩ": 5229,
      "}+": 5230,
      "åį«çĶŁ": 5231,
      "çī¹åĪ«çļĦ": 5232,
      "ĠéĿŀå¸¸": 5233,
      "ĠåĪ°æĹ¶åĢĻ": 5234,
      "æ¡Īä»¶": 5235,
      "éĥ½è¯´": 5236,
      "å¹²äºĨ": 5237,
      "Ġæ¶": 5238,
      "å¿ĥä¸Ń": 5239,
      "çĤ¹åķĬ": 5240,
      "æĪĳæīį": 5241,
      "äººçī©": 5242,
      "æİ¨èįĲ": 5243,
      "æ¤ħ": 5244,
      "ä¼ª": 5245,
      "æĭĽåĳ¼": 5246,
      "åŀĭçļĦ": 5247,
      ":$$": 5248,
      "åŃŁ": 5249,
      "æĪĳä¸įçŁ¥éģĵ": 5250,
      "åĴĲ": 5251,
      "éħ·": 5252,
      "æŃ£ç¡®çļĦ": 5253,
      "ä¸Ĭè¯¾": 5254,
      "æ²ŁéĢļ": 5255,
      "ĠçĪ¹": 5256,
      "Ġé¦ĸåħĪ": 5257,
      "å¥Ī": 5258,
      "è¾°": 5259,
      "Ġå·¥": 5260,
      "å®ŀåľ¨æĺ¯": 5261,
      "çľĭèµ·æĿ¥": 5262,
      "èĲĮ": 5263,
      "é½¿": 5264,
      "åĬ²åĦ¿": 5265,
      "åıĳæĮ¥": 5266,
      "æ®¿ä¸ĭ": 5267,
      "Ġæĸ¹": 5268,
      "è¿Ļä¹Īåģļ": 5269,
      "æĭ¿åĩº": 5270,
      "ç³Ĭæ¶Ĥ": 5271,
      "çļĦæĸ°": 5272,
      "éĹºå¥³": 5273,
      "èµ°çļĦ": 5274,
      "èĴ¸": 5275,
      "å¥³åŃĲ": 5276,
      "åĳ¢å°±æĺ¯": 5277,
      "èªī": 5278,
      "Ġä¹Ŀ": 5279,
      "è¾¹çļĦ": 5280,
      "è±¹": 5281,
      "ä¸įæĺ¯è¯´": 5282,
      "Ġä½łç»ĻæĪĳ": 5283,
      "Ġä½łå°±æĺ¯": 5284,
      "é£İéĻ©": 5285,
      "é¹ı": 5286,
      "di": 5287,
      "ä¸Ģèµ·åİ»": 5288,
      "å¾¡": 5289,
      "çĽ¼": 5290,
      "æľīä¸Ģæ¬¡": 5291,
      "ĠæĪĲ": 5292,
      "åģļä¸Ģä¸ª": 5293,
      "ç©¿çĿĢ": 5294,
      "ä¸ĸçºª": 5295,
      "çĥŃéĹ¹": 5296,
      "å°ıèĬ±": 5297,
      "èŁ¹": 5298,
      "åŁ¹åħ»": 5299,
      "å°±è¢«": 5300,
      "åı¶åŃĲ": 5301,
      "åĽŀäºĨ": 5302,
      "ä¸¤äºº": 5303,
      "æĹ¨": 5304,
      "å°½å¿«": 5305,
      "è·ª": 5306,
      "éĩįçĤ¹": 5307,
      "Ġè¥¿": 5308,
      "Ġå¤§äºº": 5309,
      "Ġä¹°": 5310,
      "Ġä½łä½ł": 5311,
      "å²³": 5312,
      "ĠèĤ¯å®ļ": 5313,
      "é¸£": 5314,
      "å¯¿": 5315,
      "çľĭå¾Ĺ": 5316,
      "é¥°": 5317,
      "Ġæ²¡äºĭåĦ¿": 5318,
      "éĿ¢åĮħ": 5319,
      "å¢ĵ": 5320,
      "çĬ¶åĨµ": 5321,
      "ĠåŃĲ": 5322,
      "å¤§çİĭ": 5323,
      "Ġå¼Ģå§ĭ": 5324,
      "å°ĳå¹´": 5325,
      "ä¹Łå°±æĺ¯": 5326,
      "å·¡": 5327,
      "å¯º": 5328,
      "å´ĩ": 5329,
      "ĠåĦ¿": 5330,
      "Ġå¾Ģ": 5331,
      "BC": 5332,
      "åĨ¬å¤©": 5333,
      "åı¯æĢľ": 5334,
      "åĳ¢ä½ł": 5335,
      "å¤±åİ»": 5336,
      "è°ģåĳĢ": 5337,
      "æĭ¿åĪ°": 5338,
      "æĢİä¹Īæł·äºĨ": 5339,
      "åįģä¸ĩ": 5340,
      "å½ĵåľ°": 5341,
      "åĽŀæĿ¥çļĦ": 5342,
      "æĸĩæĺİ": 5343,
      "ä¸ĢåĲį": 5344,
      "åħ¬ä¼Ĺ": 5345,
      "åĩºåİ»äºĨ": 5346,
      "å½¢è±¡": 5347,
      "åŁºåĽł": 5348,
      "å°¿": 5349,
      "ĠçĤ¹": 5350,
      "æĶ¶åħ¥": 5351,
      "éĿ¢åŃĲ": 5352,
      "å½¢å¼ı": 5353,
      "å¾ĭå¸Ī": 5354,
      "ä¸°å¯Į": 5355,
      "ä¸Ģè·¯": 5356,
      "å¤§å§Ĳ": 5357,
      "ä¸Ģæĥ³": 5358,
      "èĤ¤": 5359,
      "è¯¢": 5360,
      "ç½Ĳ": 5361,
      "çľĭä¸Ģä¸ĭ": 5362,
      "æĬļ": 5363,
      "åĤ¨": 5364,
      "æº¶æ¶²": 5365,
      "Ġå¯¹äºĨ": 5366,
      "Ġ+": 5367,
      "çļĦæĦıæĢĿ": 5368,
      "Ġ=": 5369,
      "ä¸»æĮģ": 5370,
      "çľĭä½ł": 5371,
      "èģĶåĲĪ": 5372,
      "æīĵçļĦ": 5373,
      "åĸľé©¬æĭīéĽħ": 5374,
      "æķ°çļĦ": 5375,
      "å°±è¡Į": 5376,
      "èĺ": 5377,
      "èĦĸ": 5378,
      "å¼łå¾·": 5379,
      "Ġæŀľ": 5380,
      "Ġå»": 5381,
      "æķ°åŃĹ": 5382,
      "âĢ": 5383,
      "çĲĨæĥ³": 5384,
      "èº«åŃĲ": 5385,
      "æĪĳä¹Łä¸į": 5386,
      "ç´¯äºĨ": 5387,
      "åķĬè¿Ļ": 5388,
      "åĽĽå¹´": 5389,
      "è¯´è¿Ļä¸ª": 5390,
      "å®´": 5391,
      "åŃ¦çļĦ": 5392,
      "åĺ»": 5393,
      "æĪĳæĬĬ": 5394,
      "å¼Ģè½¦": 5395,
      "å¼ķèµ·": 5396,
      "æ²¡äºĭåĲ§": 5397,
      "éī": 5398,
      "åħģè®¸": 5399,
      "å°±å¼Ģå§ĭ": 5400,
      "çľĭçļĦ": 5401,
      "èľľèľĤ": 5402,
      "éī´": 5403,
      "èĻ¹": 5404,
      "æĸĳ": 5405,
      "åĩ½": 5406,
      "ä»Ģä¹ĪæĦıæĢĿ": 5407,
      "è¯¦": 5408,
      "éĥ½è¢«": 5409,
      "ä¾¿å®ľ": 5410,
      "éģĹæĨ¾": 5411,
      "ĠåħŃ": 5412,
      "å¨ĩ": 5413,
      "åłµ": 5414,
      "ĠæĢķ": 5415,
      "ĠæĪĳå¦Ī": 5416,
      "ĠæĺİçĻ½": 5417,
      "æİ©": 5418,
      "åľ¨å®¶éĩĮ": 5419,
      "çĲ³": 5420,
      "å²ģçļĦ": 5421,
      "$$(": 5422,
      "eng": 5423,
      "Ġä¸Ģä¸ĭ": 5424,
      "ĠåĲĮæĹ¶": 5425,
      "Ġè°¢": 5426,
      "æ´¾äºº": 5427,
      "èĢ¶": 5428,
      "Ġç¾İ": 5429,
      "æĿ¥æī¾": 5430,
      "åĪ°ä½ł": 5431,
      "Ġå±±": 5432,
      "çĮ¬": 5433,
      "çĲĥåĳĺ": 5434,
      "ç¿ł": 5435,
      "ĠæĹ¶éĹ´": 5436,
      "ä½ľèĢħ": 5437,
      "ĠD": 5438,
      "Ġæ£": 5439,
      "èĩªä¿¡": 5440,
      "ĠçļĦæĹ¶åĢĻ": 5441,
      "çĶŁçĹħ": 5442,
      "æ¼ł": 5443,
      "éĻ¢éķ¿": 5444,
      "ä¸ĢåįĬ": 5445,
      "è¯´åĲ§": 5446,
      "çĽ´çº¿": 5447,
      "çľŁå¿ĥ": 5448,
      "çķħ": 5449,
      "éĿĴå¹´": 5450,
      "ir": 5451,
      "éªĦ": 5452,
      "å°ĺ": 5453,
      "æĪĳå¾Ī": 5454,
      "æĦ¤": 5455,
      "æĪĳå¯¹": 5456,
      "åįģä¸ĥ": 5457,
      "å¹²æ´»": 5458,
      "çİ©æĦı": 5459,
      "Ġæ´Ĺ": 5460,
      "ĠæŃ»": 5461,
      "çļĦäººçĶŁ": 5462,
      "å¦Ĥä»Ĭ": 5463,
      "ç»Ļèĩªå·±": 5464,
      "ä¹ĥ": 5465,
      "åįĹæĸ¹": 5466,
      "èĲ§": 5467,
      "è¾©": 5468,
      "ĠåĶĲ": 5469,
      "å®¢äºº": 5470,
      "è¯´çĿĢ": 5471,
      "æ°ĶçļĦ": 5472,
      "åįĹäº¬": 5473,
      "éĩĮå¤´": 5474,
      "åķ¥åĳĢ": 5475,
      "ĠæĪĳåĨį": 5476,
      "è¿ĺå¥½": 5477,
      "å¾®åįļ": 5478,
      "æľ¨å¤´": 5479,
      "éĻĮ": 5480,
      "åı°æ¹¾": 5481,
      "å®ł": 5482,
      "å¤©ä¸Ĭ": 5483,
      "Ġå¯¹ä¸įå¯¹": 5484,
      "åĩłæ¬¡": 5485,
      "ä¸įæĺ¯ä½ł": 5486,
      "å§¿": 5487,
      "ĠæĪĳè¯´ä½ł": 5488,
      "Ġl": 5489,
      "å¾Ģåīį": 5490,
      "èĢģå¤´": 5491,
      "11": 5492,
      "ni": 5493,
      "è¿ĺæľīä»Ģä¹Ī": 5494,
      "åľŁåľ°": 5495,
      "èĪĮ": 5496,
      "æĥ³åİ»": 5497,
      "çľŁçĽ¸": 5498,
      "å°ıåħĶ": 5499,
      "co": 5500,
      "æŃ¦åĻ¨": 5501,
      "å¼ºçļĦ": 5502,
      "æ¸ħæ¥ļäºĨ": 5503,
      "å¸½åŃĲ": 5504,
      "èĢģçĻ¾å§ĵ": 5505,
      "å¸¸å¸¸": 5506,
      "æķ´å¤©": 5507,
      "è´¡": 5508,
      "éĢĲæ¸Ĳ": 5509,
      "å¹³è¡¡": 5510,
      "æĺ¯ä»İ": 5511,
      "äºĨå¤§": 5512,
      "æĭ¨": 5513,
      "éĥ¨çļĦ": 5514,
      "éĿŀè¦ģ": 5515,
      "å¾Ĺå¤ļ": 5516,
      "æŃ¤æĹ¶": 5517,
      "åĩºçİ°åľ¨": 5518,
      "ä¸ĢæĹ¦": 5519,
      "Ġç¥Ŀ": 5520,
      "åºĻ": 5521,
      "åħ¬åħ¬": 5522,
      "çł´åĿı": 5523,
      "æĹħè¡Į": 5524,
      "ä¸įè¦ģåĨį": 5525,
      "éľį": 5526,
      "æī¿æĭħ": 5527,
      "æ±ĩæĬ¥": 5528,
      "æĿ¥å¾Ĺ": 5529,
      "ä½ĵéªĮ": 5530,
      "åı£æ°Ķ": 5531,
      "åĨĽäºĭ": 5532,
      "åľ¨å¤§": 5533,
      "éħĴåºĹ": 5534,
      "Ġæ²Ī": 5535,
      "åĽ½å®¶çļĦ": 5536,
      "Ġå°½": 5537,
      "Ġä½łåİ»": 5538,
      "è¡Įä¸įè¡Į": 5539,
      "æľŁçļĦ": 5540,
      "ä¸Ńåįİ": 5541,
      "æľĪä»½": 5542,
      "ä½łç»ĻæĪĳ": 5543,
      "åħ¬å®ī": 5544,
      "å¨ĥå¨ĥ": 5545,
      "ä¸Ģå¼Ģå§ĭ": 5546,
      "åħ´å¥ĭ": 5547,
      "Ġæ¯Ķå¦Ĥè¯´": 5548,
      "Ġä½łè¿Ļæĺ¯": 5549,
      "æĸľ": 5550,
      "å°ıé¸Ł": 5551,
      "Ġä¸ĢçĤ¹": 5552,
      "åĳ½è¿Ĳ": 5553,
      "å¥³å£«": 5554,
      "å¼łå¾·èĬ¬": 5555,
      "è·³èĪŀ": 5556,
      "å¦Īå¦ĪçļĦ": 5557,
      "Ġji": 5558,
      "å¹²çļĦ": 5559,
      "ĠæĪĳåıª": 5560,
      "ä¸Ģçľ¼": 5561,
      "å¸ĪåħĦ": 5562,
      "é»İ": 5563,
      "ç¨İ": 5564,
      "Ġåħ¶ä¸Ń": 5565,
      "Ġæł¹æį®": 5566,
      "Ġå¤ı": 5567,
      "å®īéĿĻ": 5568,
      "è¿Ļä¹Īå¤ļå¹´": 5569,
      "åĩºçĶŁ": 5570,
      "åĽŀå¿Ĩ": 5571,
      "å±ĭéĩĮ": 5572,
      "Ġåıĺ": 5573,
      "Ġå¥½åĲ§": 5574,
      "éĥ½ä¸įä¼ļ": 5575,
      "ä»ĸä¼ļ": 5576,
      "å·¥ä¸ļ": 5577,
      "åĩĨç¡®": 5578,
      "åĪºçĮ¬": 5579,
      "ä½Ĳ": 5580,
      "è·Łä»ĸä»¬": 5581,
      "åĨľæ°ĳ": 5582,
      "åĻľ": 5583,
      "åĨ»": 5584,
      "Ġå¤§è±¡": 5585,
      "åĪºæ¿Ģ": 5586,
      "ä»Ģä¹ĪäºĭåĦ¿": 5587,
      "ç»Łä¸Ģ": 5588,
      "æĻºèĥ½": 5589,
      "ä¸¤çĻ¾": 5590,
      "äº¤æĺĵ": 5591,
      "æĪĳå®¶": 5592,
      "çĹķ": 5593,
      "æĪĳåĽ½": 5594,
      "åĸľæ¬¢çľĭ": 5595,
      "æĥ§": 5596,
      "Ġå¸ĪçĪ¶": 5597,
      "åħīçļĦ": 5598,
      "ä¸ĢçĤ¹çĤ¹": 5599,
      "è·ŁæĤ¨": 5600,
      "è¿ĺæĺ¯è¦ģ": 5601,
      "Ġä¸Ģèµ·": 5602,
      "ç§ĳéķ¿": 5603,
      "è°ĪæģĭçĪ±": 5604,
      "Ġè½¦": 5605,
      "éĿ¢ç§¯": 5606,
      "è¯´åĳ¢": 5607,
      "èıĩ": 5608,
      "çĶŁæ´»çļĦ": 5609,
      "è¯ŀ": 5610,
      "çŃīå¾ħ": 5611,
      "æĪĳåĳ¢": 5612,
      "å¿ĥäºĨ": 5613,
      "ĠéĤ£å°±æĺ¯": 5614,
      "Ġå§Ĳå§Ĳ": 5615,
      "Ġæ¯ķç«Ł": 5616,
      "éĤ¦": 5617,
      "è¿Ļä¸ªæĹ¶åĢĻ": 5618,
      "åī²": 5619,
      "åĳĺå·¥": 5620,
      "æĬĳ": 5621,
      "æĺİç¡®": 5622,
      "Ġba": 5623,
      "çķĻä¸ĭæĿ¥": 5624,
      "éĿĴæĺ¥": 5625,
      "åĬ³åĬ¨": 5626,
      "16": 5627,
      "äºĨåĺĽ": 5628,
      "Ġä½łä»¥ä¸º": 5629,
      "å¤ªåŃĲ": 5630,
      "éļ¾ä»¥": 5631,
      "ĠæĶ¶": 5632,
      "ä¸Ģä¸ĩ": 5633,
      "å¥½å¥ĩ": 5634,
      "Ġå©": 5635,
      "å¯Ĥ": 5636,
      "è¿Ļä¸ªéĹ®é¢ĺ": 5637,
      "éģµ": 5638,
      "äº§ä¸ļ": 5639,
      "è¿Ľä¸ĢæŃ¥": 5640,
      "éĶ»": 5641,
      "è¦": 5642,
      "ç»ıèĲ¥": 5643,
      "å®īæħ°": 5644,
      "Ġå°ıå¿ĥ": 5645,
      "åįģåĽĽ": 5646,
      "Ġä½łèĩªå·±": 5647,
      "ĠåĬ¨": 5648,
      "Ġ3": 5649,
      "åİŁåĪĻ": 5650,
      "åīĤ": 5651,
      "èĽĭç³ķ": 5652,
      "ä¼ļçļĦ": 5653,
      "å©¶": 5654,
      "ç¡®å®ŀæĺ¯": 5655,
      "åĭĩæķ¢": 5656,
      "ä¼ĻåŃĲ": 5657,
      "Ġåı¦å¤ĸ": 5658,
      "ä¹ĭåĲİåĳ¢": 5659,
      "å°±æĥ³": 5660,
      "ä¸ĭæĿ¥äºĨ": 5661,
      "å¯¹æĪĳä»¬": 5662,
      "çĶŁåŃĺ": 5663,
      "èĳĽ": 5664,
      "è¿Ļä¸į": 5665,
      "è£Ļ": 5666,
      "ĠæĹ¶": 5667,
      "æľīæĦıæĢĿ": 5668,
      "åĲĮæł·": 5669,
      "èĥģ": 5670,
      "ä¸įçĦ¶": 5671,
      "æļĤæĹ¶": 5672,
      "åľ¨çľĭ": 5673,
      "ç©ºä¸Ń": 5674,
      "åģĩçļĦ": 5675,
      "ĠåĴ±ä¿©": 5676,
      "ĠæģĲ": 5677,
      "Ġèĥ½å¤Ł": 5678,
      "ķæīĢ": 5679,
      "æĻļäºĨ": 5680,
      "å©ļç¤¼": 5681,
      "æľºæŀĦ": 5682,
      "éĺħè¯»": 5683,
      "åľ¨åĵªéĩĮ": 5684,
      "çİĭçĪ·": 5685,
      "å§Ķåĳĺ": 5686,
      "æĬ¹": 5687,
      "ä¸Ģæ®µæĹ¶éĹ´": 5688,
      "éĥ½å¾Ĺ": 5689,
      "Ġæ¼": 5690,
      "çĶĦ": 5691,
      "ç¨įå¾®": 5692,
      "Ġé£ŀ": 5693,
      "èĢ½è¯¯": 5694,
      "100": 5695,
      "æĹłèģĬ": 5696,
      "ç¾½æ¯Ľ": 5697,
      "ä»ĸå°±æĺ¯": 5698,
      "çļĦèĬ±": 5699,
      "ä¸Ģæł¹": 5700,
      "äººåĵª": 5701,
      "èµļéĴ±": 5702,
      "Ġåıĳçİ°": 5703,
      ".(": 5704,
      "åľ¨æ°´": 5705,
      "ä¹ŁæĮº": 5706,
      "æĪĳä»¬çİ°åľ¨": 5707,
      "Ġå¥½çļĦ": 5708,
      "Ġä¹ĭåīį": 5709,
      "åĪ¸": 5710,
      "çī¹å¾ģ": 5711,
      "ä¸ĢåĲ¬": 5712,
      "åĻ¢": 5713,
      "æĪĸèĢħæĺ¯": 5714,
      "æ£ī": 5715,
      "Ġèĥ¡": 5716,
      "Ġå¥¶": 5717,
      "ĠçĿ¡": 5718,
      "Ġå¿«çĤ¹": 5719,
      "è¸ıå®ŀ": 5720,
      "åı¸æľº": 5721,
      "$$ãĢģ": 5722,
      "è¾±": 5723,
      "âĢķ": 5724,
      "çĶ·åŃĲ": 5725,
      "å¯¸": 5726,
      "åİ¨æĪ¿": 5727,
      "ä¸įè¶³": 5728,
      "å¦Ĥæŀľä½ł": 5729,
      "ç«ŀäºī": 5730,
      "åĲĬ": 5731,
      "å¼ĢéĹ¨": 5732,
      "æµªè´¹": 5733,
      "Ġæ¯Ķå¦Ĥ": 5734,
      "è·¨": 5735,
      "ĠæĪĳåĴĮ": 5736,
      "åº¦çļĦ": 5737,
      "å°ıçĮ´": 5738,
      "åĪĽæĸ°": 5739,
      "qu": 5740,
      "åĳľ": 5741,
      "è¦Ĩ": 5742,
      "Ġæĺ¯ä½ł": 5743,
      "æĪĳæĦŁè§ī": 5744,
      "åħ¬å¹³": 5745,
      "Ġä½łåĪ°åºķ": 5746,
      "Ġåı¶": 5747,
      "ä¸¤åįĥ": 5748,
      "åī©ä¸ĭ": 5749,
      "æĮģç»Ń": 5750,
      "å§ĭç»Ī": 5751,
      "èİİ": 5752,
      "æĸ¹ç¨ĭ": 5753,
      "Ġå¦Ĥä»Ĭ": 5754,
      "æīĽ": 5755,
      "åĨĽéĺŁ": 5756,
      "åĺ´éĩĮ": 5757,
      "è¶ħçº§": 5758,
      "ç½©": 5759,
      "çļĦæĹ¶åĢĻåķĬ": 5760,
      "åĲĪåĲĮ": 5761,
      "æĻºæħ§": 5762,
      "åı¯çľŁ": 5763,
      "è¿Ļåľº": 5764,
      "æłĳæŀĹ": 5765,
      "è½»æĿ¾": 5766,
      "è¯¥æĢİä¹ĪåĬŀ": 5767,
      "ĠçĶ»": 5768,
      "æĳĬ": 5769,
      "åĿĲåĿĲ": 5770,
      "éķ¿å®ĺ": 5771,
      "BA": 5772,
      "çļĦæŃĮ": 5773,
      "ç¢°åĪ°": 5774,
      "ä»İæŃ¤": 5775,
      "ä¸įæĺİçĻ½": 5776,
      "æīĢè°ĵçļĦ": 5777,
      "éĢģä½ł": 5778,
      "ä½łå¾Ĺ": 5779,
      "å¹¿å·ŀ": 5780,
      "åĺīå®¾": 5781,
      "ĠæĪĳå¾Ĺ": 5782,
      "èĮ«": 5783,
      "ä½ľæĪĺ": 5784,
      "qi": 5785,
      "ä¸«å¤´": 5786,
      "å£¤": 5787,
      "å¥¹æĺ¯": 5788,
      "ä¹ĭåĨħ": 5789,
      "çĻ½çļĦ": 5790,
      "åŀĤ": 5791,
      "çĸı": 5792,
      "Ġ0": 5793,
      "äºĨéĤ£": 5794,
      "åŃ¦éĻ¢": 5795,
      "ä¸Ģåı·": 5796,
      "çŃ¹": 5797,
      "æīĭä¸Ĭ": 5798,
      "ä½łè¯´çļĦ": 5799,
      "éģĩè§ģ": 5800,
      "è¶³å¤Ł": 5801,
      "ĠæīĢæľī": 5802,
      "Ġbu": 5803,
      "ä»ĸè¦ģ": 5804,
      "æīĵæī°": 5805,
      "ä»ĸåıĪ": 5806,
      "çĥ«": 5807,
      "èĽĽ": 5808,
      "æ¨¡å¼ı": 5809,
      "å¤§äºĭ": 5810,
      "åĽ½å¤ĸ": 5811,
      "å²Ń": 5812,
      "äºīåıĸ": 5813,
      "æľĢé«ĺ": 5814,
      "å¾Īå°ĳ": 5815,
      "éĺŁåĳĺ": 5816,
      "å¯ŀ": 5817,
      "æĭĲ": 5818,
      "ä»ĸä¹Ł": 5819,
      "å°ıèĢģé¼ł": 5820,
      "ĠåĵĪ": 5821,
      "æĪĳåķĬ": 5822,
      "æµħ": 5823,
      "å°ıçĮ«": 5824,
      "å¾Īå¤ļçļĦ": 5825,
      "æĬ±çĿĢ": 5826,
      "éĶĢåĶ®": 5827,
      "ĠæĮº": 5828,
      "è¿Ļæł·ä¸Ģä¸ª": 5829,
      "å®ħ": 5830,
      "åĨ¯": 5831,
      "èµĦæľ¬": 5832,
      "ä¸ºæĪĳ": 5833,
      "Ġåħ±": 5834,
      "æ²¡æľīåĬŀæ³ķ": 5835,
      "å¤ļå¤ļ": 5836,
      "åĨ·éĿĻ": 5837,
      "ĠçĽ®åīį": 5838,
      "éĶ»çĤ¼": 5839,
      "Ġma": 5840,
      "ä¸Ģäºº": 5841,
      "ĠåĩĨå¤ĩ": 5842,
      "çļĦè¿ĩç¨ĭ": 5843,
      "hu": 5844,
      "æĪĳä»Ĭå¤©": 5845,
      "åįĳ": 5846,
      "ç¾¤ä¼Ĺ": 5847,
      "ä½łåĨį": 5848,
      "åħ¨æĺ¯": 5849,
      "ĠçĽ¸": 5850,
      "ä½ĳ": 5851,
      "ä¿ĿéĻ©": 5852,
      "åĽ¢éĺŁ": 5853,
      "æĺ¯æĥ³": 5854,
      "è±«": 5855,
      "Ġæ±Ł": 5856,
      "æĥ©": 5857,
      "æŃª": 5858,
      "Ġå®ĭ": 5859,
      "æııè¿°": 5860,
      "çļĦåıĳå±ķ": 5861,
      "å·¨å¤§çļĦ": 5862,
      "ä¸ĥåħ«": 5863,
      "Ġå¿ħé¡»": 5864,
      "çĤī": 5865,
      "äºĶä¸ª": 5866,
      "æ¯Ķä½ł": 5867,
      "xi": 5868,
      "ç¨»": 5869,
      "çļĦåĺĽ": 5870,
      "ä»ĸè¿ĺ": 5871,
      "ä¸ļåĬ¡": 5872,
      "æĪĺå£«": 5873,
      "ä½łæĬĬ": 5874,
      "æİı": 5875,
      "ç»ĨèĬĤ": 5876,
      "è¿ĲåĬ¨åĳĺ": 5877,
      "åįĥä¸ĩåĪ«": 5878,
      "ĠæĪĳä»¬è¦ģ": 5879,
      "æħİ": 5880,
      "ĠæĪĳçĪ¸": 5881,
      "ä»Ģä¹Īæł·": 5882,
      "éĢĤåºĶ": 5883,
      "Ġä¸ĭéĿ¢": 5884,
      "èĳ¬": 5885,
      "Ġæĸĩ": 5886,
      "Ġä½łæĬĬ": 5887,
      "å¥½å¥½åľ°": 5888,
      "ĠæķĻ": 5889,
      "è¿ľçļĦ": 5890,
      "æįŁå¤±": 5891,
      "éĩĩè®¿": 5892,
      "cos": 5893,
      "ä¸ŃåĮ»": 5894,
      "èµĦæł¼": 5895,
      "åĸĶ": 5896,
      "ç¬ĳè¯Ŀ": 5897,
      "ä½łä¸įæĺ¯": 5898,
      "å¹¿åĳĬ": 5899,
      "~~": 5900,
      "åĵĦ": 5901,
      "æĶ¾è¿ĩ": 5902,
      "æĦ¿æľĽ": 5903,
      "ä½łåĳĢ": 5904,
      "èĳ¡": 5905,
      "åĲĪçĲĨ": 5906,
      "åĮĸåŃ¦": 5907,
      "ç¥ŀå¥ĩ": 5908,
      "Ġshi": 5909,
      "Ġå¤«": 5910,
      "æľīéĹ®é¢ĺ": 5911,
      "éĥ½ä¸įçŁ¥éģĵ": 5912,
      "ä¸Ģä¸ªå¤§": 5913,
      "å¹³å¸¸": 5914,
      "æĪĳåıĪ": 5915,
      "æľīäºĭ": 5916,
      "ä¸ŃåįĪ": 5917,
      "éĽ¾": 5918,
      "ä»»ä½ķäºº": 5919,
      "æĸ¹éĿ¢çļĦ": 5920,
      "å¿ĥæĥ³": 5921,
      "çĶ¨æĿ¥": 5922,
      "åĲ¬çĿĢ": 5923,
      "æģĲæĢķ": 5924,
      "è§ĤçĤ¹": 5925,
      "ĠçªģçĦ¶": 5926,
      "åĵ²": 5927,
      "å¿ĥçĸ¼": 5928,
      "å¾Ģå¾Ģ": 5929,
      "çļĦåīį": 5930,
      "æĲģ": 5931,
      "æĪĳä»¬åı¯ä»¥": 5932,
      "åıįèĢĮ": 5933,
      "åıªè§ģ": 5934,
      "ç§°ä¸º": 5935,
      "å¹²åĲĹåĳĢ": 5936,
      "æ¸Ĳæ¸Ĳ": 5937,
      "ç»Ļä½łçļĦ": 5938,
      "å±ģèĤ¡": 5939,
      "çĽĳæİ§": 5940,
      "ä¸ĥå¹´": 5941,
      "åľ¨ä¸Ģ": 5942,
      "ä¸¢äºĨ": 5943,
      "åĲķ": 5944,
      "çĹħæ¯Ĵ": 5945,
      "åĽ½æ°ĳåħļ": 5946,
      "$,": 5947,
      "å¹´ä»£": 5948,
      "å¦¥": 5949,
      "ĠæĪĳä¹Łä¸į": 5950,
      "ç¥ŀç§ĺ": 5951,
      "çĶµåı°": 5952,
      "èĺĳ": 5953,
      "å·¾": 5954,
      "çľĭè§ģäºĨ": 5955,
      "æĲľç´¢": 5956,
      "éĽķ": 5957,
      "æĪĳåĳĬè¯īä½ł": 5958,
      "çĻ½å¤©": 5959,
      "æ¬£èµı": 5960,
      "èµĭ": 5961,
      "æ¸Ķ": 5962,
      "æİ¥è¿ĳ": 5963,
      "ç½²": 5964,
      "åŁİéĩĮ": 5965,
      "åĵĢ": 5966,
      "æĦŁåħ´è¶£": 5967,
      "æ³Ħ": 5968,
      "åįĬå¹´": 5969,
      "èĬ½": 5970,
      "è¿Ī": 5971,
      "ä¸įå®ļ": 5972,
      "Ġäºĭ": 5973,
      "è®¾å¤ĩ": 5974,
      "è¡ĮåķĬ": 5975,
      "éĩįè¦ģçļĦæĺ¯": 5976,
      "èĢģå®¶": 5977,
      "çļĦæĹ¶åĢĻåĳ¢": 5978,
      "è½¬ç§»": 5979,
      "èĪŀåı°": 5980,
      "Ġé»ĳ": 5981,
      "å°ıçĻ½åħĶ": 5982,
      "èĲĦ": 5983,
      "è´µçļĦ": 5984,
      "ç»£": 5985,
      "èĪįä¸įå¾Ĺ": 5986,
      "å®ŀæĸ½": 5987,
      "Ġxi": 5988,
      "çī¹åĪ«å¥½": 5989,
      "ĠæĪĳåħĪ": 5990,
      "çĶ©": 5991,
      "å¯¹å¥¹": 5992,
      "é©»": 5993,
      "æ°´æŀľ": 5994,
      "Ġå½ĵå¹´": 5995,
      "èĳ¡èĲĦ": 5996,
      "Ġäºĭæĥħ": 5997,
      "ĠæĪĳè¿ĺæĺ¯": 5998,
      "Ġå°±åľ¨": 5999,
      "ĠåĽŀæĿ¥": 6000,
      "Ġè§ģ": 6001,
      "Ġä½łåĨį": 6002,
      "å°±æĺ¯åľ¨": 6003,
      "åĬĽæ°Ķ": 6004,
      "åĸľæ¬¢ä½ł": 6005,
      "ing": 6006,
      "æī¾ä¸Ģä¸ª": 6007,
      "ä¸įèĪĴæľį": 6008,
      "å°±æĺ¯ä»ĸ": 6009,
      "ä¸ĢçĶŁ": 6010,
      "ä¹Įé¸¦": 6011,
      "åłª": 6012,
      "ĠæĪĳä¸įä¼ļ": 6013,
      "çĤ¹çĤ¹": 6014,
      "Â·": 6015,
      "Ġm": 6016,
      "è¿Ļä¸Ģæ¬¡": 6017,
      "æĸŃäºĨ": 6018,
      "ĠæĪĳè·Łä½ł": 6019,
      "çİĦ": 6020,
      "be": 6021,
      "ä¸ªå°ı": 6022,
      "çķĻè¨Ģ": 6023,
      "ç»ĦæĪĲ": 6024,
      "ä¾į": 6025,
      "æĩĤå¾Ĺ": 6026,
      "åĲĵå¾Ĺ": 6027,
      "éĤ®": 6028,
      "å¼ĢçļĦ": 6029,
      "çĲĥéĺŁ": 6030,
      "èĲ¥åħ»": 6031,
      "åľ°éĹ®": 6032,
      "ä¸¤åı¥": 6033,
      "ĠçľĭåĪ°": 6034,
      "ä¸įè§ģäºĨ": 6035,
      "æľ¬ä¹¦": 6036,
      "æĢĢåŃķ": 6037,
      "è¯ĳ": 6038,
      "åĩŃä»Ģä¹Ī": 6039,
      "çŁ®": 6040,
      "Ġéļ¾": 6041,
      "Ġä»Ĭå¹´": 6042,
      "æħĪ": 6043,
      "No": 6044,
      "èĬ±éĴ±": 6045,
      "æ¸¸æ³³": 6046,
      "çŁ¥ä¸įçŁ¥éģĵ": 6047,
      "èµ·çłģ": 6048,
      "è¿Ļæł·åķĬ": 6049,
      "è¹Ī": 6050,
      "Ġä¸ĩä¸Ģ": 6051,
      "ä»¬éĥ½": 6052,
      "æĻ´": 6053,
      "è¦ģä¸įçĦ¶": 6054,
      "å®¶éķ¿": 6055,
      "ä¿Ħ": 6056,
      "éĩįçļĦ": 6057,
      "ç¦»å¼ĢäºĨ": 6058,
      "Ġæľķ": 6059,
      "å¹½": 6060,
      "åħŃå¹´": 6061,
      "ĠæīĢä»¥è¯´": 6062,
      "Ġä½łè¯´ä½ł": 6063,
      "Ġå°ıå§Ĳ": 6064,
      "å¯¹çĿĢ": 6065,
      "å´©": 6066,
      "æıĲåįĩ": 6067,
      "åĸĿäºĨ": 6068,
      "ä¿¡å¿ĥ": 6069,
      "ä¹ı": 6070,
      "åıĻ": 6071,
      "é¼ĵåĬ±": 6072,
      "éĤª": 6073,
      "ha": 6074,
      "Ġ-": 6075,
      "åıįæĺł": 6076,
      "å¯¹å¾ħ": 6077,
      "ç¢§": 6078,
      "æĥ³äºĨ": 6079,
      "ä¸įéľĢè¦ģ": 6080,
      "æ¬§æ´²": 6081,
      "é¢Īé¹¿": 6082,
      "Ġå²": 6083,
      "åŃĲå¼¹": 6084,
      "çĲ¢": 6085,
      "æĸĩåŃĹ": 6086,
      "ä¸įåıĺ": 6087,
      "å¨ģèĥģ": 6088,
      "ç»ĻæĪĳçļĦ": 6089,
      "åľºçļĦ": 6090,
      "Ġç»Ļä½ł": 6091,
      "åıĬæĹ¶": 6092,
      "èĩĤ": 6093,
      "æ´Ĵ": 6094,
      "å®¢æĪ·": 6095,
      "é¢ĨåŁŁ": 6096,
      "èĺĳèıĩ": 6097,
      "ä¸ĢéĿ¢": 6098,
      "ä»¥ä¸Ĭ": 6099,
      "åĶ¤": 6100,
      "çľŁå¥½": 6101,
      "çĶŁæ´»ä¸Ń": 6102,
      "å½¢çĬ¶": 6103,
      "è·Łä½łä»¬": 6104,
      "éĺĶ": 6105,
      "çĳ°": 6106,
      "Ġè¯ķ": 6107,
      "å°ıçĭĹ": 6108,
      "çŁ¥éģĵçļĦ": 6109,
      "è§īå¾Ĺèĩªå·±": 6110,
      "åħĥç´ł": 6111,
      "åİķæīĢ": 6112,
      "åļ·": 6113,
      "æĽ´å¥½çļĦ": 6114,
      "ä¸ºä½ķ": 6115,
      "çĶ·ä¸»": 6116,
      "æĪĳåı«": 6117,
      "å¥³æĢ§": 6118,
      "éªĦåĤ²": 6119,
      "äºĴèģĶ": 6120,
      "ç¾İåħĥ": 6121,
      "Ġä¹¦": 6122,
      "Ġè¿ĻåĦ¿": 6123,
      "Ġè¿ĻäºĭåĦ¿": 6124,
      "ĠçĶŁ": 6125,
      "ĠæĬĵ": 6126,
      "çİ«": 6127,
      "æĺİçļĦ": 6128,
      "ĠæĪĳä»¬æĺ¯": 6129,
      "è¿Ļä¹Īå¤§çļĦ": 6130,
      "æĿ¥åĲ§": 6131,
      "åĳĬè¯īä»ĸ": 6132,
      "ä¼ļåľ¨": 6133,
      "çĶµæµģ": 6134,
      "éģ¿åħį": 6135,
      "Ġä¸ĩ": 6136,
      "å·®çĤ¹": 6137,
      "èµ«": 6138,
      "è¥¿çĵľ": 6139,
      "åĬ¨çļĦ": 6140,
      "è¶´": 6141,
      "èħ¹": 6142,
      "æĺ¯éĿŀå¸¸": 6143,
      "åıĳäºĨ": 6144,
      "ä½łè¿Ļæĺ¯": 6145,
      "åĴĮå¹³": 6146,
      "å½ĵæĪĲ": 6147,
      "åĽłä¸ºä½ł": 6148,
      "å±±ä¸Ĭ": 6149,
      "çŃĭ": 6150,
      "æ±ģ": 6151,
      "åħ¬é¸¡": 6152,
      "è§ĦåĪĻ": 6153,
      "ä¸įåĲĥ": 6154,
      "åıĳçļĦ": 6155,
      "ç¥ŀç»ı": 6156,
      "åĮºåŁŁ": 6157,
      "ĠçĶ±": 6158,
      "é¸ŃåŃĲ": 6159,
      "çº·çº·": 6160,
      "çıŃéķ¿": 6161,
      "åı¤ä»£": 6162,
      "çļĦç¡®": 6163,
      "æľīæķĪ": 6164,
      "åĴļ": 6165,
      "ĠæľīæĹ¶åĢĻ": 6166,
      "çļĦå½±åĵį": 6167,
      "hi": 6168,
      "æıŃ": 6169,
      "ä¸Ĭä¸ĭ": 6170,
      "èĤĥ": 6171,
      "éĽĨä¸Ń": 6172,
      "æľºåħ³": 6173,
      "ä¼¯ä¼¯": 6174,
      "ä¸įå°ıå¿ĥ": 6175,
      "é¡µ": 6176,
      "çħ¤": 6177,
      "å¤ªå¤ļäºĨ": 6178,
      "å¿Į": 6179,
      "çŁ¥éģĵä½ł": 6180,
      "Ġåįĥä¸ĩ": 6181,
      "èĳ£äºĭéķ¿": 6182,
      "éĩĮæľī": 6183,
      "ĠæĶ¾å¿ĥåĲ§": 6184,
      "è¯±": 6185,
      "çŃīä¸Ģä¸ĭ": 6186,
      "çĶ¨äºİ": 6187,
      "æĿĥåĪ©": 6188,
      "åľ¨éĤ£åĦ¿": 6189,
      "Ġ*": 6190,
      "æĪĳåı¯": 6191,
      "èº«ä¸ĬçļĦ": 6192,
      "æĺ¯å¤§": 6193,
      "åªĴä½ĵ": 6194,
      "ä»ĸæĥ³": 6195,
      "åĭĩæ°Ķ": 6196,
      "ä¸ªå¥½": 6197,
      "è½¦çļĦ": 6198,
      "èıĬ": 6199,
      "Ġèĥ½ä¸įèĥ½": 6200,
      "åı¨": 6201,
      "æľĿå»·": 6202,
      "Ġèĩ£": 6203,
      "ĠèĢģæĿ¿": 6204,
      "èł": 6205,
      "é«ĺä¸Ń": 6206,
      "()": 6207,
      "å±Ĭ": 6208,
      "çĥŃæĥħ": 6209,
      "ä¸įéĶĻçļĦ": 6210,
      "ä¸¤æ¬¡": 6211,
      "åĿĲä¸ĭ": 6212,
      "è¹²": 6213,
      "çĽ¯çĿĢ": 6214,
      "çŃĶæ¡Īä¸º": 6215,
      "éĢ¢": 6216,
      "éľī": 6217,
      "å¤Ħéķ¿": 6218,
      "Ġ\\\\": 6219,
      "èĤ¯å®ļä¼ļ": 6220,
      "æĥĬåĸľ": 6221,
      "æĹ¶åħī": 6222,
      "çł´äºĨ": 6223,
      "çŃīåĪ°": 6224,
      "Ġè®©ä½ł": 6225,
      "å°±ä¸įä¼ļ": 6226,
      "çī¹æĦı": 6227,
      "éĵ¶åŃĲ": 6228,
      "å«Įçĸĳäºº": 6229,
      "æİªæĸ½": 6230,
      "åħ¼": 6231,
      "Ġè°¢è°¢ä½ł": 6232,
      "å¥½åĥıæĺ¯": 6233,
      "äºĨä¸ĭæĿ¥": 6234,
      "æĬ¥ä»ĩ": 6235,
      "æ¯ħ": 6236,
      "èĢģå®ŀ": 6237,
      "è¿Ļä¸ĢåĪĩ": 6238,
      "åİ»å¹´": 6239,
      "å°ıå°ıçļĦ": 6240,
      "ç©Ĩ": 6241,
      "ĠéĻĨ": 6242,
      "åıĹä¸įäºĨ": 6243,
      "è¿Ļæł·åŃĲ": 6244,
      "ä»¤äºº": 6245,
      "ä½łåĲ¬": 6246,
      "çĦ¶åĲİå°±": 6247,
      "ĠåŃĻ": 6248,
      "å½Ń": 6249,
      "å§ļ": 6250,
      "ĠåĮ»çĶŁ": 6251,
      "çº¢èī²": 6252,
      "èĸĽ": 6253,
      "éĩĮéĿ¢çļĦ": 6254,
      "è¿Ļä¸¤ä¸ª": 6255,
      "åĨħçļĦ": 6256,
      "ä¸Ģè¯´": 6257,
      "ç»¿èī²": 6258,
      "æľĢåĸľæ¬¢": 6259,
      "æįĲ": 6260,
      "Ġæ®": 6261,
      "çļĦåĲįåŃĹ": 6262,
      "æīĵåĲ¬": 6263,
      "å°½ç®¡": 6264,
      "æĵįä½ľ": 6265,
      "è¿ĩåĪĨ": 6266,
      "åħ¬éĩĮ": 6267,
      "æķ°éĩı": 6268,
      "äº¦": 6269,
      "è¿Ļä¸ªä¸ľè¥¿": 6270,
      "Ġä¸ľ": 6271,
      "ä¸Ģèµ·æĿ¥": 6272,
      "æĹłåħ³": 6273,
      "ä»ĬæĹ¥": 6274,
      "Ġé£ŀæľº": 6275,
      "äºĨä¸Ģä¼ļåĦ¿": 6276,
      "åĳ¢å°±": 6277,
      "çªĹæĪ·": 6278,
      "Ġç»Īäºİ": 6279,
      "è¿ĽæĶ»": 6280,
      "éĤ£ä¸ªäºº": 6281,
      "ä¸Ģåº§": 6282,
      "å±±çļĦ": 6283,
      "ĠçĨĬ": 6284,
      "åĪ°è¾¾": 6285,
      "æĦıçļĦ": 6286,
      "è°¨": 6287,
      "æ³ķéĻ¢": 6288,
      "æ£į": 6289,
      "è·Łå¤§å®¶": 6290,
      "ĠçĲĥ": 6291,
      "èº«çļĦ": 6292,
      "Ġ).": 6293,
      "åŃ¤çĭ¬": 6294,
      "å±±ç¾Ĭ": 6295,
      "ä¼łè¯´": 6296,
      "å¾Ĺèµ·": 6297,
      "Ġæį¢": 6298,
      "åĲ§åķĬ": 6299,
      "å¤ļæķ°": 6300,
      "åįļå£«": 6301,
      "çļĦæĺ¯ä»Ģä¹Ī": 6302,
      "ĠåĴĭ": 6303,
      "æĴķ": 6304,
      "å¥½å¤Ħ": 6305,
      "çĸĨ": 6306,
      "ç»ĥä¹ł": 6307,
      "å«©": 6308,
      "Ġå¥¶å¥¶": 6309,
      "çİ©åħ·": 6310,
      "ä½łä¸įè¦ģ": 6311,
      "ĠåĲ¦": 6312,
      "è¡¨æĥħ": 6313,
      "ç¾İå¥½çļĦ": 6314,
      "éĩįå¤§": 6315,
      "åŃĻåŃĲ": 6316,
      "åĩºä¸Ģ": 6317,
      "éħ±": 6318,
      "ä¹ĸä¹ĸ": 6319,
      "çļĦå°±": 6320,
      "ä¸ĢåĪ»": 6321,
      "ĠæĪĳä¸įèĥ½": 6322,
      "åľ¨éĤ£": 6323,
      "Ġä¿Ŀ": 6324,
      "åķª": 6325,
      "çĲª": 6326,
      "ä»¿ä½Ľ": 6327,
      "ä¸ĭéĻį": 6328,
      "âĪ´": 6329,
      "ä¸įè®©": 6330,
      "ĠæĻĵ": 6331,
      "æ¦Ĥå¿µ": 6332,
      "åĪĽä¸ļ": 6333,
      "çĲĨè®º": 6334,
      "Ġå£": 6335,
      "å¦Īå¦Īè¯´": 6336,
      "åĿĢ": 6337,
      ",$$": 6338,
      "å¤´çļĦ": 6339,
      "ä¸¤ç§į": 6340,
      "ç¿Ķ": 6341,
      "æį§": 6342,
      "èµĲ": 6343,
      "å¿ĥæĢĿ": 6344,
      "åĨħéĥ¨": 6345,
      "éĥ½å¿«": 6346,
      "å¸Į": 6347,
      "ä¸įåı¯ä»¥": 6348,
      "æĬĬæı¡": 6349,
      "ä½łå°±æĺ¯": 6350,
      "ä¸ĢæĹ¶": 6351,
      "ä»¬çļĦ": 6352,
      "å¤§ä¼ļ": 6353,
      "ä¹ĭæīĢä»¥": 6354,
      "æĦī": 6355,
      "çģ¿": 6356,
      "ĠçĦ¶åĲİæĪĳ": 6357,
      "ä½łæ²¡": 6358,
      "Ġåıªèĥ½": 6359,
      "åĵªæľī": 6360,
      "çĲ¢ç£¨": 6361,
      "æ¼ĶçļĦ": 6362,
      "æĺ¯çĶ±": 6363,
      "äºĨå¥¹": 6364,
      "æĴŃæĬ¥": 6365,
      "ä»ĸçİ°åľ¨": 6366,
      "Ġåħī": 6367,
      "éķ¿å¤§äºĨ": 6368,
      "Ġè®©æĪĳä»¬": 6369,
      "ĠéŁ©": 6370,
      "ä¸ĢæĹ¥": 6371,
      "Ġåķ¥": 6372,
      "ĠéĢģ": 6373,
      "æĺ¯æĮĩ": 6374,
      "éĤ£å°±æĺ¯": 6375,
      "Ġå¥½åķĬ": 6376,
      "éģĩåĪ°äºĨ": 6377,
      "å·¥åİĤ": 6378,
      "ĠæıĲ": 6379,
      "æĦıåĳ³": 6380,
      "{}": 6381,
      "Ġæ¥": 6382,
      "å°¸ä½ĵ": 6383,
      "çİ«çĳ°": 6384,
      "çļĦæĸ¹æ³ķ": 6385,
      "éĩĩåıĸ": 6386,
      "Ġä½łä¸įè¦ģ": 6387,
      "æ£®æŀĹéĩĮ": 6388,
      "äºĮä½į": 6389,
      "åĲ¬è¯´è¿ĩ": 6390,
      "Ġç¬¬": 6391,
      "åĪ®": 6392,
      "ä¸ĢæĿ¯": 6393,
      "è¯´è¦ģ": 6394,
      "åĲĥçĤ¹": 6395,
      "åı¦ä¸Ģä¸ª": 6396,
      "ºåŃĲ": 6397,
      "Ġè¿ĩæĿ¥": 6398,
      "Ġä¿º": 6399,
      "æį·": 6400,
      "æ¢°": 6401,
      "Ġèĭ¹æŀľ": 6402,
      "äºĨåĩºæĿ¥": 6403,
      "æĪĲå°±": 6404,
      "å¤ŁäºĨ": 6405,
      "çģĮ": 6406,
      "ĠåĨĽ": 6407,
      "èµ°è¿Ľ": 6408,
      "è¯¥æĢİä¹Ī": 6409,
      "Ġå¾Ĳ": 6410,
      "Ġæ¯Ľ": 6411,
      "èĥ¡è¯´": 6412,
      "å¸½": 6413,
      "ç¥Ń": 6414,
      "ĠåĵªæĢķ": 6415,
      "ä¸įå¤§": 6416,
      "è¿Ļä»½": 6417,
      "çĸ²": 6418,
      "æľīè¶£": 6419,
      "å¾ª": 6420,
      "çĹ´": 6421,
      "Ġå¼Ł": 6422,
      "ä¸ºéļ¾": 6423,
      "å¯¹ä»ĺ": 6424,
      "æľīæľºä¼ļ": 6425,
      "Ġæ¸ħ": 6426,
      "æľªæĿ¥çļĦ": 6427,
      "åĪļå¥½": 6428,
      "åľŁå£¤": 6429,
      "èĥ¡åŃĲ": 6430,
      "ä¸įæ¸ħ": 6431,
      "ĠåĲ¦åĪĻ": 6432,
      "åĮĸçļĦ": 6433,
      "}}-": 6434,
      "å°±åĪ«": 6435,
      "å¹³åĿĩ": 6436,
      "èĹ¤": 6437,
      "æ¦ľ": 6438,
      "ant": 6439,
      "Ġä¸ĬéĿ¢": 6440,
      "æĺ¯ä½łçļĦ": 6441,
      "åĲĳä½ł": 6442,
      "Ġæ°¸": 6443,
      "èĬ±åĽŃ": 6444,
      "æĿ¥çĿĢ": 6445,
      "ĠæĪĳåĲ¬": 6446,
      "å°±å¾Ī": 6447,
      "éĩįåºĨ": 6448,
      "å¸®ä»ĸ": 6449,
      "Ġå°±æĺ¯è¯´": 6450,
      "}}$$,": 6451,
      "Ġä½łçŁ¥éģĵåĲĹ": 6452,
      "å°¬": 6453,
      "Ġæīįèĥ½": 6454,
      "ĠæĪĳä¹Łæĺ¯": 6455,
      "Ġå¹¿": 6456,
      "è¿Ļè¯Ŀ": 6457,
      "Ġå¹¶ä¸Ķ": 6458,
      "æķĻè®Ń": 6459,
      "Ġæ²¡éĶĻ": 6460,
      "åįĬå¤ľ": 6461,
      "Ġæľĭåıĭ": 6462,
      "åĽŀå®¶äºĨ": 6463,
      "çĶŃ": 6464,
      "å¤ıå¤©": 6465,
      "å¥ĳ": 6466,
      "æĹ©æĻ¨": 6467,
      "åĦ¿åĽŃ": 6468,
      "æĬĬä»ĸä»¬": 6469,
      "æ®ĸ": 6470,
      "å¼Ģå§ĭäºĨ": 6471,
      "èĮĤ": 6472,
      "å¤§çĪ·": 6473,
      "æ²¡æľīåķĬ": 6474,
      "èµ¢äºĨ": 6475,
      "ä¸ªåĦ¿": 6476,
      "é»Ħéĩĳ": 6477,
      "ĠåħĪçĶŁ": 6478,
      "åĶł": 6479
    },
    "merges": [
      [
        "ä",
        "¸"
      ],
      [
        "ä",
        "º"
      ],
      [
        "ç",
        "ļ"
      ],
      [
        "çļ",
        "Ħ"
      ],
      [
        "ä",
        "»"
      ],
      [
        "æ",
        "Ī"
      ],
      [
        "ä",
        "½"
      ],
      [
        "è",
        "¿"
      ],
      [
        "æĪ",
        "ĳ"
      ],
      [
        "æ",
        "ĺ"
      ],
      [
        "Ġ",
        "å"
      ],
      [
        "æĺ",
        "¯"
      ],
      [
        "ä½",
        "ł"
      ],
      [
        "äº",
        "Ĩ"
      ],
      [
        "æ",
        "ľ"
      ],
      [
        "ä",
        "¹"
      ],
      [
        "å",
        "¤"
      ],
      [
        "å",
        "Ĳ"
      ],
      [
        "ä¸",
        "į"
      ],
      [
        "ä¸",
        "Ģ"
      ],
      [
        "å",
        "ı"
      ],
      [
        "å",
        "°"
      ],
      [
        "è",
        "¯"
      ],
      [
        "è¿",
        "Ļ"
      ],
      [
        "å",
        "®"
      ],
      [
        "å",
        "ľ"
      ],
      [
        "å",
        "Ī"
      ],
      [
        "æ",
        "Ŀ"
      ],
      [
        "ä¸",
        "ª"
      ],
      [
        "å",
        "ħ"
      ],
      [
        "æľ",
        "ī"
      ],
      [
        "å",
        "¥"
      ],
      [
        "ã",
        "Ģ"
      ],
      [
        "ĥ",
        "½"
      ],
      [
        "ä»",
        "¬"
      ],
      [
        "å",
        "Ń"
      ],
      [
        "å",
        "ĳ"
      ],
      [
        "ãĢ",
        "Ĥ"
      ],
      [
        "ç",
        "»"
      ],
      [
        "ä»",
        "ĸ"
      ],
      [
        "æ",
        "ī"
      ],
      [
        "å",
        "¾"
      ],
      [
        "å°",
        "±"
      ],
      [
        "åľ",
        "¨"
      ],
      [
        "ä¹",
        "Ī"
      ],
      [
        "æĿ",
        "¥"
      ],
      [
        "äº",
        "º"
      ],
      [
        "Ġ",
        "æĪĳ"
      ],
      [
        "ç",
        "Ķ"
      ],
      [
        "å",
        "ķ"
      ],
      [
        "ç",
        "ľ"
      ],
      [
        "æ",
        "Ĺ"
      ],
      [
        "è¯",
        "´"
      ],
      [
        "é",
        "Ĥ"
      ],
      [
        "ä",
        "¼"
      ],
      [
        "å",
        "Ľ"
      ],
      [
        "éĤ",
        "£"
      ],
      [
        "åķ",
        "Ĭ"
      ],
      [
        "æ",
        "Ģ"
      ],
      [
        "å",
        "İ"
      ],
      [
        "æ",
        "²"
      ],
      [
        "Ġ",
        "ä½ł"
      ],
      [
        "¦",
        "ģ"
      ],
      [
        "è",
        "¦ģ"
      ],
      [
        "å¥",
        "½"
      ],
      [
        "æ",
        "ĥ"
      ],
      [
        "é",
        "ĩ"
      ],
      [
        "è",
        "µ"
      ],
      [
        "è",
        "®"
      ],
      [
        "å",
        "Ĭ"
      ],
      [
        "å",
        "į"
      ],
      [
        "å",
        "¿"
      ],
      [
        "è",
        "§"
      ],
      [
        "è",
        "Ģ"
      ],
      [
        "å",
        "ĩ"
      ],
      [
        "ä¸",
        "Ĭ"
      ],
      [
        "åŃ",
        "Ĳ"
      ],
      [
        "åĪ",
        "°"
      ],
      [
        "æ",
        "Ĭ"
      ],
      [
        "ç",
        "İ"
      ],
      [
        "å",
        "·"
      ],
      [
        "å",
        "¹"
      ],
      [
        "å¤",
        "§"
      ],
      [
        "å",
        "¼"
      ],
      [
        "å",
        "¸"
      ],
      [
        "æ²",
        "¡"
      ],
      [
        "å",
        "Ĩ"
      ],
      [
        "å",
        "¯"
      ],
      [
        "ä¹",
        "Ł"
      ],
      [
        "é",
        "ĥ½"
      ],
      [
        "çľ",
        "ĭ"
      ],
      [
        "è¿",
        "ĺ"
      ],
      [
        "åİ",
        "»"
      ],
      [
        "æ",
        "ł"
      ],
      [
        "å",
        "ĵ"
      ],
      [
        "å¾",
        "Ĺ"
      ],
      [
        "æ",
        "ĸ"
      ],
      [
        "ä¼",
        "ļ"
      ],
      [
        "ä¸",
        "º"
      ],
      [
        "é",
        "Ĺ"
      ],
      [
        "è",
        "ĥ½"
      ],
      [
        "è",
        "·"
      ],
      [
        "Ħ",
        "¿"
      ],
      [
        "æĹ",
        "¶"
      ],
      [
        "æ",
        "Ń"
      ],
      [
        "ç",
        "Ŀ"
      ],
      [
        "ä»",
        "Ģ"
      ],
      [
        "ä»",
        "¥"
      ],
      [
        "ä»Ģ",
        "ä¹Ī"
      ],
      [
        "å°",
        "ı"
      ],
      [
        "å",
        "¦"
      ],
      [
        "é",
        "Ŀ"
      ],
      [
        "ä¸",
        "ĭ"
      ],
      [
        "å",
        "Ħ¿"
      ],
      [
        "å",
        "Ĵ"
      ],
      [
        "åĲ",
        "İ"
      ],
      [
        "å¤",
        "©"
      ],
      [
        "è¿",
        "ĩ"
      ],
      [
        "é",
        "ģ"
      ],
      [
        "é",
        "Ģ"
      ],
      [
        "å",
        "º"
      ],
      [
        "åı",
        "¯"
      ],
      [
        "ç",
        "Ī"
      ],
      [
        "å®",
        "¶"
      ],
      [
        "Ġ",
        "æ"
      ],
      [
        "è",
        "ĩ"
      ],
      [
        "ç",
        "Ľ"
      ],
      [
        "æĥ",
        "³"
      ],
      [
        "è",
        "¡"
      ],
      [
        "äº",
        "ĭ"
      ],
      [
        "çĿ",
        "Ģ"
      ],
      [
        "éĩ",
        "Į"
      ],
      [
        "å¯",
        "¹"
      ],
      [
        "æ",
        "ķ"
      ],
      [
        "åĳ",
        "¢"
      ],
      [
        "ä¸Ģ",
        "ä¸ª"
      ],
      [
        "Ġ",
        "è¿Ļ"
      ],
      [
        "è",
        "°"
      ],
      [
        "$",
        "$"
      ],
      [
        "ç",
        "ī"
      ],
      [
        "ç",
        "Ł"
      ],
      [
        "åĩ",
        "º"
      ],
      [
        "å",
        "½"
      ],
      [
        "æ",
        "Ħ"
      ],
      [
        "æ",
        "ĭ"
      ],
      [
        "åĲ",
        "Ĺ"
      ],
      [
        "æ",
        "°"
      ],
      [
        "çĶ",
        "Ł"
      ],
      [
        "åĲ",
        "§"
      ],
      [
        "ç",
        "§"
      ],
      [
        "æĪĳ",
        "ä»¬"
      ],
      [
        "ç»",
        "Ļ"
      ],
      [
        "å¤",
        "ļ"
      ],
      [
        "ç",
        "Ħ"
      ],
      [
        "åľ",
        "°"
      ],
      [
        "æ",
        "ŀ"
      ],
      [
        "éģ",
        "ĵ"
      ],
      [
        "æ",
        "¯"
      ],
      [
        "ç",
        "Ĥ"
      ],
      [
        "çĦ",
        "¶"
      ],
      [
        "çİ",
        "°"
      ],
      [
        "èĩ",
        "ª"
      ],
      [
        "è",
        "¾"
      ],
      [
        "ä¸",
        "Ń"
      ],
      [
        "å",
        "Ģ"
      ],
      [
        "è¿Ļ",
        "ä¸ª"
      ],
      [
        "æł",
        "·"
      ],
      [
        "å",
        "ģ"
      ],
      [
        "å¿",
        "ĥ"
      ],
      [
        "æ",
        "¬"
      ],
      [
        "åĴ",
        "Į"
      ],
      [
        "è·",
        "Ł"
      ],
      [
        "Ġå",
        "°"
      ],
      [
        "çĤ",
        "¹"
      ],
      [
        "è",
        "´"
      ],
      [
        "æ",
        "Ķ"
      ],
      [
        "èĢ",
        "ģ"
      ],
      [
        "çŁ",
        "¥"
      ],
      [
        "æĬ",
        "Ĭ"
      ],
      [
        "ä",
        "¿"
      ],
      [
        "å",
        "§"
      ],
      [
        "æĢ",
        "İ"
      ],
      [
        "æ²¡",
        "æľī"
      ],
      [
        "å°±",
        "æĺ¯"
      ],
      [
        "å",
        "Į"
      ],
      [
        "å¾",
        "Ī"
      ],
      [
        "æĢİ",
        "ä¹Ī"
      ],
      [
        "å",
        "±"
      ],
      [
        "æ",
        "İ"
      ],
      [
        "ä¸į",
        "æĺ¯"
      ],
      [
        "é",
        "Ļ"
      ],
      [
        "å",
        "ī"
      ],
      [
        "èµ",
        "·"
      ],
      [
        "Ġ",
        "éĤ£"
      ],
      [
        "ç",
        "Ń"
      ],
      [
        "é",
        "ķ"
      ],
      [
        "æ",
        "³"
      ],
      [
        "çľ",
        "Ł"
      ],
      [
        "åĳ",
        "Ģ"
      ],
      [
        "é",
        "ĺ"
      ],
      [
        "é",
        "¢"
      ],
      [
        "éĿ",
        "¢"
      ],
      [
        "å¹",
        "´"
      ],
      [
        "æ",
        "Į"
      ],
      [
        "åĽ",
        "ŀ"
      ],
      [
        "ç",
        "º"
      ],
      [
        "è",
        "½"
      ],
      [
        "è¯",
        "Ŀ"
      ],
      [
        "å¼",
        "Ģ"
      ],
      [
        "åĽ",
        "½"
      ],
      [
        "C",
        "H"
      ],
      [
        "å¥",
        "¹"
      ],
      [
        "è¡",
        "Į"
      ],
      [
        "çŁ¥",
        "éģĵ"
      ],
      [
        "ä¹",
        "ĭ"
      ],
      [
        "éķ",
        "¿"
      ],
      [
        "Ġå",
        "ı"
      ],
      [
        "ç",
        "Ĳ"
      ],
      [
        "å",
        "ĸ"
      ],
      [
        "æĪ",
        "Ĳ"
      ],
      [
        "ç",
        "Ļ"
      ],
      [
        "è®",
        "©"
      ],
      [
        "Ġ",
        "ä»ĸ"
      ],
      [
        "æĥ",
        "ħ"
      ],
      [
        "èµ",
        "°"
      ],
      [
        "æī",
        "Ģ"
      ],
      [
        "åĪ",
        "«"
      ],
      [
        "åı",
        "ĳ"
      ],
      [
        "å®",
        "ļ"
      ],
      [
        "å·",
        "±"
      ],
      [
        "æ",
        "´"
      ],
      [
        "çĶ",
        "¨"
      ],
      [
        "ç»",
        "ı"
      ],
      [
        "è§",
        "ī"
      ],
      [
        "èĩª",
        "å·±"
      ],
      [
        "æĦ",
        "ı"
      ],
      [
        "åĢ",
        "Ļ"
      ],
      [
        "æ",
        "µ"
      ],
      [
        "æľ",
        "Ģ"
      ],
      [
        "å®",
        "ŀ"
      ],
      [
        "åģ",
        "ļ"
      ],
      [
        "ç",
        "¬"
      ],
      [
        "çİ°",
        "åľ¨"
      ],
      [
        "å¦",
        "Ī"
      ],
      [
        "ä½",
        "Ĩ"
      ],
      [
        "æĹ¶",
        "åĢĻ"
      ],
      [
        "åį",
        "ģ"
      ],
      [
        "äº",
        "Ľ"
      ],
      [
        "ç",
        "®"
      ],
      [
        "æĸ",
        "¹"
      ],
      [
        "æī",
        "ĵ"
      ],
      [
        "E",
        "R"
      ],
      [
        "I",
        "L"
      ],
      [
        "CH",
        "IL"
      ],
      [
        "CHIL",
        "D"
      ],
      [
        "åī",
        "į"
      ],
      [
        "å½",
        "ĵ"
      ],
      [
        "å",
        "Ŀ"
      ],
      [
        "ä¸",
        "ī"
      ],
      [
        "è",
        "Ĭ"
      ],
      [
        "é",
        "Ĵ"
      ],
      [
        "Ġå°",
        "±"
      ],
      [
        "é",
        "Ľ"
      ],
      [
        "æ",
        "Ĥ"
      ],
      [
        "A",
        "R"
      ],
      [
        "E",
        "T"
      ],
      [
        "ä¸",
        "¤"
      ],
      [
        "G",
        "ET"
      ],
      [
        "T",
        "AR"
      ],
      [
        "TAR",
        "GET"
      ],
      [
        "ç",
        "«"
      ],
      [
        "åı",
        "ª"
      ],
      [
        "æ",
        "¸"
      ],
      [
        "è§",
        "ģ"
      ],
      [
        "æī",
        "ĭ"
      ],
      [
        "åŃ",
        "¦"
      ],
      [
        "åĬ",
        "¨"
      ],
      [
        "äº",
        "Į"
      ],
      [
        "åĪ",
        "Ĩ"
      ],
      [
        "é",
        "¡"
      ],
      [
        "Ġ",
        "ä¸į"
      ],
      [
        "ç§",
        "į"
      ],
      [
        "æĺ",
        "İ"
      ],
      [
        "äº",
        "İ"
      ],
      [
        "è",
        "Ĥ"
      ],
      [
        "éĹ",
        "®"
      ],
      [
        "Ġå",
        "¥"
      ],
      [
        "é",
        "ļ"
      ],
      [
        "æŀ",
        "ľ"
      ],
      [
        "èĢ",
        "Į"
      ],
      [
        "éĹ",
        "´"
      ],
      [
        "è",
        "¢"
      ],
      [
        "è",
        "º"
      ],
      [
        "é",
        "£"
      ],
      [
        "è",
        "¶"
      ],
      [
        "æ",
        "Ļ"
      ],
      [
        "å¤",
        "ª"
      ],
      [
        "æ",
        "±"
      ],
      [
        "åĨ",
        "į"
      ],
      [
        "æŃ",
        "£"
      ],
      [
        "ä»",
        "İ"
      ],
      [
        "åĲ",
        "ĥ"
      ],
      [
        "åı¯",
        "ä»¥"
      ],
      [
        "ä½",
        "ľ"
      ],
      [
        "ä»ĸ",
        "ä»¬"
      ],
      [
        "ç",
        "¾"
      ],
      [
        "å¤",
        "´"
      ],
      [
        "åĲ",
        "¬"
      ],
      [
        "æ",
        "Ľ"
      ],
      [
        "Ġå",
        "¤"
      ],
      [
        "T",
        "H"
      ],
      [
        "TH",
        "ER"
      ],
      [
        "å¥",
        "³"
      ],
      [
        "æī",
        "¾"
      ],
      [
        "é",
        "Ķ"
      ],
      [
        "è¿",
        "Ľ"
      ],
      [
        "æľ",
        "¬"
      ],
      [
        "ä¸",
        "»"
      ],
      [
        "æ",
        "ģ"
      ],
      [
        "çĦ¶",
        "åĲİ"
      ],
      [
        "å",
        "ĺ"
      ],
      [
        "ç",
        "ĭ"
      ],
      [
        "æ¬",
        "¡"
      ],
      [
        "Ġ",
        "æĺ¯"
      ],
      [
        "åħ",
        "¬"
      ],
      [
        "å¹",
        "²"
      ],
      [
        "æ¯",
        "Ķ"
      ],
      [
        "é",
        "«"
      ],
      [
        "æī",
        "į"
      ],
      [
        "ä",
        "¾"
      ],
      [
        "é«",
        "ĺ"
      ],
      [
        "åı",
        "Ī"
      ],
      [
        "æ³",
        "ķ"
      ],
      [
        "è§ī",
        "å¾Ĺ"
      ],
      [
        "åĬ",
        "Ľ"
      ],
      [
        "å®",
        "ĥ"
      ],
      [
        "ä»",
        "Ĭ"
      ],
      [
        "åħ",
        "³"
      ],
      [
        "åĲ",
        "Į"
      ],
      [
        "åĽ",
        "ł"
      ],
      [
        "è",
        "Ħ"
      ],
      [
        "èº",
        "«"
      ],
      [
        "è°",
        "¢"
      ],
      [
        "Ĺ",
        "¯"
      ],
      [
        "çŃ",
        "ī"
      ],
      [
        "è",
        "ĭ"
      ],
      [
        "è¾",
        "¹"
      ],
      [
        "é¢",
        "ĺ"
      ],
      [
        "å¦",
        "Ĥ"
      ],
      [
        "O",
        "THER"
      ],
      [
        "çĪ",
        "¸"
      ],
      [
        "M",
        "OTHER"
      ],
      [
        "æ",
        "¡"
      ],
      [
        "¥",
        "¿"
      ],
      [
        "å",
        "£"
      ],
      [
        "ä½ł",
        "ä»¬"
      ],
      [
        "åħ",
        "Ī"
      ],
      [
        "è¢",
        "«"
      ],
      [
        "å·",
        "²"
      ],
      [
        "éĤ£",
        "ä¸ª"
      ],
      [
        "ĠæĪĳ",
        "ä»¬"
      ],
      [
        "è",
        "ĥ"
      ],
      [
        "å¿",
        "«"
      ],
      [
        "è¿Ļ",
        "ä¹Ī"
      ],
      [
        "æ°",
        "Ķ"
      ],
      [
        "ç",
        "ģ"
      ],
      [
        "é",
        "ĥ"
      ],
      [
        "ç",
        "©"
      ],
      [
        "æĦ",
        "Ł"
      ],
      [
        "é",
        "©"
      ],
      [
        "çĶ",
        "µ"
      ],
      [
        "ĥ",
        "ı"
      ],
      [
        "ç",
        "ĥ"
      ],
      [
        "ç",
        "½"
      ],
      [
        "çļĦ",
        "æĹ¶åĢĻ"
      ],
      [
        "è¿Ļ",
        "æł·"
      ],
      [
        "æĤ",
        "¨"
      ],
      [
        "è",
        "¥¿"
      ],
      [
        "åº",
        "Ķ"
      ],
      [
        "çĲ",
        "Ĩ"
      ],
      [
        "è§",
        "£"
      ],
      [
        "è",
        "ģ"
      ],
      [
        "çĽ",
        "¸"
      ],
      [
        "éĩ",
        "į"
      ],
      [
        "ç",
        "ķ"
      ],
      [
        "è",
        "ī"
      ],
      [
        "åŃ",
        "©"
      ],
      [
        "å¸",
        "¸"
      ],
      [
        "æ°",
        "´"
      ],
      [
        "Ġ",
        "ä¸Ģ"
      ],
      [
        "æĹ",
        "ł"
      ],
      [
        "ä¸",
        "ľ"
      ],
      [
        "æĶ",
        "¾"
      ],
      [
        "çī",
        "©"
      ],
      [
        "ç",
        "¥"
      ],
      [
        "è¯",
        "¥"
      ],
      [
        "æĪĳ",
        "çļĦ"
      ],
      [
        "è",
        "Ī"
      ],
      [
        "æ",
        "į"
      ],
      [
        "Ġå",
        "Ĳ"
      ],
      [
        "ç",
        "´"
      ],
      [
        "å",
        "ĥı"
      ],
      [
        "çĻ",
        "½"
      ],
      [
        "åĵ",
        "ª"
      ],
      [
        "çĽ",
        "´"
      ],
      [
        "åħ",
        "¨"
      ],
      [
        "ä½",
        "ĵ"
      ],
      [
        "ä½Ĩ",
        "æĺ¯"
      ],
      [
        "æĹ",
        "¥"
      ],
      [
        "Ġå",
        "ħ"
      ],
      [
        "å",
        "Ł"
      ],
      [
        "æ",
        "Ł"
      ],
      [
        "ç",
        "³"
      ],
      [
        "å",
        "¨"
      ],
      [
        "ç",
        "Į"
      ],
      [
        "æľ",
        "º"
      ],
      [
        "éĴ",
        "±"
      ],
      [
        "ç",
        "¦"
      ],
      [
        "Ġå",
        "Ī"
      ],
      [
        "è¿ĺ",
        "æĺ¯"
      ],
      [
        "çĪ",
        "±"
      ],
      [
        "çī",
        "¹"
      ],
      [
        "å",
        "Ĺ¯"
      ],
      [
        "çİ",
        "ĭ"
      ],
      [
        "æīĢ",
        "ä»¥"
      ],
      [
        "æĸ",
        "°"
      ],
      [
        "ä½",
        "į"
      ],
      [
        "åħ",
        "¶"
      ],
      [
        "åĸ",
        "ľ"
      ],
      [
        "è°",
        "ģ"
      ],
      [
        "æ´",
        "»"
      ],
      [
        "å·",
        "¥"
      ],
      [
        "æŃ",
        "»"
      ],
      [
        "ãĢ",
        "ģ"
      ],
      [
        "å¸",
        "Ī"
      ],
      [
        "å¤",
        "ĸ"
      ],
      [
        "ä¿",
        "¡"
      ],
      [
        "åĵ",
        "¥"
      ],
      [
        "Ġ",
        "æľī"
      ],
      [
        "æ¬",
        "¢"
      ],
      [
        "Ġå",
        "ľ"
      ],
      [
        "èĬ",
        "±"
      ],
      [
        "çļĦ",
        "äºº"
      ],
      [
        "ç",
        "¡"
      ],
      [
        "è",
        "Ļ"
      ],
      [
        "é",
        "ľ"
      ],
      [
        "è",
        "į"
      ],
      [
        "å",
        "©"
      ],
      [
        "æ",
        "ı"
      ],
      [
        "ç¬",
        "¬"
      ],
      [
        "åı",
        "ĭ"
      ],
      [
        "çľŁ",
        "çļĦ"
      ],
      [
        "åĩ",
        "ł"
      ],
      [
        "åı",
        "«"
      ],
      [
        "Ġå",
        "ĵ"
      ],
      [
        "è¿ĺ",
        "æľī"
      ],
      [
        "ä½ł",
        "çļĦ"
      ],
      [
        "é",
        "»"
      ],
      [
        "å·²",
        "ç»ı"
      ],
      [
        "Ġå¥",
        "½"
      ],
      [
        "æĿ¥",
        "äºĨ"
      ],
      [
        "å¸",
        "¦"
      ],
      [
        "é©",
        "¬"
      ],
      [
        "ç¾",
        "İ"
      ],
      [
        "ãĢĤ",
        "\""
      ],
      [
        "è½",
        "¦"
      ],
      [
        "ä½",
        "ı"
      ],
      [
        "å°",
        "ĳ"
      ],
      [
        "å®",
        "Į"
      ],
      [
        "åĨ",
        "Ľ"
      ],
      [
        "å§",
        "Ĳ"
      ],
      [
        "åĲ",
        "Ī"
      ],
      [
        "ä¸į",
        "èĥ½"
      ],
      [
        "Ġåľ",
        "¨"
      ],
      [
        "ç»",
        "ĵ"
      ],
      [
        "ä»Ĭ",
        "å¤©"
      ],
      [
        "ä¸Ģ",
        "ä¸ĭ"
      ],
      [
        "æ",
        "¶"
      ],
      [
        "Ġå",
        "¦"
      ],
      [
        "Ġåı",
        "¯"
      ],
      [
        "æİ",
        "¥"
      ],
      [
        "äº",
        "Ķ"
      ],
      [
        "é",
        "¦"
      ],
      [
        "é",
        "ħ"
      ],
      [
        "é",
        "ª"
      ],
      [
        "å®",
        "ī"
      ],
      [
        "éĥ",
        "¨"
      ],
      [
        "çĻ",
        "¾"
      ],
      [
        "åĳ",
        "Ĭ"
      ],
      [
        "ç",
        "Ĺ"
      ],
      [
        "æ",
        "¼"
      ],
      [
        "æĢ",
        "Ŀ"
      ],
      [
        "éĥ½",
        "æĺ¯"
      ],
      [
        "æľ",
        "Ī"
      ],
      [
        ":",
        "\""
      ],
      [
        "éļ",
        "¾"
      ],
      [
        "åľ",
        "º"
      ],
      [
        "åı",
        "ĺ"
      ],
      [
        "åĽł",
        "ä¸º"
      ],
      [
        "éĢ",
        "ī"
      ],
      [
        "é",
        "¥"
      ],
      [
        "äº",
        "²"
      ],
      [
        "éĿ",
        "ŀ"
      ],
      [
        "å±",
        "±"
      ],
      [
        "éĶ",
        "Ļ"
      ],
      [
        "åŃ©",
        "åŃĲ"
      ],
      [
        "ç",
        "ĸ"
      ],
      [
        "ç",
        "¨"
      ],
      [
        "è¯",
        "·"
      ],
      [
        "ç",
        "¤"
      ],
      [
        "åĪ°",
        "äºĨ"
      ],
      [
        "éĹ",
        "¨"
      ],
      [
        "Ġå°",
        "ı"
      ],
      [
        "è·",
        "¯"
      ],
      [
        "ç",
        "²"
      ],
      [
        "åĽ",
        "Ľ"
      ],
      [
        "è",
        "Ĳ"
      ],
      [
        "æŃ",
        "¤"
      ],
      [
        "åĪ",
        "ļ"
      ],
      [
        "æ",
        "»"
      ],
      [
        "Ġå",
        "Ľ"
      ],
      [
        "åĬ",
        "ŀ"
      ],
      [
        "åĵ",
        "Ī"
      ],
      [
        "åı",
        "£"
      ],
      [
        "åı¯",
        "èĥ½"
      ],
      [
        "éĢ",
        "ļ"
      ],
      [
        "çľ",
        "¼"
      ],
      [
        "åĬ",
        "ł"
      ],
      [
        "Ġå",
        "®"
      ],
      [
        "æľ",
        "ĭ"
      ],
      [
        "åĲ",
        "į"
      ],
      [
        "å¹",
        "³"
      ],
      [
        "ç¡",
        "®"
      ],
      [
        "æľĭ",
        "åıĭ"
      ],
      [
        "æĢ",
        "»"
      ],
      [
        "äºĭ",
        "åĦ¿"
      ],
      [
        "çŃ",
        "Ķ"
      ],
      [
        "æ",
        "·"
      ],
      [
        "æĽ",
        "´"
      ],
      [
        "åº",
        "¦"
      ],
      [
        "éĺ",
        "Ł"
      ],
      [
        "åĸľ",
        "æ¬¢"
      ],
      [
        "åĴ",
        "±"
      ],
      [
        "è",
        "±"
      ],
      [
        "åı",
        "Ĺ"
      ],
      [
        "èĢ",
        "ħ"
      ],
      [
        "è®",
        "°"
      ],
      [
        "è¡",
        "¨"
      ],
      [
        "æĹ¶",
        "éĹ´"
      ],
      [
        "çĲ",
        "ĥ"
      ],
      [
        "ç",
        "ł"
      ],
      [
        "åĲ",
        "ĳ"
      ],
      [
        "ä¸",
        "ļ"
      ],
      [
        "ç®",
        "Ĺ"
      ],
      [
        "åĺ",
        "Ľ"
      ],
      [
        "è®",
        "¤"
      ],
      [
        "ç³",
        "»"
      ],
      [
        "ä¸",
        "ĩ"
      ],
      [
        "ä¹Ł",
        "ä¸į"
      ],
      [
        "æ¡",
        "Ī"
      ],
      [
        "æĸ",
        "ĩ"
      ],
      [
        "å¸",
        "®"
      ],
      [
        "ä»",
        "¶"
      ],
      [
        "éĩ",
        "ı"
      ],
      [
        "Ġå¤",
        "§"
      ],
      [
        "çĶ",
        "·"
      ],
      [
        "é",
        "ĵ"
      ],
      [
        "ä»",
        "»"
      ],
      [
        "äºĨ",
        "ä¸Ģ"
      ],
      [
        "å£",
        "°"
      ],
      [
        "ä¹Ł",
        "æĺ¯"
      ],
      [
        "å°",
        "Ĩ"
      ],
      [
        "çļĦ",
        "è¯Ŀ"
      ],
      [
        "é",
        "¸"
      ],
      [
        "å",
        "²"
      ],
      [
        "æķ",
        "°"
      ],
      [
        "æ",
        "ħ"
      ],
      [
        "çĪ",
        "·"
      ],
      [
        "äºĭ",
        "æĥħ"
      ],
      [
        "æĢ",
        "§"
      ],
      [
        "æĭ",
        "¿"
      ],
      [
        "ä¿",
        "Ŀ"
      ],
      [
        "ä¸",
        "İ"
      ],
      [
        "å",
        "Ķ"
      ],
      [
        "çĽ",
        "®"
      ],
      [
        "å¤",
        "Ħ"
      ],
      [
        "æĹ",
        "©"
      ],
      [
        "æľ",
        "Ľ"
      ],
      [
        "æµ",
        "·"
      ],
      [
        "åĮ",
        "ĸ"
      ],
      [
        "ç®",
        "¡"
      ],
      [
        "ç¦",
        "»"
      ],
      [
        "Ġå",
        "ķ"
      ],
      [
        "æķ",
        "ħ"
      ],
      [
        "è¯",
        "ī"
      ],
      [
        "åħ",
        "ī"
      ],
      [
        "å¼",
        "ł"
      ],
      [
        "åİ",
        "Ł"
      ],
      [
        "åĳ",
        "½"
      ],
      [
        "éĤ£",
        "ä¹Ī"
      ],
      [
        "èµ·",
        "æĿ¥"
      ],
      [
        "çİ",
        "©"
      ],
      [
        "ä¸ľ",
        "è¥¿"
      ],
      [
        "ä¸Ģ",
        "å®ļ"
      ],
      [
        "æ¸",
        "ħ"
      ],
      [
        "è®",
        "²"
      ],
      [
        "çļĦ",
        "æĺ¯"
      ],
      [
        "æ",
        "®"
      ],
      [
        "æĬ",
        "¥"
      ],
      [
        "ç",
        "±"
      ],
      [
        "æ",
        "Ĵ"
      ],
      [
        "ä½",
        "ķ"
      ],
      [
        "éĩ",
        "ĳ"
      ],
      [
        "Ġå",
        "¯"
      ],
      [
        "ç",
        "ħ"
      ],
      [
        "ç»Ļ",
        "æĪĳ"
      ],
      [
        "åĩº",
        "æĿ¥"
      ],
      [
        "Ġå",
        "ĳ"
      ],
      [
        "ä¸į",
        "ä¼ļ"
      ],
      [
        "è¶",
        "Ĭ"
      ],
      [
        "ä»ĸ",
        "çļĦ"
      ],
      [
        "Ġ",
        "çĦ¶åĲİ"
      ],
      [
        "æĢ",
        "ķ"
      ],
      [
        "ä¸º",
        "ä»Ģä¹Ī"
      ],
      [
        "æĪ",
        "ĺ"
      ],
      [
        "Ġ",
        "è¦ģ"
      ],
      [
        "ç",
        "ı"
      ],
      [
        "ç",
        "¼"
      ],
      [
        "ä¸",
        "ĸ"
      ],
      [
        "æĪ",
        "¿"
      ],
      [
        "å¦Ī",
        "å¦Ī"
      ],
      [
        "èī",
        "²"
      ],
      [
        "ç",
        "ª"
      ],
      [
        "å§",
        "ĭ"
      ],
      [
        "æ",
        "ĳ"
      ],
      [
        "æ¯",
        "ı"
      ],
      [
        "ä»",
        "£"
      ],
      [
        "éĹ®",
        "é¢ĺ"
      ],
      [
        "å",
        "¢"
      ],
      [
        "Ġ",
        "ä½Ĩæĺ¯"
      ],
      [
        "æı",
        "Ĳ"
      ],
      [
        "åħ",
        "¥"
      ],
      [
        "ä¸Ģ",
        "èµ·"
      ],
      [
        "åħ",
        "«"
      ],
      [
        "æ°",
        "ĳ"
      ],
      [
        "T",
        "I"
      ],
      [
        "äº",
        "¤"
      ],
      [
        "è",
        "£"
      ],
      [
        "åĳ",
        "ĺ"
      ],
      [
        "é£",
        "İ"
      ],
      [
        "å¤§",
        "å®¶"
      ],
      [
        "æĿ",
        "¡"
      ],
      [
        "æ",
        "¢"
      ],
      [
        "}",
        "$$"
      ],
      [
        "æ",
        "£"
      ],
      [
        "ä¸Ń",
        "åĽ½"
      ],
      [
        "å¥½",
        "çļĦ"
      ],
      [
        "V",
        "E"
      ],
      [
        "æĻ",
        "ļ"
      ],
      [
        "Ġå°±",
        "æĺ¯"
      ],
      [
        "Ġå¯",
        "¹"
      ],
      [
        "åºĶ",
        "è¯¥"
      ],
      [
        "A",
        "T"
      ],
      [
        "O",
        "R"
      ],
      [
        "I",
        "N"
      ],
      [
        "Ġå",
        "Ĵ"
      ],
      [
        "S",
        "TI"
      ],
      [
        "G",
        "AT"
      ],
      [
        "VE",
        "STI"
      ],
      [
        "IN",
        "VESTI"
      ],
      [
        "GAT",
        "OR"
      ],
      [
        "INVESTI",
        "GATOR"
      ],
      [
        "åĨ",
        "ħ"
      ],
      [
        "é",
        "Ł"
      ],
      [
        "Ġå¦",
        "Ĥ"
      ],
      [
        "ä»¥",
        "åĲİ"
      ],
      [
        "è",
        "Ľ"
      ],
      [
        "æĪĳ",
        "å°±"
      ],
      [
        "å¼",
        "Ł"
      ],
      [
        "å¨",
        "ĺ"
      ],
      [
        "å½",
        "±"
      ],
      [
        "æ",
        "¥"
      ],
      [
        "Ġè¿Ļ",
        "ä¸ª"
      ],
      [
        "å¤",
        "Ł"
      ],
      [
        "ä¸",
        "Ķ"
      ],
      [
        "Ġä½ł",
        "ä»¬"
      ],
      [
        "ä½ł",
        "è¯´"
      ],
      [
        "è¿",
        "ĳ"
      ],
      [
        "æľ",
        "į"
      ],
      [
        "éĢ",
        "ģ"
      ],
      [
        "ä¹",
        "°"
      ],
      [
        "Ġåķ",
        "Ĭ"
      ],
      [
        "è·",
        "ĳ"
      ],
      [
        "å",
        "»"
      ],
      [
        "çĪ",
        "¶"
      ],
      [
        "$$",
        "\\"
      ],
      [
        "!",
        "\""
      ],
      [
        "åĳĬ",
        "è¯ī"
      ],
      [
        "æ",
        "Ĳ"
      ],
      [
        "Ġ",
        "äºĨ"
      ],
      [
        "è°¢",
        "è°¢"
      ],
      [
        "èĢ",
        "ĥ"
      ],
      [
        "{",
        "{"
      ],
      [
        "ä¹",
        "Ŀ"
      ],
      [
        "ä¸Ģ",
        "æł·"
      ],
      [
        "ç",
        "Ĩ"
      ],
      [
        "è¿",
        "ŀ"
      ],
      [
        "Ġ",
        "æīĢä»¥"
      ],
      [
        "çī¹",
        "åĪ«"
      ],
      [
        "ç»Ļ",
        "ä½ł"
      ],
      [
        "æľ",
        "Ł"
      ],
      [
        "èĩªå·±",
        "çļĦ"
      ],
      [
        "éľ",
        "Ģ"
      ],
      [
        "é£",
        "ŀ"
      ],
      [
        "äºº",
        "çļĦ"
      ],
      [
        "è¿Ļ",
        "äºĽ"
      ],
      [
        "ä¹",
        "Ĳ"
      ],
      [
        "ä¹",
        "¦"
      ],
      [
        "è",
        "İ"
      ],
      [
        "äº",
        "§"
      ],
      [
        "ä¸Ģ",
        "çĤ¹"
      ],
      [
        "ä¸¤",
        "ä¸ª"
      ],
      [
        "åº",
        "ķ"
      ],
      [
        "å®",
        "³"
      ],
      [
        "ç¥",
        "ŀ"
      ],
      [
        "é¡",
        "¹"
      ],
      [
        "è¿",
        "ľ"
      ],
      [
        "åĪ",
        "©"
      ],
      [
        "éĿŀ",
        "å¸¸"
      ],
      [
        "Ġ",
        "çľĭ"
      ],
      [
        "çº",
        "¢"
      ],
      [
        "åı",
        "į"
      ],
      [
        "å¼",
        "º"
      ],
      [
        "æ±",
        "Ĥ"
      ],
      [
        "é",
        "¼"
      ],
      [
        "ç",
        "Ĭ"
      ],
      [
        "ç©",
        "º"
      ],
      [
        "å©",
        "ļ"
      ],
      [
        "æķ",
        "Ļ"
      ],
      [
        "x",
        "x"
      ],
      [
        "ä¿",
        "©"
      ],
      [
        "Ġ",
        "ä¹Ł"
      ],
      [
        "é¥",
        "Ń"
      ],
      [
        "Ġ",
        "æĢİä¹Ī"
      ],
      [
        "æł",
        "¹"
      ],
      [
        "çħ",
        "§"
      ],
      [
        "ç¬",
        "ĳ"
      ],
      [
        "å¼Ģ",
        "å§ĭ"
      ],
      [
        "çĶ",
        "±"
      ],
      [
        "è®",
        "¡"
      ],
      [
        "æĮ",
        "º"
      ],
      [
        "Ġå¦Ĥ",
        "æŀľ"
      ],
      [
        "æĶ",
        "¶"
      ],
      [
        "åŁ",
        "İ"
      ],
      [
        "è¿Ļ",
        "æĺ¯"
      ],
      [
        "é",
        "¾"
      ],
      [
        "Ġ",
        "ä»Ģä¹Ī"
      ],
      [
        "åı",
        "¸"
      ],
      [
        "å¥½",
        "äºĨ"
      ],
      [
        "åħ",
        "Ń"
      ],
      [
        "å¾",
        "Ģ"
      ],
      [
        "ä¸",
        "ĥ"
      ],
      [
        "ç´",
        "§"
      ],
      [
        "ä¸º",
        "äºĨ"
      ],
      [
        "}",
        "}"
      ],
      [
        "å¾Ī",
        "å¤ļ"
      ],
      [
        "åİ»",
        "äºĨ"
      ],
      [
        "åŃ",
        "Ĺ"
      ],
      [
        "æģ",
        "¯"
      ],
      [
        "Ġå¥",
        "¹"
      ],
      [
        "çļĦ",
        "ä¸Ģ"
      ],
      [
        "åĩ",
        "Ĩ"
      ],
      [
        "è·Ł",
        "æĪĳ"
      ],
      [
        "çģ",
        "«"
      ],
      [
        "ä¸į",
        "çŁ¥éģĵ"
      ],
      [
        "Ġ",
        "èĢĮ"
      ],
      [
        "éĻ",
        "¢"
      ],
      [
        "ä¾",
        "¿"
      ],
      [
        "åĴ±",
        "ä»¬"
      ],
      [
        "çĹ",
        "ħ"
      ],
      [
        "å¤",
        "«"
      ],
      [
        "Ġ",
        "è¯´"
      ],
      [
        "Ġåĵ",
        "İ"
      ],
      [
        "èĬ",
        "Ĥ"
      ],
      [
        "åľ¨",
        "è¿Ļ"
      ],
      [
        "æ¼",
        "Ķ"
      ],
      [
        "ç«",
        "ĭ"
      ],
      [
        "è",
        "ħ"
      ],
      [
        "ä¼",
        "ł"
      ],
      [
        "ä¸į",
        "è¦ģ"
      ],
      [
        "æľī",
        "ä¸Ģ"
      ],
      [
        "Ġ",
        "è¿ĺ"
      ],
      [
        "è",
        "ı"
      ],
      [
        "Ġå",
        "½"
      ],
      [
        "ç",
        "¢"
      ],
      [
        "åĿ",
        "Ĳ"
      ],
      [
        "æĦı",
        "æĢĿ"
      ],
      [
        "å¤",
        "ĩ"
      ],
      [
        "è¿",
        "Ĳ"
      ],
      [
        "Ġ",
        "ä¸ª"
      ],
      [
        "åĪ",
        "¶"
      ],
      [
        "Ġå",
        "Ĩ"
      ],
      [
        "èµ",
        "¶"
      ],
      [
        "å¸",
        "Ĥ"
      ],
      [
        "åį",
        "ĥ"
      ],
      [
        "è¿Ļ",
        "ç§į"
      ],
      [
        "èĢģ",
        "å¸Ī"
      ],
      [
        "åĨ",
        "³"
      ],
      [
        "Ġ",
        "\\"
      ],
      [
        "æł",
        "ĳ"
      ],
      [
        "ä¼",
        "¤"
      ],
      [
        "çķ",
        "Ļ"
      ],
      [
        "åį",
        "ķ"
      ],
      [
        "åĸ",
        "Ŀ"
      ],
      [
        "çĪ¸",
        "çĪ¸"
      ],
      [
        "çĶŁ",
        "æ´»"
      ],
      [
        "çĿ",
        "¡"
      ],
      [
        "Ġå",
        "į"
      ],
      [
        "å·¥",
        "ä½ľ"
      ],
      [
        "éľĢ",
        "è¦ģ"
      ],
      [
        "è",
        "Į"
      ],
      [
        "æŁ",
        "¥"
      ],
      [
        "çº",
        "¿"
      ],
      [
        "æµ",
        "ģ"
      ],
      [
        "å¤§",
        "çļĦ"
      ],
      [
        "éĺ",
        "¿"
      ],
      [
        "ä¸į",
        "å¥½"
      ],
      [
        "å¿",
        "ħ"
      ],
      [
        "Ġ",
        "çļĦ"
      ],
      [
        "çķ",
        "Į"
      ],
      [
        "åĮ",
        "»"
      ],
      [
        "å®",
        "Ŀ"
      ],
      [
        "æĿ",
        "İ"
      ],
      [
        "åĵ",
        "İ"
      ],
      [
        "Ġ",
        "æ²¡"
      ],
      [
        "ĠåĽ",
        "ł"
      ],
      [
        "ä¹ĭ",
        "åĲİ"
      ],
      [
        "åı",
        "¥"
      ],
      [
        "ç¨",
        "ĭ"
      ],
      [
        "è¯",
        "Ĩ"
      ],
      [
        "è±",
        "¡"
      ],
      [
        "æĪ",
        "ĸ"
      ],
      [
        "åķ",
        "¦"
      ],
      [
        "éĿ",
        "Ĵ"
      ],
      [
        "è®",
        "¸"
      ],
      [
        "åĿ",
        "Ĺ"
      ],
      [
        "ä¸Ģ",
        "çĽ´"
      ],
      [
        "åĽŀ",
        "æĿ¥"
      ],
      [
        "æĿ",
        "Ģ"
      ],
      [
        "åĮ",
        "Ĺ"
      ],
      [
        "Ĥ",
        "¨"
      ],
      [
        "æ¯",
        "į"
      ],
      [
        "åı",
        "·"
      ],
      [
        "Ġå",
        "İ"
      ],
      [
        "æ",
        "ļ"
      ],
      [
        "å®",
        "¹"
      ],
      [
        ".",
        "."
      ],
      [
        "çī",
        "ĩ"
      ],
      [
        "Ġåı",
        "ª"
      ],
      [
        "åıĳ",
        "çİ°"
      ],
      [
        "æĺ¯",
        "ä¸įæĺ¯"
      ],
      [
        "Ġ",
        "æĿ¥"
      ],
      [
        "è½",
        "»"
      ],
      [
        "çľĭ",
        "çľĭ"
      ],
      [
        "è¾",
        "ĥ"
      ],
      [
        "å¤",
        "±"
      ],
      [
        "è¯",
        "ģ"
      ],
      [
        "ä½",
        "¿"
      ],
      [
        "æŀ",
        "Ĺ"
      ],
      [
        "Ġå",
        "¾"
      ],
      [
        "äº",
        "®"
      ],
      [
        "å¹",
        "¶"
      ],
      [
        "æķ",
        "´"
      ],
      [
        "æĺ",
        "Ł"
      ],
      [
        "ä¸ĭ",
        "æĿ¥"
      ],
      [
        "æĺ¯",
        "æĪĳ"
      ],
      [
        "åĮ",
        "ħ"
      ],
      [
        "æ»",
        "¡"
      ],
      [
        "æĮ",
        "ĩ"
      ],
      [
        "èĤ",
        "¯"
      ],
      [
        "éĽ",
        "¶"
      ],
      [
        "åĲ",
        "Ħ"
      ],
      [
        "éŁ",
        "³"
      ],
      [
        "èµ",
        "Ħ"
      ],
      [
        "åħ³",
        "ç³»"
      ],
      [
        "åħ",
        "´"
      ],
      [
        "èµ°",
        "äºĨ"
      ],
      [
        "ĠåĽł",
        "ä¸º"
      ],
      [
        "éĩĮ",
        "éĿ¢"
      ],
      [
        "æĮ",
        "ģ"
      ],
      [
        "ä¸Ģ",
        "æ¬¡"
      ],
      [
        "å¦Ĥ",
        "æŀľ"
      ],
      [
        "è½",
        "¬"
      ],
      [
        "æ",
        "º"
      ],
      [
        "çŃĶ",
        "æ¡Ī"
      ],
      [
        "Ġ",
        "çİ°åľ¨"
      ],
      [
        "è®©",
        "æĪĳ"
      ],
      [
        "åį",
        "Ĺ"
      ],
      [
        "æĢ",
        "ª"
      ],
      [
        "Ġä»ĸ",
        "ä»¬"
      ],
      [
        "åı",
        "°"
      ],
      [
        "æĭ",
        "ī"
      ],
      [
        "Ġå½",
        "ĵ"
      ],
      [
        "åĵ",
        "ģ"
      ],
      [
        "åĬ",
        "¡"
      ],
      [
        "Ġæ",
        "Ĥ¨"
      ],
      [
        "å»",
        "º"
      ],
      [
        "èĩ",
        "³"
      ],
      [
        "ç",
        "¿"
      ],
      [
        "Ġæ",
        "¯"
      ],
      [
        "åį",
        "Ĭ"
      ],
      [
        "i",
        "n"
      ],
      [
        "å¼",
        "ı"
      ],
      [
        "æ",
        "Ħ¿"
      ],
      [
        "åħ¶",
        "å®ŀ"
      ],
      [
        "E",
        "A"
      ],
      [
        "T",
        "EA"
      ],
      [
        "TEA",
        "CH"
      ],
      [
        "TEACH",
        "ER"
      ],
      [
        "è°",
        "ĥ"
      ],
      [
        "Į",
        "æľĽ"
      ],
      [
        "æ®",
        "µ"
      ],
      [
        "æŃ",
        "¥"
      ],
      [
        "çľĭ",
        "åĪ°"
      ],
      [
        "éĺ",
        "³"
      ],
      [
        "Ġå",
        "¿"
      ],
      [
        "åľ°",
        "æĸ¹"
      ],
      [
        "è´",
        "¨"
      ],
      [
        "èµ",
        "Ľ"
      ],
      [
        "åĨ",
        "Ļ"
      ],
      [
        "æĭ",
        "ľ"
      ],
      [
        "éħ",
        "Ĵ"
      ],
      [
        "åħ",
        "±"
      ],
      [
        "Ġå",
        "¹"
      ],
      [
        "e",
        "n"
      ],
      [
        "å¥",
        "¶"
      ],
      [
        "Ń",
        "¦"
      ],
      [
        "äºĨ",
        "æĪĳ"
      ],
      [
        "â",
        "ĳ"
      ],
      [
        "åķ",
        "¥"
      ],
      [
        "Ġ",
        "ä½Ĩ"
      ],
      [
        "é»",
        "ĳ"
      ],
      [
        "è¿ĩ",
        "æĿ¥"
      ],
      [
        "å½",
        "¢"
      ],
      [
        "æĢ",
        "¥"
      ],
      [
        "Ġåħ",
        "¶"
      ],
      [
        "ç«",
        "Ļ"
      ],
      [
        "Ġ",
        "èĢģ"
      ],
      [
        "å¦",
        "¹"
      ],
      [
        "ä¹",
        "ī"
      ],
      [
        "å¯",
        "¼"
      ],
      [
        "è¯",
        "ķ"
      ],
      [
        "è¦ģ",
        "æĺ¯"
      ],
      [
        "æ¶",
        "Ī"
      ],
      [
        "åĬ",
        "Ł"
      ],
      [
        "ç²",
        "¾"
      ],
      [
        "æħ",
        "¢"
      ],
      [
        "äºĨ",
        "åĲĹ"
      ],
      [
        "æ¸",
        "¸"
      ],
      [
        "æĺ",
        "ĵ"
      ],
      [
        "åĳ",
        "¨"
      ],
      [
        "å¿",
        "Ļ"
      ],
      [
        "çĥ",
        "Ń"
      ],
      [
        "é»",
        "Ħ"
      ],
      [
        "è§",
        "Ĥ"
      ],
      [
        "ç",
        "ŀ"
      ],
      [
        "åĨ",
        "µ"
      ],
      [
        "æį",
        "®"
      ],
      [
        "æĶ",
        "¹"
      ],
      [
        "åĢ",
        "Ĵ"
      ],
      [
        "å",
        "«"
      ],
      [
        "æĦŁ",
        "è§ī"
      ],
      [
        "åĮ",
        "º"
      ],
      [
        "å",
        "ĭ"
      ],
      [
        "é",
        "±"
      ],
      [
        "æĪĳ",
        "æĺ¯"
      ],
      [
        "å",
        "ł"
      ],
      [
        "ĠåĴ",
        "±"
      ],
      [
        "èģ",
        "Ķ"
      ],
      [
        "çı",
        "Ń"
      ],
      [
        "æķ",
        "¢"
      ],
      [
        "çŁ",
        "³"
      ],
      [
        "å¥½",
        "å¥½"
      ],
      [
        "åĵĪ",
        "åĵĪ"
      ],
      [
        "é±",
        "¼"
      ],
      [
        "è§",
        "Ĩ"
      ],
      [
        "æķ",
        "ĳ"
      ],
      [
        "çļ",
        "ĩ"
      ],
      [
        "å",
        "Ļ"
      ],
      [
        "æīĢ",
        "æľī"
      ],
      [
        "Ġ",
        "\""
      ],
      [
        "èĭ",
        "¦"
      ],
      [
        "å®",
        "ĺ"
      ],
      [
        "äºº",
        "å®¶"
      ],
      [
        "è¾",
        "¾"
      ],
      [
        "ç»",
        "Ī"
      ],
      [
        "ä¸Ĭ",
        "çļĦ"
      ],
      [
        "åĽ",
        "¢"
      ],
      [
        "éļ",
        "ı"
      ],
      [
        "Ġ",
        "éĥ½"
      ],
      [
        "å±",
        "ķ"
      ],
      [
        "æ³",
        "¨"
      ],
      [
        "èĤ¯",
        "å®ļ"
      ],
      [
        "é",
        "º"
      ],
      [
        "é¦",
        "ĸ"
      ],
      [
        "Ġä½ł",
        "è¯´"
      ],
      [
        "é",
        "¹"
      ],
      [
        "æĪĳ",
        "è§īå¾Ĺ"
      ],
      [
        "è¡",
        "£"
      ],
      [
        "åı¯",
        "æĺ¯"
      ],
      [
        "äºĮ",
        "åįģ"
      ],
      [
        "æ·",
        "±"
      ],
      [
        "è",
        "¨"
      ],
      [
        "å¥",
        "ĩ"
      ],
      [
        "çĶ",
        "»"
      ],
      [
        "è¨",
        "Ģ"
      ],
      [
        "èĲ",
        "½"
      ],
      [
        "æİ",
        "ī"
      ],
      [
        "æİ",
        "Ĵ"
      ],
      [
        "e",
        "r"
      ],
      [
        "è£",
        "ħ"
      ],
      [
        "Ġ",
        "æĬĬ"
      ],
      [
        "æ",
        "ĩ"
      ],
      [
        "é",
        "Ĩ"
      ],
      [
        "å¾",
        "ħ"
      ],
      [
        "ä¹",
        "ħ"
      ],
      [
        "é¾",
        "Ļ"
      ],
      [
        "ç§",
        "ĳ"
      ],
      [
        "ç½",
        "ĳ"
      ],
      [
        "æľĢ",
        "åĲİ"
      ],
      [
        "?",
        "\""
      ],
      [
        "åı",
        "ĸ"
      ],
      [
        "çļĦ",
        "å°ı"
      ],
      [
        "è¶",
        "³"
      ],
      [
        "åĵ",
        "¦"
      ],
      [
        "ä¸ĸ",
        "çķĮ"
      ],
      [
        "è®",
        "¾"
      ],
      [
        "ĠåĪ",
        "°"
      ],
      [
        "æĶ",
        "¿"
      ],
      [
        "ĠåĪ",
        "«"
      ],
      [
        "åķ",
        "Ĩ"
      ],
      [
        "é¢",
        "Ĩ"
      ],
      [
        "ä¼ļ",
        "åĦ¿"
      ],
      [
        "äºĨ",
        "ä½ł"
      ],
      [
        "Ġè¿Ļ",
        "æĺ¯"
      ],
      [
        "å¸",
        "ĮæľĽ"
      ],
      [
        "èģ",
        "Ĭ"
      ],
      [
        "Ġå",
        "¸"
      ],
      [
        "æł",
        "¼"
      ],
      [
        "ä¹ĭ",
        "åīį"
      ],
      [
        "å·",
        "®"
      ],
      [
        "ä¸Ģä¸ª",
        "äºº"
      ],
      [
        "çª",
        "ģ"
      ],
      [
        "Ġå",
        "¼"
      ],
      [
        "æľ",
        "¯"
      ],
      [
        "æĪĳä»¬",
        "çļĦ"
      ],
      [
        "æŃ",
        "Į"
      ],
      [
        "è¯",
        "¯"
      ],
      [
        "ç»",
        "Ħ"
      ],
      [
        "ä¸Ģ",
        "äºĽ"
      ],
      [
        "å¤",
        "į"
      ],
      [
        "æľī",
        "ä»Ģä¹Ī"
      ],
      [
        "æĬ",
        "¤"
      ],
      [
        "ç»",
        "Ŀ"
      ],
      [
        "éĥ½",
        "ä¸į"
      ],
      [
        "r",
        "a"
      ],
      [
        "åĳ",
        "ĥ"
      ],
      [
        "è·Ł",
        "ä½ł"
      ],
      [
        "ä¹",
        "ł"
      ],
      [
        "å¿",
        "Ĺ"
      ],
      [
        "å²",
        "ģ"
      ],
      [
        "æĸ",
        "Ń"
      ],
      [
        "è",
        "Ń¦"
      ],
      [
        "ĠæĪĳ",
        "æĺ¯"
      ],
      [
        "å®",
        "¢"
      ],
      [
        "çĭ",
        "Ĺ"
      ],
      [
        "å",
        "Ĥ"
      ],
      [
        "åı",
        "Ĭ"
      ],
      [
        "éĩį",
        "è¦ģ"
      ],
      [
        "è®",
        "º"
      ],
      [
        "æĺİ",
        "çĻ½"
      ],
      [
        "æĿ¥",
        "çļĦ"
      ],
      [
        "éĢ",
        "ł"
      ],
      [
        "ç»",
        "Ń"
      ],
      [
        "åħ",
        "Ħ"
      ],
      [
        "åŁ",
        "º"
      ],
      [
        "èĦ",
        "¸"
      ],
      [
        "éĻ",
        "¤"
      ],
      [
        "é",
        "Ń"
      ],
      [
        "Ġå",
        "ĩ"
      ],
      [
        "ĠæĪĳ",
        "å°±"
      ],
      [
        "å",
        "ŀ"
      ],
      [
        "åį",
        "´"
      ],
      [
        "åħ",
        "»"
      ],
      [
        "æ¯Ķ",
        "è¾ĥ"
      ],
      [
        "½",
        "çĦ¶"
      ],
      [
        "æ¥",
        "ļ"
      ],
      [
        "ä»",
        "½"
      ],
      [
        "è·",
        "³"
      ],
      [
        "åħ",
        "ĥ"
      ],
      [
        "æĢ",
        "ģ"
      ],
      [
        "å§",
        "ĳ"
      ],
      [
        "èĥ½",
        "å¤Ł"
      ],
      [
        "ç»",
        "Ĩ"
      ],
      [
        "æĬ",
        "ĵ"
      ],
      [
        "çľŁ",
        "æĺ¯"
      ],
      [
        "åĪ",
        "ĩ"
      ],
      [
        "æľ",
        "ª"
      ],
      [
        "ç",
        "ĵ"
      ],
      [
        "æŀ",
        "Ĳ"
      ],
      [
        "è¿Ļ",
        "ä¸Ģ"
      ],
      [
        "é¦",
        "Ļ"
      ],
      [
        "ç±",
        "»"
      ],
      [
        "ra",
        "c"
      ],
      [
        "åĵª",
        "åĦ¿"
      ],
      [
        "æ²",
        "³"
      ],
      [
        "é£",
        "Ł"
      ],
      [
        "f",
        "rac"
      ],
      [
        "è",
        "ľ"
      ],
      [
        "åħĪ",
        "çĶŁ"
      ],
      [
        "èį",
        "¯"
      ],
      [
        "æĪ",
        "ı"
      ],
      [
        "åħ¬",
        "åı¸"
      ],
      [
        "æĿ",
        "¿"
      ],
      [
        "åħ",
        "µ"
      ],
      [
        "åĪ",
        "Ļ"
      ],
      [
        "æĥħ",
        "åĨµ"
      ],
      [
        "ä¸į",
        "äºĨ"
      ],
      [
        "å¤",
        "ľ"
      ],
      [
        "ç±",
        "³"
      ],
      [
        "Ġ",
        "ä¸įæĺ¯"
      ],
      [
        "èį",
        "ī"
      ],
      [
        "ä»",
        "¤"
      ],
      [
        "è",
        "ĳ"
      ],
      [
        "æ²",
        "»"
      ],
      [
        "åĬŀ",
        "æ³ķ"
      ],
      [
        "å¸",
        "ĥ"
      ],
      [
        "å£",
        "«"
      ],
      [
        "é¼",
        "ł"
      ],
      [
        "çĮ",
        "«"
      ],
      [
        "æĪĳ",
        "ä¹Ł"
      ],
      [
        "åı",
        "Ķ"
      ],
      [
        "ç¦",
        "ı"
      ],
      [
        "æ¯",
        "Ľ"
      ],
      [
        "ç©",
        "¿"
      ],
      [
        "å¿ĥ",
        "éĩĮ"
      ],
      [
        "ä¸į",
        "è¿ĩ"
      ],
      [
        "Ġåħ¶",
        "å®ŀ"
      ],
      [
        "çĶµ",
        "è¯Ŀ"
      ],
      [
        "åĩº",
        "åİ»"
      ],
      [
        "åĪ",
        "»"
      ],
      [
        "å±",
        "Ģ"
      ],
      [
        "æ",
        "¹"
      ],
      [
        "çī",
        "Ľ"
      ],
      [
        "åĵ",
        "į"
      ],
      [
        "ç«",
        "Ł"
      ],
      [
        "ä½ł",
        "å°±"
      ],
      [
        "åį",
        "ĸ"
      ],
      [
        "ä½ł",
        "å¥½"
      ],
      [
        "ĠåĨ",
        "į"
      ],
      [
        "ç»",
        "Ł"
      ],
      [
        "å¾",
        "·"
      ],
      [
        "è°",
        "Ī"
      ],
      [
        "çĨ",
        "Ĭ"
      ],
      [
        "}",
        "{"
      ],
      [
        "è",
        "¸"
      ],
      [
        "æĺ¯",
        "ä¸Ģ"
      ],
      [
        "æĸ",
        "Ļ"
      ],
      [
        "çļ",
        "®"
      ],
      [
        "ä»",
        "·"
      ],
      [
        "å©",
        "Ĩ"
      ],
      [
        "äºĨ",
        "åĲ§"
      ],
      [
        "_",
        "{"
      ],
      [
        "åį",
        "İ"
      ],
      [
        "è¿Ļæł·",
        "çļĦ"
      ],
      [
        "Ġ",
        "ä»İ"
      ],
      [
        "èĦ",
        "ĳ"
      ],
      [
        "å·",
        "´"
      ],
      [
        "Ġ",
        "è¿ĺæľī"
      ],
      [
        "é¡",
        "¾"
      ],
      [
        "ä¸",
        "ĵ"
      ],
      [
        "Ġ",
        "è®©"
      ],
      [
        "æĴ",
        "Ń"
      ],
      [
        "å¾",
        "®"
      ],
      [
        "æĭ",
        "ħ"
      ],
      [
        "é¢ĺ",
        "å¹²"
      ],
      [
        "Ġåı¯",
        "æĺ¯"
      ],
      [
        "è´",
        "¹"
      ],
      [
        "éĻ",
        "Ī"
      ],
      [
        "çł",
        "´"
      ],
      [
        "è§",
        "Ĵ"
      ],
      [
        "æľī",
        "çĤ¹"
      ],
      [
        "ç¤",
        "º"
      ],
      [
        "èı",
        "ľ"
      ],
      [
        "l",
        "e"
      ],
      [
        "Ġ",
        "æ²¡æľī"
      ],
      [
        "åĢ",
        "¼"
      ],
      [
        "äº",
        "ĳ"
      ],
      [
        "Ġå®",
        "ĥ"
      ],
      [
        "æĶ",
        "¯"
      ],
      [
        "æŃ£",
        "ç¡®"
      ],
      [
        "éĿ",
        "Ļ"
      ],
      [
        "ä¸į",
        "èµ·"
      ],
      [
        "Ġ",
        "ä»Ĭå¤©"
      ],
      [
        "l",
        "in"
      ],
      [
        "èĭ",
        "±"
      ],
      [
        "åĩĨ",
        "å¤ĩ"
      ],
      [
        "éģ",
        "ĩ"
      ],
      [
        "Ġåİ",
        "»"
      ],
      [
        "åİ",
        "Ĩ"
      ],
      [
        "å°",
        "½"
      ],
      [
        "ç¬¬",
        "ä¸Ģ"
      ],
      [
        "æ",
        "¨"
      ],
      [
        "è´",
        "Ł"
      ],
      [
        "å½ĵ",
        "æĹ¶"
      ],
      [
        "lin",
        "e"
      ],
      [
        "å¯",
        "Ĩ"
      ],
      [
        "ç¤",
        "¾"
      ],
      [
        "è¯´",
        "äºĨ"
      ],
      [
        "ç¤",
        "¼"
      ],
      [
        "è¯´",
        "çļĦ"
      ],
      [
        "éĢ",
        "Ł"
      ],
      [
        "ç»",
        "§"
      ],
      [
        "er",
        "line"
      ],
      [
        "è¿Ļ",
        "åĦ¿"
      ],
      [
        "æł",
        "¡"
      ],
      [
        "åħ",
        "·"
      ],
      [
        "æĪĳ",
        "ä¸į"
      ],
      [
        "æį",
        "¢"
      ],
      [
        "éĤ£",
        "äºĽ"
      ],
      [
        "å¯",
        "Ł"
      ],
      [
        "èĦ",
        "ļ"
      ],
      [
        "åĬ",
        "©"
      ],
      [
        "æŀ",
        "ģ"
      ],
      [
        "éĽ",
        "¨"
      ],
      [
        "é¸",
        "¡"
      ],
      [
        "ä¸ª",
        "äºº"
      ],
      [
        "è§",
        "Ħ"
      ],
      [
        "åı",
        "Ĥ"
      ],
      [
        "xx",
        "x"
      ],
      [
        "è¯",
        "Ń"
      ],
      [
        "è¿Ļ",
        "éĩĮ"
      ],
      [
        "Ġ",
        "é¢ĺå¹²"
      ],
      [
        "èĻ",
        "½çĦ¶"
      ],
      [
        "éª",
        "Į"
      ],
      [
        "çĽ¸",
        "ä¿¡"
      ],
      [
        "æĢİä¹Ī",
        "æł·"
      ],
      [
        "åĽŀ",
        "åİ»"
      ],
      [
        "æĻļ",
        "ä¸Ĭ"
      ],
      [
        "æľī",
        "ä¸Ģä¸ª"
      ],
      [
        "æķħ",
        "äºĭ"
      ],
      [
        "è¯´",
        "ä½ł"
      ],
      [
        "^",
        "{"
      ],
      [
        "ä¼",
        "Ĺ"
      ],
      [
        "åħ",
        "ĭ"
      ],
      [
        "æĩ",
        "Ĥ"
      ],
      [
        "èĥ",
        "Į"
      ],
      [
        "åħ",
        "ļ"
      ],
      [
        "æĿ",
        "ĳ"
      ],
      [
        "é¡",
        "»"
      ],
      [
        "æ±",
        "Ł"
      ],
      [
        "Ġæ",
        "ĭ"
      ],
      [
        "æĬ",
        "Ģ"
      ],
      [
        "ç®",
        "Ģ"
      ],
      [
        "éĻ",
        "ª"
      ],
      [
        "æŃ",
        "¦"
      ],
      [
        "æİ",
        "¨"
      ],
      [
        "a",
        "n"
      ],
      [
        "äº",
        "¬"
      ],
      [
        "é",
        "²"
      ],
      [
        "è¿ĩ",
        "åİ»"
      ],
      [
        "äºĨ",
        "ä¸Ģä¸ª"
      ],
      [
        "è",
        "Ĺ"
      ],
      [
        "æ¢",
        "¦"
      ],
      [
        "éĢī",
        "é¡¹"
      ],
      [
        "å",
        "¡"
      ],
      [
        "Ġ",
        "ä¸Ĭ"
      ],
      [
        "$$",
        ","
      ],
      [
        "ç»",
        "ĥ"
      ],
      [
        "æľ",
        "¨"
      ],
      [
        "Ġå",
        "Ĺ¯"
      ],
      [
        "äº",
        "ī"
      ],
      [
        "Ġå",
        "ĸ"
      ],
      [
        "éĽ",
        "Ĩ"
      ],
      [
        "è¿",
        "½"
      ],
      [
        ",",
        "\""
      ],
      [
        "æľ",
        "Ŀ"
      ],
      [
        "ç¬¬",
        "äºĮ"
      ],
      [
        "åıª",
        "æĺ¯"
      ],
      [
        "æ¸ħ",
        "æ¥ļ"
      ],
      [
        "éĨ",
        "Ĵ"
      ],
      [
        "åĦ¿",
        "åŃĲ"
      ],
      [
        "åĺ",
        "´"
      ],
      [
        "é",
        "¬"
      ],
      [
        "Ġ",
        "æĥ³"
      ],
      [
        "åī",
        "§"
      ],
      [
        "åĻ",
        "¨"
      ],
      [
        "åĳ",
        "³"
      ],
      [
        "æĸ",
        "¯"
      ],
      [
        "çº",
        "¦"
      ],
      [
        "æ²",
        "¹"
      ],
      [
        "å¥½",
        "åĥı"
      ],
      [
        "çĬ",
        "¶"
      ],
      [
        "åĪ«",
        "äºº"
      ],
      [
        "åıĳ",
        "çĶŁ"
      ],
      [
        "èĽ",
        "ĭ"
      ],
      [
        "çĸ",
        "ĳ"
      ],
      [
        "ä¸",
        "½"
      ],
      [
        "æł",
        "ĩ"
      ],
      [
        "éĢ",
        "Ĥ"
      ],
      [
        "æĭ",
        "į"
      ],
      [
        "åĿ",
        "ı"
      ],
      [
        "éĹ",
        "»"
      ],
      [
        "éĽ",
        "ª"
      ],
      [
        "è´",
        "£"
      ],
      [
        "æľĢ",
        "è¿ĳ"
      ],
      [
        "åģ",
        "ĩ"
      ],
      [
        "åħ",
        "Ķ"
      ],
      [
        "åľ",
        "Ł"
      ],
      [
        "åĪ°",
        "åºķ"
      ],
      [
        "é¬",
        "¼"
      ],
      [
        "æĺ",
        "¥"
      ],
      [
        "æĪĸ",
        "èĢħ"
      ],
      [
        "å¤ļ",
        "å°ĳ"
      ],
      [
        "æĬ",
        "ķ"
      ],
      [
        "ç",
        "£"
      ],
      [
        "ä½ł",
        "æĺ¯"
      ],
      [
        "ä¸į",
        "åĪ°"
      ],
      [
        "è¶",
        "ħ"
      ],
      [
        "r",
        "i"
      ],
      [
        "ä»¥",
        "åīį"
      ],
      [
        "åĩ",
        "»"
      ],
      [
        "Ġæ",
        "Ķ"
      ],
      [
        "æĢ",
        "Ģ"
      ],
      [
        "æĥ³",
        "åĪ°"
      ],
      [
        "éĻ",
        "©"
      ],
      [
        "åŃ",
        "ĺ"
      ],
      [
        "å¿",
        "µ"
      ],
      [
        "é©¬",
        "ä¸Ĭ"
      ],
      [
        "çļĦ",
        "äºĭæĥħ"
      ],
      [
        "çº",
        "§"
      ],
      [
        "åĶ",
        "±"
      ],
      [
        "å±",
        "ŀ"
      ],
      [
        "æ",
        "ĵ"
      ],
      [
        "ä¸Ń",
        "çļĦ"
      ],
      [
        "è®©",
        "ä½ł"
      ],
      [
        "çİ",
        "¯"
      ],
      [
        "è·Ł",
        "ä½łè¯´"
      ],
      [
        "éĤ£",
        "ç§į"
      ],
      [
        "éĩĮ",
        "çļĦ"
      ],
      [
        "å¹",
        "¸"
      ],
      [
        "ç©",
        "¶"
      ],
      [
        "ä¸",
        "¥"
      ],
      [
        "ä¼",
        "Ļ"
      ],
      [
        "åģ",
        "ľ"
      ],
      [
        "å¿",
        "ĺ"
      ],
      [
        "ä»¥",
        "ä¸º"
      ],
      [
        "æĹ",
        "¢"
      ],
      [
        "è",
        "Ĵ"
      ],
      [
        "ĠåĴ±",
        "ä»¬"
      ],
      [
        "ç»ĵ",
        "æŀľ"
      ],
      [
        "Ġ",
        "è°ģ"
      ],
      [
        "r",
        "m"
      ],
      [
        "åĽŀ",
        "å®¶"
      ],
      [
        "è¡",
        "Ģ"
      ],
      [
        "Ġ",
        "è°¢è°¢"
      ],
      [
        "åĽ½",
        "å®¶"
      ],
      [
        "éĴ",
        "Ł"
      ],
      [
        "éĢļ",
        "è¿ĩ"
      ],
      [
        "çªģ",
        "çĦ¶"
      ],
      [
        "ĠæĪĳ",
        "è§īå¾Ĺ"
      ],
      [
        "æĺ¯",
        "ä»Ģä¹Ī"
      ],
      [
        "éĵ",
        "ģ"
      ],
      [
        "ä¹",
        "±"
      ],
      [
        "Ġæ",
        "ķ"
      ],
      [
        "å§ĳ",
        "å¨ĺ"
      ],
      [
        "èµ¶",
        "ç´§"
      ],
      [
        "åľ¨",
        "ä¸Ģèµ·"
      ],
      [
        "åı",
        "¶"
      ],
      [
        "åİ",
        "ĭ"
      ],
      [
        "å¢",
        "ĥ"
      ],
      [
        "ä½ł",
        "çľĭ"
      ],
      [
        "åº",
        "Ĺ"
      ],
      [
        "åĵ",
        "Ń"
      ],
      [
        "åĪ",
        "Ĺ"
      ],
      [
        "æĿ",
        "¾"
      ],
      [
        "å°±",
        "ä¸į"
      ],
      [
        "è§£",
        "æŀĲ"
      ],
      [
        "èĥ",
        "¡"
      ],
      [
        "çļĦ",
        "å¤§"
      ],
      [
        "è´",
        "µ"
      ],
      [
        "åĪ",
        "Ŀ"
      ],
      [
        "è¿Ľ",
        "è¡Į"
      ],
      [
        "æĭ",
        "©"
      ],
      [
        "è¯´",
        "æĪĳ"
      ],
      [
        "Ġå¾",
        "Ī"
      ],
      [
        "åı",
        "¤"
      ],
      [
        "åĪļ",
        "æīį"
      ],
      [
        "éĿ",
        "ł"
      ],
      [
        "æī",
        "¿"
      ],
      [
        "çĭ",
        "¬"
      ],
      [
        "æĿ",
        "ĥ"
      ],
      [
        "å®",
        "¤"
      ],
      [
        "èĢĮ",
        "ä¸Ķ"
      ],
      [
        "è",
        "ļ"
      ],
      [
        "æ¸",
        "©"
      ],
      [
        "çĶµ",
        "å½±"
      ],
      [
        "åŃĲ",
        "çļĦ"
      ],
      [
        "éº",
        "»"
      ],
      [
        "åĪ",
        "ĺ"
      ],
      [
        "çľĭ",
        "è§ģ"
      ],
      [
        "æ¥",
        "¼"
      ],
      [
        "..",
        "."
      ],
      [
        "è®¤",
        "è¯Ĩ"
      ],
      [
        "è®",
        "®"
      ],
      [
        "å¹",
        "¿"
      ],
      [
        "åĽ",
        "´"
      ],
      [
        "çİ",
        "ī"
      ],
      [
        "äºĨ",
        "åķĬ"
      ],
      [
        "è",
        "ĵ"
      ],
      [
        "æĦ¿",
        "æĦı"
      ],
      [
        "Ġ",
        "äºº"
      ],
      [
        "æ´",
        "¾"
      ],
      [
        "å±",
        "ħ"
      ],
      [
        "ä¸Ģ",
        "å¤©"
      ],
      [
        "åı",
        "Į"
      ],
      [
        "çļĦ",
        "ä¸Ģä¸ª"
      ],
      [
        "ĠéĤ£",
        "ä½ł"
      ],
      [
        "åĩł",
        "ä¸ª"
      ],
      [
        "Ġå¿",
        "«"
      ],
      [
        "Ġå¦",
        "Ī"
      ],
      [
        "åº",
        "§"
      ],
      [
        "é¡",
        "º"
      ],
      [
        "æ±",
        "ī"
      ],
      [
        "èĤ",
        "ī"
      ],
      [
        "å°",
        "Ķ"
      ],
      [
        "æĺ¯",
        "ä¸Ģä¸ª"
      ],
      [
        "ä¾",
        "Ŀ"
      ],
      [
        "ĠæĪĳ",
        "ä¸į"
      ],
      [
        "é«ĺ",
        "åħ´"
      ],
      [
        "æĽ",
        "¾"
      ],
      [
        "è¯",
        "»"
      ],
      [
        "ä¸į",
        "è¡Į"
      ],
      [
        "è¯´",
        "è¯Ŀ"
      ],
      [
        "åĨ",
        "²"
      ],
      [
        "g",
        "h"
      ],
      [
        "ä½",
        "İ"
      ],
      [
        "æ¯Ķ",
        "èµĽ"
      ],
      [
        "çģ",
        "µ"
      ],
      [
        "éħ",
        "į"
      ],
      [
        "å®¶",
        "éĩĮ"
      ],
      [
        "åĩº",
        "äºĨ"
      ],
      [
        "ç»Ļ",
        "ä»ĸ"
      ],
      [
        "åģ",
        "·"
      ],
      [
        "éĢī",
        "æĭ©"
      ],
      [
        "ĠèĢĮ",
        "ä¸Ķ"
      ],
      [
        "ç¡®",
        "å®ŀ"
      ],
      [
        "è·Ł",
        "ä»ĸ"
      ],
      [
        "èĲ",
        "¥"
      ],
      [
        "è¿",
        "İ"
      ],
      [
        "ç½",
        "®"
      ],
      [
        "ç",
        "¯"
      ],
      [
        "æľº",
        "ä¼ļ"
      ],
      [
        "çĥ",
        "¦"
      ],
      [
        "è¯",
        "¾"
      ],
      [
        "gh",
        "t"
      ],
      [
        "å¼",
        "Ħ"
      ],
      [
        "å°±",
        "ä¼ļ"
      ],
      [
        "æ",
        "¤"
      ],
      [
        "çĪ",
        "¹"
      ],
      [
        "ä¼",
        "¼"
      ],
      [
        "åĳĬè¯ī",
        "ä½ł"
      ],
      [
        "æĪĲ",
        "äºĨ"
      ],
      [
        "ä¸",
        "¾"
      ],
      [
        "è®°",
        "å¾Ĺ"
      ],
      [
        "æĥ",
        "Ĭ"
      ],
      [
        "å¿ħ",
        "é¡»"
      ],
      [
        "å¼",
        "ķ"
      ],
      [
        "çĮ",
        "ª"
      ],
      [
        "Ġå",
        "ģ"
      ],
      [
        "ç½",
        "ª"
      ],
      [
        "ri",
        "ght"
      ],
      [
        "åıĳ",
        "å±ķ"
      ],
      [
        "æī¾",
        "åĪ°"
      ],
      [
        "Ġå",
        "Ń"
      ],
      [
        "æĺ",
        "¾"
      ],
      [
        "A",
        "D"
      ],
[...]
