{
  "version": "1.0",
  "truncation": null,
  "padding": null,
  "added_tokens": [
    {
      "id": 0,
      "content": "<|endoftext|>",
      "single_word": false,
      "lstrip": false,
      "rstrip": false,
      "normalized": false,
      "special": true
    },
    {
      "id": 1,
      "content": "<|pad|>",
      "single_word": false,
      "lstrip": false,
      "rstrip": false,
      "normalized": false,
      "special": true
    },
    {
      "id": 2,
      "content": "<|im_start|>",
      "single_word": false,
      "lstrip": false,
      "rstrip": false,
      "normalized": false,
      "special": true
    },
    {
      "id": 3,
      "content": "<|im_end|>",
      "single_word": false,
      "lstrip": false,
      "rstrip": false,
      "normalized": false,
      "special": true
    }
  ],
  "normalizer": null,
  "pre_tokenizer": {
    "type": "ByteLevel",
    "add_prefix_space": true,
    "trim_offsets": true,
    "use_regex": true
  },
  "post_processor": {
    "type": "TemplateProcessing",
    "single": [
      {
        "Sequence": {
          "id": "A",
          "type_id": 0
        }
      }
    ],
    "pair": [
      {
        "Sequence": {
          "id": "A",
          "type_id": 0
        }
      },
      {
        "Sequence": {
          "id": "B",
          "type_id": 1
        }
      }
    ],
    "special_tokens": {}
  },
  "decoder": {
    "type": "ByteLevel",
    "add_prefix_space": true,
    "trim_offsets": true,
    "use_regex": true
  },
  "model": {
    "type": "BPE",
    "dropout": null,
    "unk_token": null,
    "continuing_subword_prefix": null,
    "end_of_word_suffix": null,
    "fuse_unk": false,
    "byte_fallback": false,
    "ignore_merges": false,
    "vocab": {
      "<|endoftext|>": 0,
      "<|pad|>": 1,
      "<|im_start|>": 2,
      "<|im_end|>": 3,
      "!": 4,
      "\"": 5,
      "#": 6,
      "$": 7,
      "%": 8,
      "&": 9,
      "'": 10,
      "(": 11,
      ")": 12,
      "*": 13,
      "+": 14,
      ",": 15,
      "-": 16,
      ".": 17,
      "/": 18,
      "0": 19,
      "1": 20,
      "2": 21,
      "3": 22,
      "4": 23,
      "5": 24,
      "6": 25,
      "7": 26,
      "8": 27,
      "9": 28,
      ":": 29,
      ";": 30,
      "<": 31,
      "=": 32,
      ">": 33,
      "?": 34,
      "@": 35,
      "A": 36,
      "B": 37,
      "C": 38,
      "D": 39,
      "E": 40,
      "F": 41,
      "G": 42,
      "H": 43,
      "I": 44,
      "J": 45,
      "K": 46,
      "L": 47,
      "M": 48,
      "N": 49,
      "O": 50,
      "P": 51,
      "Q": 52,
      "R": 53,
      "S": 54,
      "T": 55,
      "U": 56,
      "V": 57,
      "W": 58,
      "X": 59,
      "Y": 60,
      "Z": 61,
      "[": 62,
      "\\": 63,
      "]": 64,
      "^": 65,
      "_": 66,
      "`": 67,
      "a": 68,
      "b": 69,
      "c": 70,
      "d": 71,
      "e": 72,
      "f": 73,
      "g": 74,
      "h": 75,
      "i": 76,
      "j": 77,
      "k": 78,
      "l": 79,
      "m": 80,
      "n": 81,
      "o": 82,
      "p": 83,
      "q": 84,
      "r": 85,
      "s": 86,
      "t": 87,
      "u": 88,
      "v": 89,
      "w": 90,
      "x": 91,
      "y": 92,
      "z": 93,
      "{": 94,
      "|": 95,
      "}": 96,
      "~": 97,
      "¡": 98,
      "¢": 99,
      "£": 100,
      "¤": 101,
      "¥": 102,
      "¦": 103,
      "§": 104,
      "¨": 105,
      "©": 106,
      "ª": 107,
      "«": 108,
      "¬": 109,
      "®": 110,
      "¯": 111,
      "°": 112,
      "±": 113,
      "²": 114,
      "³": 115,
      "´": 116,
      "µ": 117,
      "¶": 118,
      "·": 119,
      "¸": 120,
      "¹": 121,
      "º": 122,
      "»": 123,
      "¼": 124,
      "½": 125,
      "¾": 126,
      "¿": 127,
      "À": 128,
      "Á": 129,
      "Â": 130,
      "Ã": 131,
      "Ä": 132,
      "Å": 133,
      "Æ": 134,
      "Ç": 135,
      "È": 136,
      "É": 137,
      "Ê": 138,
      "Ë": 139,
      "Ì": 140,
      "Í": 141,
      "Î": 142,
      "Ï": 143,
      "Ð": 144,
      "Ñ": 145,
      "Ò": 146,
      "Ó": 147,
      "Ô": 148,
      "Õ": 149,
      "Ö": 150,
      "×": 151,
      "Ø": 152,
      "Ù": 153,
      "Ú": 154,
      "Û": 155,
      "Ü": 156,
      "Ý": 157,
      "Þ": 158,
      "ß": 159,
      "à": 160,
      "á": 161,
      "â": 162,
      "ã": 163,
      "ä": 164,
      "å": 165,
      "æ": 166,
      "ç": 167,
      "è": 168,
      "é": 169,
      "ê": 170,
      "ë": 171,
      "ì": 172,
      "í": 173,
      "î": 174,
      "ï": 175,
      "ð": 176,
      "ñ": 177,
      "ò": 178,
      "ó": 179,
      "ô": 180,
      "õ": 181,
      "ö": 182,
      "÷": 183,
      "ø": 184,
      "ù": 185,
      "ú": 186,
      "û": 187,
      "ü": 188,
      "ý": 189,
      "þ": 190,
      "ÿ": 191,
      "Ā": 192,
      "ā": 193,
      "Ă": 194,
      "ă": 195,
      "Ą": 196,
      "ą": 197,
      "Ć": 198,
      "ć": 199,
      "Ĉ": 200,
      "ĉ": 201,
      "Ċ": 202,
      "ċ": 203,
      "Č": 204,
      "č": 205,
      "Ď": 206,
      "ď": 207,
      "Đ": 208,
      "đ": 209,
      "Ē": 210,
      "ē": 211,
      "Ĕ": 212,
      "ĕ": 213,
      "Ė": 214,
      "ė": 215,
      "Ę": 216,
      "ę": 217,
      "Ě": 218,
      "ě": 219,
      "Ĝ": 220,
      "ĝ": 221,
      "Ğ": 222,
      "ğ": 223,
      "Ġ": 224,
      "ġ": 225,
      "Ģ": 226,
      "ģ": 227,
      "Ĥ": 228,
      "ĥ": 229,
      "Ħ": 230,
      "ħ": 231,
      "Ĩ": 232,
      "ĩ": 233,
      "Ī": 234,
      "ī": 235,
      "Ĭ": 236,
      "ĭ": 237,
      "Į": 238,
      "į": 239,
      "İ": 240,
      "ı": 241,
      "Ĳ": 242,
      "ĳ": 243,
      "Ĵ": 244,
      "ĵ": 245,
      "Ķ": 246,
      "ķ": 247,
      "ĸ": 248,
      "Ĺ": 249,
      "ĺ": 250,
      "Ļ": 251,
      "ļ": 252,
      "Ľ": 253,
      "ľ": 254,
      "Ŀ": 255,
      "ŀ": 256,
      "Ł": 257,
      "ł": 258,
      "Ń": 259,
      "ä¸": 260,
      "ï¼": 261,
      "ï¼Į": 262,
      "ãĢ": 263,
      "çļ": 264,
      "çļĦ": 265,
      "äº": 266,
      "åı": 267,
      "ãĢĤ": 268,
      "æľ": 269,
      "ä»": 270,
      "åħ": 271,
      "å®": 272,
      "åĪ": 273,
      "å¤": 274,
      "è¿": 275,
      "åĬ": 276,
      "åĲ": 277,
      "ä½": 278,
      "æĺ": 279,
      "ãĢģ": 280,
      "çĶ": 281,
      "åľ": 282,
      "ä¹": 283,
      "ç»": 284,
      "æĪ": 285,
      "åĽ": 286,
      "æĺ¯": 287,
      "æĸ": 288,
      "è®": 289,
      "ä¸Ģ": 290,
      "âĢ": 291,
      "åŃ": 292,
      "è¯": 293,
      "å°": 294,
      "ä¼": 295,
      "å¹": 296,
      "åį": 297,
      "æĹ": 298,
      "äºº": 299,
      "åº": 300,
      "æī": 301,
      "æĿ": 302,
      "ä¸į": 303,
      "åľ¨": 304,
      "è¡": 305,
      "æľī": 306,
      "å¾": 307,
      "ä¸º": 308,
      "å·": 309,
      "è´": 310,
      "ä¸Ń": 311,
      "å¼": 312,
      "èĥ": 313,
      "å¯": 314,
      "éĩ": 315,
      "éĢ": 316,
      "åĩ": 317,
      "æĢ": 318,
      "æķ": 319,
      "åĮ": 320,
      "å¸": 321,
      "èĢ": 322,
      "è§": 323,
      "åĴ": 324,
      "åĨ": 325,
      "æł": 326,
      "çİ": 327,
      "å±": 328,
      "åĴĮ": 329,
      "çĽ": 330,
      "ç§": 331,
      "æĬ": 332,
      "ä»¥": 333,
      "ä¿": 334,
      "èĩ": 335,
      "æĶ": 336,
      "äºĨ": 337,
      "æŃ": 338,
      "ä¸ª": 339,
      "éĥ": 340,
      "çĶŁ": 341,
      "æ³": 342,
      "åĽ½": 343,
      "å½": 344,
      "èĥ½": 345,
      "å¤§": 346,
      "æ°": 347,
      "çĶ¨": 348,
      "è¿Ļ": 349,
      "æŀ": 350,
      "èµ": 351,
      "è¦": 352,
      "éĹ": 353,
      "å¿": 354,
      "è¦ģ": 355,
      "åİ": 356,
      "âĢľ": 357,
      "éĿ": 358,
      "å¹´": 359,
      "âĢĿ": 360,
      "æİ": 361,
      "çĲ": 362,
      "åıĳ": 363,
      "ç®": 364,
      "ä¸ļ": 365,
      "å¯¹": 366,
      "ä¸Ĭ": 367,
      "åŁ": 368,
      "ç¨": 369,
      "äºİ": 370,
      "çŃ": 371,
      "åı¯": 372,
      "ä¼ļ": 373,
      "åŃ¦": 374,
      "çº": 375,
      "çī": 376,
      "éĻ": 377,
      "è¡Į": 378,
      "æĪĲ": 379,
      "åľ°": 380,
      "å¥": 381,
      "è¾": 382,
      "é¢": 383,
      "æĹ¶": 384,
      "åĩº": 385,
      "çĲĨ": 386,
      "æĸ¹": 387,
      "æĪĳ": 388,
      "æ²": 389,
      "æµ": 390,
      "åĪĨ": 391,
      "èĩª": 392,
      "æĮ": 393,
      "ä½ľ": 394,
      "åĳ": 395,
      "åĬĽ": 396,
      "ï¼ļ": 397,
      "å®ļ": 398,
      "æ³ķ": 399,
      "ä¸»": 400,
      "åĬ¡": 401,
      "æĿ¥": 402,
      "è½": 403,
      "æ¯": 404,
      "æīĢ": 405,
      "å·¥": 406,
      "åĵ": 407,
      "å°±": 408,
      "éĥ¨": 409,
      "å¦": 410,
      "åĪ°": 411,
      "äº§": 412,
      "æĭ": 413,
      "ä¹ĭ": 414,
      "çİ°": 415,
      "ä»¬": 416,
      "å¾Ĺ": 417,
      "ä¸ĭ": 418,
      "åĲİ": 419,
      "æĢ§": 420,
      "å®ŀ": 421,
      "ä¸İ": 422,
      "æĥ": 423,
      "ç½": 424,
      "ä¾": 425,
      "ä¹Ł": 426,
      "æ±": 427,
      "åī": 428,
      "è¿ĩ": 429,
      "ä»ĸ": 430,
      "ç®¡": 431,
      "å®¶": 432,
      "èĢĮ": 433,
      "åŃĲ": 434,
      "åĮĸ": 435,
      "åĬ¨": 436,
      "æĦ": 437,
      "è¿Ľ": 438,
      "ç»ı": 439,
      "åĪ¶": 440,
      "åĲĪ": 441,
      "èĤ": 442,
      "åħ³": 443,
      "éģ": 444,
      "æľ¬": 445,
      "éĿ¢": 446,
      "åģ": 447,
      "åħ¶": 448,
      "ç¤": 449,
      "é«": 450,
      "ï¼ī": 451,
      "åĲĮ": 452,
      "çľ": 453,
      "ï¼Ī": 454,
      "ç«": 455,
      "å¦Ĥ": 456,
      "æı": 457,
      "éķ": 458,
      "é«ĺ": 459,
      "æ¬": 460,
      "å¤ļ": 461,
      "èī": 462,
      "çŃī": 463,
      "é¡": 464,
      "ä¿¡": 465,
      "æĽ": 466,
      "åºĶ": 467,
      "ä½ĵ": 468,
      "åº¦": 469,
      "éĢļ": 470,
      "çĤ": 471,
      "æį": 472,
      "æ¸": 473,
      "ç§į": 474,
      "åħ¥": 475,
      "æ´": 476,
      "ç³": 477,
      "å»": 478,
      "æģ": 479,
      "éļ": 480,
      "åħ¨": 481,
      "éĺ": 482,
      "åĽł": 483,
      "å¼Ģ": 484,
      "åĨħ": 485,
      "æıĲ": 486,
      "åĿ": 487,
      "åĵģ": 488,
      "æĸ°": 489,
      "æŁ": 490,
      "ç¬": 491,
      "åħ¬": 492,
      "èĢħ": 493,
      "éĩı": 494,
      "ç³»": 495,
      "å°ı": 496,
      "ä¸ī": 497,
      "éķ¿": 498,
      "æľº": 499,
      "ä½į": 500,
      "æłĩ": 501,
      "çŁ": 502,
      "æķĻ": 503,
      "è°": 504,
      "æĪĸ": 505,
      "é£": 506,
      "æĻ": 507,
      "äºĭ": 508,
      "èµĦ": 509,
      "åīį": 510,
      "ï¼Ľ": 511,
      "éĥ½": 512,
      "å±ķ": 513,
      "å¿ĥ": 514,
      "åĬł": 515,
      "çĤ¹": 516,
      "ç±": 517,
      "æĶ¿": 518,
      "åıĬ": 519,
      "å¤©": 520,
      "éĹ´": 521,
      "20": 522,
      "æľĢ": 523,
      "å»º": 524,
      "è®¾": 525,
      "éĩį": 526,
      "çł": 527,
      "åĢ": 528,
      "æĹł": 529,
      "ç¼": 530,
      "è¡¨": 531,
      "ä»İ": 532,
      "æŃ£": 533,
      "ç»ĵ": 534,
      "å½ĵ": 535,
      "æķ°": 536,
      "è§£": 537,
      "å¢": 538,
      "çĦ": 539,
      "ç¨ĭ": 540,
      "æĸĩ": 541,
      "ç¡": 542,
      "åı¯ä»¥": 543,
      "åĲį": 544,
      "çĽ¸": 545,
      "æ°´": 546,
      "ç´": 547,
      "ç¨İ": 548,
      "ç©": 549,
      "æľį": 550,
      "å¥½": 551,
      "çĹ": 552,
      "åĪ©": 553,
      "äºĮ": 554,
      "å¤ĸ": 555,
      "è¯´": 556,
      "ãĢĬ": 557,
      "ãĢĭ": 558,
      "å°Ĩ": 559,
      "è¶": 560,
      "æĺİ": 561,
      "ä¿Ŀ": 562,
      "ä¸Ģä¸ª": 563,
      "æ·": 564,
      "å¹¶": 565,
      "åŀ": 566,
      "ç¾": 567,
      "éľ": 568,
      "çĽ®": 569,
      "çĿ": 570,
      "çī©": 571,
      "ä½¿": 572,
      "ç¥": 573,
      "çĻ": 574,
      "éĤ": 575,
      "å±ŀ": 576,
      "æĦı": 577,
      "èģ": 578,
      "èĬ": 579,
      "çĦ¶": 580,
      "è·": 581,
      "åŁº": 582,
      "æĪĳä»¬": 583,
      "è§Ħ": 584,
      "åģļ": 585,
      "ç¬¬": 586,
      "æľŁ": 587,
      "èĲ": 588,
      "ä¹ī": 589,
      "éĽ": 590,
      "éħ": 591,
      "æŃ¤": 592,
      "æį®": 593,
      "é¢ĺ": 594,
      "éģĵ": 595,
      "äºĽ": 596,
      "åıĳå±ķ": 597,
      "æ¯Ķ": 598,
      "ç²": 599,
      "æľįåĬ¡": 600,
      "åŀĭ": 601,
      "ä»£": 602,
      "æŀľ": 603,
      "çĸ": 604,
      "æł·": 605,
      "å¹³": 606,
      "èī²": 607,
      "çķ": 608,
      "æ°ĳ": 609,
      "éĹ®": 610,
      "çĶ±": 611,
      "æĽ´": 612,
      "ä¼ģ": 613,
      "åİŁ": 614,
      "ç»Ł": 615,
      "å¸¸": 616,
      "æ¬¡": 617,
      "åįģ": 618,
      "è®¡": 619,
      "æĥħ": 620,
      "æµģ": 621,
      "ç½ĳ": 622,
      "å¼ı": 623,
      "è¿ĺ": 624,
      "æº": 625,
      "ä¸ŃåĽ½": 626,
      "ç¤¾": 627,
      "ä¼ģä¸ļ": 628,
      "æľ¯": 629,
      "ä½Ĩ": 630,
      "å½¢": 631,
      "éĶ": 632,
      "æ´»": 633,
      "å®ī": 634,
      "éĢł": 635,
      "å¯¼": 636,
      "çī¹": 637,
      "åħ·": 638,
      "åįķ": 639,
      "éĩĳ": 640,
      "æ¶": 641,
      "åıĹ": 642,
      "ä»¶": 643,
      "å§": 644,
      "èµ·": 645,
      "æľĪ": 646,
      "ä»»": 647,
      "è¿Ĳ": 648,
      "å¸Ĥ": 649,
      "æģ¯": 650,
      "éľĢ": 651,
      "çĿĢ": 652,
      "åĦ": 653,
      "åĻ": 654,
      "è¢": 655,
      "å·±": 656,
      "åĳĺ": 657,
      "éª": 658,
      "ç±»": 659,
      "åıĸ": 660,
      "ä½ķ": 661,
      "è´¨": 662,
      "èį": 663,
      "åı°": 664,
      "æĬĢ": 665,
      "è½¦": 666,
      "èĪ": 667,
      "ä¸¤": 668,
      "å¼º": 669,
      "åĦ¿": 670,
      "åŁŁ": 671,
      "èº": 672,
      "æ±Ĥ": 673,
      "æ¡": 674,
      "æĮĩ": 675,
      "èĩªå·±": 676,
      "åĲĳ": 677,
      "ä½ł": 678,
      "æĥ³": 679,
      "çŁ¥": 680,
      "ç¦": 681,
      "ï¼Ł": 682,
      "çłĶ": 683,
      "åĻ¨": 684,
      "è¢«": 685,
      "ä¹Ī": 686,
      "å¾Ī": 687,
      "æ²»": 688,
      "åľº": 689,
      "åħĥ": 690,
      "è¯ģ": 691,
      "æĬķ": 692,
      "æ°Ķ": 693,
      "èĦ": 694,
      "èĭ": 695,
      "æĢĿ": 696,
      "æĶ¶": 697,
      "æĢ»": 698,
      "ä¸ªäºº": 699,
      "ç«ĭ": 700,
      "ç¤¾ä¼ļ": 701,
      "è¡Ģ": 702,
      "èº«": 703,
      "åĽĽ": 704,
      "æŀĦ": 705,
      "ç¡®": 706,
      "åĬŁ": 707,
      "è¾ĥ": 708,
      "æĬ¥": 709,
      "è½¬": 710,
      "éŁ": 711,
      "åĲĦ": 712,
      "æĿĥ": 713,
      "åıĺ": 714,
      "å¤Ħ": 715,
      "æīĢå¾Ĺ": 716,
      "å·¥ä½ľ": 717,
      "çģ": 718,
      "æĹ¥": 719,
      "ç®¡çĲĨ": 720,
      "çĭ": 721,
      "åĽ½å®¶": 722,
      "èĬĤ": 723,
      "ä¸»ç®¡": 724,
      "ä¿¡æģ¯": 725,
      "é£Ł": 726,
      "è§Ĥ": 727,
      "åĮ»": 728,
      "å£": 729,
      "è®º": 730,
      "åĮº": 731,
      "å¸Ī": 732,
      "åķ": 733,
      "éĹ®é¢ĺ": 734,
      "éĩĮ": 735,
      "é¡¹": 736,
      "è°ĥ": 737,
      "èĻ": 738,
      "è®¤": 739,
      "æł¹": 740,
      "æ²¡": 741,
      "éĥ¨å±ŀ": 742,
      "æ®": 743,
      "æºĲ": 744,
      "æ¨": 745,
      "ç»Ħ": 746,
      "æīĭ": 747,
      "æķĪ": 748,
      "æĮģ": 749,
      "è¿Ľè¡Į": 750,
      "çº§": 751,
      "ç©¶": 752,
      "æĿ¡": 753,
      "çĶŁäº§": 754,
      "æİ¥": 755,
      "åĸ": 756,
      "éĤ£": 757,
      "åıª": 758,
      "çİ¯": 759,
      "èĤ²": 760,
      "åĪĻ": 761,
      "åİ»": 762,
      "åŃĺ": 763,
      "ç§ĳ": 764,
      "æİ§": 765,
      "äº¤": 766,
      "å®ĥ": 767,
      "00": 768,
      "çĬ": 769,
      "çĶµ": 770,
      "å¿ħ": 771,
      "ä¸ĵ": 772,
      "åĮħ": 773,
      "åı£": 774,
      "å¤´": 775,
      "èĩ³": 776,
      "å°±æĺ¯": 777,
      "çĪ": 778,
      "é¦": 779,
      "çľĭ": 780,
      "æ¸ħ": 781,
      "ç¥ŀ": 782,
      "è¾¾": 783,
      "çĹħ": 784,
      "åĽ¾": 785,
      "é¢Ĩ": 786,
      "ä»ĸä»¬": 787,
      "ç²¾": 788,
      "æ¨¡": 789,
      "èĮ": 790,
      "ä¸ľ": 791,
      "è®¸": 792,
      "çłĶç©¶": 793,
      "åħĪ": 794,
      "åĩĨ": 795,
      "ç¾İ": 796,
      "ä¸ĸ": 797,
      "å¤±": 798,
      "å·²": 799,
      "æŁ¥": 800,
      "è®©": 801,
      "è¯Ń": 802,
      "å¥³": 803,
      "åĶ": 804,
      "çİĩ": 805,
      "æ·±": 806,
      "å²": 807,
      "é©": 808,
      "è®°": 809,
      "æĶ¹": 810,
      "å®¹": 811,
      "è¯¥": 812,
      "å¢ŀ": 813,
      "ç´ł": 814,
      "ä¹¦": 815,
      "åĪĽ": 816,
      "ç½®": 817,
      "æ£": 818,
      "ç»Ļ": 819,
      "åķĨ": 820,
      "è£": 821,
      "é»": 822,
      "æĶ¾": 823,
      "åįĹ": 824,
      "éĢļè¿ĩ": 825,
      "åħ±": 826,
      "åı¸": 827,
      "ä»·": 828,
      "æŀģ": 829,
      "å¤ĩ": 830,
      "ä¹ł": 831,
      "åŃĹ": 832,
      "è¯Ĩ": 833,
      "éĹ¨": 834,
      "æĦŁ": 835,
      "æĬĢæľ¯": 836,
      "æ²¡æľī": 837,
      "å®Į": 838,
      "è·¯": 839,
      "åı²": 840,
      "è´¹": 841,
      "éĿŀ": 842,
      "åŁİ": 843,
      "é£Łåĵģ": 844,
      "åĽŀ": 845,
      "åħ³ç³»": 846,
      "äºĶ": 847,
      "ä¼ĺ": 848,
      "æ»": 849,
      "èħ": 850,
      "å°ĳ": 851,
      "201": 852,
      "å¢ĥ": 853,
      "éľĢè¦ģ": 854,
      "ä¼ł": 855,
      "å±Ģ": 856,
      "æŃ¥": 857,
      "æµİ": 858,
      "æķ´": 859,
      "èĥ½åĬĽ": 860,
      "çĻ¾": 861,
      "è´§": 862,
      "æł¼": 863,
      "éĻħ": 864,
      "ä¾Ľ": 865,
      "çĸĹ": 866,
      "æĪ·": 867,
      "æīį": 868,
      "æĺ¾": 869,
      "å½±": 870,
      "èģĶ": 871,
      "è¥": 872,
      "è¯Ŀ": 873,
      "ç¤º": 874,
      "åıį": 875,
      "åŃ©": 876,
      "æķĻèĤ²": 877,
      "å§ĭ": 878,
      "çĭ¬": 879,
      "å¸ĥ": 880,
      "æ¯ı": 881,
      "è±": 882,
      "ç®Ĺ": 883,
      "ä¸ĩ": 884,
      "ä¹Ŀ": 885,
      "åĨ³": 886,
      "ç»ıæµİ": 887,
      "éĴ": 888,
      "æĸŃ": 889,
      "éĢī": 890,
      "è¥¿": 891,
      "ä½İ": 892,
      "æĪĺ": 893,
      "éļ¾": 894,
      "ç§°": 895,
      "çľŁ": 896,
      "å¤į": 897,
      "åĬ©": 898,
      "è§ģ": 899,
      "åĽłä¸º": 900,
      "¨Ģ": 901,
      "èİ": 902,
      "è¨Ģ": 903,
      "åĬŀ": 904,
      "æİ¨": 905,
      "æ¡Ī": 906,
      "å¼ķ": 907,
      "èĩ´": 908,
      "æ³¨": 909,
      "çĬ¶": 910,
      "åı·": 911,
      "åįĩ": 912,
      "æµ·": 913,
      "éªĮ": 914,
      "èĮĥ": 915,
      "äºĴ": 916,
      "ħ§": 917,
      "åıĤ": 918,
      "ä¸»è¦ģ": 919,
      "ç³»ç»Ł": 920,
      "çķĮ": 921,
      "åıĪ": 922,
      "çĽ´": 923,
      "ç§¯": 924,
      "æĶ¯": 925,
      "åİĨ": 926,
      "åı¯èĥ½": 927,
      "æĸ¹éĿ¢": 928,
      "è±¡": 929,
      "çº³": 930,
      "ä¾Ŀ": 931,
      "éħį": 932,
      "19": 933,
      "çĥ": 934,
      "ä¸įæĺ¯": 935,
      "æĢģ": 936,
      "åĮĹ": 937,
      "èĢģ": 938,
      "å±Ĥ": 939,
      "çŃĸ": 940,
      "ä¸Ģç§į": 941,
      "äº§åĵģ": 942,
      "è¡¨çİ°": 943,
      "ç¾¤": 944,
      "èį¯": 945,
      "æĸ½": 946,
      "å¹¼": 947,
      "å¸¦": 948,
      "å¦Ĥæŀľ": 949,
      "åŁŁåĲį": 950,
      "åĪ«": 951,
      "âĢĶ": 952,
      "æĮī": 953,
      "èĲ¥": 954,
      "æĺĵ": 955,
      "éļı": 956,
      "å®īåħ¨": 957,
      "é¦ĸ": 958,
      "ä»Ĭ": 959,
      "å¤ª": 960,
      "è´£": 961,
      "åĸĦ": 962,
      "æľª": 963,
      "åį³": 964,
      "æŀĲ": 965,
      "éĻ¢": 966,
      "ä¾¿": 967,
      "çİ¯å¢ĥ": 968,
      "10": 969,
      "ç»Ĩ": 970,
      "ä¼¤": 971,
      "ä¸įåĲĮ": 972,
      "å¾ģ": 973,
      "åĨµ": 974,
      "âĢĿï¼Į": 975,
      "éĩįè¦ģ": 976,
      "ä½¿çĶ¨": 977,
      "èģĮ": 978,
      "éĽĨ": 979,
      "éĵ": 980,
      "è¿ĻäºĽ": 981,
      "å®ŀçİ°": 982,
      "é£İ": 983,
      "çº¿": 984,
      "çª": 985,
      "è¿ľ": 986,
      "åĳ½": 987,
      "æĭ¬": 988,
      "è¿ĩç¨ĭ": 989,
      "æıĲä¾Ľ": 990,
      "åĢĻ": 991,
      "é¡¹çĽ®": 992,
      "å¹¼åĦ¿": 993,
      "è¿ĳ": 994,
      "çİĭ": 995,
      "æ²¹": 996,
      "è§Ħå®ļ": 997,
      "å¸Ĥåľº": 998,
      "èĨ": 999,
      "åºľ": 1000,
      "è¿Ļä¸ª": 1001,
      "æ¬¾": 1002,
      "ç±³": 1003,
      "åħī": 1004,
      "è§Ĩ": 1005,
      "åħļ": 1006,
      "å¹¿": 1007,
      "çĶŁæ´»": 1008,
      "å½ķ": 1009,
      "æ±ī": 1010,
      "é¡»": 1011,
      "åĨĽ": 1012,
      "çľģ": 1013,
      "äººçļĦ": 1014,
      "éĢŁ": 1015,
      "å±±": 1016,
      "ä»¥åıĬ": 1017,
      "è¶Ĭ": 1018,
      "åĥ": 1019,
      "æ¢": 1020,
      "æĤ": 1021,
      "è´¢": 1022,
      "éĩĩ": 1023,
      "æł¸": 1024,
      "æĹ¶éĹ´": 1025,
      "åħ¬åı¸": 1026,
      "æ½": 1027,
      "ä¸Ķ": 1028,
      "æĸĻ": 1029,
      "å¸Ŀ": 1030,
      "æīĢä»¥": 1031,
      "ç¤¼": 1032,
      "åĿĢ": 1033,
      "åħ»": 1034,
      "è®®": 1035,
      "æİĴ": 1036,
      "æĪĲä¸º": 1037,
      "åĳĬ": 1038,
      "åĵį": 1039,
      "åĬŁèĥ½": 1040,
      "å¾·": 1041,
      "çĽĬ": 1042,
      "å¡": 1043,
      "çļĦäºº": 1044,
      "åħĭ": 1045,
      "åİĭ": 1046,
      "ä¾ĭ": 1047,
      "å¼Ģå§ĭ": 1048,
      "çĹĩ": 1049,
      "çĻ½": 1050,
      "åĬ³": 1051,
      "åį°": 1052,
      "è´Ł": 1053,
      "åĮħæĭ¬": 1054,
      "æ£Ģ": 1055,
      "åĨį": 1056,
      "æĭĽ": 1057,
      "æĻ¯": 1058,
      "æ®µ": 1059,
      "ä»Ģ": 1060,
      "åŃ¦ä¹ł": 1061,
      "æł¹æį®": 1062,
      "é©¬": 1063,
      "æĬĬ": 1064,
      "çŃĶ": 1065,
      "éĻ¤": 1066,
      "è¡Įä¸º": 1067,
      "æĸ¹æ³ķ": 1068,
      "é»Ħ": 1069,
      "ä»Ģä¹Ī": 1070,
      "èŀ": 1071,
      "ï¼ģ": 1072,
      "ä»ħ": 1073,
      "å¹²": 1074,
      "æĿĳ": 1075,
      "åĲĮæĹ¶": 1076,
      "çĪ¶": 1077,
      "èİ·": 1078,
      "åı¥": 1079,
      "åĬ¿": 1080,
      "ç»Ń": 1081,
      "åĩł": 1082,
      "æŃ»": 1083,
      "è¿Ļæł·": 1084,
      "åľ°åĿĢ": 1085,
      "é¢Ħ": 1086,
      "å»ºè®¾": 1087,
      "å¿ħé¡»": 1088,
      "çļĦæĺ¯": 1089,
      "è®Ń": 1090,
      "åįİ": 1091,
      "åįı": 1092,
      "éĢĤ": 1093,
      "âĢĿãĢĤ": 1094,
      "æ±½": 1095,
      "æĻ®": 1096,
      "ç¡Ģ": 1097,
      "åŁºç¡Ģ": 1098,
      "ç»´": 1099,
      "éĻį": 1100,
      "æĥħåĨµ": 1101,
      "ä¸¥": 1102,
      "æīĵ": 1103,
      "è¡Įä¸ļ": 1104,
      "æĪĸèĢħ": 1105,
      "äºī": 1106,
      "å¾Ģ": 1107,
      "è¾¹": 1108,
      "æ¸¸": 1109,
      "æ¶Ī": 1110,
      "æĴ": 1111,
      "å®Ĺ": 1112,
      "åĪĹ": 1113,
      "æŃ¢": 1114,
      "éĻ©": 1115,
      "æĽ¾": 1116,
      "è®¾è®¡": 1117,
      "æ´»åĬ¨": 1118,
      "çħ§": 1119,
      "åĽ´": 1120,
      "èĢĥ": 1121,
      "é¢Ŀ": 1122,
      "æľįåĬ¡åĻ¨": 1123,
      "éĶĢ": 1124,
      "æĬķæłĩ": 1125,
      "æīĢå¾Ĺç¨İ": 1126,
      "å·²ç»ı": 1127,
      "åŃ©åŃĲ": 1128,
      "åĪĺ": 1129,
      "è¿°": 1130,
      "æĶ¿çŃĸ": 1131,
      "éŁ©": 1132,
      "ä¸ĸçķĮ": 1133,
      "å¾ĭ": 1134,
      "ä¸ŃçļĦ": 1135,
      "æĬ¤": 1136,
      "æıĲé«ĺ": 1137,
      "æĶ¿åºľ": 1138,
      "æķ°æį®": 1139,
      "ç©º": 1140,
      "æ»¡": 1141,
      "åĥı": 1142,
      "èŀį": 1143,
      "å¨": 1144,
      "åħ«": 1145,
      "è¯·": 1146,
      "å¤§åŃ¦": 1147,
      "çº¦": 1148,
      "åĪĨæŀĲ": 1149,
      "ä½ľçĶ¨": 1150,
      "åĪ¶åº¦": 1151,
      "åĨħå®¹": 1152,
      "åħŃ": 1153,
      "è®²": 1154,
      "åĩı": 1155,
      "ä¿®": 1156,
      "ç®Ģ": 1157,
      "æļ": 1158,
      "ç»ľ": 1159,
      "æĪ¿": 1160,
      "åĩºçİ°": 1161,
      "æĪĳåĽ½": 1162,
      "å¦Ĥä½ķ": 1163,
      "éĺ³": 1164,
      "ä¸ªäººæīĢå¾Ĺç¨İ": 1165,
      "å½±åĵį": 1166,
      "æ±½è½¦": 1167,
      "çĶ»": 1168,
      "ä¸įèĥ½": 1169,
      "è´Ń": 1170,
      "çĽĳ": 1171,
      "å¯¹äºİ": 1172,
      "æĸ¹å¼ı": 1173,
      "åĳ¨": 1174,
      "æ¯į": 1175,
      "è¶³": 1176,
      "åı¤": 1177,
      "æľĽ": 1178,
      "åĲ¦": 1179,
      "å·´": 1180,
      "éĥ¨åĪĨ": 1181,
      "æŁĲ": 1182,
      "æĻº": 1183,
      "ä¸ĥ": 1184,
      "çļĦä¸Ģ": 1185,
      "å¤«": 1186,
      "æī¿": 1187,
      "å¾®": 1188,
      "å·ŀ": 1189,
      "è¦ģæ±Ĥ": 1190,
      "å·¥ç¨ĭ": 1191,
      "åħ¶ä»ĸ": 1192,
      "ï¼īï¼Į": 1193,
      "åĳĺå·¥": 1194,
      "è£ħ": 1195,
      "èĨľ": 1196,
      "æĸ¯": 1197,
      "è¯»": 1198,
      "åĢ¼": 1199,
      "åŁºæľ¬": 1200,
      "å£°": 1201,
      "å®«": 1202,
      "ç«¯": 1203,
      "ç¨İåĬ¡": 1204,
      "ç½ĳç»ľ": 1205,
      "å¯¼èĩ´": 1206,
      "èĩªå·±çļĦ": 1207,
      "ç¦»": 1208,
      "äºĳ": 1209,
      "åĪĴ": 1210,
      "å¤Ł": 1211,
      "ç»Ī": 1212,
      "å²ģ": 1213,
      "éŁ©ä¿¡": 1214,
      "æ¼": 1215,
      "ç»¿": 1216,
      "è¯Ħ": 1217,
      "è´·": 1218,
      "ä¿Ħ": 1219,
      "å¿Ĺ": 1220,
      "éĻĲ": 1221,
      "ä¹Łæĺ¯": 1222,
      "ç¬¬ä¸Ģ": 1223,
      "åħ·æľī": 1224,
      "åįķä½į": 1225,
      "åĶ®": 1226,
      "åıĮ": 1227,
      "ä»ĭ": 1228,
      "ç»ĩ": 1229,
      "ä¼Ĺ": 1230,
      "åĨĻ": 1231,
      "äº§çĶŁ": 1232,
      "éŁ³": 1233,
      "åŁŁåĲįæľįåĬ¡åĻ¨": 1234,
      "åı¶": 1235,
      "è¡¥": 1236,
      "å·®": 1237,
      "ç¼º": 1238,
      "çĽ¸åħ³": 1239,
      "èĲ§": 1240,
      "æ¥": 1241,
      "æ¦": 1242,
      "å®¢": 1243,
      "è¯ķ": 1244,
      "å¿«": 1245,
      "åĩºè¡Ģ": 1246,
      "åºĶè¯¥": 1247,
      "çģµ": 1248,
      "è§ī": 1249,
      "å¤§çļĦ": 1250,
      "çīĩ": 1251,
      "æµĭ": 1252,
      "æĭ©": 1253,
      "åħ³äºİ": 1254,
      "ï¼īãĢĤ": 1255,
      "æķĻå¸Ī": 1256,
      "è¶ħ": 1257,
      "æĵ": 1258,
      "èĳ": 1259,
      "ä¸´": 1260,
      "ä½Ļ": 1261,
      "åºŃ": 1262,
      "å¾ħ": 1263,
      "ä¸ºäºĨ": 1264,
      "å·¦": 1265,
      "è¿Ļæĺ¯": 1266,
      "åŁ¹": 1267,
      "è¾ĵ": 1268,
      "ä½ľä¸º": 1269,
      "ä¹ĭéĹ´": 1270,
      "ä½įç½®": 1271,
      "èµĦæºĲ": 1272,
      "è®¤ä¸º": 1273,
      "çªģ": 1274,
      "æĳ": 1275,
      "é¥": 1276,
      "åĪĩ": 1277,
      "ä¿ĥ": 1278,
      "åľ°æĸ¹": 1279,
      "çł´": 1280,
      "åİĨåı²": 1281,
      "åł": 1282,
      "åĪĿ": 1283,
      "çĶ³": 1284,
      "âĢ¦": 1285,
      "éĢģ": 1286,
      "çīĪ": 1287,
      "èĩªæİ§": 1288,
      "éĺ²": 1289,
      "åĿļ": 1290,
      "200": 1291,
      "ãĢĤâĢĿ": 1292,
      "å®³": 1293,
      "åĪ·": 1294,
      "å¼ł": 1295,
      "èĥŀ": 1296,
      "çĽĺ": 1297,
      "åīĤ": 1298,
      "çľ¼": 1299,
      "èī¯": 1300,
      "æľºæŀĦ": 1301,
      "éĥ½æĺ¯": 1302,
      "æ¯Ķè¾ĥ": 1303,
      "æĬķèµĦ": 1304,
      "èģĶç½ĳ": 1305,
      "çĺ": 1306,
      "åħ´": 1307,
      "äººæ°ĳ": 1308,
      "ç§»": 1309,
      "æŁĵ": 1310,
      "èĲ½": 1311,
      "åĮ»çĸĹ": 1312,
      "æ½ľ": 1313,
      "èĩªæİ§åĬĽ": 1314,
      "èı": 1315,
      "å°Ħ": 1316,
      "åºı": 1317,
      "è´¥": 1318,
      "æīĢæľī": 1319,
      "èĤ¡": 1320,
      "éķĩ": 1321,
      "èĬ±": 1322,
      "éĢīæĭ©": 1323,
      "ç»¿èī²": 1324,
      "åħħ": 1325,
      "åľŁ": 1326,
      "è¿Ļä¸Ģ": 1327,
      "è¿Ļç§į": 1328,
      "æ¸©": 1329,
      "èĪ¬": 1330,
      "æ¨¡å¼ı": 1331,
      "ç§¯æŀģ": 1332,
      "çı": 1333,
      "ä¸¾": 1334,
      "åħį": 1335,
      "ä¹¡": 1336,
      "åĽº": 1337,
      "æĺ¯åĲ¦": 1338,
      "æī§": 1339,
      "åĨľ": 1340,
      "å¥¹": 1341,
      "å®ŀéĻħ": 1342,
      "ç¦ı": 1343,
      "æĶ¶åħ¥": 1344,
      "åį°åĪ·": 1345,
      "åį´": 1346,
      "å¼Ĥ": 1347,
      "çº¢": 1348,
      "æłĩåĩĨ": 1349,
      "ç¼´": 1350,
      "å±ŀäºİ": 1351,
      "ç¬¬äºĮ": 1352,
      "çĶ±äºİ": 1353,
      "ä¸ĵä¸ļ": 1354,
      "åĽŃ": 1355,
      "åįĥ": 1356,
      "ä¸įæĸŃ": 1357,
      "èĥİ": 1358,
      "æł¡": 1359,
      "éĿ©": 1360,
      "åĽłæŃ¤": 1361,
      "åĿĩ": 1362,
      "è®¾å¤ĩ": 1363,
      "å¥½çļĦ": 1364,
      "å£«": 1365,
      "èĲ§ä½ķ": 1366,
      "Ġå¹´": 1367,
      "ãĢĢ": 1368,
      "äº¬": 1369,
      "çĶļ": 1370,
      "ç»¼": 1371,
      "åºķ": 1372,
      "åºĻ": 1373,
      "ï¼ļâĢľ": 1374,
      "åģ¥": 1375,
      "çŁ³": 1376,
      "å»ºç«ĭ": 1377,
      "æĸĩåĮĸ": 1378,
      "èĦĳ": 1379,
      "ç»Ħç»ĩ": 1380,
      "æĵį": 1381,
      "er": 1382,
      "æ¿": 1383,
      "ç¢": 1384,
      "é¼": 1385,
      "åı³": 1386,
      "æľĿ": 1387,
      "è¿ŀ": 1388,
      "èĥ½æºĲ": 1389,
      "æģ¶": 1390,
      "ç¼ĸ": 1391,
      "èĭ¥": 1392,
      "ç§ĳåŃ¦": 1393,
      "è®¸åı¯": 1394,
      "æĻ®éĢļ": 1395,
      "Ġï¼Į": 1396,
      "ä¸ĢäºĽ": 1397,
      "ä¸ĢèĪ¬": 1398,
      "å°½": 1399,
      "æĿĤ": 1400,
      "æķħ": 1401,
      "åİ¿": 1402,
      "å¹³åı°": 1403,
      "éĢłæĪĲ": 1404,
      "åıĸå¾Ĺ": 1405,
      "æĢ»å±Ģ": 1406,
      "åŃĺåľ¨": 1407,
      "12": 1408,
      "åıĭ": 1409,
      "ç»ĥ": 1410,
      "ä¸Ģå®ļ": 1411,
      "æĹ©": 1412,
      "æ²³": 1413,
      "å®¶åºŃ": 1414,
      "èīĩ": 1415,
      "æŃ£ä¹ī": 1416,
      "ç»ĵæŀĦ": 1417,
      "äºĴèģĶç½ĳ": 1418,
      "æĭĽæĬķæłĩ": 1419,
      ")ãĢĤ": 1420,
      "13": 1421,
      "on": 1422,
      "äº²": 1423,
      "ä½ı": 1424,
      "è¯¾": 1425,
      "æĹı": 1426,
      "åĩ»": 1427,
      "å±ħ": 1428,
      "æĬĹ": 1429,
      "çĲĥ": 1430,
      "ç½Ĺ": 1431,
      "åºĶçĶ¨": 1432,
      "éļĶ": 1433,
      "åħ¨éĿ¢": 1434,
      "æıĲåįĩ": 1435,
      "é£ŀ": 1436,
      "è´¨éĩı": 1437,
      "æİ§åĪ¶": 1438,
      "ç»¼åĲĪ": 1439,
      "ï¼ĮâĢľ": 1440,
      "çİĦ": 1441,
      "èĥ½å¤Ł": 1442,
      "æİ¢": 1443,
      "åĲĪä½ľ": 1444,
      "æıĲåĩº": 1445,
      "åĿĹ": 1446,
      "ç¬¦": 1447,
      "æľĢåĲİ": 1448,
      "è§£åĨ³": 1449,
      "çķ¥": 1450,
      "è¿ĩç¨ĭä¸Ń": 1451,
      "æ¿Ģ": 1452,
      "in": 1453,
      "åĭ": 1454,
      "åĽ°": 1455,
      "è®¨": 1456,
      "æī¹": 1457,
      "å¼¹": 1458,
      "ç§Ģ": 1459,
      "äºĨè§£": 1460,
      "èµ°": 1461,
      "å¿µ": 1462,
      "å¥ĸ": 1463,
      "æĿ¥çļĦ": 1464,
      "åĬłå¼º": 1465,
      "åĢŁ": 1466,
      "ä½Ĩæĺ¯": 1467,
      "é¢ĨåŁŁ": 1468,
      "16": 1469,
      "æĲ": 1470,
      "çļĦåİŁ": 1471,
      "æľ¨": 1472,
      "å®¡": 1473,
      "å®½": 1474,
      "äººä»¬": 1475,
      "æľīåħ³": 1476,
      "çİī": 1477,
      "éģ¿": 1478,
      "æľ¬æĢ§": 1479,
      "è¿ĺæĺ¯": 1480,
      "éĩĳèŀį": 1481,
      "çĮ": 1482,
      "ãĢĤ$": 1483,
      "ä»ĺ": 1484,
      "äººåĳĺ": 1485,
      "èĥĮ": 1486,
      "å¯Ĩ": 1487,
      "æĢİ": 1488,
      "ä¸ĬçļĦ": 1489,
      "æĹ¶åĢĻ": 1490,
      "èĩªçĦ¶": 1491,
      "éĺ¶": 1492,
      "ç´¢": 1493,
      "çŁ¥è¯Ĩ": 1494,
      "åĪĽæĸ°": 1495,
      "æ¹": 1496,
      "èĴ": 1497,
      "å®Ŀ": 1498,
      "åĲ«": 1499,
      "ä¼Ł": 1500,
      "åº·": 1501,
      "åºĬ": 1502,
      "å¯Ł": 1503,
      "æŃ¦": 1504,
      "åıĳçĶŁ": 1505,
      "åŃ¦çĶŁ": 1506,
      "çİ°åľ¨": 1507,
      "åŃĲå¥³": 1508,
      "åĪ¶éĢł": 1509,
      "åĪ©çĶ¨": 1510,
      "è®¡ç®Ĺ": 1511,
      "éľĢæ±Ĥ": 1512,
      "å¤ĦçĲĨ": 1513,
      "çĥŃ": 1514,
      "IP": 1515,
      "ªåĬĽ": 1516,
      "åı¦": 1517,
      "æĺŁ": 1518,
      "ä¸ĢæŃ¥": 1519,
      "åįĬ": 1520,
      "åĨ²": 1521,
      "æ³¢": 1522,
      "æ³¥": 1523,
      "åĽ½éĻħ": 1524,
      "åĬ¨åĬĽ": 1525,
      "æį¢": 1526,
      "æįŁ": 1527,
      "ä»»åĬ¡": 1528,
      "ç¡®å®ļ": 1529,
      "æ¦Ĥ": 1530,
      "è´´": 1531,
      "é¡¶": 1532,
      "å°ıåŃ¦": 1533,
      "ç»ĵæŀľ": 1534,
      "æ·ĭ": 1535,
      "çĽ®åīį": 1536,
      "æ²»çĸĹ": 1537,
      "ç²¾ç¥ŀ": 1538,
      "å¨ģ": 1539,
      "æħ": 1540,
      "èĹ": 1541,
      "é¾": 1542,
      "ä»į": 1543,
      "æĿ¿": 1544,
      "æľīæķĪ": 1545,
      "éĢĲ": 1546,
      "ä¸ļåĬ¡": 1547,
      "çŃĳ": 1548,
      "æĮ¥": 1549,
      "ç»ıèĲ¥": 1550,
      "åħ¶ä¸Ń": 1551,
      "ç»ĵåĲĪ": 1552,
      "çķĻ": 1553,
      "éĤ£ä¹Ī": 1554,
      "è®°å½ķ": 1555,
      "ä¼łç»Ł": 1556,
      "çĺ¤": 1557,
      "ä¹Ĳ": 1558,
      "è¯¢": 1559,
      "æĹħ": 1560,
      "çĶ¨æĪ·": 1561,
      "ç¨³": 1562,
      "æĢ§çļĦ": 1563,
      "æ°´å¹³": 1564,
      "åĲĦç§į": 1565,
      "æĿ¡ä»¶": 1566,
      "æĤ£": 1567,
      "ä¿ĥè¿Ľ": 1568,
      "å®¤": 1569,
      "è§Ĵ": 1570,
      "èĢĮä¸Ķ": 1571,
      "æĸ°èĥ½æºĲ": 1572,
      "çĽ®æłĩ": 1573,
      "ä¸¤ä¸ª": 1574,
      "å¾Īå¤ļ": 1575,
      "è¯Ńè¨Ģ": 1576,
      "å¢ŀåĬł": 1577,
      "éĿŀå¸¸": 1578,
      "å¡ĳ": 1579,
      "çĶļèĩ³": 1580,
      "15": 1581,
      "18": 1582,
      "30": 1583,
      "ä¸¹": 1584,
      "çļ®": 1585,
      "ä»¤": 1586,
      "ãĢģãĢĬ": 1587,
      "ä¹³": 1588,
      "æĿĲ": 1589,
      "å¸®": 1590,
      "çĲĨè®º": 1591,
      "å»¶": 1592,
      "éļĲ": 1593,
      "çĿ£": 1594,
      "ç¥ĸ": 1595,
      "è·µ": 1596,
      "åģļåĪ°": 1597,
      "å½¢æĪĲ": 1598,
      "å§Ķ": 1599,
      "ç§ĳæĬĢ": 1600,
      "çĪ±": 1601,
      "çĭ¬çĶŁ": 1602,
      "PR": 1603,
      "al": 1604,
      "ç¿": 1605,
      "çĵ": 1606,
      "é½": 1607,
      "ãĢĤï¼Ī": 1608,
      "åĬªåĬĽ": 1609,
      "åĲ¬": 1610,
      "åĲĽ": 1611,
      "åºĵ": 1612,
      "è´«": 1613,
      "æİĪ": 1614,
      "ä¸»ä¹ī": 1615,
      "è½¯": 1616,
      "å·¥ä¸ļ": 1617,
      "éĥ¨éĹ¨": 1618,
      "è°Ī": 1619,
      "æĹłæ³ķ": 1620,
      "æ¯Ķå¦Ĥ": 1621,
      "çī¹çĤ¹": 1622,
      "éª¨": 1623,
      "å®ĮæĪĲ": 1624,
      "è´£ä»»": 1625,
      "åĬ³åĬ¨": 1626,
      "ç¨İåĬ¡æĢ»å±Ģ": 1627,
      "%ï¼Į": 1628,
      "ĠçļĦ": 1629,
      "ä¸½": 1630,
      "äºĪ": 1631,
      "åĽ¢": 1632,
      "æī¾": 1633,
      "éĢĢ": 1634,
      "è½½": 1635,
      "äº§ä¸ļ": 1636,
      "æ±Ł": 1637,
      "èīº": 1638,
      "é¡º": 1639,
      "éĺ´": 1640,
      "åıªæĺ¯": 1641,
      "æĮīçħ§": 1642,
      "PRL": 1643,
      "åĲĹ": 1644,
      "ä½³": 1645,
      "æĹ¢": 1646,
      "æĿİ": 1647,
      "åĨł": 1648,
      "æŀĹ": 1649,
      "åıĳçİ°": 1650,
      "å®ŀè·µ": 1651,
      "æ¸Ĳ": 1652,
      "åĽłç´ł": 1653,
      "æĸ°çļĦ": 1654,
      "èĭ¦": 1655,
      "èĻļ": 1656,
      "ä»·åĢ¼": 1657,
      "æīįèĥ½": 1658,
      "èĮĥåĽ´": 1659,
      "éĶĢåĶ®": 1660,
      "æ·ĭå·´": 1661,
      "50": 1662,
      "om": 1663,
      "å®ĺ": 1664,
      "ç»§": 1665,
      "ç»Ŀ": 1666,
      "è¯ī": 1667,
      "å°ģ": 1668,
      "æī©": 1669,
      "è½»": 1670,
      "ç«ł": 1671,
      "æłĩå¿Ĺ": 1672,
      "æĶ¿æ²»": 1673,
      "éĽ·": 1674,
      "åĸľ": 1675,
      "åıªæľī": 1676,
      "éĵ¶": 1677,
      "ãĢĲ": 1678,
      "ãĢĳ": 1679,
      "äº«": 1680,
      "ä»½": 1681,
      "å®Ī": 1682,
      "çĶ°": 1683,
      "å¾Ħ": 1684,
      "çĽĸ": 1685,
      "ä»¥ä¸Ĭ": 1686,
      "éĻĪ": 1687,
      "åĵª": 1688,
      "åĮĸçļĦ": 1689,
      "éģĹ": 1690,
      "ç«Ļ": 1691,
      "éĺŁ": 1692,
      "å¼Ģåıĳ": 1693,
      "å¿ĥçĲĨ": 1694,
      "çłģ": 1695,
      "æĦıä¹ī": 1696,
      "ä»»ä½ķ": 1697,
      "æ¡¥": 1698,
      "çŁ¥éģĵ": 1699,
      "çĶŁäº§è®¸åı¯": 1700,
      "è¾¾åĪ°": 1701,
      "ç¾İåĽ½": 1702,
      "çĻ¾åº¦": 1703,
      "âĢĶâĢĶ": 1704,
      "ç»Ĩèĥŀ": 1705,
      "æł¸å¿ĥ": 1706,
      "è®Ńç»ĥ": 1707,
      "æ¥ļ": 1708,
      "æĢİä¹Ī": 1709,
      "ä¼Łå¤§": 1710,
      "çĭ¬çĶŁåŃĲå¥³": 1711,
      "st": 1712,
      "ï½": 1713,
      "ä¸°": 1714,
      "ãĢĮ": 1715,
      "åĪļ": 1716,
      "ä¸Ģæ¬¡": 1717,
      "ä¸įä¼ļ": 1718,
      "è¡£": 1719,
      "éĩĬ": 1720,
      "èĩ£": 1721,
      "å¹´çļĦ": 1722,
      "æĪĲæľ¬": 1723,
      "æĪĲåĬŁ": 1724,
      "æĭħ": 1725,
      "å®ŀæĸ½": 1726,
      "è¿Ľåħ¥": 1727,
      "è¿Ľä¸ĢæŃ¥": 1728,
      "ç«¥": 1729,
      "å»ºçŃĳ": 1730,
      "ç¼©": 1731,
      "ä¿ĿæĬ¤": 1732,
      "çĦ¶åĲİ": 1733,
      "èĪª": 1734,
      "èĦī": 1735,
      "èĻ½": 1736,
      "å¢ŀéķ¿": 1737,
      "åĨ³å®ļ": 1738,
      "æĶ¯æĮģ": 1739,
      "æ¢¦": 1740,
      "èİ·å¾Ĺ": 1741,
      "æ¤": 1742,
      "äº¡": 1743,
      "äº¿": 1744,
      "æĪ´": 1745,
      "äººç±»": 1746,
      "ä¸įä»ħ": 1747,
      "å¯Į": 1748,
      "çºª": 1749,
      "åľ°åĮº": 1750,
      "èĩªæĪĳ": 1751,
      "æĦ¿": 1752,
      "æĽ²": 1753,
      "çŁŃ": 1754,
      "å¤©åı°": 1755,
      "è¡¨è¾¾": 1756,
      "æĪĳä»¬çļĦ": 1757,
      "æµģä½ĵ": 1758,
      "éĶ®": 1759,
      "åħ±åĲĮ": 1760,
      "åŁİå¸Ĥ": 1761,
      "ä¸įåĲĮçļĦ": 1762,
      "åİĭåĬĽ": 1763,
      "çĹĩåĢĻ": 1764,
      "çıŃ": 1765,
      "åĲ¸": 1766,
      "ä¸Ģæł·": 1767,
      "ä¼¼": 1768,
      "åº§": 1769,
      "ä¸Ńå¿ĥ": 1770,
      "å¸Į": 1771,
      "è§¦": 1772,
      "åĨ·": 1773,
      "æ³ķå¾ĭ": 1774,
      "åĿı": 1775,
      "äºĮåįģ": 1776,
      "æĺİç¡®": 1777,
      "éĤ¦": 1778,
      "çĬ¯": 1779,
      "åıĤä¸İ": 1780,
      "çĽ´æİ¥": 1781,
      "çº³ç¨İ": 1782,
      "çĪ¶æ¯į": 1783,
      "åįıè®®": 1784,
      "æ½ľèīĩ": 1785,
      "çĹĩåĢĻç¾¤": 1786,
      "âĳ": 1787,
      "åĤ": 1788,
      "ãĢį": 1789,
      "çĶ·": 1790,
      "ä¹±": 1791,
      "ä¹İ": 1792,
      "è®¿": 1793,
      "è¯į": 1794,
      "æī£": 1795,
      "æľīçļĦ": 1796,
      "å¯¸": 1797,
      "æķ£": 1798,
      "èµĽ": 1799,
      "åıĳæĮ¥": 1800,
      "åŁĥ": 1801,
      "å®ļçĤ¹": 1802,
      "æĭ¥": 1803,
      "ä¾§": 1804,
      "ä»ĸçļĦ": 1805,
      "åĪ¶å®ļ": 1806,
      "èĤ¿": 1807,
      "åºĶå½ĵ": 1808,
      "çĹĽ": 1809,
      "æĢĿæĥ³": 1810,
      "å¤įæĿĤ": 1811,
      "è´Łè´£": 1812,
      "çĽĳçĿ£": 1813,
      "æĵįä½ľ": 1814,
      "æĹħæ¸¸": 1815,
      "æĸ°èĥ½æºĲæ±½è½¦": 1816,
      "an": 1817,
      "Â·": 1818,
      "ç¯": 1819,
      "é²": 1820,
      "ĠãĢĤ": 1821,
      "åħ¸": 1822,
      "è¯¸": 1823,
      "è¯Ĺ": 1824,
      "æĿ¾": 1825,
      "èĥ¡": 1826,
      "éĿł": 1827,
      "åĳ³": 1828,
      "ç½ª": 1829,
      "åģ¿": 1830,
      "éļľ": 1831,
      "ç¼ĵ": 1832,
      "ç´§": 1833,
      "ãĢĭï¼Į": 1834,
      "ãĢĭï¼Ī": 1835,
      "æĺİæĺ¾": 1836,
      "éħ¬": 1837,
      "éĶĻ": 1838,
      "èµ·æĿ¥": 1839,
      "éĥ¨å±ŀçļĦ": 1840,
      "æŁ¥è¯¢": 1841,
      "199": 1842,
      "è´·æ¬¾": 1843,
      "å®¢æĪ·": 1844,
      "å¸®åĬ©": 1845,
      ")ï¼Į": 1846,
      "14": 1847,
      "NS": 1848,
      "çļĦåıĳå±ķ": 1849,
      "äººä¸º": 1850,
      "æĶ»": 1851,
      "æ°¸": 1852,
      "ä¹ĭåĲİ": 1853,
      "ç»ıè¿ĩ": 1854,
      "åĲĪçĲĨ": 1855,
      "åģĩ": 1856,
      "è¡¨ç¤º": 1857,
      "æŃ£å¸¸": 1858,
      "ç´«": 1859,
      "ãĢĭãĢģãĢĬ": 1860,
      "æ··": 1861,
      "æ¶²": 1862,
      "æĮĩå¯¼": 1863,
      "è½¬è®©": 1864,
      "ç»Ħä»¶": 1865,
      "è®¸å¤ļ": 1866,
      "å¤±è´¥": 1867,
      "éĴĪ": 1868,
      "å¼ķèµ·": 1869,
      "éļıçĿĢ": 1870,
      "éĩĩçĶ¨": 1871,
      "æī§è¡Į": 1872,
      "æĻ®éĢļè¯Ŀ": 1873,
      "å¸ĮæľĽ": 1874,
      "ig": 1875,
      "å©": 1876,
      "çĨ": 1877,
      "æľĭ": 1878,
      "åĪ»": 1879,
      "æĺł": 1880,
      "æĺ¯åľ¨": 1881,
      "è¯Ĭ": 1882,
      "åįł": 1883,
      "å¼Ł": 1884,
      "æĢ¥": 1885,
      "å½©": 1886,
      "åİĤ": 1887,
      "éĿĴ": 1888,
      "éĿĻ": 1889,
      "æĪĲéķ¿": 1890,
      "æĪĲæŀľ": 1891,
      "åĳ¢": 1892,
      "å°±ä¼ļ": 1893,
      "å¦Ī": 1894,
      "åĪ°äºĨ": 1895,
      "æ¬¢": 1896,
      "ä½ĵç³»": 1897,
      "æŃ£ç¡®": 1898,
      "ä¿ĿæĮģ": 1899,
      "åıĳå±ķçļĦ": 1900,
      "ç²¤": 1901,
      "æĬ¥æĸĩ": 1902,
      "åĽ½å®¶ç¨İåĬ¡æĢ»å±Ģ": 1903,
      "åħļçļĦ": 1904,
      "æ£ĢæŁ¥": 1905,
      "æ¼Ķ": 1906,
      "èĳĹ": 1907,
      "ä¹ĭéĹ´çļĦ": 1908,
      "çĶ³è¯·": 1909,
      "èĹı": 1910,
      "æĩ": 1911,
      "æĸĹ": 1912,
      "ä¸įåı¯": 1913,
      "è´µ": 1914,
      "çĶŁçī©": 1915,
      "å½Ĵ": 1916,
      "éĻĦ": 1917,
      "çİ°ä»£": 1918,
      "éģĩ": 1919,
      "æ´ŀ": 1920,
      "éĩıçļĦ": 1921,
      "ä¿Ŀè¯ģ": 1922,
      "çī©è´¨": 1923,
      "éħĴ": 1924,
      "çģŃ": 1925,
      "èĻİ": 1926,
      "èĻĳ": 1927,
      "éĤ£äºĽ": 1928,
      "ä¸ĵåĪ©": 1929,
      "å¤´æĪ´": 1930,
      "åĬŀæ³ķ": 1931,
      "å¹¼åĦ¿åĽŃ": 1932,
      "ç¤¼ä¹ī": 1933,
      "æĴŃ": 1934,
      "ä¿Ħç½Ĺ": 1935,
      "åģ¥åº·": 1936,
      "éĺ¶æ®µ": 1937,
      "ä¿Ħç½Ĺæĸ¯": 1938,
      "60": 1939,
      "en": 1940,
      "et": 1941,
      "¤Ĳ": 1942,
      "èĸ": 1943,
      "èĽ": 1944,
      "ä¸Ŀ": 1945,
      "ä¹°": 1946,
      "è¯¯": 1947,
      "åį«": 1948,
      "åį±": 1949,
      "æīĺ": 1950,
      "å·¨": 1951,
      "çĶ¨äºİ": 1952,
      "æĸ¹æ¡Ī": 1953,
      "åĪĨéħį": 1954,
      "åħ³æ³¨": 1955,
      "æľºåĪ¶": 1956,
      "æľĢå¤§": 1957,
      "æ°´éĩı": 1958,
      "åįģäºĮ": 1959,
      "åħ·ä½ĵ": 1960,
      "æĢĿç»´": 1961,
      "åĮ»ä¿Ŀ": 1962,
      "000": 1963,
      "æ¨¡åŀĭ": 1964,
      "æĶ¹éĿ©": 1965,
      "ä¸¥éĩį": 1966,
      "åĿļæĮģ": 1967,
      "ç§»åĬ¨": 1968,
      "æľĭåıĭ": 1969,
      "ç²¤è¯Ń": 1970,
      "æħ§": 1971,
      "çļĦäºĭ": 1972,
      "åľ£": 1973,
      "æĿĢ": 1974,
      "å¼±": 1975,
      "èĥľ": 1976,
      "æłĳ": 1977,
      "èĩªèº«": 1978,
      "åħ³éĶ®": 1979,
      "æľ¬åľ°": 1980,
      "æ´¾": 1981,
      "æĶ¿åĬ¡": 1982,
      "ç´¯": 1983,
      "è§ĦåĪĴ": 1984,
      "æľŁè´§": 1985,
      "åİŁåĪĻ": 1986,
      "æĬķåħ¥": 1987,
      "æķĪæŀľ": 1988,
      "æĮģç»Ń": 1989,
      "çĶµåŃĲ": 1990,
      "å®¹æĺĵ": 1991,
      "é»ĳ": 1992,
      "åĪĺéĤ¦": 1993,
      "èıĮ": 1994,
      "æ³¥å¡ĳ": 1995,
      "ç¨³å®ļ": 1996,
      "ĠIP": 1997,
      "æĺ¯ä¸Ģä¸ª": 1998,
      "è®¢": 1999,
      "åĨ°": 2000,
      "åĽ½åĨħ": 2001,
      "æİª": 2002,
      "åľ°åĽ¾": 2003,
      "æĹ¶æľŁ": 2004,
      "å·¥åħ·": 2005,
      "æķĻåŃ¦": 2006,
      "æķ°åŃĹ": 2007,
      "çĻ»": 2008,
      "è§Ħæ¨¡": 2009,
      "éĽ¶": 2010,
      "çĸ«": 2011,
      "ç»Łä¸Ģ": 2012,
      "è¿ĺæľī": 2013,
      "è¿ĲçĶ¨": 2014,
      "æĮĩæķ°": 2015,
      "éĹ®é¢ĺçļĦ": 2016,
      "é¢Ĩå¯¼": 2017,
      "èħº": 2018,
      "é¦ĸåħĪ": 2019,
      "é£İéĻ©": 2020,
      "éĻįä½İ": 2021,
      "ä»ĭåħ¥": 2022,
      "ç¬¦åĲĪ": 2023,
      "éģ¿åħį": 2024,
      "æħ¢": 2025,
      "èĻ½çĦ¶": 2026,
      "åŁĥåıĬ": 2027,
      "..": 2028,
      "33": 2029,
      "GB": 2030,
      "çĩ": 2031,
      "éŃ": 2032,
      "å®£": 2033,
      "ä¹ı": 2034,
      "æĺ¯æĮĩ": 2035,
      "æī¶": 2036,
      "æĿ°": 2037,
      "æľīäºĽ": 2038,
      "æķı": 2039,
      "æĮĳ": 2040,
      "æĿ¥è¯´": 2041,
      "ç«ŀ": 2042,
      "åħ¬åĳĬ": 2043,
      "èµĦäº§": 2044,
      "çĽ¸äºĴ": 2045,
      "èĭı": 2046,
      "è®¤è¯Ĩ": 2047,
      "æİ¥è§¦": 2048,
      "æ¸ħæ¥ļ": 2049,
      "åĪĽéĢł": 2050,
      "è´§çī©": 2051,
      "æĺ¾ç¤º": 2052,
      "æİ¨è¿Ľ": 2053,
      "æİĴæ°´éĩı": 2054,
      "åı¥ä¸½": 2055,
      "åŁ¹åħ»": 2056,
      "åŁ¹è®Ń": 2057,
      "ä½įç½®æľįåĬ¡": 2058,
      "çĶŁäº§è®¸åı¯è¯ģ": 2059,
      "ç¯ĩ": 2060,
      "80": 2061,
      "Ġåľ°åĿĢ": 2062,
      "çļĦéĩįè¦ģ": 2063,
      "çļĦæĹ¶åĢĻ": 2064,
      "äº¦": 2065,
      "ä¹ħ": 2066,
      "ä¸Ģä¸ĭ": 2067,
      "åŃĶ": 2068,
      "å°Ķ": 2069,
      "ä¼ĳ": 2070,
      "è´¸": 2071,
      "åĩĿ": 2072,
      "ç§ģ": 2073,
      "éĹ»": 2074,
      "éĹŃ": 2075,
      "çŃ¾": 2076,
      "æ¯Ľ": 2077,
      "èĤ¾": 2078,
      "é«ĺåı¥ä¸½": 2079,
      "éĢļçŁ¥": 2080,
      "æ°´ä¸ĭ": 2081,
      "ä¿ĿéĻ©": 2082,
      "æ·»": 2083,
      "ç¥¨": 2084,
      "åģļåĩº": 2085,
      "ç¬¬ä¸ī": 2086,
      "æŃ¤ç§į": 2087,
      "ä»£è¡¨": 2088,
      "å®ĥä»¬": 2089,
      "åĶĲ": 2090,
      "åķĨä¸ļ": 2091,
      "å®ĮåĸĦ": 2092,
      "åĪĺç§Ģ": 2093,
      "ä¸´åºĬ": 2094,
      "âĢ¦âĢ¦": 2095,
      "40": 2096,
      "id": 2097,
      "±¼": 2098,
      "é±¼": 2099,
      "çļĩ": 2100,
      "çļĦå¤§": 2101,
      "ä»ģ": 2102,
      "åħµ": 2103,
      "åĪº": 2104,
      "è¿Ŀ": 2105,
      "æĺ¯ä¸Ģç§į": 2106,
      "âĢķ": 2107,
      "åŃĿ": 2108,
      "å°ļ": 2109,
      "ä¸įå¾Ĺ": 2110,
      "å¸Ĳ": 2111,
      "æ³Į": 2112,
      "ç®±": 2113,
      "æĹ¶ä»£": 2114,
      "åĳĪ": 2115,
      "ä¹ĭåīį": 2116,
      "æ±¡": 2117,
      "è¿ĩåİ»": 2118,
      "å¦ĤæŃ¤": 2119,
      "åħ¨åĽ½": 2120,
      "åĢº": 2121,
      "åĢį": 2122,
      "æĦıè§ģ": 2123,
      "åĦ¿åŃĲ": 2124,
      "è°ĥæŁ¥": 2125,
      "å¤±çĭ¬": 2126,
      "åĶ¯": 2127,
      "ä»·æł¼": 2128,
      "éĴ±": 2129,
      "è¥¿æĸ¹": 2130,
      "çĬ¶æĢģ": 2131,
      "éĩįè¦ģçļĦ": 2132,
      "ç®Ģåįķ": 2133,
      "æļ´": 2134,
      "åıĮæĸ¹": 2135,
      "çº¢èī²": 2136,
      "25": 2137,
      "DNS": 2138,
      "OM": 2139,
      "éĨ": 2140,
      "çļĦæĥħåĨµ": 2141,
      "äºļ": 2142,
      "åĲ¨": 2143,
      "åĲĥ": 2144,
      "åŃĻ": 2145,
      "åį·": 2146,
      "åºĹ": 2147,
      "éĢı": 2148,
      "åĩ¤": 2149,
      "è¿ĻéĩĮ": 2150,
      "è¦Ĩ": 2151,
      "çĲĨè§£": 2152,
      "æĸ¹åĲĳ": 2153,
      "è½®": 2154,
      "æĭī": 2155,
      "å¾ĹåĪ°": 2156,
      "åŃĲå®«": 2157,
      "éĢļå¸¸": 2158,
      "å¼ĢæĶ¾": 2159,
      "èµĦæĸĻ": 2160,
      "ä»İèĢĮ": 2161,
      "å½ĵåīį": 2162,
      "å½¢å¼ı": 2163,
      "çĭĹ": 2164,
      "è§Ĥå¯Ł": 2165,
      "æĪĺçķ¥": 2166,
      "èģĮä¸ļ": 2167,
      "åĩıå°ĳ": 2168,
      "åł¡": 2169,
      "çŁ³æ²¹": 2170,
      "çļĦåİŁåĽł": 2171,
      "æĿĲæĸĻ": 2172,
      "ï½ŀ": 2173,
      "æ±¡æŁĵ": 2174,
      "çļĦéĹ®é¢ĺ": 2175,
      "çļĦè¡Įä¸º": 2176,
      "åı«": 2177,
      "å®ĭ": 2178,
      "åĪ¤": 2179,
      "è¿½": 2180,
      "åľĨ": 2181,
      "è®¯": 2182,
      "ä¼°": 2183,
      "å¹¸": 2184,
      "ä¸įè¿ĩ": 2185,
      "æķ¢": 2186,
      "å±Ĭ": 2187,
      "æĬĳ": 2188,
      "äºĨä¸Ģ": 2189,
      "å½»": 2190,
      "æİĮ": 2191,
      "è¾½": 2192,
      "åĪĨåĪ«": 2193,
      "åĪĨç¦»": 2194,
      "æīĢè¿°": 2195,
      "æĭŁ": 2196,
      "åī¯": 2197,
      "é¡¾": 2198,
      "åıĬåħ¶": 2199,
      "åĪ©çĽĬ": 2200,
      "è¶£": 2201,
      "è¶ĭ": 2202,
      "è·Ł": 2203,
      "è®¡åĪĴ": 2204,
      "èĭ±": 2205,
      "éŁµ": 2206,
      "æķĪçİĩ": 2207,
      "ä¸ĵå®¶": 2208,
      "æ£ĭ": 2209,
      "åı²å¸Ŀ": 2210,
      "è´¹çĶ¨": 2211,
      "åĬ³åĬ¡": 2212,
      "å¾Ģå¾Ģ": 2213,
      "èĨľä¸Ŀ": 2214,
      "åħħåĪĨ": 2215,
      "èĴĻ": 2216,
      "éĵ¶è¡Į": 2217,
      "æĮĳæĪĺ": 2218,
      "åı²å¸Ŀå¤«": 2219,
      "17": 2220,
      "com": 2221,
      "Ĵæľī": 2222,
      "çļĦåħ³ç³»": 2223,
      "ãĢĤâĢľ": 2224,
      "ä»Ļ": 2225,
      "æĪı": 2226,
      "è¯ļ": 2227,
      "å°Ĭ": 2228,
      "æĹĭ": 2229,
      "è¡Ĺ": 2230,
      "ä¸Ńå°ı": 2231,
      "åĩĢ": 2232,
      "çĽĪ": 2233,
      "å¹´æĿ¥": 2234,
      "è¡ĮåĬ¨": 2235,
      "ä¸ĭåĪĹ": 2236,
      "èĢĮæĺ¯": 2237,
      "ç»ıçĲĨ": 2238,
      "åģľ": 2239,
      "çĤ¼": 2240,
      "åħ¨çĲĥ": 2241,
      "åħ¬å¼Ģ": 2242,
      "å¹¶ä¸į": 2243,
      "æĦıè¯Ĩ": 2244,
      "è§ĦèĮĥ": 2245,
      "æ°ĳæĹı": 2246,
      "æĽ´åĬł": 2247,
      "çī¹å¾ģ": 2248,
      "å§ĵ": 2249,
      "è¿Ĳè¾ĵ": 2250,
      "èįī": 2251,
      "èįĲ": 2252,
      "åĦ¿ç«¥": 2253,
      "ä¿¡æģ¯æľįåĬ¡": 2254,
      "çĶµåĬ¨": 2255,
      "æ¯ıä¸ª": 2256,
      "çľŁæŃ£": 2257,
      "éĵģ": 2258,
      "äººçļĦæľ¬æĢ§": 2259,
      "æĻºèĥ½": 2260,
      "ç¼´çº³": 2261,
      "é¾Ļ": 2262,
      "éĢĲæ¸Ĳ": 2263,
      "é½Ĳ": 2264,
      "è½¯ä»¶": 2265,
      "æ¤į": 2266,
      "æİªæĸ½": 2267,
      "at": 2268,
      "re": 2269,
      "èŃ": 2270,
      "æĸĳ": 2271,
      "ä¸Ģä½į": 2272,
      "å¯º": 2273,
      "ä»¥ä¸ĭ": 2274,
      "æ²Ĵæľī": 2275,
      "èĩªè¡Į": 2276,
      "ä½ľèĢħ": 2277,
      "æĥ¯": 2278,
      "ä¹Łæľī": 2279,
      "åħ¶å®ŀ": 2280,
      "æı¡": 2281,
      "å¼Ģå±ķ": 2282,
      "åĿĲ": 2283,
      "å°ıé¢Ŀ": 2284,
      "éķ¿æľŁ": 2285,
      "æĻļ": 2286,
      "æľĢç»Ī": 2287,
      "å½ĵæĹ¶": 2288,
      "ç¨ĭåº¦": 2289,
      "çĽ¸åĲĮ": 2290,
      "è¯´æĺİ": 2291,
      "éľ²": 2292,
      "ä½¿å¾Ĺ": 2293,
      "èģļ": 2294,
      "æŃ¤å¤ĸ": 2295,
      "çĸı": 2296,
      "åıĹåĪ°": 2297,
      "è¿ĲåĬ¨": 2298,
      "èĦ±": 2299,
      "æ®Ĭ": 2300,
      "é¦Ļ": 2301,
      "ä»ĸä»¬çļĦ": 2302,
      "å¥³åŃĲ": 2303,
      "æ·±åħ¥": 2304,
      "æĶ¹åĸĦ": 2305,
      "ç§°ä¸º": 2306,
      "å¼ķåĬĽ": 2307,
      "å¸¦æĿ¥": 2308,
      "æľªæĿ¥": 2309,
      "è´¢æĶ¿": 2310,
      "æ£ĢéªĮ": 2311,
      "å¾®ä¼ģä¸ļ": 2312,
      "è®¨è®º": 2313,
      "æĭ¥æľī": 2314,
      "èĤ¿çĺ¤": 2315,
      "11": 2316,
      "QS": 2317,
      "âĶ": 2318,
      "åª": 2319,
      "çļĦåŁºç¡Ģ": 2320,
      "çļĦæĸ¹å¼ı": 2321,
      "è¿«": 2322,
      "çĶ²": 2323,
      "åľĪ": 2324,
      "åįĸ": 2325,
      "æĹ§": 2326,
      "è¡¡": 2327,
      "ä¸Ńä¿Ħ": 2328,
      "éĩİ": 2329,
      "å¸ĸ": 2330,
      "çĽŁ": 2331,
      "ä¿Ĺ": 2332,
      "åıĳå°Ħ": 2333,
      "å®ļä½į": 2334,
      "æ¯«": 2335,
      "æ±ĩ": 2336,
      "éģį": 2337,
      "éĿ¢å¯¹": 2338,
      "æ¬²": 2339,
      "æŁĶ": 2340,
      "åħ¬åħĥ": 2341,
      "æķ°éĩı": 2342,
      "ä¿Ŀéļľ": 2343,
      "åŁºäºİ": 2344,
      "éĽĦ": 2345,
      "çĸĳ": 2346,
      "åı°å¤´": 2347,
      "èĪ¹": 2348,
      "èĦı": 2349,
      "ä¼ĺåĮĸ": 2350,
      "ä¸ĩåħĥ": 2351,
      "æ³¨æĦı": 2352,
      "æŃ»äº¡": 2353,
      "åĮ»çĸĹæľºæŀĦ": 2354,
      "èĭ¥å¹²": 2355,
      "å®¡æŁ¥": 2356,
      "åĨ²çªģ": 2357,
      "ç»§ç»Ń": 2358,
      "é²ľ": 2359,
      "è¯ĬæĸŃ": 2360,
      "ç«ŀäºī": 2361,
      "è´¸æĺĵ": 2362,
      "æ·»åĬł": 2363,
      "åĶ¯ä¸Ģ": 2364,
      "çº¢èī²æĹħæ¸¸": 2365,
      "èŃ¦": 2366,
      "å°ıé¢Ŀè´·æ¬¾": 2367,
      "24": 2368,
      "ar": 2369,
      "or": 2370,
      "èĵ": 2371,
      "éī": 2372,
      "çļĦä¸»è¦ģ": 2373,
      "æľ±": 2374,
      "ä¸Ģæĸ¹éĿ¢": 2375,
      "å°¤": 2376,
      "èĢĹ": 2377,
      "æĬĽ": 2378,
      "å¥ĩ": 2379,
      "è¾ħ": 2380,
      "é¢ĳ": 2381,
      "åĪĨå¸ĥ": 2382,
      "å·¥èµĦ": 2383,
      "åĵ²": 2384,
      "åĲĮæł·": 2385,
      "éķľ": 2386,
      "å¤ļçļĦ": 2387,
      "é¡µ": 2388,
      "æľºä¼ļ": 2389,
      "è°ĭ": 2390,
      "äºĭå®ŀ": 2391,
      "ç¼ĺ": 2392,
      "çĻĮ": 2393,
      "åģļæ³ķ": 2394,
      "æ°ĳéĹ´": 2395,
      "çī¹æ®Ĭ": 2396,
      "æĮĩåĩº": 2397,
      "æ²»çĲĨ": 2398,
      "è¡Ģç®¡": 2399,
      "æĬ¥åĳĬ": 2400,
      "åıĺåĮĸ": 2401,
      "äº¤æµģ": 2402,
      "çľĭåĪ°": 2403,
      "èħ¹": 2404,
      "2018": 2405,
      "æĸ¹éĿ¢çļĦ": 2406,
      "åĮĹäº¬": 2407,
      "è¡¨çİ°è¾ĥ": 2408,
      "æ±īè¯Ń": 2409,
      "åĨĽäºĭ": 2410,
      "éĩĩåıĸ": 2411,
      "éĩĩè´Ń": 2412,
      "æ½®": 2413,
      "æĭĽæłĩ": 2414,
      "æĻºæħ§": 2415,
      "çĶ³æĬ¥": 2416,
      "éħ¬æīĢå¾Ĺ": 2417,
      "å¤±è´¥çĹĩåĢĻç¾¤": 2418,
      "æĩĤ": 2419,
      "âĶĢ": 2420,
      "åı°å¤´åºĻ": 2421,
      "100": 2422,
      "ot": 2423,
      "çŀ": 2424,
      "éº": 2425,
      "ĠĠ": 2426,
      "çļĦç»¿èī²": 2427,
      "ä»°": 2428,
      "ç»©": 2429,
      "äººçĶŁ": 2430,
      "å¾ª": 2431,
      "ä¸Ńåįİ": 2432,
      "å¸Ń": 2433,
      "å¤§å®¶": 2434,
      "èµł": 2435,
      "ç¨¿": 2436,
      "åŃ¦æł¡": 2437,
      "åĪĨç±»": 2438,
      "æ¯ķ": 2439,
      "ä¹ĭä¸Ģ": 2440,
      "çİ°è±¡": 2441,
      "ç½ļ": 2442,
      "åĪ¶ä½ľ": 2443,
      "èĤĿ": 2444,
      "é«ĺçļĦ": 2445,
      "ä¿¡å¿ĥ": 2446,
      "æĽ°": 2447,
      "åºĶçļĦ": 2448,
      "ä½ĵçļĦ": 2449,
      "éĺ»": 2450,
      "éĺ¿": 2451,
      "ä¸īä¸ª": 2452,
      "æķĻæİĪ": 2453,
      "å¤©ä¸ĭ": 2454,
      "éĩįå¤§": 2455,
      "çĽ¸å¯¹": 2456,
      "å½¢éķ¿": 2457,
      "æ¶¦": 2458,
      "è¯ģæį®": 2459,
      "åĽĽä¸ª": 2460,
      "åĮ»éĻ¢": 2461,
      "æ®ĭ": 2462,
      "åĩĨå¤ĩ": 2463,
      "æĶ¹åıĺ": 2464,
      "åŃĹéģĵ": 2465,
      "ä¾Ŀæį®": 2466,
      "è´¢åĬ¡": 2467,
      "æ¶Īè´¹": 2468,
      "èĢĥèĻĳ": 2469,
      "å¯¼èĩ´å¤±è´¥çĹĩåĢĻç¾¤": 2470,
      "èĤ¡æĿĥ": 2471,
      "æķħäºĭ": 2472,
      "çĬ¯ç½ª": 2473,
      "æľ¬åľ°åŁŁåĲįæľįåĬ¡åĻ¨": 2474,
      "åĨ°åĿĹ": 2475,
      "åªĴ": 2476,
      "å°ıé¢Ŀè´·æ¬¾åħ¬åı¸": 2477,
      "éī´": 2478,
      "åĵ²åŃ¦": 2479,
      "90": 2480,
      "ic": 2481,
      "çļĦçĶŁ": 2482,
      "çļĦä¸»": 2483,
      "ä»ª": 2484,
      "è¿ģ": 2485,
      "æĺ¥": 2486,
      "ä¹ĺ": 2487,
      "ç»į": 2488,
      "ä¸Ģèµ·": 2489,
      "åįµ": 2490,
      "åľ¨äºİ": 2491,
      "è´¯": 2492,
      "æķĮ": 2493,
      "å¿Ĩ": 2494,
      "åıĳå¸ĥ": 2495,
      "åŃ¦ä¼ļ": 2496,
      "çº¹": 2497,
      "åĩºçīĪ": 2498,
      "åī²": 2499,
      "éģµ": 2500,
      "åģı": 2501,
      "å¤ļç§į": 2502,
      "éĢļä¿¡": 2503,
      "æ´¥": 2504,
      "åħ¨éĥ¨": 2505,
      "æĸ°éĹ»": 2506,
      "èµĦéĩĳ": 2507,
      "æľĢå¤§çļĦ": 2508,
      "æĹłè®º": 2509,
      "è§£æŀĲ": 2510,
      "æĸĩä»¶": 2511,
      "çĽ®çļĦ": 2512,
      "éħ¸": 2513,
      "åİŁåĽł": 2514,
      "ä¸¤ç§į": 2515,
      "ä½łçļĦ": 2516,
      "èĭĹ": 2517,
      "æŀĦå»º": 2518,
      "æīĭæľº": 2519,
      "æīĭæ®µ": 2520,
      "äº¤ä»ĺ": 2521,
      "æ¸ħåįķ": 2522,
      "ä¸ľè¥¿": 2523,
      "åįĹäº¬": 2524,
      "å®Įæķ´": 2525,
      "è·¯çº¿": 2526,
      "ä¼ĺåĬ¿": 2527,
      "çĻ¾åĪĨ": 2528,
      "ä¹Ŀå¤©": 2529,
      "ä¾Ŀæ³ķ": 2530,
      "ç©ºéĹ´": 2531,
      "éĺ³åħī": 2532,
      "è¯Ħä»·": 2533,
      "ä»ĭç»į": 2534,
      "äº§çĶŁçļĦ": 2535,
      "é¥®": 2536,
      "åĽ°éļ¾": 2537,
      "æľ¨åĦ¿": 2538,
      "çĮ®": 2539,
      "çĵľ": 2540,
      "æ·ĭå·´ç»ĵ": 2541,
      "åĸľæ¬¢": 2542,
      "åĤ¨": 2543,
      "æĶ»åĩ»": 2544,
      "éĴĪå¯¹": 2545,
      "å¼ķåĬĽæ³¢": 2546,
      "å¸ĸæľ¨åĦ¿": 2547,
      "--": 2548,
      "el": 2549,
      "¸°": 2550,
      "¹ģ": 2551,
      "ç¹ģ": 2552,
      "é¸": 2553,
      "ï¸°": 2554,
      "å®ı": 2555,
      "åĪĳ": 2556,
      "å¤®": 2557,
      "åį¡": 2558,
      "äººåľ¨": 2559,
      "ä¸ºä»Ģä¹Ī": 2560,
      "è´¤": 2561,
      "å¼ĥ": 2562,
      "å¯»": 2563,
      "å±ĭ": 2564,
      "æĬ±": 2565,
      "éĥ¡": 2566,
      "æ³Ľ": 2567,
      "åİļ": 2568,
      "ç¨»": 2569,
      "åŃ¦éĻ¢": 2570,
      "è¡ĮæĶ¿": 2571,
      "æ²Ļ": 2572,
      "æ²Ł": 2573,
      "ä½ľä¸ļ": 2574,
      "æ¯Ĵ": 2575,
      "æīĢåľ¨": 2576,
      "çİ°å®ŀ": 2577,
      "æĢ§è´¨": 2578,
      "ç»ıéªĮ": 2579,
      "å»ºè®®": 2580,
      "å½ĵçĦ¶": 2581,
      "çĦ¦": 2582,
      "æ°´ä¸Ĭ": 2583,
      "éĽĩ": 2584,
      "çī¹åĪ«": 2585,
      "ç±»åŀĭ": 2586,
      "æĶ¶çĽĬ": 2587,
      "æŀĦæĪĲ": 2588,
      "è½¬ç§»": 2589,
      "åĮºåŁŁ": 2590,
      "è°ĥæķ´": 2591,
      "æīĭæľ¯": 2592,
      "äº¤éĢļ": 2593,
      "ç¥ŀåĲį": 2594,
      "å¢ŀå¼º": 2595,
      "è£Ĥ": 2596,
      "ä¹łæĥ¯": 2597,
      "2017": 2598,
      "èģĶç³»": 2599,
      "èį¯åºĹ": 2600,
      "éĢŁåº¦": 2601,
      "èİ·åıĸ": 2602,
      "æ»¡è¶³": 2603,
      "å¤§åŃ¦çĶŁ": 2604,
      "è´Ńä¹°": 2605,
      "ç¿Ķ": 2606,
      "æ¢¦æĥ³": 2607,
      "å¤©åı°å®Ĺ": 2608,
      "èĸª": 2609,
      "èĽĭ": 2610,
      "æĿ°å¤«": 2611,
      "æ·»åĬłåīĤ": 2612,
      "28": 2613,
      "ac": 2614,
      "ç£": 2615,
      "ä¸§": 2616,
      "ï¼ħ": 2617,
      "ä»¿": 2618,
      "åħ¼": 2619,
      "åĬ±": 2620,
      "åĲ§": 2621,
      "åĲ¯": 2622,
      "æĺ¯åĽłä¸º": 2623,
      "ä¸įåĪ°": 2624,
      "èĥ¶": 2625,
      "èĥº": 2626,
      "åĩ¡": 2627,
      "æķĳ": 2628,
      "æŀļ": 2629,
      "èµµ": 2630,
      "ç¨Ģ": 2631,
      "ä¼ļæľī": 2632,
      "åŃ¦åīį": 2633,
      "åĪĨä¸º": 2634,
      "ä¸ĭéĻį": 2635,
      "åĲİçļĦ": 2636,
      "å®ŀè¡Į": 2637,
      "ä¸İéĥ¨å±ŀ": 2638,
      "ä¾µ": 2639,
      "ä¹Łåı¯ä»¥": 2640,
      "åĲĪåĲĮ": 2641,
      "æľ¬èº«": 2642,
      "æľ¬ä¹¦": 2643,
      "ç«Ł": 2644,
      "çŃīçŃī": 2645,
      "æ´²": 2646,
      "æĸ°åŀĭ": 2647,
      "ç¬Ķ": 2648,
      "æĪĸè®¸": 2649,
      "èµĦæľ¬": 2650,
      "éĥ½æľī": 2651,
      "éĩįçĤ¹": 2652,
      "è§£éĩĬ": 2653,
      "å¤ĸä¼¤": 2654,
      "å¹¶ä¸Ķ": 2655,
      "çĦ¶èĢĮ": 2656,
      "åŁºåĽł": 2657,
      "è§ĦåĪĻ": 2658,
      "éħ¶": 2659,
      "éģĵçĲĨ": 2660,
      "æ¶ī": 2661,
      "æĢ»ç»ĵ": 2662,
      "ç»ĦæĪĲ": 2663,
      "æİ¥åıĹ": 2664,
      "åĪĽä¸ļ": 2665,
      "æĦŁåıĹ": 2666,
      "èħ¾": 2667,
      "èħĶ": 2668,
      "2019": 2669,
      "åıįåºĶ": 2670,
      "æĢģåº¦": 2671,
      "ç¾¤ä¼Ĺ": 2672,
      "åį³ä½¿": 2673,
      "éĵ¾": 2674,
      "é£İæł¼": 2675,
      "é©¬åħĭ": 2676,
      "æļĤ": 2677,
      "çĽĳç®¡": 2678,
      "ç«¯åı£": 2679,
      "ç¼ºä¹ı": 2680,
      "è§īå¾Ĺ": 2681,
      "å·¦åı³": 2682,
      "é¥°": 2683,
      "é¼ĵ": 2684,
      "æŃ¦åĻ¨": 2685,
      "åĪ¶éĢłä¸ļ": 2686,
      "çĩĥ": 2687,
      "21": 2688,
      "CP": 2689,
      "is": 2690,
      "it": 2691,
      "ion": 2692,
      "å´": 2693,
      "è¤Ĳ": 2694,
      "ĠDNS": 2695,
      "çļĦåĲĮæĹ¶": 2696,
      "å®ĩ": 2697,
      "å¤ľ": 2698,
      "åĲī": 2699,
      "âĢ¢": 2700,
      "ä¼´": 2701,
      "ä¼Ļ": 2702,
      "åįļ": 2703,
      "æĿŁ": 2704,
      "ä¸įå°ĳ": 2705,
      "å·§": 2706,
      "æĢĢ": 2707,
      "å±¥": 2708,
      "æĬ½": 2709,
      "ä»¥åīį": 2710,
      "èµĸ": 2711,
      "âĢĿãĢģ": 2712,
      "æİ¡": 2713,
      "äºİæĺ¯": 2714,
      "çº¤": 2715,
      "åĳ¼": 2716,
      "ä¸»åĬ¨": 2717,
      "å¦ĩ": 2718,
      "æĭ¿": 2719,
      "æĭį": 2720,
      "å®ŀçĶ¨": 2721,
      "ä¹Łä¼ļ": 2722,
      "å®¶éķ¿": 2723,
      "èĤ¯": 2724,
      "ç³ĸ": 2725,
      "è°ĵ": 2726,
      "åĪ©æ¶¦": 2727,
      "çī©çĲĨ": 2728,
      "éģĵå¾·": 2729,
      "æµģç¨ĭ": 2730,
      "æº´": 2731,
      "ä¼ģä¸ļçļĦ": 2732,
      "å¯¼å¼¹": 2733,
      "çī¹èī²": 2734,
      "è¿ĲèĲ¥": 2735,
      "ç¦ģ": 2736,
      "è¯ģæĺİ": 2737,
      "æĢĿä¸»ä¹ī": 2738,
      "ç¤¾ä¼ļçļĦ": 2739,
      "æĿĥå¨ģ": 2740,
      "åıĺæĪĲ": 2741,
      "çģ«": 2742,
      "çģĮ": 2743,
      "è§ĤçĤ¹": 2744,
      "æł¹æľ¬": 2745,
      "æ®¿": 2746,
      "æĿ¡è§Ħå®ļ": 2747,
      "äº¤æĺĵ": 2748,
      "åĩĨåħ¥": 2749,
      "é©¾": 2750,
      "å®Įåħ¨": 2751,
      "åĽŀçŃĶ": 2752,
      "æķ´ä¸ª": 2753,
      "å¹¼åĦ¿çļĦ": 2754,
      "å¸ĿåĽ½": 2755,
      "ä¾ĭå¦Ĥ": 2756,
      "è´ŁéĿ¢": 2757,
      "åı¤ä»£": 2758,
      "è¯»èĢħ": 2759,
      "éĻĲåĪ¶": 2760,
      "å¿«éĢŁ": 2761,
      "åłĤ": 2762,
      "éļĶæĿ¿": 2763,
      "å°ıåŃ¦æķĻèĤ²": 2764,
      "å§Ķåĳĺ": 2765,
      "é½¿": 2766,
      "åĽ¢éĺŁ": 2767,
      "æī©å¤§": 2768,
      "è®¿éĹ®": 2769,
      "æ··åĲĪ": 2770,
      "çĨŁ": 2771,
      "åĽ½å®¶ç¨İåĬ¡æĢ»å±Ģåħ³äºİ": 2772,
      "åĩ¤ç¿Ķ": 2773,
      "æİĮæı¡": 2774,
      "è¾½ä¸ľ": 2775,
      "çĽĪåĪ©": 2776,
      "åªĴä½ĵ": 2777,
      "åŃ¦åīįæķĻèĤ²": 2778,
      "é©¬åħĭæĢĿä¸»ä¹ī": 2779,
      "è¤Ĳèī²": 2780,
      "am": 2781,
      "ec": 2782,
      "ww": 2783,
      "è²": 2784,
      "Ġ(": 2785,
      "æľ«": 2786,
      "å®ģ": 2787,
      "çĶĺ": 2788,
      "æĺ¯ä¸Ģ": 2789,
      "ä¸įè¦ģ": 2790,
      "ä¸įä½³": 2791,
      "æľīéĻĲ": 2792,
      "éĢĴ": 2793,
      "ä»¥æĿ¥": 2794,
      "ä¸ªçĻ¾åĪĨ": 2795,
      "çĶŁåĳ½": 2796,
      "è¿Ļå°±æĺ¯": 2797,
      "å¯¹æĸ¹": 2798,
      "åŃ¦å®¶": 2799,
      "çº¯": 2800,
      "åľ°ä½į": 2801,
      "åĩºçļĦ": 2802,
      "åĪĨäº«": 2803,
      "ï¼ļãĢĬ": 2804,
      "æĿ¥èĩª": 2805,
      "æĿ¥æºĲ": 2806,
      "æĿ¥çľĭ": 2807,
      "æĿ¥è¶Ĭ": 2808,
      "æĭĨ": 2809,
      "æĥł": 2810,
      "æĦĪ": 2811,
      "éĿ¢ä¸´": 2812,
      "å¦Ĥä»Ĭ": 2813,
      "æıı": 2814,
      "æĽ¿": 2815,
      "åĿ¦": 2816,
      "åħ¬åĬ¡": 2817,
      "æľºåħ³": 2818,
      "éĥ½ä¸į": 2819,
      "éĥ½ä¼ļ": 2820,
      "ç¨ĭåºı": 2821,
      "åŀĤ": 2822,
      "éĤ®": 2823,
      "æĦıæĢĿ": 2824,
      "æĦıåĳ³": 2825,
      "åģļå¥½": 2826,
      "æľŁéĹ´": 2827,
      "çĸ¾": 2828,
      "æĽ´å¥½": 2829,
      "éĶ¦": 2830,
      "å®īæİĴ": 2831,
      "æ¶¨": 2832,
      "ç±»ä¼¼": 2833,
      "æĿĥåĪ©": 2834,
      "å¤Ħäºİ": 2835,
      "å®ĥçļĦ": 2836,
      "æ·±åº¦": 2837,
      "å²Ľ": 2838,
      "é£Łåĵģæ·»åĬłåīĤ": 2839,
      "2016": 2840,
      "åıįæĺł": 2841,
      "æİ¨èįĲ": 2842,
      "åįĩé«ĺ": 2843,
      "çĥĪ": 2844,
      "èĢģå¸Ī": 2845,
      "å±ĤéĿ¢": 2846,
      "ä»Ĭå¤©": 2847,
      "çªį": 2848,
      "è§Ħå®ļçļĦ": 2849,
      "è¶ĬæĿ¥è¶Ĭ": 2850,
      "å¡«": 2851,
      "æļĹ": 2852,
      "èī¯å¥½çļĦ": 2853,
      "ç¦ıå»º": 2854,
      "éĿ©åĳ½": 2855,
      "æİ¢ç´¢": 2856,
      "æ¹ĸ": 2857,
      "æĤ£èĢħ": 2858,
      "ä¸Ńå°ıå¾®ä¼ģä¸ļ": 2859,
      "ç¼´çº³ä¸ªäººæīĢå¾Ĺç¨İ": 2860,
      "è´¢æĶ¿éĥ¨": 2861,
      "èĵĿ": 2862,
      "é©¬åħĭæĢĿä¸»ä¹īåĵ²åŃ¦": 2863,
      "ä¸ªçĻ¾åĪĨçĤ¹": 2864,
      "$$": 2865,
      "26": 2866,
      "35": 2867,
      "AC": 2868,
      "he": 2869,
      "ol": 2870,
      "å«": 2871,
      "å³": 2872,
      "Ńå·ŀ": 2873,
      "ãĢĶ": 2874,
      "ãĢķ": 2875,
      "çļĦçłĶç©¶": 2876,
      "è¿ħ": 2877,
      "åĲ´": 2878,
      "ä½Ľ": 2879,
      "ç»ª": 2880,
      "ç»ķ": 2881,
      "ä¼Ĭ": 2882,
      "æī¬": 2883,
      "æĿ¨": 2884,
      "æĿŃå·ŀ": 2885,
      "ä¸Ńå¤®": 2886,
      "çĽĽ": 2887,
      "ç§§": 2888,
      "æŃĮ": 2889,
      "çĶŁæĢģ": 2890,
      "å¤§éĩıçļĦ": 2891,
      "è¿Ļä½į": 2892,
      "å¿½": 2893,
      "çº·": 2894,
      "éĻ·": 2895,
      "æĸ¹ç¨ĭ": 2896,
      "åĬĽéĩı": 2897,
      "å°±åı¯ä»¥": 2898,
      "å°±åĥı": 2899,
      "ä¹ĭä¸Ń": 2900,
      "ä¹ĭæ°Ķ": 2901,
      "ä¹ĭåĨł": 2902,
      "æĢ§åĴĮ": 2903,
      "æĢ§èĥ½": 2904,
      "å®ŀéªĮ": 2905,
      "ä»ĸäºº": 2906,
      "èĢĮä¸įæĺ¯": 2907,
      "å¦Ĥä¸ĭ": 2908,
      "æ´ģ": 2909,
      "åĨħéĥ¨": 2910,
      "åħ¬åŃĻ": 2911,
      "è°ģ": 2912,
      "æĻ¨": 2913,
      "äºĭä¸ļ": 2914,
      "éĥ½èĥ½": 2915,
      "åĬłå·¥": 2916,
      "è®¾ç½®": 2917,
      "ä»İäºĭ": 2918,
      "æĸĩåŃĹ": 2919,
      "çĽ¸ä¿¡": 2920,
      "ç©´": 2921,
      "åĪ©äºİ": 2922,
      "çī©æµģ": 2923,
      "æĥħæĦŁ": 2924,
      "ç½ĳæł¼": 2925,
      "ç½ĳç«Ļ": 2926,
      "éª¤": 2927,
      "æĮĩå®ļ": 2928,
      "åĬŁèĩ£": 2929,
      "åıĺå¾Ĺ": 2930,
      "è°ĥèĬĤ": 2931,
      "åıªèĥ½": 2932,
      "åĩĨç¡®": 2933,
      "å¤±åİ»": 2934,
      "æĺ¾åĥı": 2935,
      "å¸ĥå±Ģ": 2936,
      "æİ¨åĬ¨": 2937,
      "åıĤæķ°": 2938,
      "éħįç½®": 2939,
      "èį¯åĵģ": 2940,
      "èį¯çī©": 2941,
      "åĳĬè¯ī": 2942,
      "åı¥è¯Ŀ": 2943,
      "è¿Ļæł·çļĦ": 2944,
      "éĢĤçĶ¨": 2945,
      "ä¸¥æł¼": 2946,
      "å®ĹæķĻ": 2947,
      "èĨľæİ¥è§¦": 2948,
      "çł´åĿı": 2949,
      "åĨľæĿĳ": 2950,
      "å®ŀéĻħä¸Ĭ": 2951,
      "é¼»": 2952,
      "æ¹¿": 2953,
      "é¾Ħ": 2954,
      "æī¾åĪ°": 2955,
      "ä¸°å¯Į": 2956,
      "åĲ¸æĶ¶": 2957,
      "äººä¸ºçļĦ": 2958,
      "å¦Īå¦Ī": 2959,
      "é±¼éĽ·": 2960,
      "è¦ĨçĽĸ": 2961,
      "æĬĳåĪ¶": 2962,
      "èĩªè¡Įè½¦": 2963,
      "å¥³åŃĲå°ıåŃ¦": 2964,
      "æ¯«ç±³": 2965,
      "è¡¨çİ°è¾ĥå·®": 2966,
      "æ²ŁéĢļ": 2967,
      "SP": 2968,
      "ba": 2969,
      "çļĦå·¥ä½ľ": 2970,
      "çļĦæĸ¹æ³ķ": 2971,
      "å®ª": 2972,
      "å®¿": 2973,
      "è¿İ": 2974,
      "åĲŀ": 2975,
      "ç»ĺ": 2976,
      "åŃķ": 2977,
      "å°º": 2978,
      "å°ĸ": 2979,
      "å¹ħ": 2980,
      "æīİ": 2981,
      "æĿ¯": 2982,
      "ä¸įè¶³": 2983,
      "ä¸įæķ¢": 2984,
      "æľīäºº": 2985,
      "æľīçĿĢ": 2986,
      "ä¸ŃéļĶ": 2987,
      "éĢĶ": 2988,
      "åĮĢ": 2989,
      "èĢ³": 2990,
      "æĬµ": 2991,
      "çĶŁæĪĲ": 2992,
      "æŀ¶": 2993,
      "åıĳåĩº": 2994,
      "çºµ": 2995,
      "å¥ī": 2996,
      "å¥Ĺ": 2997,
      "è¾Ĩ": 2998,
      "çĲĨæĥ³": 2999,
      "æµĵ": 3000,
      "åĪĨåŃĲ": 3001,
      "èĩªä¸»": 3002,
      "èĩªåĬ¨": 3003,
      "æ³ķéĻ¢": 3004,
      "å·¥èīº": 3005,
      "æĭľ": 3006,
      "çİ°éĩĳ": 3007,
      "ä¹ŁèĲ§ä½ķ": 3008,
      "åīĬ": 3009,
      "èĤī": 3010,
      "åĲĮäºĭ": 3011,
      "é«ĺåº¦": 3012,
      "å¤ļå°ĳ": 3013,
      "å¤ļå·´": 3014,
      "çĤİ": 3015,
      "æį·": 3016,
      "æģ¢": 3017,
      "åĬłä»¥": 3018,
      "åıĬæĹ¶": 3019,
      "è¡¨æĺİ": 3020,
      "æĸĩæĺİ": 3021,
      "è¯´æ³ķ": 3022,
      "è·Ŀ": 3023,
      "ç¬¬åįģ": 3024,
      "éħ±": 3025,
      "æ¯Ķä¾ĭ": 3026,
      "åŀĭæĢĿç»´": 3027,
      "èī²å½©": 3028,
      "ç»Łè®¡": 3029,
      "å¸¸è§ģ": 3030,
      "åħ·å¤ĩ": 3031,
      "è¿Ĳè¡Į": 3032,
      "éªĹ": 3033,
      "èĪ°": 3034,
      "å¼ºè°ĥ": 3035,
      "ç¦¹": 3036,
      "å¾Īéļ¾": 3037,
      "åħĥç´ł": 3038,
      "æĢĿèĢĥ": 3039,
      "åĲĦåľ°": 3040,
      "ä¿¡æģ¯åĮĸ": 3041,
      "å£ģ": 3042,
      "åıªè¦ģ": 3043,
      "ä¸ĸçºª": 3044,
      "å¥³åı³": 3045,
      "å²Ĥ": 3046,
      "æĦŁè§ī": 3047,
      "ç¤ºèĮĥ": 3048,
      "åĬŀåħ¬": 3049,
      "æ¡Īä»¶": 3050,
      "åıĤèĢĥ": 3051,
      "æĶ¯ä»ĺ": 3052,
      "åı¯èĥ½ä¼ļ": 3053,
      "å¸¦æĿ¥çļĦ": 3054,
      "çŃĶæ¡Ī": 3055,
      "çĪ¶äº²": 3056,
      "åįıè°ĥ": 3057,
      "äºīè®®": 3058,
      "æ¸¸æĪı": 3059,
      "æĪ¿å±ĭ": 3060,
      "è¯Ħä¼°": 3061,
      "è¡¥è´´": 3062,
      "è¯ķéªĮ": 3063,
      "å·¦å¥³åı³": 3064,
      "æĳĦ": 3065,
      "ç¢į": 3066,
      "é¼ł": 3067,
      "ç¼ĸåĪ¶": 3068,
      "è¯¾ç¨ĭ": 3069,
      "ine": 3070,
      "æĲľ": 3071,
      "æįŁå¤±": 3072,
      "æ¦Ĥçİĩ": 3073,
      "ä¹³ç´ł": 3074,
      "è´«åĽ°": 3075,
      "èīºæľ¯": 3076,
      "èĻļæĭŁ": 3077,
      "åĵªäºĽ": 3078,
      "ä¼Łå¤§æ¢¦æĥ³": 3079,
      "çĶ·å·¦å¥³åı³": 3080,
      "éĶĻè¯¯": 3081,
      "å©ļ": 3082,
      "èĩªèº«çļĦ": 3083,
      "çĻ»è®°": 3084,
      "éĽ¶åĶ®": 3085,
      "åĪºæ¿Ģ": 3086,
      "çĶµåĬ¨èĩªè¡Įè½¦": 3087,
      "åħ¬åħĥåīį": 3088,
      "å°¤åħ¶": 3089,
      "éĺ³åħīæĶ¿åĬ¡": 3090,
      "èħ¾è®¯": 3091,
      "çº¤ç»´": 3092,
      "%ãĢĤ": 3093,
      "22": 3094,
      "BOM": 3095,
      "åĺ": 3096,
      "çĳ": 3097,
      "çĴ": 3098,
      "ķåĲİ": 3099,
      "çļĦä¸Ģä¸ª": 3100,
      "çļĦç¤¾ä¼ļ": 3101,
      "çļĦé£Łåĵģ": 3102,
      "çļĦè¯Ŀ": 3103,
      "çļĦåĳĺå·¥": 3104,
      "çļĦåľ°æĸ¹": 3105,
      "äº®": 3106,
      "å®ľ": 3107,
      "å¤º": 3108,
      "å¤ı": 3109,
      "æĺ¯æľĢ": 3110,
      "ä¸ĢçĽ´": 3111,
      "è¯±": 3112,
      "åįĴ": 3113,
      "äººåı£": 3114,
      "æľīæīĢ": 3115,
      "è´¦": 3116,
      "æķ¬": 3117,
      "ç§ĺ": 3118,
      "æ³Ħ": 3119,
      "è¿Ļå°±": 3120,
      "å¿ł": 3121,
      "æİ©": 3122,
      "çĲ¼": 3123,
      "ä¸Ĭåįĩ": 3124,
      "åŃ¦ç§ĳ": 3125,
      "å¥ĭ": 3126,
      "æĹ¶çļĦ": 3127,
      "åĩºæĿ¥çļĦ": 3128,
      "æĸ¹ä¾¿": 3129,
      "èĩªçĶ±": 3130,
      "æĮ¯": 3131,
      "å®ļä¹ī": 3132,
      "æ³ķçļĦ": 3133,
      "æ³ķåĪ¶": 3134,
      "ä¸»æľº": 3135,
      "äº§åĲİ": 3136,
      "ä¸ĭæĿ¥": 3137,
      "ä¹Łä¸į": 3138,
      "ä¹Łå°±æĺ¯": 3139,
      "èĢĮè¨Ģ": 3140,
      "è¿ĽæŃ¥": 3141,
      "èĤĮ": 3142,
      "èĤł": 3143,
      "éģŃ": 3144,
      "ï¼īãĢģ": 3145,
      "åĲĮåŃ¦": 3146,
      "åºĶå¯¹": 3147,
      "åº¦çļĦ": 3148,
      "éĢļéģĵ": 3149,
      "æģ©": 3150,
      "åĨħçļĦ": 3151,
      "æľºåºĬ": 3152,
      "æľĢé«ĺ": 3153,
      "éĩįæĸ°": 3154,
      "éĩįè§Ĩ": 3155,
      "å½ĵåľ°": 3156,
      "å¢Ļ": 3157,
      "å°ĨåĨĽ": 3158,
      "ä¿ĿåŃĺ": 3159,
      "å¹¶ä¸įæĺ¯": 3160,
      "ä¹īåĬ¡": 3161,
      "æł·çļĦ": 3162,
      "å¹³è¡¡": 3163,
      "æĽ´æĸ°": 3164,
      "å¸¸è§Ħ": 3165,
      "æº¶": 3166,
      "éĶģ": 3167,
      "æĬĢèĥ½": 3168,
      "ç¦ħ": 3169,
      "çłĶåıĳ": 3170,
      "ç¡®å®ŀ": 3171,
      "æĹ¥èµ·": 3172,
      "ç®¡çĲĨçļĦ": 3173,
      "ä¸»ç®¡çļĦ": 3174,
      "ä¸»ç®¡ä¸İéĥ¨å±ŀ": 3175,
      "åĮ»å¸Ī": 3176,
      "åķĬ": 3177,
      "èĻ«": 3178,
      "è®¤çŁ¥": 3179,
      "æ¨ª": 3180,
      "çİ¯èĬĤ": 3181,
      "çľĭæĿ¥": 3182,
      "ç¥ŀç»ı": 3183,
      "è¾¾æĪĲ": 3184,
      "è·¯å¾Ħ": 3185,
      "åŁİéķĩ": 3186,
      "ä¼ĺç§Ģ": 3187,
      "åĬŀçĲĨ": 3188,
      "è¡¨çİ°ä¸įä½³": 3189,
      "åĸĦèī¯": 3190,
      "è§Ĩä¸º": 3191,
      "å¹¿æ³Ľ": 3192,
      "è´¢ç¨İ": 3193,
      "æī¿æĭħ": 3194,
      "æ¼ı": 3195,
      "æ¥¼": 3196,
      "è¶ħè¿ĩ": 3197,
      "çªģåĩº": 3198,
      "æĳ©": 3199,
      "éĺ²æŃ¢": 3200,
      "åĿĩåĮĢ": 3201,
      "æģ¶çļĦ": 3202,
      "åıĸå¾ĹçļĦ": 3203,
      "æĲŀ": 3204,
      "èĥĮæĻ¯": 3205,
      "IPåľ°åĿĢ": 3206,
      "ä»įçĦ¶": 3207,
      "ä¸¹çĶ°": 3208,
      "åĲĽåŃĲ": 3209,
      "ä¸Ģæ¬¡æĢ§": 3210,
      "äº¿åħĥ": 3211,
      "éĿĻèĦī": 3212,
      "ä»ģä¹ī": 3213,
      "è¶ĭåĬ¿": 3214,
      "åĬ³åĬ¡æĬ¥": 3215,
      "èĸªéĩĳ": 3216,
      "é©¾é©": 3217,
      "å°ıåŃ¦æķĻèĤ²ä¸ĵä¸ļ": 3218,
      "è²Į": 3219,
      "34": 3220,
      ":âĢľ": 3221,
      "MAC": 3222,
      "es": 3223,
      "ht": 3224,
      "©åºı": 3225,
      "è¸": 3226,
      "é¤Ĳ": 3227,
      "ĠâĢľ": 3228,
      "çļĦä¸Ń": 3229,
      "çļĦä¼ģä¸ļ": 3230,
      "çļĦèĥ½åĬĽ": 3231,
      "çļĦäº§åĵģ": 3232,
      "çļĦåģļæ³ķ": 3233,
      "å¤¹": 3234,
      "åĲķåĲİ": 3235,
      "è®¼": 3236,
      "åŃ£": 3237,
      "å°Ŀ": 3238,
      "äººæĢ§": 3239,
      "åľ¨ä¸Ģ": 3240,
      "æľīä¸Ģ": 3241,
      "æľīäºĨ": 3242,
      "ä¸ºä¸»": 3243,
      "è´¡": 3244,
      "èĥĥ": 3245,
      "å¯Ĵ": 3246,
      "æĢķ": 3247,
      "åĴĮåĽ½": 3248,
      "ç§Ł": 3249,
      "ç§©åºı": 3250,
      "æĬĺ": 3251,
      "çĶŁéķ¿": 3252,
      "çĶŁæ¶": 3253,
      "å¤§å¤ļ": 3254,
      "å¤§éĩı": 3255,
      "å¹´ç¬¬": 3256,
      "çŃ¹": 3257,
      "çīĮ": 3258,
      "è¡ĮçļĦ": 3259,
      "åĩºæĿ¥": 3260,
      "æ²¿": 3261,
      "æĮº": 3262,
      "ä½ľåĵģ": 3263,
      "ä¸»ä½ĵ": 3264,
      "æĭĵ": 3265,
      "å®¶åı£": 3266,
      "èĢĮä¸į": 3267,
      "è¿Ľåı£": 3268,
      "åĪ¶åĵģ": 3269,
      "éĿ¢ç§¯": 3270,
      "æ¬§": 3271,
      "ä¿¡åı·": 3272,
      "çĤģ": 3273,
      "åħ¥å£°": 3274,
      "éĺµ": 3275,
      "éĺħ": 3276,
      "ç±į": 3277,
      "æĹłäºº": 3278,
      "æŃ£å¼ı": 3279,
      "è·¨": 3280,
      "ç²ī": 3281,
      "åįģåĪĨ": 3282,
      "è¿ĺè¦ģ": 3283,
      "è¿ĺä¼ļ": 3284,
      "éĢłåŀĭ": 3285,
      "å¯¼èĪª": 3286,
      "ç¤¾ä¼ļä¸»ä¹ī": 3287,
      "èº«ä¸Ĭ": 3288,
      "å¤Ħæĸ¹": 3289,
      "å·¥ä½ľçļĦ": 3290,
      "çģ°": 3291,
      "çº§çļĦ": 3292,
      "å²Ĺ": 3293,
      "ç´łè´¨": 3294,
      "è£ģ": 3295,
      "è£Ļ": 3296,
      "åħ±åĴĮåĽ½": 3297,
      "æĦŁæŁĵ": 3298,
      "æŃ¥éª¤": 3299,
      "æķ´è½¦": 3300,
      "èİ«": 3301,
      "æ¡Īä¾ĭ": 3302,
      "å®īåħ¨çĶŁäº§": 3303,
      "éĽĨåĽ¢": 3304,
      "é¡¹çĽ®ç»ıçĲĨ": 3305,
      "ç»´æĬ¤": 3306,
      "è¡¥åĬ©": 3307,
      "æĳĨ": 3308,
      "å¼łå®¶åı£": 3309,
      "åĽºå®ļ": 3310,
      "ç¬¬äºĮéļĶæĿ¿": 3311,
      "æ¦Ĥå¿µ": 3312,
      "äºĪä»¥": 3313,
      "è¯īè®¼": 3314,
      "å®ļçĤ¹åĮ»çĸĹæľºæŀĦ": 3315,
      "ç¼ĵåŃĺ": 3316,
      "åĲĪçĲĨçļĦ": 3317,
      "æķ°åŃĹåĮĸ": 3318,
      "åĶĲæŁĲ": 3319,
      "æĩĤå¾Ĺ": 3320,
      "âĶĢâĶĢ": 3321,
      "çĬ¯ç½ªæīĢå¾Ĺ": 3322,
      "çĩĥæ²¹": 3323,
      "æİ¡åıĸ": 3324,
      "æııè¿°": 3325,
      "è¿ħéĢŁ": 3326,
      "è¿Ļä½įéĥ¨å±ŀ": 3327,
      "èĨľæİ¥è§¦åĻ¨": 3328,
      "å¤ļå·´èĥº": 3329,
      "æģ¢å¤į": 3330,
      "é©¾é©¶": 3331,
      "çĶŁæ¶¯": 3332,
      "23": 3333,
      "75": 3334,
      "89": 3335,
      "RM": 3336,
      "hy": 3337,
      "mm": 3338,
      "ro": 3339,
      "ªī": 3340,
      "èªī": 3341,
      "çļĦåĨħå®¹": 3342,
      "çļĦå½±åĵį": 3343,
      "çļĦè¦ģæ±Ĥ": 3344,
      "çļĦå¿ĥçĲĨ": 3345,
      "äºŃ": 3346,
      "ä»²": 3347,
      "åħ°": 3348,
      "å®Ļ": 3349,
      "åĪ¥": 3350,
      "ä¹Į": 3351,
      "è®³": 3352,
      "ä¸ĢåĪĩ": 3353,
      "è¯¦": 3354,
      "æĹ¨": 3355,
      "åľ¨æŃ¤": 3356,
      "å¾¡": 3357,
      "å·©": 3358,
      "ä¸ŃåŃĲ": 3359,
      "åĴ½": 3360,
      "çİ©": 3361,
      "åĴĮå¹³": 3362,
      "äºĨä¸Ģä¸ª": 3363,
      "æŀ¯": 3364,
      "æİī": 3365,
      "åıĳæĺİ": 3366,
      "å¯¹æīĭ": 3367,
      "è¾©": 3368,
      "è¾ĳ": 3369,
      "è¾Ľ": 3370,
      "è¾ŀ": 3371,
      "æµ¸": 3372,
      "åĪĨæ³Į": 3373,
      "ä¸»äºº": 3374,
      "ä¸»ä»»": 3375,
      "è½´": 3376,
      "æīĢè°ĵ": 3377,
      "å°±èĥ½": 3378,
      "å¦»": 3379,
      "å¦Ļ": 3380,
      "ä¹ĭæīĢä»¥": 3381,
      "ä¸ĭéĿ¢": 3382,
      "ç½²": 3383,
      "åĬ¨æľº": 3384,
      "ç»ıåİĨ": 3385,
      "åĲĪå¹¶": 3386,
      "èĤº": 3387,
      "å¤ļå¹´": 3388,
      "æ´Ľ": 3389,
      "æģĴ": 3390,
      "åħ¬æ°ĳ": 3391,
      "éķ¿åŁİ": 3392,
      "ä½įäºİ": 3393,
      "çŁ¿": 3394,
      "å¿ĥçģµ": 3395,
      "å¤©æĸĩ": 3396,
      "æĸĩç«ł": 3397,
      "ç¡¬": 3398,
      "åı¯ä»¥éĢļè¿ĩ": 3399,
      "ç©·": 3400,
      "ç©¿": 3401,
      "ãĢĭãĢĤ": 3402,
      "ç²Ĵ": 3403,
      "åİŁçĲĨ": 3404,
      "åİŁæľ¬": 3405,
      "æĥħå½¢": 3406,
      "æĥħç»ª": 3407,
      "ç±»é£Łåĵģ": 3408,
      "å¼ºåĮĸ": 3409,
      "å¼ºçĥĪ": 3410,
      "èĦļ": 3411,
      "èº«ä½ĵ": 3412,
      "è½¬åŀĭ": 3413,
      "æĹ¥å¸¸": 3414,
      "è§Ĥå¿µ": 3415,
      "éĩĮçļĦ": 3416,
      "ç»ĦåĲĪ": 3417,
      "çİ¯ä¿Ŀ": 3418,
      "åİ»ä¸ĸ": 3419,
      "å¿ħè¦ģ": 3420,
      "èĩ³å°ĳ": 3421,
      "èĩ³ä»Ĭ": 3422,
      "ç¾İåħĥ": 3423,
      "è®°å¿Ĩ": 3424,
      "ç»ĻäºĪ": 3425,
      "ä¹łè¿ĳ": 3426,
      "æķ´åĲĪ": 3427,
      "æ¯ıå¹´": 3428,
      "ä¹Ŀèī²": 3429,
      "çº³åħ¥": 3430,
      "çĥŁ": 3431,
      "äº§åĵģçļĦ": 3432,
      "æľªèĥ½": 3433,
      "æĤ²": 3434,
      "åĵįåºĶ": 3435,
      "å¡ŀ": 3436,
      "çĹĩçĬ¶": 3437,
      "é»Ħçĵľ": 3438,
      "åĩłä¸ª": 3439,
      "è¡Įä¸ļçļĦ": 3440,
      "åħ«æĻ¯": 3441,
      "è¯·æ±Ĥ": 3442,
      "ç¬¬ä¸Ģæµģä½ĵ": 3443,
      "åŁŁåĲįæľįåĬ¡åĻ¨çļĦ": 3444,
      "å·®å¼Ĥ": 3445,
      "ç¼ºè¡Ģ": 3446,
      "å®¢è§Ĥ": 3447,
      "åľ°æĸ¹éĩĳèŀį": 3448,
      "åİĨåı²ä¸Ĭ": 3449,
      "äººæ°ĳåħ±åĴĮåĽ½": 3450,
      "èıľ": 3451,
      "åľŁåľ°": 3452,
      "æ¸©åº¦": 3453,
      "çıį": 3454,
      "ä¹¡æĿĳ": 3455,
      "ä¹¡éķĩ": 3456,
      "èĥİçĽĺ": 3457,
      "è´¨éĩıå®īåħ¨": 3458,
      "è§£åĨ³æĸ¹æ¡Ī": 3459,
      "çļĦåİŁåĪĻ": 3460,
      "åı¦å¤ĸ": 3461,
      "åįĬå¹´": 3462,
      "æĪĲéķ¿åŀĭæĢĿç»´": 3463,
      "çļĦäºĭæĥħ": 3464,
      "åľ£äºº": 3465,
      "éŃĤ": 3466,
      "èĭıå·ŀ": 3467,
      "æļ´åĬĽ": 3468,
      "éĨĴ": 3469,
      "çļĦæĥħåĨµä¸ĭ": 3470,
      "åĶ¯ä¸ĢçļĦ": 3471,
      "ä¸Ńåįİäººæ°ĳåħ±åĴĮåĽ½": 3472,
      "æ¶Īè´¹èĢħ": 3473,
      "èĤ¡æĿĥè½¬è®©": 3474,
      "å´ĩ": 3475,
      "å®ĩå®Ļ": 3476,
      "âĢĿãĢģâĢľ": 3477,
      "èĤ¯å®ļ": 3478,
      "å§Ķåĳĺä¼ļ": 3479,
      "åŀĤä½ĵ": 3480,
      "çĸ¾çĹħ": 3481,
      "baid": 3482,
      "éĽ¶åĶ®èį¯åºĹ": 3483,
      "äº§åĲİåĩºè¡Ģ": 3484,
      "ä¹łè¿ĳå¹³": 3485,
      "70": 3486,
      "MR": 3487,
      "ch": 3488,
      "ra": 3489,
      "âĸ": 3490,
      "åĹ": 3491,
      "é¹": 3492,
      "Ġ)": 3493,
      "Ġ1": 3494,
      "çļĦéĤ£": 3495,
      "ãĢĤãĢĬ": 3496,
      "ãĢĤãĢį": 3497,
      "åħĦ": 3498,
      "åħĨ": 3499,
      "åĪĢ": 3500,
      "è¿¹": 3501,
      "æĪª": 3502,
      "æĺ¯çĶ±": 3503,
      "ä¸Ģå¹´": 3504,
      "æĹģ": 3505,
      "åºŁ": 3506,
      "å·Ŀ": 3507,
      "èĥģ": 3508,
      "æĬļ": 3509,
      "è¿Ļæ¬¡": 3510,
      "æŀĿ": 3511,
      "èµŀ": 3512,
      "åİĺ": 3513,
      "å¹´åº¦": 3514,
      "å¯¹åħ¶": 3515,
      "å¯¹å¤ĸ": 3516,
      "æĪĲåĳĺ": 3517,
      "è¾ĸ": 3518,
      "çĲĨå¿µ": 3519,
      "æµª": 3520,
      "æ³ķåĽ½": 3521,
      "æ³ķæ²»": 3522,
      "å·¥ä¼¤": 3523,
      "åĵ¥": 3524,
      "æĭ¼": 3525,
      "ä¹ĭä¸Ĭ": 3526,
      "æ±Ĺ": 3527,
      "åīĳ": 3528,
      "åħ¶å®ĥ": 3529,
      "æ¬ł": 3530,
      "æŁ±": 3531,
      "åħ¬ä¼Ĺ": 3532,
      "äºĭä»¶": 3533,
      "åĲįç§°": 3534,
      "çĽ¸æĢĿ": 3535,
      "ç¨İæĶ¶": 3536,
      "åĪ©çİĩ": 3537,
      "å¤ĸåĽ½": 3538,
      "å°Ĩä¼ļ": 3539,
      "çĽ®å½ķ": 3540,
      "æĪĳä»¬åı¯ä»¥": 3541,
      "è§Ħå¾ĭ": 3542,
      "éĽ¨": 3543,
      "æĽ´å¤ļ": 3544,
      "åįģå¹´": 3545,
      "ç½ĳä¸Ĭ": 3546,
      "å½¢çĬ¶": 3547,
      "æ´»æĢ§": 3548,
      "çī¹è®¸": 3549,
      "èĪĨ": 3550,
      "æĢ»ä½ĵ": 3551,
      "ç¡®ä¿Ŀ": 3552,
      "è½¬åĮĸ": 3553,
      "è½¬åıĺ": 3554,
      "åĲĦä¸ª": 3555,
      "æĿĥçļĦ": 3556,
      "ç®¡çĲĨæ¨¡å¼ı": 3557,
      "èĬĤçº¦": 3558,
      "å£³": 3559,
      "å¸ĪèĮĥ": 3560,
      "åĮħè£ħ": 3561,
      "åĮħåĲ«": 3562,
      "æ¸ħåįİ": 3563,
      "çĹħæĸĳ": 3564,
      "ä¸ľæ±ī": 3565,
      "ä¸ľçĽŁ": 3566,
      "åħĪè¿Ľ": 3567,
      "æ·±åĮĸ": 3568,
      "æ·±åĪ»": 3569,
      "åķĨåĬ¡": 3570,
      "é»ĺ": 3571,
      "èħĲ": 3572,
      "ä¼łæĴŃ": 3573,
      "è´§è¿Ĳ": 3574,
      "èģĶåĲĪ": 3575,
      "å§ĭç»Ī": 3576,
      "ç®Ĺæ³ķ": 3577,
      "æĪĺäºī": 3578,
      "çĬ¶åĨµ": 3579,
      "ç§¯ç´¯": 3580,
      "ä¾Ŀèµĸ": 3581,
      "åĮĹæĸ¹": 3582,
      "åį³åı¯": 3583,
      "èģĮå·¥": 3584,
      "å¸ĤåľºåĩĨåħ¥": 3585,
      "ç¤¼ä»ª": 3586,
      "åħ»èĢģ": 3587,
      "åŃ¦ä¹łçļĦ": 3588,
      "é¢ĦæľŁ": 3589,
      "é¢Ħæµĭ": 3590,
      "éĢĤåºĶ": 3591,
      "æĴ°": 3592,
      "æĴĳ": 3593,
      "åĢ¼å¾Ĺ": 3594,
      "åŁºæľ¬ç»ĵæŀĦ": 3595,
      "åı¶çīĩ": 3596,
      "è¡¥åģ¿": 3597,
      "èĳ¬": 3598,
      "åħ´è¶£": 3599,
      "èĲ½å®ŀ": 3600,
      "åĨľä¸ļ": 3601,
      "å±ħæ°ĳ": 3602,
      "çİĦæ¯į": 3603,
      "æıĲåĩºäºĨ": 3604,
      "å¥ĸéĩĳ": 3605,
      "åĪĽæĸ°åĪĽä¸ļ": 3606,
      "é¡¶çº§": 3607,
      "ç²¾ç¥ŀåĪĨæŀĲ": 3608,
      "å¨ģèĥģ": 3609,
      "éļĲçŀ": 3610,
      "çĵ¦": 3611,
      "éĺ´éĺ³": 3612,
      "éĻĪç¨Ģ": 3613,
      "å®£ä¼ł": 3614,
      "æ¸ħæ¥ļäºĨ": 3615,
      "æ³Įä¹³ç´ł": 3616,
      "èģĮä¸ļçĶŁæ¶¯": 3617,
      "å½»åºķ": 3618,
      "QSæłĩå¿Ĺ": 3619,
      "è´¯å½»": 3620,
      "åĩ¤ç¿Ķæ³¥å¡ĳ": 3621,
      "æĦıåĳ³çĿĢ": 3622,
      "å®ªæ³ķ": 3623,
      "æ³Ħéľ²": 3624,
      "å¥ĭæĸĹ": 3625,
      "MACåľ°åĿĢ": 3626,
      "baidu": 3627,
      "éļĲçŀĴ": 3628,
      ")ãĢģ": 3629,
      "27": 3630,
      "300": 3631,
      "55": 3632,
      "64": 3633,
      "ID": 3634,
      "og": 3635,
      "op": 3636,
      "³å·ŀ": 3637,
      "âħ": 3638,
      "åµ": 3639,
      "æ§": 3640,
      "éŀ": 3641,
      "ĠS": 3642,
      "çļĦæĸ°": 3643,
      "çļĦå°ı": 3644,
      "çļĦéĥ¨å±ŀ": 3645,
      "çļĦè§Ĵ": 3646,
      "çļĦåħ¬åĳĬ": 3647,
      "äºķ": 3648,
      "åıĽ": 3649,
      "ä»ĵ": 3650,
      "å®ħ": 3651,
      "åĬ²": 3652,
      "ãĢģ(": 3653,
      "æĺ¯ä¸ŃåĽ½": 3654,
      "ä¸ĢçĤ¹": 3655,
      "âĢĻ": 3656,
      "è¯º": 3657,
      "è¯Ī": 3658,
      "ä¼ı": 3659,
      "æĹ¦": 3660,
      "æľīæľº": 3661,
      "ä¸ŃåĮ»": 3662,
      "å¯¿": 3663,
      "å¯Ĥ": 3664,
      "èĢķ": 3665,
      "ç§¦": 3666,
      "æĬ¢": 3667,
      "ä»¥åĲİ": 3668,
      "çĶŁçĲĨ": 3669,
      "å¤§è±¡": 3670,
      "çĶ¨æĿ¥": 3671,
      "è¿Ļé¡¹": 3672,
      "è¦ģæĥ³": 3673,
      "åİī": 3674,
      "åıĳéĢģ": 3675,
      "å¯¹è±¡": 3676,
      "å¯¹å¾ħ": 3677,
      "å¯¹æĬĹ": 3678,
      "ä¸ĬæľĪ": 3679,
      "åı¯è§ģ": 3680,
      "éĻ¶": 3681,
      "åľ°çĲĥ": 3682,
      "å°±ä¸į": 3683,
      "å°±è¦ģ": 3684,
      "å°±ä¸ļ": 3685,
      "ä¹ĭå¤ĸ": 3686,
      "ä¸ĭçļĦ": 3687,
      "è¿ĩæķı": 3688,
      "ç»ıå¸¸": 3689,
      "æľ¬è´¨": 3690,
      "éĿ¢çļĦ": 3691,
      "åģ¶": 3692,
      "ä½ĵéªĮ": 3693,
      "æ¸¯": 3694,
      "æ¸Ĺ": 3695,
      "æģĲ": 3696,
      "åĽłèĢĮ": 3697,
      "æıĲåĪ°": 3698,
      "åħ¬å¹³": 3699,
      "ä¸īåįģ": 3700,
      "äºĭæķħ": 3701,
      "èµĦæł¼": 3702,
      "å±ķå¼Ģ": 3703,
      "åĬłå¿«": 3704,
      "åĬłçıŃ": 3705,
      "è®¾ç«ĭ": 3706,
      "åĢ¡": 3707,
      "å½ĵå¹´": 3708,
      "çĽ¸å½ĵ": 3709,
      "æ°´éĿ¢": 3710,
      "æĺİçĻ½": 3711,
      "å¹¶è¡Į": 3712,
      "çĽ®ä¸Ń": 3713,
      "ç¥Ŀ": 3714,
      "éģĵè·¯": 3715,
      "ç²Ĺ": 3716,
      "å¸¸å¸¸": 3717,
      "éĢłå½±": 3718,
      "ä»»èģĮ": 3719,
      "è½¦è¾Ĩ": 3720,
      "å¾Īå¤§": 3721,
      "è¯ģä¹¦": 3722,
      "è¡Ģæ¶²": 3723,
      "èº«ä¸Ń": 3724,
      "åĽĽç»ĵ": 3725,
      "æĬ¥è¡¨": 3726,
      "è½¬åıĳ": 3727,
      "æĿĥä½¿çĶ¨": 3728,
      "åıĺæĽ´": 3729,
      "çģ¾": 3730,
      "æĹ¥æľ¬": 3731,
      "åĮºåĪ«": 3732,
      "è®¤çľŁ": 3733,
      "å¿ħçĦ¶": 3734,
      "çĪĨ": 3735,
      "çłĶç©¶çĶŁ": 3736,
      "æĶ¹éĢł": 3737,
      "åķĨåĵģ": 3738,
      "è´¹æīĢå¾Ĺ": 3739,
      "é£ŁåĵģçĶŁäº§è®¸åı¯è¯ģ": 3740,
      "ä¾ĽåºĶ": 3741,
      "å½±åĥı": 3742,
      "çĭ¬ç«ĭ": 3743,
      "æ¯ıæ¬¡": 3744,
      "éĴ¢": 3745,
      "éļ¾ä»¥": 3746,
      "å¼ķå¯¼": 3747,
      "ä¾ĿéĿł": 3748,
      "éħįéĢģ": 3749,
      "æĸ½å·¥": 3750,
      "å¹¿å¤§": 3751,
      "åĥ§": 3752,
      "è´¢äº§": 3753,
      "å¡Ķ": 3754,
      "è´ŁåĢº": 3755,
      "åĩłå¹´": 3756,
      "æīĵéĢł": 3757,
      "æīĵåĩ»": 3758,
      "èĢĥéªĮ": 3759,
      "æĶ¿çŃĸçļĦ": 3760,
      "ç©ºçº¤ç»´": 3761,
      "ä¿®å¤į": 3762,
      "æŁĲä¸ª": 3763,
      "è¶ħæłĩ": 3764,
      "å¾ħåĪĨç¦»": 3765,
      "è¾ĵåĩº": 3766,
      "åłĨ": 3767,
      "åĪĿæľŁ": 3768,
      "ä¸¾è¯ģ": 3769,
      "ç¦ıåĪ©": 3770,
      "æıĲåįĩèĩªæİ§åĬĽ": 3771,
      "åĭĩ": 3772,
      "è®¡ç®Ĺæľº": 3773,
      "åı¦ä¸Ģä¸ª": 3774,
      "æľīæķĪçļĦ": 3775,
      "éĢĲæŃ¥": 3776,
      "éļĲäºŃ": 3777,
      "ç¿»": 3778,
      "é¡ºåĪ©": 3779,
      "äºĮåįģåħ«": 3780,
      "çº³ç¨İäºº": 3781,
      "æī£ç¼´": 3782,
      "é²ģ": 3783,
      "æĺİæĺ¾çļĦ": 3784,
      "åģĩè®¾": 3785,
      "ight": 3786,
      "åį±éĻ©": 3787,
      "GBOM": 3788,
      "æī¶ä½Ļ": 3789,
      "è¿Ŀæ³ķ": 3790,
      "åĳĪçİ°": 3791,
      "è¿½æ±Ĥ": 3792,
      "æľ±èĴĻ": 3793,
      "è¾ħåĬ©": 3794,
      "å¾ªçİ¯": 3795,
      "ç¨¿éħ¬æīĢå¾Ĺ": 3796,
      "ä¸§å¤±": 3797,
      "ä¼Ļä¼´": 3798,
      "æĭįé»Ħçĵľ": 3799,
      "æº´éļĲäºŃ": 3800,
      "ç½ĳæł¼åĮĸ": 3801,
      "æİ©é¥°": 3802,
      "åĬ³åĬ¡æĬ¥éħ¬æīĢå¾Ĺ": 3803,
      "å²Ĺä½į": 3804,
      "åİĺç±³": 3805,
      "çī¹è®¸æĿĥä½¿çĶ¨": 3806,
      "æ¸ħåįİå¤§åŃ¦": 3807,
      "çī¹è®¸æĿĥä½¿çĶ¨è´¹æīĢå¾Ĺ": 3808,
      "09": 3809,
      "39": 3810,
      "313": 3811,
      "45": 3812,
      "533": 3813,
      "67": 3814,
      "78": 3815,
      "HPRL": 3816,
      "Light": 3817,
      "__": 3818,
      "ost": 3819,
      "âĦ": 3820,
      "âī": 3821,
      "ĠA": 3822,
      "ĠT": 3823,
      "Ġt": 3824,
      "Ġï¼ī": 3825,
      "ä¸¸": 3826,
      "ï¼İ": 3827,
      "çļĦé«ĺ": 3828,
      "çļĦå¤ļ": 3829,
      "çļĦåĨħ": 3830,
      "çļĦåīį": 3831,
      "çļĦå¥½": 3832,
      "çļĦå¤ĸ": 3833,
      "çļĦåĽ½å®¶": 3834,
      "çļĦæĬĢæľ¯": 3835,
      "çļĦä¸Ģç§į": 3836,
      "çļĦçİ¯å¢ĥ": 3837,
      "çļĦçĽ¸åħ³": 3838,
      "çļĦæŃ£ä¹ī": 3839,
      "æĺ¯æĪĳä»¬": 3840,
      "æĺ¯ä»Ģä¹Ī": 3841,
      "âĢĺ": 3842,
      "å°¼": 3843,
      "åºĨ": 3844,
      "åºŀ": 3845,
      "æī°": 3846,
      "æīŃ": 3847,
      "ä¸įåľ¨": 3848,
      "æľīä¸ī": 3849,
      "å¾½": 3850,
      "ä¸ºä¸Ń": 3851,
      "åĩī": 3852,
      "æĢ¨": 3853,
      "ç§ĭ": 3854,
      "ä»¥å¤ĸ": 3855,
      "çĶŁå°ı": 3856,
      "æ³¡": 3857,
      "æ³ī": 3858,
      "åĽ½åĬ¡": 3859,
      "å¤§å°ı": 3860,
      "å¤§åŀĭ": 3861,
      "å¤§èĦĳ": 3862,
      "å¤§èµĽ": 3863,
      "æ°Ľ": 3864,
      "è¿Ļç±»": 3865,
      "è¿Ļæľ¬ä¹¦": 3866,
      "èµ¤": 3867,
      "å¿į": 3868,
      "å¹´ä»£": 3869,
      "å¹´è½»": 3870,
      "çĲ¦": 3871,
      "åıĳæĢ§": 3872,
      "åıĳæĶ¾": 3873,
      "åıĳè¨Ģ": 3874,
      "åıĳéŁ³": 3875,
      "å¯¹æ¯Ķ": 3876,
      "ä¸Ĭæµ·": 3877,
      "ä¸Ĭè¿°": 3878,
      "çº±": 3879,
      "çº¸": 3880,
      "çºł": 3881,
      "æĪĲç«ĭ": 3882,
      "åľ°çĲĨ": 3883,
      "åĩºäºĨ": 3884,
      "çĲĨçĶ±": 3885,
      "æ²ī": 3886,
      "æĮĤ": 3887,
      "æ³ķåįİ": 3888,
      "ä¸»å¸Ń": 3889,
      "æ¯ģ": 3890,
      "ä¹ĭåĨħ": 3891,
      "ä¹ĭå¤Ħ": 3892,
      "æĥĬ": 3893,
      "æĥĳ": 3894,
      "åĬ¨çī©": 3895,
      "è¿ĽèĢĮ": 3896,
      "åĲĪæĪĲ": 3897,
      "èĤ©": 3898,
      "éĿ¢åīį": 3899,
      "åĲĮä¸Ģ": 3900,
      "é¡¿": 3901,
      "æģ°": 3902,
      "åħ¨å¹´": 3903,
      "éĺĶ": 3904,
      "åĽłåŃĲ": 3905,
      "åĵģç§į": 3906,
      "æŁ³å·ŀ": 3907,
      "ç¬ĳ": 3908,
      "åħ¬éĩĮ": 3909,
      "ç³»åĪĹ": 3910,
      "å°ıæĹ¶": 3911,
      "ä¸īæľĪ": 3912,
      "æķĻåĮĸ": 3913,
      "èµĦè´¨": 3914,
      "èµĦåĬ©": 3915,
      "å¤©åľ°": 3916,
      "éĹ´çļĦ": 3917,
      "æľĢå¥½": 3918,
      "è®¾æĸ½": 3919,
      "æĹłæŀģ": 3920,
      "è¡¨éĿ¢": 3921,
      "æŃ£æĺ¯": 3922,
      "è§£çŃĶ": 3923,
      "åı¯ä»¥åģļåĪ°": 3924,
      "äºĮå¹´": 3925,
      "ç¾½": 3926,
      "éľ¸": 3927,
      "éľľ": 3928,
      "ç¬¬åĽĽ": 3929,
      "æľŁå¾ħ": 3930,
      "é¢ĺçĽ®": 3931,
      "ç²ĺ": 3932,
      "æł·æľº": 3933,
      "å¹³åĿĩ": 3934,
      "æµģéĩı": 3935,
      "æº¢": 3936,
      "ä¸ŃåĽ½çļĦ": 3937,
      "ä¸ŃåĽ½åºĶè¯¥": 3938,
      "å½¢æĢģ": 3939,
      "å®īå¾½": 3940,
      "åįķçĭ¬": 3941,
      "åıĹå®³": 3942,
      "åıĹéĽĩ": 3943,
      "è¿Ĳäºº": 3944,
      "çĿĢåĲį": 3945,
      "èĪį": 3946,
      "èĪĴ": 3947,
      "æĥ³æ³ķ": 3948,
      "åħĥå¹´": 3949,
      "ç¤¾ä¼ļåıĳå±ķ": 3950,
      "æĬ¥éģĵ": 3951,
      "åĲĦç±»": 3952,
      "ç®¡çĲĨåĪ¶åº¦": 3953,
      "åĽ½å®¶çļĦ": 3954,
      "åĽ½å®¶å®īåħ¨": 3955,
      "ä¿¡æģ¯æĬĢæľ¯": 3956,
      "è®ºæĸĩ": 3957,
      "åĮºåĪĨ": 3958,
      "è®¤è¯ģ": 3959,
      "è¿Ľè¡ĮäºĨ": 3960,
      "æĿ¡ä¾ĭ": 3961,
      "éĤ£æł·": 3962,
      "çĶµè¯Ŀ": 3963,
      "é¦Ī": 3964,
      "çĹħæ¯Ĵ": 3965,
      "ç¾İæľ¯": 3966,
      "åĶ±": 3967,
      "é©±": 3968,
      "æ»ŀ": 3969,
      "èħ°": 3970,
      "å°ĳæķ°": 3971,
      "2012": 3972,
      "çĻ¾å§ĵ": 3973,
      "çĸĹæ³ķ": 3974,
      "çĭ¬çī¹": 3975,
      "å¸ĥç½®": 3976,
      "æ¯ıä¸ªäºº": 3977,
      "ä¹Ŀä¸¹": 3978,
      "åĨ³çŃĸ": 3979,
      "åıĤåĬł": 3980,
      "ä¸»è¦ģæĺ¯": 3981,
      "198": 3982,
      "èĢģäºº": 3983,
      "å±Ĥæ¬¡": 3984,
      "ä»Ĭå¹´": 3985,
      "çİ¯å¢ĥä¿ĿæĬ¤": 3986,
      "ä¼¤åı£": 3987,
      "å¾ģæĶ¶": 3988,
      "éĽĨä¸Ń": 3989,
      "å¹¿ä¸ľ": 3990,
      "æ¢ģ": 3991,
      "çļĦäººçĶŁ": 3992,
      "åĨįæ¬¡": 3993,
      "çŃĶé¢ĺ": 3994,
      "ä»ħä»ħ": 3995,
      "æĿĳæ°ĳ": 3996,
      "éĢĤå½ĵ": 3997,
      "éĢĤçĶ¨äºİ": 3998,
      "æĥħåĨµä¸ĭ": 3999,
      "èŀįèµĦ": 4000,
      "çĽĳæİ§": 4001,
      "æĻºå²Ĥ": 4002,
      "å£°çº³": 4003,
      "å¾ħéģĩ": 4004,
      "çªģçł´": 4005,
      "èĤ¡éª¨": 4006,
      "åħħæ»¡": 4007,
      "ç¢ĳ": 4008,
      "è¿ŀæİ¥": 4009,
      "æİ¢æµĭ": 4010,
      "äººä»¬çļĦ": 4011,
      "èĴ¸": 4012,
      "æĹ¢çĦ¶": 4013,
      "éĽ·è¾¾": 4014,
      "éĩĬæĶ¾": 4015,
      "è´Łè´£äºº": 4016,
      "å¹¼åĦ¿åĽŃæķĻå¸Ī": 4017,
      "æłĳç«ĭ": 4018,
      "æĮĩæķ°ä¸º": 4019,
      "èħºçĺ¤": 4020,
      "âĢķâĢķ": 4021,
      "åıĳå°Ħç®¡": 4022,
      "ç»©æķĪ": 4023,
      "éī´å®ļ": 4024,
      "ï¸°ãĢĮ": 4025,
      "å¤ĸä¼¤æĢ§": 4026,
      "æ¶īåıĬ": 4027,
      "æŃ¦åĻ¨ç³»ç»Ł": 4028,
      "å±¥è¡Į": 4029,
      "æĢ§èĥ½åıĤæķ°": 4030,
      "æĲľç´¢": 4031,
      "äººæĢ§æľ¬": 4032,
      "âĦĥ": 4033,
      "åĽ½åĬ¡éĻ¢": 4034,
      "æĻºå²Ĥé¡µ": 4035,
      "æĢ§èĥ½åıĤæķ°æİĴæ°´éĩı": 4036,
      "49": 4037,
      "58": 4038,
      "500": 4039,
      "CRM": 4040,
      "DP": 4041,
      "Gon": 4042,
      "LB": 4043,
      "Mc": 4044,
      "do": 4045,
      "ed": 4046,
      "li": 4047,
      "per": 4048,
      "ul": 4049,
      "çħ": 4050,
      "Ġæĺ¯": 4051,
      "Ġä¸º": 4052,
      "ģè®¸": 4053,
      "ķè¥¿": 4054,
      "çļĨ": 4055,
      "çļĦå°±æĺ¯": 4056,
      "çļĦé¦ĸ": 4057,
      "çļĦè¿ĩç¨ĭ": 4058,
      "çļĦè§Ħå®ļ": 4059,
      "çļĦè®¾è®¡": 4060,
      "çļĦç»ĵæŀľ": 4061,
      "åħģè®¸": 4062,
      "è¿Ī": 4063,
      "ä¹ĥ": 4064,
      "æĪĴ": 4065,
      "æĺ¯å¯¹": 4066,
      "ä¸ĢæĹ¦": 4067,
      "äººæ¬¡": 4068,
      "ä¸įæĦ¿": 4069,
      "åľ¨éķ¿": 4070,
      "æľīä¸Ģä¸ª": 4071,
      "å¾Ĵ": 4072,
      "è´ª": 4073,
      "è´Ŀ": 4074,
      "å¼¯": 4075,
      "èĥ¸": 4076,
      "èĥĨ": 4077,
      "èĢ¿": 4078,
      "è§Ī": 4079,
      "åĨĮ": 4080,
      "éĥģ": 4081,
      "èµ¢": 4082,
      "èµı": 4083,
      "å¿§": 4084,
      "è¦ģæľī": 4085,
      "å¯¹åºĶ": 4086,
      "ä¼ļå¯¼èĩ´": 4087,
      "çīĻ": 4088,
      "éĻķè¥¿": 4089,
      "æĪĲäºĨ": 4090,
      "åľ°éĵģ": 4091,
      "é¢ģ": 4092,
      "çĲĨæĢ§": 4093,
      "æĪĳçļĦ": 4094,
      "åĪĨæĶ¯": 4095,
      "ä½ľåĩº": 4096,
      "åĬĽçļĦ": 4097,
      "ä¸»é¢ĺ": 4098,
      "æĭ³": 4099,
      "æĭĶ": 4100,
      "çİ°çĬ¶": 4101,
      "ä¸ĭäºĨ": 4102,
      "åĲİæĿ¥": 4103,
      "åĲİå¤©": 4104,
      "ä¾¯": 4105,
      "ä¾į": 4106,
      "ä¹Łæ²¡æľī": 4107,
      "åī¥": 4108,
      "åī©": 4109,
      "ç®¡åĪ¶": 4110,
      "è¿Ľç¨ĭ": 4111,
      "èĤ¤": 4112,
      "èĤĺ": 4113,
      "é«ĺäºİ": 4114,
      "é«ĺæ¸©": 4115,
      "æ¬º": 4116,
      "å¤ļä¸ª": 4117,
      "åºĶçº³ç¨İ": 4118,
      "æįķ": 4119,
      "æ¸¡": 4120,
      "æ´ĭ": 4121,
      "åĨħåĩºè¡Ģ": 4122,
      "åħ¬åħ±": 4123,
      "åħ¬å¸ĥ": 4124,
      "èĢħçļĦ": 4125,
      "è°Ĳ": 4126,
      "æĻ°": 4127,
      "äºĭæĥħ": 4128,
      "å¤©æ°Ķ": 4129,
      "2000": 4130,
      "éĩįéĩı": 4131,
      "ç¼ł": 4132,
      "ç»ĵè®º": 4133,
      "ç»ĵç®Ĺ": 4134,
      "å¹¶éĿŀ": 4135,
      "çĿ¡": 4136,
      "éĤ¢": 4137,
      "éĤª": 4138,
      "éĤĳ": 4139,
      "è·Į": 4140,
      "åŁºå±Ĥ": 4141,
      "æĪĳä»¬è¦ģ": 4142,
      "ç¬¬åħŃ": 4143,
      "æŃ¤åĲİ": 4144,
      "æŀľå®ŀ": 4145,
      "çķª": 4146,
      "çķħ": 4147,
      "æĽ´æĺ¯": 4148,
      "ç»Łæ²»": 4149,
      "åįģæľĪ": 4150,
      "ä½Ĩä¸į": 4151,
      "å½¢åĬ¿": 4152,
      "çī¹å®ļ": 4153,
      "çī¹åĪ¥": 4154,
      "æ¶µ": 4155,
      "åıĹä½ĵ": 4156,
      "èįĴ": 4157,
      "åŁŁçļĦ": 4158,
      "æ¡Ĩ": 4159,
      "ç¦Ģ": 4160,
      "æ²»åĽ½": 4161,
      "åľºæĻ¯": 4162,
      "åħĥçĪ¶": 4163,
      "è¯ģå®ŀ": 4164,
      "èĦ¾": 4165,
      "èĦĤ": 4166,
      "åĽĽå¹´": 4167,
      "å·¥ä½ľåİĭåĬĽ": 4168,
      "ä¸»ç®¡å¯¹": 4169,
      "ä¿¡æģ¯ç³»ç»Ł": 4170,
      "è°ĥæİ§": 4171,
      "çĪ¸": 4172,
      "ç²¾åĬĽ": 4173,
      "å²³": 4174,
      "è®°è½½": 4175,
      "ä¹¦ä¸Ń": 4176,
      "æĶ¾æĿ¾": 4177,
      "ä¼ĺçĤ¹": 4178,
      "æ»¤": 4179,
      "2014": 4180,
      "2015": 4181,
      "æķ´ä½ĵ": 4182,
      "æĺ¾çĦ¶": 4183,
      "éĴŁ": 4184,
      "åĬ©äºİ": 4185,
      "æ³¨å°Ħ": 4186,
      "çĽ´å¾Ħ": 4187,
      "åı¯èĥ½æĺ¯": 4188,
      "åĮĹæµ·": 4189,
      "çŃĸçķ¥": 4190,
      "å¸¦æľī": 4191,
      "å¸¦é¢Ĩ": 4192,
      "éļıæĹ¶": 4193,
      "å¾ģæ±Ĥ": 4194,
      "éĽĨä½ĵ": 4195,
      "çº¿è·¯": 4196,
      "åĳ½åĲį": 4197,
      "æ²¹æ°Ķ": 4198,
      "æ²¹çĶ»": 4199,
      "èĨ¨": 4200,
      "çĶŁæ´»ä¸Ń": 4201,
      "çĶŁæ´»æľįåĬ¡": 4202,
      "æ±īæľĿ": 4203,
      "åĨĽéĺŁ": 4204,
      "æ¢°": 4205,
      "æł¸å®ļ": 4206,
      "ç¤¼åĵģ": 4207,
      "æĻ¯åĮº": 4208,
      "éĻ¤äºĨ": 4209,
      "åĩłä¹İ": 4210,
      "è¿Ļæł·åģļ": 4211,
      "æĻ®éģį": 4212,
      "åŁºç¡Ģä¸Ĭ": 4213,
      "æ¶ĪçģŃ": 4214,
      "æĽ¾ç»ı": 4215,
      "æ´»åĬ¨ä¸Ń": 4216,
      "éĶĢéĩı": 4217,
      "å·²ç»ıå¾Ī": 4218,
      "åŃ©åŃĲçļĦ": 4219,
      "ä¸ĸçķĮä¸Ĭ": 4220,
      "èŀįåĲĪ": 4221,
      "ç®Ģä»ĭ": 4222,
      "åĳ¨æľŁ": 4223,
      "è£ħç®±": 4224,
      "ç¨İåĬ¡æľºåħ³": 4225,
      "ç»Īç«¯": 4226,
      "åĪĩéĻ¤": 4227,
      "2004": 4228,
      "2007": 4229,
      "æĺ¯åĲ¦éľĢè¦ģ": 4230,
      "åį°åĪ·ä¸ļ": 4231,
      "ç¬¬äºĮæµģä½ĵ": 4232,
      "è¿ŀç»Ń": 4233,
      "æģ¶æĢ§": 4234,
      "ç§ĳåŃ¦çļĦ": 4235,
      "ç§ĳåŃ¦æĬĢæľ¯": 4236,
      "ä¸Ģå®ļçļĦ": 4237,
      "æ²³æ´¥": 4238,
      "èĩªçĦ¶äºº": 4239,
      "éĺ¶çº§": 4240,
      "æŃ¦å¸Ŀ": 4241,
      "åı¦ä¸Ģæĸ¹éĿ¢": 4242,
      "ä¼łç»ŁçļĦ": 4243,
      "æĿ¡ä»¶ä¸ĭ": 4244,
      "é¡ºåºı": 4245,
      "éģĹäº§": 4246,
      "çºªå½ķ": 4247,
      "å¤©åı°å±±": 4248,
      "çĹĽèĭ¦": 4249,
      "å¤įæĿĤçļĦ": 4250,
      "çĽĳçĿ£ç®¡çĲĨ": 4251,
      "åħ¸åŀĭ": 4252,
      "éĥ¨å±ŀçļĦè¡¨çİ°": 4253,
      "igal": 4254,
      "åİĤåķĨ": 4255,
      "æŃ£ç¡®çļĦ": 4256,
      "åħ³æ³¨åĨħå®¹": 4257,
      "æľŁè´§å¸Ĥåľº": 4258,
      "é»ĳæ´ŀ": 4259,
      "åŃĶåŃĲ": 4260,
      "åĪ¤æĸŃ": 4261,
      "å¹¸ç¦ı": 4262,
      "éĵģè·¯": 4263,
      "éº»": 4264,
      "å¯»æī¾": 4265,
      "çĦ¦èĻĳ": 4266,
      "CPU": 4267,
      "å¦ĩå¥³": 4268,
      "çģĮé¡¶": 4269,
      "æĽ´å¥½åľ°": 4270,
      "éħ±é¦Ļ": 4271,
      "æ¨ªæ¶¨": 4272,
      "èĸªéĩĳæīĢå¾Ĺ": 4273,
      "é¤Ĳé¥®": 4274,
      "è´¡çĮ®": 4275,
      "å¤§å¤ļæķ°": 4276,
      "éĺħè¯»": 4277,
      "çĩĥæ²¹è½¦": 4278,
      "ä¸ŃåŃĲæĺŁ": 4279,
      "å¤ĸä¼¤æĢ§åĩºè¡Ģ": 4280,
      "Gonigal": 4281,
      "McGonigal": 4282,
      "110": 4283,
      "38": 4284,
      "52": 4285,
      "63": 4286,
      "69": 4287,
      "99": 4288,
      "CT": 4289,
      "DT": 4290,
      "TP": 4291,
      "ip": 4292,
      "oc": 4293,
      "os": 4294,
      "ter": 4295,
      "um": 4296,
      "us": 4297,
      "Ġ$": 4298,
      "Ġ5": 4299,
      "Ġåľ¨": 4300,
      "Ġåĳĺ": 4301,
      "Ġè¾ĵåĩº": 4302,
      "ĽçĽ": 4303,
      "ä¸²": 4304,
      "çļĦåŁºæľ¬": 4305,
      "çļĦéľĢæ±Ĥ": 4306,
      "çļĦçĲĨè®º": 4307,
      "çļĦæł¸å¿ĥ": 4308,
      "çļĦçĶŁçī©": 4309,
      "çļĦåħ·ä½ĵ": 4310,
      "åı¬": 4311,
      "æľµ": 4312,
      "åĪ¸": 4313,
      "åĬ«": 4314,
      "åĬĿ": 4315,
      "åĲĲ": 4316,
      "æĺ¯ä¸ª": 4317,
      "æĺ¯è¦ģ": 4318,
      "æĸ¥": 4319,
      "ä¸Ģä½ĵ": 4320,
      "ä¸ĢæĿ¡": 4321,
      "ä¸Ģåº§": 4322,
      "åŃ¢": 4323,
      "åŃ¤": 4324,
      "å°¾": 4325,
      "ä¼į": 4326,
      "äººæīį": 4327,
      "æī®": 4328,
      "æĿĨ": 4329,
      "ä¸įäºĨ": 4330,
      "ä¸įçĶ¨": 4331,
      "åľ¨ä¸į": 4332,
      "è¡°": 4333,
      "æľīåĪ©äºİ": 4334,
      "ä¸ºä¸ĭ": 4335,
      "å·¢": 4336,
      "éĢĨ": 4337,
      "åĩŃ": 4338,
      "èĢĲ": 4339,
      "åĨ¯": 4340,
      "æłı": 4341,
      "åĴĮåıĳå±ķ": 4342,
      "åĴĮè°Ĳ": 4343,
      "æĬĵ": 4344,
      "ä»¥ä¸º": 4345,
      "ä¸ªæľĪ": 4346,
      "çĶŁåŃĺ": 4347,
      "å¤§äºİ": 4348,
      "å¤§éĥ¨åĪĨ": 4349,
      "å¤§å°ĨåĨĽ": 4350,
      "çĶ¨è¯Ń": 4351,
      "èµ¶": 4352,
      "éĹ²": 4353,
      "å¹´é¾Ħ": 4354,
      "æİĺ": 4355,
      "å¯¹ä½ł": 4356,
      "ä¸Ĭä¸ĭ": 4357,
      "ä¼ļå°Ĩ": 4358,
      "çī¢": 4359,
      "éĻª": 4360,
      "æĪĲå°±": 4361,
      "æĪĲçĨŁ": 4362,
      "å¥¥": 4363,
      "é¢ľ": 4364,
      "åĩºè¡Į": 4365,
      "åĩºåı£": 4366,
      "æĸ¹åĽ¾": 4367,
      "æĪĳè®¤ä¸º": 4368,
      "æµħ": 4369,
      "ä½ľæĪĺ": 4370,
      "ï¼ļï¼Ī": 4371,
      "æ³ķåº¦": 4372,
      "ä¸»æĮģ": 4373,
      "äº§æĿĥ": 4374,
      "æĭĸ": 4375,
      "å¾Ĺä»¥": 4376,
      "ä¹Łèĥ½": 4377,
      "ä¹Łå°±": 4378,
      "ä¹Łè®¸": 4379,
      "åī§": 4380,
      "å®¶çļĦ": 4381,
      "èĢĮå·²": 4382,
      "åĮĸåŃ¦": 4383,
      "éĿ¢åĽ¾": 4384,
      "é«ĵ": 4385,
      "åĲĮå±ħ": 4386,
      "é«ĺæķĪ": 4387,
      "é«ĺçº§": 4388,
      "é«ĺå¾·": 4389,
      "ä¿¡ä»°": 4390,
      "çĤĴ": 4391,
      "åħ¨çľģ": 4392,
      "åĨħå¿ĥ": 4393,
      "åĨħå¤ĸ": 4394,
      "æıĲç¤º": 4395,
      "æĸ°é£İ": 4396,
      "æŁ´": 4397,
      "ä¸īè§Ĵ": 4398,
      "éķ¿çĽ¸æĢĿ": 4399,
      "çŁĽçĽ": 4400,
      "è°¨": 4401,
      "æĻĭ": 4402,
      "äºĭçī©": 4403,
      "å¿ĥèĤĮ": 4404,
      "å¿ĥçĽ®ä¸Ń": 4405,
      "åĬłå¤§": 4406,
      "åĬłä¸Ĭ": 4407,
      "å¤©çĦ¶": 4408,
      "å¤©çİĭ": 4409,
      "2020": 4410,
      "åĢ¾": 4411,
      "æĹłéĩı": 4412,
      "æŃ£åľ¨": 4413,
      "æĸĩçī©": 4414,
      "åı¯ä»¥åľ¨": 4415,
      "åı¯ä»¥è¯´": 4416,
      "çĽ¸åºĶçļĦ": 4417,
      "æ°´çļĦ": 4418,
      "å¤ĸåĩºè¡Ģ": 4419,
      "è¯´çļĦ": 4420,
      "ä¿ĿçķĻ": 4421,
      "ä¸Ģä¸ªäºº": 4422,
      "æ·¡": 4423,
      "çī©çļĦ": 4424,
      "ä½¿åħ¶": 4425,
      "éĤĢ": 4426,
      "åŁºåľ°": 4427,
      "åŁºéĩĳ": 4428,
      "éĽķ": 4429,
      "éħ¿": 4430,
      "æľįåĬ¡ä¸ļ": 4431,
      "å¹³éĿ¢åĽ¾": 4432,
      "æ°ĳä¸»": 4433,
      "çĶ±æŃ¤": 4434,
      "æĽ´å¤ļçļĦ": 4435,
      "åįģäºĶ": 4436,
      "ä½Ĩåľ¨": 4437,
      "éĶĤ": 4438,
      "éĶĭ": 4439,
      "åıĹçĲĨ": 4440,
      "è¿Ĳè´¹": 4441,
      "èį¡": 4442,
      "èĪŀ": 4443,
      "ä¸¤äºº": 4444,
      "ä½łä»¬": 4445,
      "æĢĿè·¯": 4446,
      "æĢ»æĺ¯": 4447,
      "ç«ĭåľº": 4448,
      "è¡ĢçĹĩ": 4449,
      "è¾ĥä¸º": 4450,
      "æĬ¥æ¡Ī": 4451,
      "åĲĦèĩª": 4452,
      "åĲĦé¡¹": 4453,
      "çģ¯": 4454,
      "æĹ¥è®°": 4455,
      "çĭ®": 4456,
      "èĬĤèĥ½": 4457,
      "å¸ĪçĶŁ": 4458,
      "æİ¥è¿ĳ": 4459,
      "çĶµè§Ĩ": 4460,
      "ä¸ĵéĹ¨": 4461,
      "é¢ĨåľŁ": 4462,
      "èĮħ": 4463,
      "è®©æĪĳä»¬": 4464,
      "æĶ¹è¿Ľ": 4465,
      "æĶ¾å¼ĥ": 4466,
      "åħ±æľī": 4467,
      "æĦŁåĪ°": 4468,
      "éĿŀæ³ķ": 4469,
      "é£Łåĵģè´¨éĩıå®īåħ¨": 4470,
      "ä¼ĺè´¨": 4471,
      "ä¼ĺæĥł": 4472,
      "2010": 4473,
      "ä¼łè¾ĵ": 4474,
      "æīįæĺ¯": 4475,
      "éĢīçļĦ": 4476,
      "çľŁçļĦ": 4477,
      "åĽłä¸ºä»ĸä»¬": 4478,
      "åįĩçº§": 4479,
      "çĽ´æĸ¹åĽ¾": 4480,
      "æĶ¯æĴĳ": 4481,
      "éħįåĲĪ": 4482,
      "197": 4483,
      "é¦ĸæ¬¡": 4484,
      "å¤ªæŀģ": 4485,
      "ä¼¤å®³": 4486,
      "èģĮèĥ½": 4487,
      "æıĲä¾ĽäºĨ": 4488,
      "è¿ĳå¹´æĿ¥": 4489,
      "çİĭæľĿ": 4490,
      "æ¢ħ": 4491,
      "ç¤¼è²Į": 4492,
      "çĻ½èī²": 4493,
      "é¢Ħæī£": 4494,
      "åįıåĬ©": 4495,
      "éĢĤåĲĪ": 4496,
      "è¾¹ç¼ĺ": 4497,
      "æ¶Īæģ¯": 4498,
      "åĪĹåħ¥": 4499,
      "æ»¡æĦı": 4500,
      "ä¿®æĶ¹": 4501,
      "åĳ¨è¾¹": 4502,
      "å·¥ç¨ĭå»ºè®¾": 4503,
      "ç¨İåĬ¡çŃĶ": 4504,
      "äºĳåı°": 4505,
      "ç¼ºçĤ¹": 4506,
      "æ¦ľ": 4507,
      "èĳ£": 4508,
      "çīĪæľ¬": 4509,
      "èī¯å¥½": 4510,
      "äººæ°ĳæ³ķéĻ¢": 4511,
      "åĮ»çĸĹä¿Ŀéļľ": 4512,
      "æ½ľæ·±": 4513,
      "åħħçĶµ": 4514,
      "åį°åĪ·è¡Įä¸ļ": 4515,
      "æĻ®éĢļäºº": 4516,
      "æŃ£ä¹īçļĦ": 4517,
      "æĭĽæĬķæłĩç®¡çĲĨ": 4518,
      "æĬĹçĸ«": 4519,
      "ç»¼åĲĪå¾ģ": 4520,
      "ç»¼åĲĪä¿¡æģ¯æľįåĬ¡": 4521,
      "æİ¢è®¨": 4522,
      "æ¿Ģç´ł": 4523,
      "çĮľ": 4524,
      "æĢİæł·": 4525,
      "åĬ¨åĬĽè®¾å¤ĩ": 4526,
      "æ¦Ĥæĭ¬": 4527,
      "è¯Ńè¨ĢåŃ¦ä¹ł": 4528,
      "èĮĥåĽ´åĨħ": 4529,
      "æī©å¼ł": 4530,
      "èĪªéĢŁ": 4531,
      "ä¸Ńå¿ĥç®¡": 4532,
      "åĿıæŃ»": 4533,
      "äºĮåįģåĽĽ": 4534,
      "åĪ¶å®ļäºĨ": 4535,
      "éļľç¢į": 4536,
      "æ°¸è¿ľ": 4537,
      "å¼ŁåŃĲ": 4538,
      "éĿĴé»Ħ": 4539,
      "èĸĦ": 4540,
      "åį±æľº": 4541,
      "åį±å®³": 4542,
      "æľĢå¤§æ½ľæ·±": 4543,
      "ç§»åĬ¨äºĴèģĶç½ĳ": 4544,
      "æľĭåıĭåľĪ": 4545,
      "....": 4546,
      "GBDT": 4547,
      "æķıæĦŁ": 4548,
      "âĢ¦âĢ¦âĢĿ": 4549,
      "åŃĲå®«ä¸ŃéļĶ": 4550,
      "çļĦè¡Įä¸ºæĺ¯": 4551,
      "åľĨå½¢": 4552,
      "æīĢè¿°ç¬¬äºĮéļĶæĿ¿": 4553,
      "èĭ±åĽ½": 4554,
      "å°Ĭéĩį": 4555,
      "çľŁæŃ£çļĦ": 4556,
      "æ¤įçī©": 4557,
      "åľĪå¤ĸ": 4558,
      "æĬĽç§§": 4559,
      "äºĭå®ŀä¸Ĭ": 4560,
      "ell": 4561,
      "é¸¡": 4562,
      "å®ıè§Ĥ": 4563,
      "ç£ģ": 4564,
      "è´ŁéĿ¢æ¸ħåįķ": 4565,
      "www": 4566,
      "åĿ¦è¯ļ": 4567,
      "åħ¬åĬ¡åĳĺ": 4568,
      "ç¦ıå»ºç¨İåĬ¡çŃĶ": 4569,
      "å³»": 4570,
      "å¿½è§Ĩ": 4571,
      "å°ºå¯¸": 4572,
      "ä¼Łå¤§æ¢¦æĥ³çļĦ": 4573,
      "ä¸Ģæ¬¡æĢ§å¥ĸéĩĳ": 4574,
      "ä¸»ä½ĵå°ºå¯¸": 4575,
      "å¼łå®¶åı£åł¡": 4576,
      "ä»²è£ģ": 4577,
      "å·©åĽº": 4578,
      "ç¼ºè¡ĢæĢ§": 4579,
      "MRI": 4580,
      "æ±ĹåĽ½": 4581,
      "å¸ĤåľºåĩĨåħ¥åĪ¶åº¦": 4582,
      "è¯ĪéªĹ": 4583,
      "æ¸ĹéĢı": 4584,
      "åħ¨å¹´ä¸Ģæ¬¡æĢ§å¥ĸéĩĳ": 4585,
      "èĤ¡éª¨å¤´": 4586,
      "LBS": 4587,
      "çŁĽçĽ¾": 4588,
      "220": 4589,
      "44": 4590,
      "54": 4591,
      "57": 4592,
      "BC": 4593,
      "Br": 4594,
      "DSP": 4595,
      "ET": 4596,
      "NA": 4597,
      "as": 4598,
      "ir": 4599,
      "ma": 4600,
      "tion": 4601,
      "«æŃ£": 4602,
      "âĹ": 4603,
      "âĺ": 4604,
      "è¹": 4605,
      "èĶ": 4606,
      "Ġ.": 4607,
      "ĠåĴĮ": 4608,
      "Ġåįıè®®": 4609,
      "Ġé«ĺåı¥ä¸½": 4610,
      "ĥèº«ä¸Ń": 4611,
      "ä¸¢": 4612,
      "ï¼ĮãĢĬ": 4613,
      "ãĢī": 4614,
      "çļĦä¸į": 4615,
      "çļĦä¸ŃåĽ½": 4616,
      "çļĦç»ıæµİ": 4617,
      "çļĦè¡¨çİ°": 4618,
      "çļĦä¸įåĲĮ": 4619,
      "çļĦä½ľçĶ¨": 4620,
      "çļĦåİĨåı²": 4621,
      "çļĦæłĩåĩĨ": 4622,
      "çļĦåĬ¨åĬĽ": 4623,
      "çļĦçĭ¬çĶŁåŃĲå¥³": 4624,
      "çļĦæĢģåº¦": 4625,
      "æľĹ": 4626,
      "çĶľ": 4627,
      "æĺ¯ä¸į": 4628,
      "æĺ¯ä»İ": 4629,
      "æĸľ": 4630,
      "ä¸Ģä»£": 4631,
      "ä¸Ģé¡¹": 4632,
      "ä¸Ģæ®µ": 4633,
      "å°¿": 4634,
      "ä¼¯": 4635,
      "äººå·¥": 4636,
      "ä¸įå¼Ģ": 4637,
      "ä¸įå±ŀäºİ": 4638,
      "ä¸įäºĨè§£": 4639,
      "åľ¨ä¸ŃåĽ½": 4640,
      "åľ¨è¿ĻéĩĮ": 4641,
      "åľ¨éĿ¢å¯¹": 4642,
      "æľīåĬ©äºİ": 4643,
      "å¾Ĳ": 4644,
      "ä¸ºä¸Ĭ": 4645,
      "è´¾": 4646,
      "ä¸Ńç©ºçº¤ç»´": 4647,
      "å¼ĺ": 4648,
      "èĥĢ": 4649,
      "éĢĥ": 4650,
      "æķ·": 4651,
      "åĮ¹": 4652,
      "åĮł": 4653,
      "èĢĢ": 4654,
      "åĨ»": 4655,
      "æłĵ": 4656,
      "æĬ«": 4657,
      "æĬ¬": 4658,
      "åĽ½æ¸ħ": 4659,
      "èĥ½éĩı": 4660,
      "å¤§çº¦": 4661,
      "æ°§": 4662,
      "æ°ı": 4663,
      "çĶ¨çļĦ": 4664,
      "çĶ¨äºĨ": 4665,
      "çĶ¨æĦı": 4666,
      "è¿Ļä¹Ī": 4667,
      "è¿Ļåı¥è¯Ŀ": 4668,
      "èµĭ": 4669,
      "å¿Ļ": 4670,
      "åİĮ": 4671,
      "å¹´å¼Ģå§ĭ": 4672,
      "å¹´åºķ": 4673,
      "å¯¹äºº": 4674,
      "å¯¹ç«ĭ": 4675,
      "ä¸Ĭæĺ¯": 4676,
      "ä¸Ĭéĥ¨": 4677,
      "ä¸Ĭåı¸": 4678,
      "ä¼ļåľ¨": 4679,
      "åŃ¦èĢħ": 4680,
      "æĪĲç»©": 4681,
      "æĪĲä¹ŁèĲ§ä½ķ": 4682,
      "å¥ł": 4683,
      "é¢Ĺ": 4684,
      "åĩºåı°": 4685,
      "æµĻ": 4686,
      "æµĥèº«ä¸Ń": 4687,
      "åĪĨåī²": 4688,
      "èĩªè§ī": 4689,
      "åĬĽåº¦": 4690,
      "æ³ķå®ļ": 4691,
      "æ³ķè§Ħ": 4692,
      "è½¨": 4693,
      "å°±å¼Ģå§ĭ": 4694,
      "çİ°åľº": 4695,
      "ä¸ĭæµĥèº«ä¸Ń": 4696,
      "åĲİæľŁ": 4697,
      "å®ŀè®Ń": 4698,
      "ä¹Łå°Ĩ": 4699,
      "ä»ĸå¯¹": 4700,
      "å®¶åĽŃ": 4701,
      "åŃĲéĩĮ": 4702,
      "åĬ¨èĦī": 4703,
      "åĲĪæł¼": 4704,
      "èĤ¢": 4705,
      "æľ¬æĸĩ": 4706,
      "æľ¬åįķä½į": 4707,
      "åħ¶åĲİ": 4708,
      "åħ¶æ¬¡": 4709,
      "ï¼īï¼Ľ": 4710,
      "æıŃ": 4711,
      "é«ĺæł¡": 4712,
      "é«ĺç¥ĸ": 4713,
      "èī³": 4714,
      "çŃīæĸ¹éĿ¢": 4715,
      "ä¿¡çĶ¨": 4716,
      "ä¿¡è´·": 4717,
      "ä½ĵåĪ¶": 4718,
      "æģ¼": 4719,
      "éĺģ": 4720,
      "æıĲåıĸ": 4721,
      "åĿĽ": 4722,
      "åħ¬æŃ£": 4723,
      "ä¸īå¤©": 4724,
      "ä¸īåŃ©": 4725,
      "æľºåĻ¨": 4726,
      "æľºæ¢°": 4727,
      "ä½įçļĦ": 4728,
      "çŁ«æŃ£": 4729,
      "è°¦": 4730,
      "è°·": 4731,
      "äºĭæĿĥ": 4732,
      "éĥ½åŁİ": 4733,
      "å¿ĥæĢģ": 4734,
      "åĬłåħ¥": 4735,
      "æĶ¿æĿĥ": 4736,
      "å¤©ä¹ĭæ°Ķ": 4737,
      "2035": 4738,
      "è®¾å®ļ": 4739,
      "åĢĴ": 4740,
      "æĹłäº§": 4741,
      "æĹłåģ¿": 4742,
      "æŃ£éĿ¢": 4743,
      "ç»ĵåľ¨": 4744,
      "å¢¨": 4745,
      "ç¡ķ": 4746,
      "äºĮèĥİ": 4747,
      "ãĢĭãĢģ": 4748,
      "éľŀ": 4749,
      "çī©æĸĻ": 4750,
      "éĤ»": 4751,
      "èģĺ": 4752,
      "èĬ¯": 4753,
      "è·³": 4754,
      "è·ĳ": 4755,
      "åŁºéĥ¨": 4756,
      "éģĵå¯¼å¼¹": 4757,
      "ä»£çĲĨ": 4758,
      "ä»£ä»·": 4759,
      "ä»£åı·": 4760,
      "æĽ´å®¹æĺĵ": 4761,
      "æ¬¡æĢĿ": 4762,
      "åįģä¸Ģ": 4763,
      "æµģéĢļéģĵ": 4764,
      "å½¢è±¡": 4765,
      "å®īè£ħ": 4766,
      "çī¹å¼Ĥ": 4767,
      "æľĪçĶŁ": 4768,
      "è¿Ĳä½ľ": 4769,
      "åıĸæ¶Ī": 4770,
      "èį·": 4771,
      "æĬĢå·§": 4772,
      "ä¸¤åĽ½": 4773,
      "æĥ³è¦ģ": 4774,
      "å¾Īå¥½": 4775,
      "æĶ¶è´Ń": 4776,
      "æĢ»éĩı": 4777,
      "ä¸ªäººæĪĲéķ¿": 4778,
      "ç¡®ç«ĭ": 4779,
      "è¾ĥå¼º": 4780,
      "åĲĦéĥ¨éĹ¨": 4781,
      "åıĺä¸º": 4782,
      "åĮºéĹ´": 4783,
      "è®¤å®ļ": 4784,
      "æ®ĸ": 4785,
      "æİ¥æĶ¶": 4786,
      "æİ¥åı£": 4787,
      "åĪĻåıĹ": 4788,
      "é¦Ĩ": 4789,
      "æ¸ħæĻ°": 4790,
      "é¢ĨåħĪ": 4791,
      "ä»ĸä»¬ä¼ļ": 4792,
      "èĮİ": 4793,
      "åĩĨåĪĻ": 4794,
      "ç¾İäºº": 4795,
      "è®©ä½ł": 4796,
      "æ£®": 4797,
      "è£ĺ": 4798,
      "åħ±è¯Ĩ": 4799,
      "åħ±äº«": 4800,
      "ä¹łä¿Ĺ": 4801,
      "åŃĹèĬĤ": 4802,
      "éĿŀæļ´åĬĽ": 4803,
      "åĽŀèĲ½": 4804,
      "åĽŀå¿Ĩ": 4805,
      "ä¼ĺåħĪ": 4806,
      "ä¼ĺéĢīçļĦ": 4807,
      "æ»´": 4808,
      "2013": 4809,
      "éĻħåħ³ç³»": 4810,
      "åıįé¦Ī": 4811,
      "ç»ıæµİå¢ŀéķ¿": 4812,
      "ä½İç¢": 4813,
      "å¤įåħ´": 4814,
      "æİ¨è¡Į": 4815,
      "æİ¨åĩº": 4816,
      "æİ¨å¹¿": 4817,
      "åı·çłģ": 4818,
      "æµ·åįĹ": 4819,
      "éªĮè¯ģ": 4820,
      "äºĴåĬ¨": 4821,
      "æĶ¯åĩº": 4822,
      "çĥ¦": 4823,
      "åŁŁåĲįåĴĮ": 4824,
      "åĪ«äºº": 4825,
      "èĲ¥éĶĢ": 4826,
      "éļıæľº": 4827,
      "ä¾¿æ°ĳ": 4828,
      "èģĮåĬ¡": 4829,
      "èģĮè´£": 4830,
      "éĽĨæĪĲ": 4831,
      "è¿ľç¨ĭ": 4832,
      "è¿ľå¾ģ": 4833,
      "å¹¿æĴŃ": 4834,
      "çľģçº§": 4835,
      "æ½ĺ": 4836,
      "å¸ĿåĲĽ": 4837,
      "åħĭæľį": 4838,
      "æ£Ģçĸ«": 4839,
      "ä»Ģä¹Īæĺ¯": 4840,
      "èŀº": 4841,
      "åĩłåįģ": 4842,
      "é¢Ħç®Ĺ": 4843,
      "åįıä½ľ": 4844,
      "æ´»åĬ¨çļĦ": 4845,
      "æıĲé«ĺäºĨ": 4846,
      "ä¿®åħ»": 4847,
      "åĩºçİ°äºĨ": 4848,
      "åĳ¨åĽ´": 4849,
      "æŁĲäºĽ": 4850,
      "å¤«ä½Ļ": 4851,
      "æī¿è®¤": 4852,
      "è£ħå¤ĩ": 4853,
      "å²ģä¹ĭåīį": 4854,
      "äº§çĶŁäºĨ": 4855,
      "ç¼ºéĻ·": 4856,
      "çĽ¸åħ³çļĦ": 4857,
      "è¾ĵåħ¥": 4858,
      "çīĪéĿ¢": 4859,
      "éĺ²æ²»": 4860,
      "2005": 4861,
      "çĽĺç®¡": 4862,
      "è´¥ä¹ŁèĲ§ä½ķ": 4863,
      "æīĢæľīçļĦ": 4864,
      "æīĢæľīäºº": 4865,
      "è¿Ļä¸ĢçĤ¹": 4866,
      "æī§æĶ¿": 4867,
      "åį°åĪ·ä¼ģä¸ļ": 4868,
      "æĸĩåĮĸçļĦ": 4869,
      "ç¼ĸç»ĩ": 4870,
      "ç¼ĸçłģ": 4871,
      "å°½ç®¡": 4872,
      "éĢłæĪĲçļĦ": 4873,
      "ä¸Ģå®ļè¦ģ": 4874,
      "æĹ©æľŁ": 4875,
      "å®¶åºŃç»ıæµİ": 4876,
      "äº²å±ŀ": 4877,
      "æī¹åĩĨ": 4878,
      "å¼¹éģĵå¯¼å¼¹": 4879,
      "å¥ĸåĬ±": 4880,
      "æĲº": 4881,
      "çĮİ": 4882,
      "æ¹¾": 4883,
      "çİ°åľ¨çļĦ": 4884,
      "ä»»åĬ¡ä¸Ģ": 4885,
      "ä»»åĬ¡äºĮ": 4886,
      "çļ®èĤ¤": 4887,
      "åĬ³åĬ¨èĢħ": 4888,
      "åĬ³åĬ¨äºīè®®": 4889,
      "éĢĢåĩº": 4890,
      "äº§ä¸ļéĵ¾": 4891,
      "æĿİæŁĲ": 4892,
      "æ·ĭå·´ç®¡": 4893,
      "ç»§æī¿": 4894,
      "äº«åıĹ": 4895,
      "åĵªéĩĮ": 4896,
      "è¡£ä¹Ŀèī²": 4897,
      "ç¼©åĨĻ": 4898,
      "äº¿ç¾İåħĥ": 4899,
      "æĽ²çº¿": 4900,
      "âĳł": 4901,
      "æī£éĻ¤": 4902,
      "å®ļçĤ¹éĽ¶åĶ®èį¯åºĹ": 4903,
      "æĢĿæĥ³è·¯çº¿": 4904,
      "è¯¸å¤ļ": 4905,
      "æŁ¥è¯¢æĬ¥æĸĩ": 4906,
      "1999": 4907,
      "æĢ¥æĢ§": 4908,
      "æŃ£ç¡®çļĦæĺ¯": 4909,
      "åĽ½å®¶ç¨İåĬ¡æĢ»å±ĢçŃĶ": 4910,
      "éĻĦè¿ĳ": 4911,
      "éĤ£äºĽåĸĦèī¯": 4912,
      "ent": 4913,
      "èĽĶ": 4914,
      "æľĢå¤§åĮĸ": 4915,
      "æľŁè´§æĬķèµĦ": 4916,
      "GBM": 4917,
      "å®£å¸ĥ": 4918,
      "æī¶è´«": 4919,
      "è®¤è¯ĨåĪ°": 4920,
      "èĤ¾éĿĻèĦī": 4921,
      "ç¬¬ä¸īæĸ¹": 4922,
      "æŃ¤ç§įçĹĩåĢĻç¾¤": 4923,
      "å¤±çĭ¬å®¶åºŃ": 4924,
      "åĲĥæ°´": 4925,
      "éĢıæĺİ": 4926,
      "åŃĲå®«èħĶ": 4927,
      "æ£ĢéªĮæ£Ģçĸ«": 4928,
      "çļĦåŁºç¡Ģä¸Ĭ": 4929,
      "éĽĦé»Ħ": 4930,
      "èħ¹éĥ¨": 4931,
      "ç½ļæ¬¾": 4932,
      "éĺ¿éĩĮ": 4933,
      "éģµå®Ī": 4934,
      "æĸĩä»¶ä¾Ŀæį®": 4935,
      "ç£¨": 4936,
      "é¼ĵåĬ±": 4937,
      "è¾½ä¸ľéĥ¡": 4938,
      "æľīéĻĲåħ¬åı¸": 4939,
      "è´¢æĶ¿éĥ¨ç¨İåĬ¡æĢ»å±Ģ": 4940,
      "å¤±åİ»äºĨ": 4941,
      "é±¼éĽ·åıĳå°Ħç®¡": 4942,
      "æ¯«ç±³é±¼éĽ·åıĳå°Ħç®¡": 4943,
      "éĢĶå¾Ħ": 4944,
      "æŀ¶æŀĦ": 4945,
      "èĪ°å¯¼å¼¹": 4946,
      "åĬŀåħ¬å®¤": 4947,
      "è´«åĽ°æĪ·": 4948,
      "èĻļæĭŁæł·æľº": 4949,
      "éĺ³åħīæĶ¿åĬ¡ä¿¡æģ¯æľįåĬ¡": 4950,
      "è¯±æĥĳ": 4951,
      "å¸¸è§ĦåĬ¨åĬĽ": 4952,
      "æ¼ıæ´ŀ": 4953,
      "è¸ª": 4954,
      "æ¬§æ´²": 4955,
      "å¿ĥçģµçļĦç»¿èī²": 4956,
      "çĥŁåı°": 4957,
      "èĤ¡æĿĥè½¬è®©æĶ¶åħ¥": 4958,
      "åħĦå¼Ł": 4959,
      "åķĨåĬ¡æ´»åĬ¨": 4960,
      "æĴ°åĨĻ": 4961,
      "ç¥ĿæĽ°": 4962,
      "LightGBM": 4963,
      "æīŃæĽ²": 4964,
      "ä¸ºä¸ŃèĬĤ": 4965,
      "å¤©æ°Ķä¸ĭæµĥèº«ä¸Ń": 4966,
      "å¾ģæ±ĤæĦıè§ģ": 4967,
      "å·²ç»ıå¾Īæ¸ħæ¥ļäºĨ": 4968,
      "çºªå½ķçīĩ": 4969,
      "æŁ´æ²¹": 4970,
      "ç»¼åĲĪä¿¡æģ¯æľįåĬ¡å¹³åı°": 4971,
      "çļĦè¡Įä¸ºæĺ¯äººä¸ºçļĦ": 4972,
      "âĺħ": 4973,
      "ä½İç¢³": 4974,
      "éĤ£äºĽåĸĦèī¯çļĦè¡Įä¸ºæĺ¯äººä¸ºçļĦ": 4975,
      "29": 4976,
      "31": 4977,
      "41": 4978,
      "48": 4979,
      "68": 4980,
      "94": 4981,
      "DG": 4982,
      "FDG": 4983,
      "Mac": 4984,
      "PD": 4985,
      "SC": 4986,
      "ce": 4987,
      "fe": 4988,
      "fig": 4989,
      "gt": 4990,
      "ia": 4991,
      "le": 4992,
      "lt": 4993,
      "ng": 4994,
      "qs": 4995,
      "¦å¯Ł": 4996,
      "©é½¿": 4997,
      "±ä¹Ĳ": 4998,
      "»è¾ĳ": 4999,
      "Âł": 5000,
      "æ¾": 5001,
      "èķ": 5002,
      "èľ": 5003,
      "Ġ3": 5004,
      "Ġ8": 5005,
      "ĠãĢģ": 5006,
      "Ġä¸Ń": 5007,
      "Ġå¯¹": 5008,
      "ĠãĢĬ": 5009,
      "Ġå·¥ä½ľ": 5010,
      "Ġ13": 5011,
      "Ġwww": 5012,
      "Ķç»Ĩ": 5013,
      "ĺæ±": 5014,
      "ä¸ģ": 5015,
      "ä¸Ī": 5016,
      "ä¸ĺ": 5017,
      "çļĦæľī": 5018,
      "çļĦå®ŀ": 5019,
      "çļĦä¿¡æģ¯": 5020,
      "çļĦç¾İ": 5021,
      "çļĦæĹ¶éĹ´": 5022,
      "çļĦåĬŁèĥ½": 5023,
      "çļĦåŃ©åŃĲ": 5024,
      "çļĦæķ°æį®": 5025,
      "çļĦæĶ¶åħ¥": 5026,
      "çļĦç²¾ç¥ŀ": 5027,
      "çļĦçĽ®æłĩ": 5028,
      "çļĦä»·åĢ¼": 5029,
      "çļĦå½¢å¼ı": 5030,
      "çļĦä¸ľè¥¿": 5031,
      "äº©": 5032,
      "åı¹": 5033,
      "åı©é½¿": 5034,
      "ãĢĤ(": 5035,
      "æľ´": 5036,
      "ä»Ķç»Ĩ": 5037,
      "ä½Ĳ": 5038,
      "æĺĮ": 5039,
      "ç»µ": 5040,
      "æĺ¯ä¸įæĺ¯": 5041,
      "ä¸ĢçĶŁ": 5042,
      "æĹ±": 5043,
      "æĹĹ": 5044,
      "äººå¿ĥ": 5045,
      "æīĳ": 5046,
      "ä¸įå¦Ĥ": 5047,
      "ä¸įå¥½": 5048,
      "ä¸įæĺİ": 5049,
      "ä¸įèµ·": 5050,
      "ä¸įåĿĩ": 5051,
      "ä¸įåŃķ": 5052,
      "åľ¨è¿Ļä¸ª": 5053,
      "æľīåºı": 5054,
      "æľīè¶£": 5055,
      "å¾µ": 5056,
      "ä¸ºäºº": 5057,
      "ä¸Ńæľī": 5058,
      "ä¸Ńéĥ¨": 5059,
      "ä¸Ńæłĩ": 5060,
      "ä¸ŃéĹ´": 5061,
      "ä¸Ńå±±": 5062,
      "å¼Ĺ": 5063,
      "èĥ°": 5064,
      "éĢ»è¾ĳ": 5065,
      "åĴĮå·¥ä½ľ": 5066,
      "åĴĮåħ¶ä»ĸ": 5067,
      "çĽ¡": 5068,
      "ä»¥ä¸ĬçļĦ": 5069,
      "ä¸ªæĢ§": 5070,
      "æ³¼": 5071,
      "å½¹": 5072,
      "å¤§åĽ½": 5073,
      "å¤§é¼ł": 5074,
      "æ°¨": 5075,
      "åİħ": 5076,
      "å¹´åīį": 5077,
      "åıĳåĬ¨æľº": 5078,
      "å¯¹åºĶçļĦ": 5079,
      "ä¸Ĭä¸Ģ": 5080,
      "ä¸ĬåĮĸ": 5081,
      "åŁĭ": 5082,
      "ä¼ļè°Ī": 5083,
      "åŃ¦çłĶç©¶": 5084,
      "çīĽ": 5085,
      "å¥Ī": 5086,
      "è¾¨": 5087,
      "åĩºçĶŁ": 5088,
      "åĩºäºİ": 5089,
      "åĩºåİĤ": 5090,
      "æĪĳå¯¹": 5091,
      "æĪĳèº«": 5092,
      "æµĩ": 5093,
      "èĩªæ²»": 5094,
      "åĬĽåĴĮ": 5095,
      "ä¸»äººçļĦ": 5096,
      "å°±ä¸įèĥ½": 5097,
      "éĥ¨æĹı": 5098,
      "å¦¨": 5099,
      "å¦¹": 5100,
      "åĪ°çļĦ": 5101,
      "åĪ°åºķ": 5102,
      "åĪ°æľĭåıĭåľĪ": 5103,
      "æĭ£": 5104,
      "ä¹ĭä¸ĭ": 5105,
      "å¾Ĺå¤ļ": 5106,
      "ä¸İåħ¶": 5107,
      "ä¸İæŃ¤": 5108,
      "ä¹Łåľ¨": 5109,
      "ä¹Łåı¯": 5110,
      "ä¹Łä¸įèĥ½": 5111,
      "åīª": 5112,
      "è¿ĩå¤§": 5113,
      "èĢĮçĶŁ": 5114,
      "åĮĸéĶĤ": 5115,
      "è¿Ľå±ķ": 5116,
      "è¿Ľè´¤": 5117,
      "åĲĪä¹İ": 5118,
      "èĤ½": 5119,
      "èĤĥ": 5120,
      "èĤĸ": 5121,
      "æľ¬äºº": 5122,
      "æľ¬æĿ¥": 5123,
      "æı´": 5124,
      "å¤ļæł·": 5125,
      "ä¿¡ä»»": 5126,
      "ä½ĵä¼ļ": 5127,
      "ä½ĵçİ°": 5128,
      "æ´ª": 5129,
      "ç³Ĭ": 5130,
      "å»·": 5131,
      "éļĨ": 5132,
      "æŁĦ": 5133,
      "éĩıåĮĸ": 5134,
      "å°ıçļĦ": 5135,
      "å°ıäºº": 5136,
      "å°ıç»Ħ": 5137,
      "å°ıè´·": 5138,
      "æľºåľº": 5139,
      "æľºéģĩ": 5140,
      "æłĩè¯Ĩ": 5141,
      "æłĩçŃ¾": 5142,
      "çŁ£": 5143,
      "è°±": 5144,
      "æĪĸæĺ¯": 5145,
      "åĬłçĥŃ": 5146,
      "çĤ¹åĩ»": 5147,
      "å¤©ä½ĵ": 5148,
      "æľĢåĪĿ": 5149,
      "æĹłæ¯Ľ": 5150,
      "å½ĵä»Ĭ": 5151,
      "æķ°åŃ¦": 5152,
      "çĽ¸ç»ĵåĲĪ": 5153,
      "ç¨İæ¬¾": 5154,
      "ç©Ĩ": 5155,
      "æľįä»İ": 5156,
      "åĪ©æģ¯": 5157,
      "äºĮåŃ©": 5158,
      "å¤ĸè§Ĥ": 5159,
      "å°Ĩæĸĩç«ł": 5160,
      "æĺİç»Ĩ": 5161,
      "æ·®": 5162,
      "æ·ĺæ±": 5163,
      "æĪĳä»¬å¿ħé¡»": 5164,
      "è§Ħéģ¿": 5165,
      "ç¬¬ä¸Ģä¸ª": 5166,
      "èĲ¨": 5167,
      "éĽª": 5168,
      "æ¯Ķä¸ĬæľĪ": 5169,
      "ç²®": 5170,
      "æľįåĬ¡å¹³åı°": 5171,
      "ä»£ç¼´": 5172,
      "ä»£çłģ": 5173,
      "ä»£æī£": 5174,
      "æ°ĳçĶ¨": 5175,
      "éĹ®åį·": 5176,
      "æĽ´å¥½çļĦ": 5177,
      "ç»ŁçŃ¹": 5178,
      "æµģåĬ¨": 5179,
      "å¼ıçļĦ": 5180,
      "è¿ĺåı¯ä»¥": 5181,
      "ç¤¾åĮº": 5182,
      "æľ¯åĲİ": 5183,
      "ä½ĨæĪĳä»¬": 5184,
      "å½¢æĪĸ": 5185,
      "å®īå®ļ": 5186,
      "å¯¼æ¼Ķ": 5187,
      "éĩĳå±ŀ": 5188,
      "åĻ¬": 5189,
      "è¢ĸ": 5190,
      "èį§": 5191,
      "åı°éķĩ": 5192,
      "è½¦è½½": 5193,
      "ä¸¤ä¾§": 5194,
      "å¼ºå¤§": 5195,
      "å¼ºå¤§çļĦ": 5196,
      "æĮĩæłĩ": 5197,
      "ä½łèĩªå·±": 5198,
      "çŁ¥åİ¿": 5199,
      "ï¼ŁâĢĿ": 5200,
      "æ²»å¤©": 5201,
      "æ²»åħļ": 5202,
      "æĶ¶éĽĨ": 5203,
      "æĢ»é¢Ŀ": 5204,
      "ä¸ªäººä¿¡æģ¯": 5205,
      "è¾ĥé«ĺ": 5206,
      "æĬ¥éħ¬": 5207,
      "æīĢå¾Ĺé¢Ŀ": 5208,
      "çĭŃ": 5209,
      "åĮ»åŃ¦": 5210,
      "è°ĥåº¦": 5211,
      "æķĪçĽĬ": 5212,
      "çº§å¸¸è§ĦåĬ¨åĬĽ": 5213,
      "çĶŁäº§åĬĽ": 5214,
      "äº¤äºĴ": 5215,
      "å®ĥæĺ¯": 5216,
      "çĬ¹": 5217,
      "çĶµèĦĳ": 5218,
      "å¤´ä¸Ĭ": 5219,
      "èĩ³äºİ": 5220,
      "åĽ¾æ¡Ī": 5221,
      "é¢Ĩè¢ĸ": 5222,
      "ç²¾åĩĨ": 5223,
      "èĮĤ": 5224,
      "çİĩä¸º": 5225,
      "è®°èĢħ": 5226,
      "åĪĽä½ľ": 5227,
      "åĪĽå»º": 5228,
      "åĪĽä¼¤": 5229,
      "æĶ¾å®½": 5230,
      "åı¸æ³ķ": 5231,
      "å¤ĩå¼¹": 5232,
      "æĬĢæľ¯æĪĲæŀľ": 5233,
      "æĬĢæľ¯è·¯çº¿": 5234,
      "éĿŀæ´²": 5235,
      "åŁİä¹¡": 5236,
      "åĽŀæĿ¥": 5237,
      "åĽŀåĪ°": 5238,
      "åĽŀæĬ¥": 5239,
      "èħ¿": 5240,
      "çĻ¾ç§ĳ": 5241,
      "æł¼å±Ģ": 5242,
      "æīįä¼ļ": 5243,
      "æĺ¾å¾Ĺ": 5244,
      "ç»ıæµİåıĳå±ķ": 5245,
      "è¥¿æ±ī": 5246,
      "ä½İäºİ": 5247,
      "æĪĺæĸĹ": 5248,
      "å¼ķé¢Ĩ": 5249,
      "æµ·åĨĽ": 5250,
      "ä¸»è¦ģæľī": 5251,
      "åıĪæĢĿ": 5252,
      "åı¯èĥ½æĢ§": 5253,
      "è±¡å¾ģ": 5254,
      "ä¾Ŀæ¬¡": 5255,
      "çĥ§": 5256,
      "è¡¨çİ°ä¸º": 5257,
      "ç¾¤ä½ĵ": 5258,
      "æĸ½è¡Į": 5259,
      "åŁŁåĲįè§£æŀĲ": 5260,
      "éļıæĦı": 5261,
      "å¤ªå¤ļ": 5262,
      "å¤ªéĺ³": 5263,
      "å¤ªå®Ī": 5264,
      "åį³ä¾¿": 5265,
      "ä¾¿äºİ": 5266,
      "çİ¯å¢ĥçļĦ": 5267,
      "å¾ģä¸ªäººæīĢå¾Ĺç¨İ": 5268,
      "å®ŀçİ°çļĦ": 5269,
      "åĳ½è¿Ĳ": 5270,
      "çİĭçļĦ": 5271,
      "å¸ĤåľºçļĦ": 5272,
      "å¸Ĥåľºç»ıæµİ": 5273,
      "è§Ĩè§ī": 5274,
      "å¹¿åĳĬ": 5275,
      "æ¢¢": 5276,
      "æİĴåįµ": 5277,
      "åİĭè¿«": 5278,
      "åį°åº¦": 5279,
      "åį°è±¡": 5280,
      "è´Łæĭħ": 5281,
      "æĻ¯çĤ¹": 5282,
      "é»Ħèī²": 5283,
      "å¹²çĽĺç®¡": 5284,
      "é¢Ħç¼´": 5285,
      "ä¸¥åİī": 5286,
      "æĴŀ": 5287,
      "æĬķæłĩäºº": 5288,
      "æĬķæłĩåįķä½į": 5289,
      "æ»¡è¯Ń": 5290,
      "å¨±ä¹Ĳ": 5291,
      "åħŃå¹´": 5292,
      "æļĸ": 5293,
      "åĩºçİ°åľ¨": 5294,
      "ä¸ªäººæīĢå¾Ĺç¨İæ³ķ": 5295,
      "çĶ»çĶ»": 5296,
      "è¶³å¤Ł": 5297,
      "åı¤æ±īè¯Ń": 5298,
      "åĲ¦åĪĻ": 5299,
      "çļĦä¸Ģæĸ¹": 5300,
      "æī¿åĮħ": 5301,
      "æī¿è¿Ĳäºº": 5302,
      "å¾®ä¿¡": 5303,
      "èĨľå£³": 5304,
      "æĸ¯åĿ¦": 5305,
      "è¯»ä¹¦": 5306,
      "åŁºæľ¬åĮ»çĸĹ": 5307,
      "å£°éŁµ": 5308,
      "ç¨İåĬ¡è§£çŃĶ": 5309,
      "éŁ©ä¿¡çļĦ": 5310,
      "æ¼«": 5311,
      "è¯Ħæłĩ": 5312,
      "åĨĻä½ľ": 5313,
      "èĲ§çĲ¦": 5314,
      "æ¦ķ": 5315,
      "è¯ķåĽ¾": 5316,
      "æµĭè¯ķ": 5317,
      "ä¸´æĹ¶": 5318,
      "æĳ§": 5319,
      "åĪĩå®ŀ": 5320,
      "åĪĿæŃ¥": 5321,
      "2009": 5322,
      "æŁĵæĸĻ": 5323,
      "ç§¯æŀģåıĤä¸İ": 5324,
      "åºĻä¼ļ": 5325,
      "ert": 5326,
      "æ²³åįĹ": 5327,
      "è¯¾é¢ĺ": 5328,
      "ç»¼åĲĪæīĢå¾Ĺ": 5329,
      "åĭ¤": 5330,
      "åĢŁæ¬¾": 5331,
      "æĲŃ": 5332,
      "å®¡çĲĨ": 5333,
      "èĥĮä¹¦": 5334,
      "å¯Ĩåº¦": 5335,
      "å®ĿåĨł": 5336,
      "åĪ¶éĢłåķĨ": 5337,
      "çĥŃæĥħ": 5338,
      "æĺŁç³»": 5339,
      "ç»ıèĲ¥æīĢå¾Ĺ": 5340,
      "å¾Īå¤ļäºº": 5341,
      "ç§ĳæĬĢæĪĲæŀľ": 5342,
      "åĲĽèĩ£": 5343,
      "åºĵåŃĺ": 5344,
      "å°ģéĹŃ": 5345,
      "æī©å±ķ": 5346,
      "ä¼Łå¤§å·¥ç¨ĭ": 5347,
      "æĪĲåĬŁçļĦ": 5348,
      "å»ºçŃĳä¸ļ": 5349,
      "åľ°åĮºçļĦ": 5350,
      "âĳ¡": 5351,
      "åĤ¬": 5352,
      "and": 5353,
      "å¼ķèµ·çļĦ": 5354,
      "æ¬¢è¿İ": 5355,
      "èĳĹä½ľ": 5356,
      "æĸĹäºī": 5357,
      "çĶŁçī©æ´»æĢ§": 5358,
      "ä¸¥éĩįçļĦ": 5359,
      "èĥľåĪ©": 5360,
      "éĹ®é¢ĺçļĦéĢļçŁ¥": 5361,
      "çĩ¥": 5362,
      "è´§çī©è¿Ĳ": 5363,
      "çŁ³æ²¹åħ¬åı¸": 5364,
      "æ£ĭå½¢": 5365,
      "è¡Ĺéģĵ": 5366,
      "æĦıè¯ĨåĪ°": 5367,
      "è¿Ĳè¾ĵä¸Ń": 5368,
      "èįīåİŁ": 5369,
      "æĸĳçĤ¹": 5370,
      "çĻĮç»Ĩèĥŀ": 5371,
      "æĻºæħ§åŁİå¸Ĥ": 5372,
      "ä¸Ńåįİæ°ĳæĹı": 5373,
      "èµłéĢģ": 5374,
      "çº¹çĲĨ": 5375,
      "æĹłè®ºæĺ¯": 5376,
      "äº¤ä»ĺä»¶": 5377,
      "åĤ¨åŃĺ": 5378,
      "å¤§åŃ¦çĶŁåĪĽæĸ°åĪĽä¸ļ": 5379,
      "èĥ¶ä¸ľ": 5380,
      "æķĳåĬ©": 5381,
      "éģĵçĲĨå·²ç»ıå¾Īæ¸ħæ¥ļäºĨ": 5382,
      "å®ŀçĶ¨æĸ°åŀĭ": 5383,
      "æº´åĮĸéĶĤ": 5384,
      "åĪĨäº«åĪ°æľĭåıĭåľĪ": 5385,
      "éĤ®ç¥¨": 5386,
      "æĦıæĢĿæĺ¯": 5387,
      "èĵĿèī²": 5388,
      "å«ģ": 5389,
      "å«Į": 5390,
      "åħ¬åŃĻåº·": 5391,
      "é¼»éŁ³": 5392,
      "æĬµæĬĹ": 5393,
      "åıĤèĢĥèµĦæĸĻ": 5394,
      "æģ¶çļĦéģĵçĲĨå·²ç»ıå¾Īæ¸ħæ¥ļäºĨ": 5395,
      "ä»ģä¹īæ³ķåĪ¶": 5396,
      "æĭĵå±ķ": 5397,
      "åŀĤä½ĵèĤ¿çĺ¤": 5398,
      "rap": 5399,
      "é¹¿": 5400,
      "å¸ĪèĮĥå¤§åŃ¦": 5401,
      "éļĲçŀĴçĬ¯ç½ªæīĢå¾Ĺ": 5402,
      "ä¾ĽåºĶåķĨ": 5403,
      "ä¸¾è¯ģè´£ä»»": 5404,
      "äºĮåįģåħ«å°Ĩ": 5405,
      "âī¥": 5406,
      "çļĦåīįæıĲ": 5407,
      "å®īå¾½ç¨İåĬ¡è§£çŃĶ": 5408,
      "äººæĢ§æľ¬æģ¶çļĦéģĵçĲĨå·²ç»ıå¾Īæ¸ħæ¥ļäºĨ": 5409,
      "è¿Ľç¨ĭä¸Ń": 5410,
      "åºĶçº³ç¨İæīĢå¾Ĺé¢Ŀ": 5411,
      "èĨ¨èĥĢ": 5412,
      "çĽĳçĿ£ç®¡çĲĨå±Ģ": 5413,
      "æ¨ªæ¶¨æĿĳ": 5414,
      "é¢ľèī²": 5415,
      "èĮħåı°éķĩ": 5416,
      "ä¼Łå¤§æ¢¦æĥ³çļĦå®ŀçİ°": 5417,
      "åĽ½æ¸ħå¯º": 5418,
      "å¥łå®ļ": 5419,
      "æµĻæ±Ł": 5420,
      "æĹłäº§éĺ¶çº§": 5421,
      "èĬ¯çīĩ": 5422,
      "èŀºæĹĭ": 5423,
      "ä¸İæŃ¤åĲĮæĹ¶": 5424,
      "è¿Ľè´¤ä¹ĭåĨł": 5425,
      "å°Ĩæĸĩç«łåĪĨäº«åĪ°æľĭåıĭåľĪ": 5426,
      "æ·ĺæ±°": 5427,
      "ä»£æī£ä»£ç¼´": 5428,
      "çĶŁçī©æ´»æĢ§èıĮ": 5429,
      "\"ãĢĤ": 5430,
      "59": 5431,
      "65": 5432,
      "74": 5433,
      "85": 5434,
      "93": 5435,
      "BPD": 5436,
      "Ch": 5437,
      "Met": 5438,
      "PP": 5439,
      "PET": 5440,
      "SH": 5441,
      "STP": 5442,
      "ad": 5443,
      "for": 5444,
      "ge": 5445,
      "hen": 5446,
      "im": 5447,
      "ket": 5448,
      "ml": 5449,
      "oost": 5450,
      "rom": 5451,
      "£éĩĳ": 5452,
      "¤çļĦ": 5453,
      "ªå®Ī": 5454,
      "«çĳ": 5455,
      "æĨ": 5456,
      "é³": 5457,
      "ĠU": 5458,
      "Ġï¼Ī": 5459,
      "Ġ20": 5460,
      "Ġ19": 5461,
      "ĠæĬķåħ¥": 5462,
      "Ľèµ·": 5463,
      "Ŀåį": 5464,
      "ŀçĽ¸": 5465,
      "łéģĵ": 5466,
      "ä¸ŀçĽ¸": 5467,
      "ï¼į": 5468,
      "ï¼Ļ": 5469,
      "çļĦåħ¨": 5470,
      "çļĦéķ¿": 5471,
      "çļĦæł·": 5472,
      "çļĦæ¬¡": 5473,
      "çļĦä¸ªäºº": 5474,
      "çļĦé£İ": 5475,
      "çļĦçĶŁæ´»": 5476,
      "çļĦä¸ĸçķĮ": 5477,
      "çļĦè®²": 5478,
      "çļĦäºĨè§£": 5479,
      "çļĦåŃ¦çĶŁ": 5480,
      "çļĦåĽ½éĻħ": 5481,
      "çļĦæĶ¿æ²»": 5482,
      "çļĦéĢļçŁ¥": 5483,
      "çļĦè¯´æ³ķ": 5484,
      "çļĦæĦŁè§ī": 5485,
      "ãĢĤï¼ļ": 5486,
      "ä»ĩ": 5487,
      "åħ½": 5488,
      "è¿·": 5489,
      "è¿Ķ": 5490,
      "åĬ£": 5491,
      "åľ³": 5492,
      "ä¹¾": 5493,
      "ç»¶": 5494,
      "æĺ¯å¤©": 5495,
      "æĺ¯å¦Ĥä½ķ": 5496,
      "ä¸ĢåĪĨ": 5497,
      "ä¸Ģå¤©": 5498,
      "ä¸Ģä»¶": 5499,
      "ä¸Ģåı£": 5500,
      "ä¸Ģèĩ´": 5501,
      "ä¸Ģå¥Ĺ": 5502,
      "è¯ĳ": 5503,
      "å°ī": 5504,
      "ä¼¦": 5505,
      "ä¼¸": 5506,
      "å¹½": 5507,
      "åį¸": 5508,
      "åįĳ": 5509,
      "äººæľī": 5510,
      "äººä¹ĭ": 5511,
      "äººä½ĵ": 5512,
      "äººåįķä½į": 5513,
      "åºĦ": 5514,
      "æī³": 5515,
      "æĿľ": 5516,
      "ä¸įå®¹": 5517,
      "ä¸įåĨį": 5518,
      "ä¸įåŃĺåľ¨": 5519,
      "ä¸įç¡®å®ļ": 5520,
      "ä¸įäºĪ": 5521,
      "åľ¨é«ĺ": 5522,
      "åľ¨è¿Ľè¡Į": 5523,
      "åľ¨ä¸Ģèµ·": 5524,
      "æľīæĹ¶": 5525,
      "æľīå¤ļ": 5526,
      "æľīä¸¤": 5527,
      "æľīåı¯èĥ½": 5528,
      "æľīåĵªäºĽ": 5529,
      "ä¸ºåŁºç¡Ģ": 5530,
      "ä¸ºæŃ¢": 5531,
      "ä¸ºæł¸å¿ĥ": 5532,
      "è´º": 5533,
      "ä¸ŃåİŁ": 5534,
      "å¼Ħ": 5535,
      "èĥ±": 5536,
      "å¯Ħ": 5537,
      "éĢ¼": 5538,
      "æł½": 5539,
      "çİ«çĳ": 5540,
      "å±¿": 5541,
      "åĴĮæľįåĬ¡": 5542,
      "åĴĮä¸ªäºº": 5543,
      "åĴĮç¤¾ä¼ļ": 5544,
      "çĽ²": 5545,
      "ä»¥å¤ª": 5546,
      "äºĨåĩł": 5547,
      "äºĨå¤§éĩıçļĦ": 5548,
      "æŃ§": 5549,
      "éĥİ": 5550,
      "çĶŁåĬ¨": 5551,
      "å¤§åĬĽ": 5552,
      "å¤§éĥ¨": 5553,
      "å¤§è¿ŀ": 5554,
      "å¤§å¹ħ": 5555,
      "çĶ¨äººåįķä½į": 5556,
      "è¿Ļä¸¤": 5557,
      "è¿Ļä¹Łæĺ¯": 5558,
      "æŀ¸": 5559,
      "èµĲ": 5560,
      "èµĶ": 5561,
      "éĹª": 5562,
      "å¿ĺ": 5563,
      "âĢĿ(": 5564,
      "âĢĿï¼ļ": 5565,
      "åıĳè¡¨": 5566,
      "åıĳè¾¾": 5567,
      "ä¸Ĭæľī": 5568,
      "ä¸ĬéĿ¢": 5569,
      "ä¸Ĭæ¸¸": 5570,
      "äºİäºº": 5571,
      "åı¯è¾¾": 5572,
      "åı¯éĿł": 5573,
      "åı¯æĮģç»Ń": 5574,
      "ä¼ļä¸Ĭ": 5575,
      "ä¼ļè®®": 5576,
      "ä¼ļä¸įä¼ļ": 5577,
      "åŃ¦æľ¯": 5578,
      "çº¾": 5579,
      "çīµ": 5580,
      "éĻµ": 5581,
      "éĻĨ": 5582,
      "è¡ĮåĬŀæ³ķ": 5583,
      "æĪĲæķĪ": 5584,
      "åľ°çĤ¹": 5585,
      "åľ°è¯´": 5586,
      "é¢ħ": 5587,
      "åĪĨæµģ": 5588,
      "ä¸»äºĭ": 5589,
      "æīĢæ±Ĥ": 5590,
      "åĵº": 5591,
      "å°±æľī": 5592,
      "éĥ¨ä»¶": 5593,
      "éĥ¨ç½²": 5594,
      "ä¹ĭåľ°": 5595,
      "ä¹ĭæĦı": 5596,
      "ä¸ĭåįĬå¹´": 5597,
      "åĲİèĢħ": 5598,
      "åĲİäºĭ": 5599,
      "æĢ§ä¸İ": 5600,
      "æĢ§ä½ľçĶ¨": 5601,
      "å®ŀçļĦ": 5602,
      "å®ŀçĽĺ": 5603,
      "ä¸İåıĳå±ķ": 5604,
      "æĥ§": 5605,
      "ä¹Łä¸įæĺ¯": 5606,
      "è¿ĩäºİ": 5607,
      "ä»ĸåľ¨": 5608,
      "ä»ĸå°±": 5609,
      "ä»ĸè®¤ä¸º": 5610,
      "å®¶æŃ£": 5611,
      "èĢĮæ²¡æľī": 5612,
      "åĮĸä¸º": 5613,
      "æĦģ": 5614,
      "ç»ıåĬŀ": 5615,
      "ç»ıåħ¸": 5616,
      "åĲĪä¼Ļ": 5617,
      "èĤ¥": 5618,
      "éģ£": 5619,
      "éģĤ": 5620,
      "æľ¬æ¬¡": 5621,
      "åħ¶æīĢ": 5622,
      "ï¼ī.": 5623,
      "åĲĮæĦı": 5624,
      "é«ĺæ³Įä¹³ç´ł": 5625,
      "å¤ļæ¬¡": 5626,
      "èī°": 5627,
      "èīĺ": 5628,
      "çŃīäºİ": 5629,
      "çŃīçº§": 5630,
      "ä½ĵç§¯": 5631,
      "æ¸łéģĵ": 5632,
      "ç§įåŃĲ": 5633,
      "æ´Ĺ": 5634,
      "ç³ķ": 5635,
      "æģªå®Ī": 5636,
      "å¼ĢåĽ½": 5637,
      "å¼Ģåħ·": 5638,
      "å¼Ģéĩĩ": 5639,
      "å¼ĢéĶĢ": 5640,
      "å¼ĢåĲ¯": 5641,
      "æıĲåīį": 5642,
      "æıĲéĨĴ": 5643,
      "å°ıå¾®ä¼ģä¸ļ": 5644,
      "ä¸īå¹´": 5645,
      "ä¸īç§į": 5646,
      "è°¢": 5647,
      "è°Ĭ": 5648,
      "äºĭéĢļ": 5649,
      "äºĭé¡¹": 5650,
      "åīįåĲİ": 5651,
      "éĥ½éľĢè¦ģ": 5652,
      "éĥ½çŁ¥éģĵ": 5653,
      "å±ķç¤º": 5654,
      "åĬłéĢŁ": 5655,
      "æľĢä¸º": 5656,
      "æľĢè¿ĳ": 5657,
      "æľĢä½³": 5658,
      "æľĢéĩįè¦ģçļĦ": 5659,
      "è®¾æ³ķ": 5660,
      "ä»İä¸ļ": 5661,
      "æŃ£æĪ¿": 5662,
      "å½ĵä¸Ń": 5663,
      "å½ĵæĪĳä»¬": 5664,
      "æķ°åŃ¦å®¶": 5665,
      "è§£è¯»": 5666,
      "çĦķ": 5667,
      "åı¯ä»¥ä¸º": 5668,
      "åĲįçļĦ": 5669,
      "åĲįä¸º": 5670,
      "åĲįåįķ": 5671,
      "åĲįè¯į": 5672,
      "çĽ¸æ¯Ķ": 5673,
      "åĪ©çļĦ": 5674,
      "äºĮäºº": 5675,
      "äºĮå¯¸": 5676,
      "ãĢĭ(": 5677,
      "å¹¶åľ¨": 5678,
      "å¹¶åĲĪ": 5679,
      "å¹¶åħ¥": 5680,
      "çĽ®çļĦæĺ¯": 5681,
      "çĿĽ": 5682,
      "ä½¿éĥ¨å±ŀ": 5683,
      "ç¥¥": 5684,
      "æĪĳä»¬å°Ĩ": 5685,
      "æĪĳä»¬åħļ": 5686,
      "åģļä¸įåĪ°": 5687,
      "èĲĿåį": 5688,
      "éĽ¾": 5689,
      "æŃ¤æ¬¡": 5690,
      "åıĳå±ķä¸ŃåĽ½": 5691,
      "åŀĭçĻ½": 5692,
      "å¹³çŃī": 5693,
      "æ°ĳäºĭ": 5694,
      "æĽ´ä¸º": 5695,
      "åįģåħ«": 5696,
      "è®¡åħ¥": 5697,
      "ç½ĳåį¡": 5698,
      "è¿ĺåľ¨": 5699,
      "è¿ĺæ²¡æľī": 5700,
      "ä¸ŃåĽ½çī¹èī²": 5701,
      "ç¤¾äº¤": 5702,
      "éĶĲ": 5703,
      "å®īå®¶æŃ£": 5704,
      "çī¹æĢ§": 5705,
      "æľĪä»½": 5706,
      "åĦĴ": 5707,
      "åĻª": 5708,
      "è½¦èģĶç½ĳ": 5709,
      "æ±Ĥè§£": 5710,
      "æ¡Į": 5711,
      "æ¡ĵ": 5712,
      "æĮĩä»¤": 5713,
      "èĩªå·±æĺ¯": 5714,
      "æĥ³è±¡": 5715,
      "è¢«åĬ¨": 5716,
      "èĦĲ": 5717,
      "èĭ¯": 5718,
      "æĢ»ç»Ł": 5719,
      "ç¤¾ä¼ļåŁºæľ¬ç»ĵæŀĦ": 5720,
      "è¡Ģæłĵ": 5721,
      "èº«ä»½": 5722,
      "è¾ĥé«ĺçļĦ": 5723,
      "è½¬ä¸º": 5724,
      "è½¬åĲĳ": 5725,
      "è½¬æį¢": 5726,
      "éŁ¶": 5727,
      "åĲĦçº§": 5728,
      "åıĺéĿ©": 5729,
      "å¤Ħç½ļ": 5730,
      "çģ¶": 5731,
      "æĹ¥åĨħ": 5732,
      "æĹ¥åīį": 5733,
      "ç®¡çĲĨåĬŀæ³ķ": 5734,
      "ç®¡çĲĨæļĤ": 5735,
      "èĬĤçĤ¹": 5736,
      "ä¸»ç®¡ä¹Ł": 5737,
      "ä¸»ç®¡å¿ħé¡»": 5738,
      "ä¸»ç®¡ç¨İåĬ¡æľºåħ³": 5739,
      "é£ŁçĶ¨": 5740,
      "è§Ĥæµĭ": 5741,
      "å£®": 5742,
      "è®ºåĿĽ": 5743,
      "åķ¡": 5744,
      "éĩĮç¨ĭ": 5745,
      "è°ĥè§£": 5746,
      "æł¹åŁŁåĲįæľįåĬ¡åĻ¨": 5747,
      "è¿Ľè¡ĮçļĦ": 5748,
      "ç©¶ç«Ł": 5749,
      "éĤ£ä¸ª": 5750,
      "éĤ£ç§į": 5751,
      "åĪĻæĺ¯": 5752,
      "åİ»äºĨ": 5753,
      "çĶµåĬĽ": 5754,
      "çĶµä¿¡": 5755,
      "çĶµå½±": 5756,
      "çĶµç£ģ": 5757,
      "åĽ¾ä¹¦": 5758,
      "ä»ĸä»¬å¯¹": 5759,
      "æ¨¡åĿĹ": 5760,
      "ä¸ľåįĹ": 5761,
      "åħĪåĲİ": 5762,
      "ç¾İåĨĽ": 5763,
      "æ·±åľ³": 5764,
      "å®¹åĻ¨": 5765,
      "ç´łåħ»": 5766,
      "ä¹¦è®°": 5767,
      "æĶ¾å°Ħ": 5768,
      "åįĹæµ·": 5769,
      "åı¸åĳ½": 5770,
      "ä»·çļĦ": 5771,
      "éĹ¨æ§": 5772,
      "è·¯çĶ±": 5773,
      "é£Łåĵģå®īåħ¨": 5774,
      "åħ³ç³»æĺ¯": 5775,
      "2011": 5776,
      "ä¼łè¯´": 5777,
      "ä¼łæī¿": 5778,
      "èĥ½åĬĽçļĦ": 5779,
      "èĥ½åĬĽåĴĮ": 5780,
      "èĥ½åĬĽåĪĨæŀĲ": 5781,
      "çĻ¾äºĭéĢļ": 5782,
      "æ¯ıå¤©": 5783,
      "æ¯ıä¸Ģä¸ª": 5784,
      "ç»ıæµİç¤¾ä¼ļåıĳå±ķ": 5785,
      "éĴ£éĩĳ": 5786,
      "è¥¿åĮĹ": 5787,
      "è§ģçļĦ": 5788,
      "åĬŀäºĭ": 5789,
      "æ³¨éĩį": 5790,
      "æµ·éĩĮ": 5791,
      "äºĴçĽ¸": 5792,
      "åıĤä¿Ŀ": 5793,
      "åıĤè§Ĥ": 5794,
      "åı¯èĥ½å¯¼èĩ´": 5795,
      "ä¾Ŀæīĺ": 5796,
      "åĮĹéĥ¨": 5797,
      "èį¯åŃ¦": 5798,
      "éļıåĲİ": 5799,
      "å¤ªåŃĲ": 5800,
      "æľªåıĸå¾Ĺ": 5801,
      "çİ¯å¢ĥæ±¡æŁĵ": 5802,
      "ç»ĨåĮĸ": 5803,
      "ç»ĨèĬĤ": 5804,
      "ä¼¤æ®ĭ": 5805,
      "éĽĨè£ħç®±": 5806,
      "è¿ľè¿ľ": 5807,
      "æıĲä¾ĽåķĨ": 5808,
      "è§Ĩé¢ĳ": 5809,
      "åħļåĳĺ": 5810,
      "æ¢Ĺ": 5811,
      "æĤ¨": 5812,
      "æĤī": 5813,
      "åħ»æĪĲ": 5814,
      "æİĴåĲį": 5815,
      "å¾·åĽ½": 5816,
      "æĻ¯æ°Ķ": 5817,
      "é©¬åĬĽ": 5818,
      "ï¼ģâĢĿ": 5819,
      "æīĵçł´": 5820,
      "æ¶Īæŀģ": 5821,
      "å¨©": 5822,
      "çº¦å®ļ": 5823,
      "åĪ¶åº¦çļĦ": 5824,
      "ç®ĢåĮĸ": 5825,
      "æĪ¿éĹ´": 5826,
      "çĶ»å®¶": 5827,
      "æ¯įäº²": 5828,
      "æŁĲç§į": 5829,
      "çļĦä¸Ģé¡¹": 5830,
      "æī¿åıĹ": 5831,
      "åŁºæľ¬çļĦ": 5832,
      "åŁºæľ¬èĭĹ": 5833,
      "ç¦»ä¸įå¼Ģ": 5834,
      "è¯Ħå®¡": 5835,
      "ç¬¬ä¸Ģæī¹": 5836,
      "åıĮè¾¹": 5837,
      "ä¼Ĺå¤ļ": 5838,
      "æ¥Ŀ": 5839,
      "è¯ķçĤ¹": 5840,
      "çģµä¹ĭ": 5841,
      "è¶ħå£°": 5842,
      "èµĦæºĲçļĦ": 5843,
      "èµĦæºĲè®°å½ķ": 5844,
      "é¥·": 5845,
      "é¥Ń": 5846,
      "éĺ²èĮĥ": 5847,
      "åĿļå®ŀ": 5848,
      "2008": 5849,
      "èĲ½åľ°": 5850,
      "æ½ľåľ¨": 5851,
      "èĤ¡ä¸ľ": 5852,
      "æ¸©æļĸ": 5853,
      "åħįçĸ«": 5854,
      "ä¹¡æĦģ": 5855,
      "æĺ¯åĲ¦æľī": 5856,
      "æī§ä¸ļ": 5857,
      "ä¸įæĸŃåľ°": 5858,
      "åģ¥åħ¨": 5859,
      "æĸĩåĮĸéģĹäº§": 5860,
      "ç¢°": 5861,
      "ç§ĳåŃ¦å®¶": 5862,
      "å°½éĩı": 5863,
      "ä¸Ģå®ļä¼ļ": 5864,
      "æĹ©åľ¨": 5865,
      "æ²³åĮĹ": 5866,
      "å®¶åºŃçļĦ": 5867,
      "é£ŀè£Ļ": 5868,
      "çİĦé»Ħ": 5869,
      "åĲĪä½ľä¼Ļä¼´": 5870,
      "æ¿Ģåıĳ": 5871,
      "ing": 5872,
      "åĭ¿": 5873,
      "åĭĭ": 5874,
      "æī¹éĩı": 5875,
      "æī¹è¯Ħ": 5876,
      "èµ°åľ¨": 5877,
      "èµ°åĲĳ": 5878,
      "åĬłå¼ºå¯¹": 5879,
      "åĢŁè´·": 5880,
      "é¢ĨåŁŁçļĦ": 5881,
      "å®½æĿ¾": 5882,
      "çİīå®Ŀ": 5883,
      "äººåĳĺç¼ĸåĪ¶": 5884,
      "å¯ĨåĪĩ": 5885,
      "å®Ŀè´µ": 5886,
      "åĲ«æľī": 5887,
      "åŃ¦çĶŁçļĦ": 5888,
      "å¤ĦçĲĨåĻ¨": 5889,
      "åĽ½éĻħç¤¾ä¼ļ": 5890,
      "æįŁä¼¤": 5891,
      "ä»»åĬ¡ä¸ī": 5892,
      "çķĻä¸ĭ": 5893,
      "å®¤åĨħ": 5894,
      "ä»¤äºº": 5895,
      "éļĲæĤ£": 5896,
      "éļĲç§ģ": 5897,
      "å½¢æĪĲäºĨ": 5898,
      "åĲĽä¸»": 5899,
      "æİĪæĿĥ": 5900,
      "åĽ¢ç»ĵ": 5901,
      "éĢĢä¼ĳ": 5902,
      "ç«Ļåľ¨": 5903,
      "çĻ¾åº¦åľ°åĽ¾": 5904,
      "ä¸°å°ıè´·": 5905,
      "æĭħå¿ĥ": 5906,
      "ä¸įä»ħæĺ¯": 5907,
      "èĩªæĪĳæİ§åĪ¶": 5908,
      "åŁİå¸ĤçļĦç»¿èī²": 5909,
      "åĲ¸å¼ķ": 5910,
      "ä¸Ģæł·çļĦ": 5911,
      "ä¼¼ä¹İ": 5912,
      "âĳ¢": 5913,
      "èĥ¡èĲĿåį": 5914,
      "åģ¿è¿ĺ": 5915,
      "ç¼ĵè§£": 5916,
      "ç´§å¼ł": 5917,
      "ç´§å¯Ĩ": 5918,
      "1994": 5919,
      "1995": 5920,
      "æĺłå°Ħ": 5921,
      "åįłæ¯Ķ": 5922,
      "å¼Łå¼Ł": 5923,
      "å½©ç»ĺ": 5924,
      "åĽ½å®¶ç¨İåĬ¡æĢ»å±Ģåħ¬åĳĬ": 5925,
      "çİ°ä»£åĮĸ": 5926,
      "å¤´æĪ´ä¸ī": 5927,
      "åį«çĶŁ": 5928,
      "å·¨å¤§çļĦ": 5929,
      "åħ³éĶ®è¯į": 5930,
      "æĶ¿åĬ¡ä¿¡æģ¯": 5931,
      "ç´¯è®¡": 5932,
      "çĶµåŃĲç³»ç»Ł": 5933,
      "è®¢åįķ": 5934,
      "çĸ«æĥħ": 5935,
      "éŃĦ": 5936,
      "801": 5937,
      "çŃ¾è®¢": 5938,
      "ç¥¨æį®": 5939,
      "åķĨä¸ļæ¨¡å¼ı": 5940,
      "ide": 5941,
      "çļĩå¸Ŀ": 5942,
      "è¿ĿèĥĮ": 5943,
      "åĢºåĬ¡": 5944,
      "åł¡åŃĲéĩĮ": 5945,
      "åī¯ä½ľçĶ¨": 5946,
      "è·Łéļı": 5947,
      "åħħåĪĨåıĳæĮ¥": 5948,
      "èĴĻåı¤": 5949,
      "åĩĢèµĦäº§": 5950,
      "äººçļĦæľ¬æĢ§æĺ¯": 5951,
      "èĦ±è´«": 5952,
      "æ±ĩä¸°å°ıè´·": 5953,
      "èĭ¥å¹²éĹ®é¢ĺçļĦ": 5954,
      "oty": 5955,
      "éº¦": 5956,
      "ä»°åĴ½": 5957,
      "å½¢éķ¿äºĮå¯¸": 5958,
      "æĺ¥ç§ĭ": 5959,
      "åĩºçīĪç¤¾": 5960,
      "éģµå¾ª": 5961,
      "ä¹Ŀå¤©ä¹ĭæ°Ķ": 5962,
      "æĶ»åĩ»èĢħ": 5963,
      "æīĢåľ¨åľ°": 5964,
      "æĢ§è´¨çļĦ": 5965,
      "çī¹åĪ«æĺ¯": 5966,
      "èĽĭçĻ½": 5967,
      "ï¼ħãĢĤ": 5968,
      "ä»¿çľŁ": 5969,
      "éĵ¾è·¯": 5970,
      "é¼ĵæ¥¼": 5971,
      "åįļå£«": 5972,
      "æĿĥå¨ģåŁŁåĲįæľįåĬ¡åĻ¨": 5973,
      "ect": 5974,
      "éĢĴå»¶": 5975,
      "å¯¹æĸ¹çļĦ": 5976,
      "éĤ®æĶ¿": 5977,
      "ç¦ıå»ºçľģ": 5978,
      "è´¢æĶ¿éĥ¨åĽ½å®¶ç¨İåĬ¡æĢ»å±Ģåħ³äºİ": 5979,
      "åĲ´è¶Ĭ": 5980,
      "æĮĩå®ļæ¡¥": 5981,
      "èį¯åĵģçĽĳçĿ£ç®¡çĲĨå±Ģ": 5982,
      "å®ĹæķĻä¿¡ä»°": 5983,
      "äººä¸ºçļĦåĬªåĬĽ": 5984,
      "åĲŀåĻ¬": 5985,
      "ç»ĺçĶ»": 5986,
      "æĪ¿å±ĭäº§æĿĥ": 5987,
      "æĳĦå½±": 5988,
      "éĺ³åħīæĶ¿åĬ¡ç»¼åĲĪä¿¡æģ¯æľįåĬ¡å¹³åı°": 5989,
      "ä¹Łå°±æĺ¯è¯´": 5990,
      "æľĢé«ĺäººæ°ĳæ³ķéĻ¢": 5991,
      "ä¹īåĬ¡äºº": 5992,
      "æº¶æ¶²": 5993,
      "è¾¾æĪĲåħ±è¯Ĩ": 5994,
      "åĿĩåĮĢæĢ§": 5995,
      "å¤¹å±Ĥ": 5996,
      "å°Ŀè¯ķ": 5997,
      "è¿Ľåı£é£Łåĵģ": 5998,
      "æ¡Īä¾ĭä¸Ń": 5999,
      "çļĦå¿ĥçĲĨæľºåĪ¶": 6000,
      "è¯¦ç»Ĩ": 6001,
      "åıĳæĺİä¸ĵåĪ©": 6002,
      "å¦»åŃĲ": 6003,
      "å¤©æĸĩåŃ¦": 6004,
      "ç¡¬ä»¶": 6005,
      "ç©¿è¿ĩ": 6006,
      "æľªèĥ½ä¹Ł": 6007,
      "æĪĲéķ¿åŀĭæĢĿç»´çļĦ": 6008,
      "èĪĨè®º": 6009,
      "ä¾Ŀèµĸäºİ": 6010,
      "åµĮ": 6011,
      "éŀį": 6012,
      "çļĦè§Ĵèī²": 6013,
      "çģ¾éļ¾": 6014,
      "çĪĨåıĳ": 6015,
      "åĭĩæķ¢": 6016,
      "æī£ç¼´ä¹īåĬ¡äºº": 6017,
      "çĶŁå°ıåı¶": 6018,
      "æ°ĽåĽ´": 6019,
      "å¹´è½»äºº": 6020,
      "æĹłæŀģè¿Ľè´¤ä¹ĭåĨł": 6021,
      "æº¢ä¹³": 6022,
      "çĭ¬çī¹çļĦ": 6023,
      "dow": 6024,
      "åľ¨éķ¿å®ī": 6025,
      "é¢ģå¸ĥ": 6026,
      "çī¹åĪ¥æĺ¯": 6027,
      "æ»¤éķľ": 6028,
      "æ²¹æ°Ķå·¥ä¸ļ": 6029,
      "åĨĽéĺŁçļĦ": 6030,
      "éħ±é¦ĻåŀĭçĻ½": 6031,
      "éĤĢè¯·": 6032,
      "é£Łåĵģè´¨éĩıå®īåħ¨å¸ĤåľºåĩĨåħ¥åĪ¶åº¦": 6033,
      "é¢Ħæī£é¢Ħç¼´": 6034,
      "äºĳåı°äºĮåįģåħ«å°Ĩ": 6035,
      "æ¦ľæł·": 6036,
      "çĮľæµĭ": 6037,
      "å®ıè§Ĥè°ĥæİ§": 6038,
      "ç¼ºè¡ĢæĢ§åĿıæŃ»": 6039,
      "âĹı": 6040,
      "ä¸Ģæ®µæĹ¶éĹ´": 6041,
      "éĿŀæļ´åĬĽæ²ŁéĢļ": 6042,
      "åı·çłģçĻ¾äºĭéĢļ": 6043,
      "å®¶åºŃç»ıæµİåĽ°éļ¾": 6044,
      "Macåľ°åĿĢ": 6045,
      "figma": 6046,
      "èķ´": 6047,
      "çº§å¸¸è§ĦåĬ¨åĬĽæ½ľèīĩ": 6048,
      "BPDU": 6049,
      "çİ«çĳ°": 6050,
      "æīĢæ±Ĥä¹İ": 6051,
      "é«ĺæ³Įä¹³ç´łè¡ĢçĹĩ": 6052,
      "ä¸ŃåĽ½çī¹èī²ç¤¾ä¼ļä¸»ä¹ī": 6053,
      "ç®¡çĲĨæļĤè¡ĮåĬŀæ³ķ": 6054,
      "éĹ¨æ§Ľ": 6055,
      "èĥ¡èĲĿåįľ": 6056,
      "éħ±é¦ĻåŀĭçĻ½éħĴ": 6057,
      "%ãĢģ": 6058,
      "07": 6059,
      "114": 6060,
      "37": 6061,
      "360": 6062,
      "3000": 6063,
      "4313": 6064,
      "56": 6065,
      "62": 6066,
      "73": 6067,
      "77": 6068,
      "84": 6069,
      ":ãĢĬ": 6070,
      "Cre": 6071,
      "GH": 6072,
      "In": 6073,
      "Kell": 6074,
      "LN": 6075,
      "RT": 6076,
      "Sp": 6077,
      "SLN": 6078,
      "cm": 6079,
      "if": 6080,
      "mg": 6081,
      "of": 6082,
      "pon": 6083,
      "qu": 6084,
      "sket": 6085,
      "uc": 6086,
      "ue": 6087,
      "ur": 6088,
      "¡åħ»": 6089,
      "è¤": 6090,
      "èĿ": 6091,
      "Ġ2": 6092,
      "Ġ;": 6093,
      "ĠC": 6094,
      "ĠçŃī": 6095,
      "Ġè®°å½ķ": 6096,
      "ĠãĢĲ": 6097,
      "ĠåİĭåĬĽ": 6098,
      "ĠæĬ¥æĸĩ": 6099,
      "Ġcom": 6100,
      "ĠåŁŁçļĦ": 6101,
      "ĠMcGonigal": 6102,
      "Ģèĥ±": 6103,
      "ĥåıĸ": 6104,
      "Ĭå¨": 6105,
      "ıè§Ī": 6106,
      "Łéĥ¡": 6107,
      "ï¼Ĵ": 6108,
      "çļĦè¦ģ": 6109,
      "çļĦæ°´": 6110,
      "çļĦæľįåĬ¡": 6111,
      "çļĦæĿĥ": 6112,
      "çļĦä¸»ç®¡": 6113,
      "çļĦå»ºè®¾": 6114,
      "çļĦè¡Įä¸ļ": 6115,
      "çļĦæ´»åĬ¨": 6116,
      "çļĦæĬķèµĦ": 6117,
      "çļĦåŃĺåľ¨": 6118,
      "çļĦè¿ĩç¨ĭä¸Ń": 6119,
      "çļĦç»ĵåĲĪ": 6120,
      "çļĦæĿ¡ä»¶": 6121,
      "çļĦçī¹çĤ¹": 6122,
      "çļĦæĦıä¹ī": 6123,
      "çļĦæĶ¯æĮģ": 6124,
      "çļĦæĪĲæŀľ": 6125,
      "çļĦæķ°éĩı": 6126,
      "çļĦæľºä¼ļ": 6127,
      "çļĦçİ°è±¡": 6128,
      "çļĦæīĭæ®µ": 6129,
      "çļĦç»ıéªĮ": 6130,
      "çļĦæ·±åº¦": 6131,
      "çļĦå®ŀéªĮ": 6132,
      "çļĦå®ļä¹ī": 6133,
      "çļĦçĲĨçĶ±": 6134,
      "ãĢĤãĢĲ": 6135,
      "å¤·": 6136,
      "æĺĶ": 6137,
      "ä¹Ļ": 6138,
      "åĽĬ": 6139,
      "æĺ¯æľī": 6140,
      "æĺ¯æł¹æį®": 6141,
      "æĺ¯èĲ§ä½ķ": 6142,
      "ä¸Ģæĺ¯": 6143,
      "ä¸Ģéĥ¨": 6144,
      "ä¸Ģç±»": 6145,
      "ä¸Ģè¾¹": 6146,
      "ä¸Ģéĥ¨åĪĨ": 6147,
      "ä¸ĢåĿĹ": 6148,
      "ä¸Ģæ´¾": 6149,
      "å°§": 6150,
      "ä¼Ĳ": 6151,
      "äººæĥħ": 6152,
      "äººå£«": 6153,
      "ä¸įç®¡": 6154,
      "ä¸įå¤ļ": 6155,
      "ä¸įåı¯èĥ½": 6156,
      "ä¸įä¸Ģå®ļ": 6157,
      "ä¸įçŁ¥éģĵ": 6158,
      "ä¸įä¹ħ": 6159,
      "ä¸įå¹¸": 6160,
      "ä¸įåģľ": 6161,
      "åľ¨è¿Ļ": 6162,
      "åľ¨åħ¨": 6163,
      "åľ¨æĪĳåĽ½": 6164,
      "æľīåĪ¶": 6165,
      "æľīçĽĬ": 6166,
      "æľīä»Ģä¹Ī": 6167,
      "æľīè®¸å¤ļ": 6168,
      "æľīä¸Ģä½į": 6169,
      "ä¸ºä½ķ": 6170,
      "ä¸ºä¾ĭ": 6171,
      "å·¡": 6172,
      "ä¸ŃæľŁ": 6173,
      "ä¸Ńç¥ŀåĲį": 6174,
      "å¼ĵ": 6175,
      "èĥ¯": 6176,
      "å¯ĩ": 6177,
      "éĢ¢": 6178,
      "éĢ±": 6179,
      "åĩ¹": 6180,
      "åĩ½": 6181,
      "æĢª": 6182,
      "å¸ģ": 6183,
      "åĴ¬": 6184,
      "åĨ¥": 6185,
      "åĨĴ": 6186,
      "æłª": 6187,
      "èĩĤ": 6188,
      "äºĨèĩªæİ§åĬĽ": 6189,
      "ä¸ªä½ĵ": 6190,
      "ä¸ªå·¥ä½ľ": 6191,
      "çĶŁçļĦ": 6192,
      "çĶŁæľº": 6193,
      "çĶŁèĤ²": 6194,
      "çĶŁèĤĸ": 6195,
      "æ³°": 6196,
      "åĽ½ä¼ģ": 6197,
      "åĽ½éĺ²": 6198,
      "å½¼": 6199,
      "å½Ń": 6200,
      "å¤§å¤§": 6201,
      "å¤§éĹ¨": 6202,
      "å¤§èĩ´": 6203,
      "å¤§æ½®": 6204,
      "å¤§ç¦¹": 6205,
      "å¤§èĥĨ": 6206,
      "çĶ¨ä»¥": 6207,
      "è¿Ļä¸įæĺ¯": 6208,
      "è¿Ļé¦ĸ": 6209,
      "è¿Ļåº§": 6210,
      "èµ´": 6211,
      "èµļ": 6212,
      "èµ¡åħ»": 6213,
      "éĹ¹": 6214,
      "çĲ´": 6215,
      "åıĳçļĦ": 6216,
      "å¯¹æİ¥": 6217,
      "ä¸Ĭçľĭ": 6218,
      "çŃĭ": 6219,
      "åı¯åıĳå°Ħ": 6220,
      "ä¼ļè¯´": 6221,
      "ä¼ļéĢłæĪĲ": 6222,
      "çº¬": 6223,
      "çº²": 6224,
      "çī§": 6225,
      "å¥Ķ": 6226,
      "è¾±": 6227,
      "è¾Ł": 6228,
      "é¢Ī": 6229,
      "é¢ł": 6230,
      "æĹ¶åĪ»": 6231,
      "åĩºåıĳ": 6232,
      "åĩºèº«": 6233,
      "åĩºåºĵ": 6234,
      "æĪĳçľģ": 6235,
      "æµĨ": 6236,
      "æµıè§Ī": 6237,
      "åĪĨæķ£": 6238,
      "æĮ¤": 6239,
      "æĮĸ": 6240,
      "å®ļæĹ¶": 6241,
      "ä¸»å¯¼": 6242,
      "æĿ¥åĪ°": 6243,
      "æĿ¥æıĲé«ĺ": 6244,
      "æīĢå¤Ħ": 6245,
      "æīĢç§°": 6246,
      "å¦Ĭå¨": 6247,
      "äº§éģĵ": 6248,
      "æĭĴ": 6249,
      "ä¹ĭåĪĨ": 6250,
      "ä¹ĭåĬĽ": 6251,
      "ä¹ĭåºľ": 6252,
      "ä¹ĭè£ĺ": 6253,
      "çİ°æľī": 6254,
      "ä»¬çļĦ": 6255,
      "ä¸ĭæ°´": 6256,
      "ä¸ĭæĶ¾": 6257,
      "åĲİéĹ¨": 6258,
      "æĢ§åľ°": 6259,
      "å®ŀæĹ¶": 6260,
      "å®ŀè´¨": 6261,
      "ä¸İè¿ĩåİ»": 6262,
      "æĥľ": 6263,
      "ç½¢": 6264,
      "ç½¹": 6265,
      "ä¹Łè¦ģ": 6266,
      "æ±¤": 6267,
      "æ±ł": 6268,
      "è¿ĩåº¦": 6269,
      "ç®¡æİ§": 6270,
      "å®¶äºº": 6271,
      "å®¶ä¸Ń": 6272,
      "åĲĪä¸Ģ": 6273,
      "åĲĪæ³ķ": 6274,
      "åĲĪéĢĤ": 6275,
      "åħ³èĬĤ": 6276,
      "æľ¬åĳ½": 6277,
      "åħ¶åľ¨": 6278,
      "ï¼īï¼ļ": 6279,
      "åĲĮæ¯Ķ": 6280,
      "çľł": 6281,
      "ç«Ń": 6282,
      "é«ĺéĢŁ": 6283,
      "çŃīå¥ĸ": 6284,
      "çŃīåĭĩæķ¢": 6285,
      "æĽ¹": 6286,
      "åºĶæ¿Ģ": 6287,
      "ç§įç±»": 6288,
      "åħ¥åŃ¦": 6289,
      "åħ¥åı£": 6290,
      "åħ¥èĤ¡": 6291,
      "æģķ": 6292,
      "æģŃ": 6293,
      "éļ¶": 6294,
      "å¼Ģå·¥": 6295,
      "å¼ĢéĢļ": 6296,
      "å¼Ģè®¾": 6297,
      "æıĲåĢ¡": 6298,
      "æĸ°æĬĢæľ¯": 6299,
      "æĸ°æĹ¶ä»£": 6300,
      "æŁ¯": 6301,
      "åħ¬äº¤": 6302,
      "åħ¬è·¯": 6303,
      "å°ıåŀĭ": 6304,
      "å°ıåŃ©": 6305,
      "ä¸īæĺ¯": 6306,
      "ä¸īæĿ¡": 6307,
      "ä¸īæīį": 6308,
      "ä¸īèĥİ": 6309,
      "ä¸īåĳ¼": 6310,
      "éķ¿è¿ľ": 6311,
      "æľºç»Ħ": 6312,
      "æłĩæ³¨": 6313,
      "æķĻè®Ń": 6314,
      "é£ĺ": 6315,
      "æĻ¤": 6316,
      "æĻĸ": 6317,
      "äºĭåħĪ": 6318,
      "éĥ½åľ¨": 6319,
      "å¿ĥä¸Ń": 6320,
      "å¿ĥæĥħ": 6321,
      "çĤ¹åĴĮ": 6322,
      "éĹ´çļĦåħ³ç³»": 6323,
      "æľĢä¼ĺ": 6324,
      "æľĢæĹ©": 6325,
      "å»ºæĪĲ": 6326,
      "å»ºéĢł": 6327,
      "è®¾æľī": 6328,
      "æĹłæīĢ": 6329,
      "æĹłæķ°": 6330,
      "æĹłæĦı": 6331,
      "æĹłæķĪ": 6332,
      "æĹłçĽĺ": 6333,
      "æĹłçĸĳ": 6334,
      "ä»İä¸¥": 6335,
      "ä»İåįģäºĮ": 6336,
      "ç»ĵèĬĤ": 6337,
      "ç»ĵæĿŁ": 6338,
      "ç»ĵå©ļ": 6339,
      "è§£æ³ķ": 6340,
      "åı¯ä»¥æĪĲä¸º": 6341,
      "çĽ¸å¤Ħ": 6342,
      "æ°´ä¸Ń": 6343,
      "ç¨İçİĩ": 6344,
      "å¥½å¥½": 6345,
      "äºĮæĺ¯": 6346,
      "äºĮæ°Ķ": 6347,
      "å¤ĸéĥ¨": 6348,
      "å¤ĸåįĸ": 6349,
      "å°Ĩé¢Ĩ": 6350,
      "ä¿Ŀåį«": 6351,
      "éľĩ": 6352,
      "ä½¿ä¸»ç®¡": 6353,
      "ç¥¸": 6354,
      "æĦıåĽ¾": 6355,
      "æĦıæĦ¿": 6356,
      "èģª": 6357,
      "æĪĳä»¬ä¸į": 6358,
      "æĪĳä»¬åľ¨": 6359,
      "åģļäºĨ": 6360,
      "åģļä¸ª": 6361,
      "ç¬¬ä¸ĥ": 6362,
      "éĽħ": 6363,
      "æŃ¤æĹ¶": 6364,
      "éģĵåľº": 6365,
      "æ¯ĶçļĦ": 6366,
      "ä»£æĽ¿": 6367,
      "çĸ²": 6368,
      "èī²ä¹ĭ": 6369,
      "æ°ĳçĶŁ": 6370,
      "æĽ´æį¢": 6371,
      "åİŁåıĳ": 6372,
      "åİŁæĿ¥": 6373,
      "åİŁèıĮ": 6374,
      "åİŁæĿĲæĸĻ": 6375,
      "åįģä¸ĩ": 6376,
      "åįģåħŃ": 6377,
      "æµģåĲĳ": 6378,
      "ä¸ŃåĽ½çº¢èī²æĹħæ¸¸": 6379,
      "ä¼ģä¸ļåľ¨": 6380,
      "ä¼ģä¸ļåĴĮ": 6381,
      "ä½Ĩä»ĸ": 6382,
      "æ´»åĬĽ": 6383,
      "å®īç½®": 6384,
      "åįķä¸Ģ": 6385,
      "åįķè½¦": 6386,
      "æ¶Ĥ": 6387,
      "æ¶Į": 6388,
      "åıĹèµł": 6389,
      "èµ·åĪ°": 6390,
      "èµ·çĤ¹": 6391,
      "æľĪç»ı": 6392,
      "éªĳ": 6393,
      "ç±»åĪ©": 6394,
      "åıĸåĨ³": 6395,
      "èį£": 6396,
      "åı°æ¹¾": 6397,
      "èĪ¶": 6398,
      "èĪªåĬĽ": 6399,
      "ä¸¤å¹´": 6400,
      "å¼ºæķĮ": 6401,
      "æ¡£": 6402,
      "æĮĩæĮ¥": 6403,
      "åĲĳåĲķåĲİ": 6404,
      "ä½łå°±": 6405,
      "ä½łçľĭ": 6406,
      "è¢«äºº": 6407,
      "è¢«å®³": 6408,
      "è¢«ç§°ä¸º": 6409,
      "å¾Īéĩįè¦ģ": 6410,
      "å¾Īå¤§çļĦ": 6411,
      "åħĥçĴ": 6412,
      "æ°ĶåĴĮ": 6413,
      "æ°ĶåĢĻ": 6414,
      "æ°ĶæŃ¢": 6415,
      "ä¸ªäººçĭ¬": 6416,
      "ä¸ªäººåıĸå¾Ĺ": 6417,
      "ç«ĭåį³": 6418,
      "ç¤¾ä¼ļç§©åºı": 6419,
      "èº«éķ¿": 6420,
      "èº«è¾¹": 6421,
      "ç¡®è®¤": 6422,
      "åĬŁåĬ³": 6423,
      "è¾ĥå¤ļ": 6424,
      "è¾ĥä½İ": 6425,
      "å·¥ä½ľäººåĳĺ": 6426,
      "æĹ¥çĽĬ": 6427,
      "åĽ½å®¶çº§": 6428,
      "åĽ½å®¶è´¨éĩı": 6429,
      "å¸ĪèµĦ": 6430,
      "éĩĮä¸Ń": 6431,
      "æł¹æ¡¥": 6432,
      "æł¹è·¯å¾Ħ": 6433,
      "éĥ¨å±ŀåľ¨": 6434,
      "æīĭæ³ķ": 6435,
      "æĿ¡æ¬¾": 6436,
      "çĶŁäº§ä¼ģä¸ļ": 6437,
      "åıªéľĢè¦ģ": 6438,
      "åİ»å¹´": 6439,
      "äº¤ç»Ļ": 6440,
      "å¿ħå¤ĩ": 6441,
      "ä¸ĵæ³¨": 6442,
      "åı£æľį": 6443,
      "çľĭåĩº": 6444,
      "çľĭçľĭ": 6445,
      "æ¸ħç¼´": 6446,
      "çĹħçĲĨ": 6447,
      "çĹħå¾µ": 6448,
      "çĹħåİŁèıĮ": 6449,
      "åĽ¾çīĩ": 6450,
      "èĮĦ": 6451,
      "ç¾İçļĦ": 6452,
      "è®©äºº": 6453,
      "å²Ń": 6454,
      "é©»": 6455,
      "æĶ¹ä¸º": 6456,
      "ä¹¦ä¸ŃçļĦ": 6457,
      "åĪĽç«ĭ": 6458,
      "æ£ļ": 6459,
      "åķĨæłĩ": 6460,
      "é»ı": 6461,
      "æĦŁæĥħ": 6462,
      "åı²ä¸Ĭ": 6463,
      "è´¹åĴĮ": 6464,
      "éĿŀçī©è´¨": 6465,
      "é£Łåĵģèį¯åĵģçĽĳçĿ£ç®¡çĲĨå±Ģ": 6466,
      "äºĶèĹı": 6467,
      "äºĶèĦı": 6468,
      "ä¼ĺå¼Ĥ": 6469,
      "æ»©": 6470,
      "æ»ĳ": 6471,
      "æ»ļ": 6472,
      "å°ĳäºĨ": 6473,
      "å¢ĥåĨħ": 6474,
      "å±Ģéĥ¨": 6475,
      "æķ´çĲĨ": 6476,
      "çĻ¾å¹´": 6477,
      "åıįå¯¹": 6478,
      "åıįå¤į": 6479,
      "åıįèĪ°å¯¼å¼¹": 6480,
      "ç®Ĺæ¸ħç¼´": 6481,
      "ä¸ĩç¥ŀ": 6482,
      "ä¸ĩäº¿": 6483,
      "ä¹ĿåŃĶ": 6484,
      "ç»ıæµİåıĳå±ķçļĦ": 6485,
      "ç»ıæµİæĢ»éĩı": 6486,
      "éĢīçĶ¨": 6487,
      "éļ¾éģĵ": 6488,
      "çľŁæĺ¯": 6489,
      "æİ¨æµĭ": 6490,
      "å¼ķè¿Ľ": 6491,
      "æ³¨åħ¥": 6492,
      "æĶ¯æŁ±": 6493,
      "ä¾Ŀçħ§": 6494,
      "èĢģå¹´": 6495,
      "èĢģåħ¬": 6496,
      "èĢģå©": 6497,
      "ç¾¤ä½ĵçļĦ": 6498,
      "å¦Ĥæŀľä½ł": 6499,
      "âĢĶãĢī": 6500,
      "éļıä¹ĭ": 6501,
      "å®īåħ¨è®Ńç»ĥ": 6502,
      "ä¾¿åĪ©": 6503,
      "ä¾¿å®ľ": 6504,
      "éĩįè¦ģçļĦæĺ¯": 6505,
      "æıĲä¾ĽçļĦ": 6506,
      "é¡¹çĽ®å¹²": 6507,
      "æ²¹çĶ°": 6508,
      "èĨĿ": 6509,
      "èĨĢèĥ±": 6510,
      "è¿Ļä¸ªéĹ®é¢ĺ": 6511,
      "åħīæĺİ": 6512,
      "è§Ĩéĩİ": 6513,
      "ä»¥åıĬä¸İ": 6514,
      "æĤĶ": 6515,
      "æĤł": 6516,
      "æł¸æ½ľèīĩ": 6517,
      "åĬŁèĥ½çļĦ": 6518,
      "åĬŁèĥ½æ£ĢæŁ¥": 6519,
      "å¾·éĩĮ": 6520,
      "æ£Ģæµĭ": 6521,
      "é©¬å¹³": 6522,
      "é©¬éĤĳ": 6523,
      "éĻ¤æŃ¤": 6524,
      "éĻ¤è´¹çĶ¨": 6525,
      "å¹²é¢Ħ": 6526,
      "å¹²åĩĢ": 6527,
      "çĪ¶åŃĲ": 6528,
      "çĪ¶çº§": 6529,
      "ç»ŃèĪªåĬĽ": 6530,
      "åĩłçĤ¹": 6531,
      "é¢Ħéĺ²": 6532,
      "å»ºè®¾åįķä½į": 6533,
      "ç»´æĮģ": 6534,
      "äºīå¤º": 6535,
      "è¾¹çķĮ": 6536,
      "æ¶ĪéĻ¤": 6537,
      "æĴĴ": 6538,
      "æŃ¢è¡Ģ": 6539,
      "æŃ¢è§Ĥ": 6540,
      "è®¾è®¡çļĦ": 6541,
      "åĽ´ç»ķ": 6542,
      "ä¸ŃçļĦè¡¨è¾¾": 6543,
      "æķ°æį®åºĵ": 6544,
      "çº¦æĿŁ": 6545,
      "åħŃæľĪ": 6546,
      "åħŃèĲ¥": 6547,
      "åĩıéĻ¤è´¹çĶ¨": 6548,
      "ç®Ģæĺĵ": 6549,
      "æĪĳåĽ½æĸ°èĥ½æºĲæ±½è½¦": 6550,
      "çĶ»éĿ¢": 6551,
      "å·´å·´": 6552,
      "ä¸ĥå¹´": 6553,
      "ä¸ĥå·§": 6554,
      "å¾®çĶŁçī©": 6555,
      "è£ħç½®": 6556,
      "å£°éŁ³": 6557,
      "ç«¯çļĦ": 6558,
      "ç½ĳç»ľéģĵå¾·": 6559,
      "ç¦»å¼Ģ": 6560,
      "äºĳåįĹ": 6561,
      "ç»Īäºİ": 6562,
      "å²ģçļĦ": 6563,
      "ä¿Ħä¹Į": 6564,
      "ä¹Łæĺ¯èĲ§ä½ķ": 6565,
      "åıĮä¸ŃåŃĲæĺŁ": 6566,
      "ä»ĭè´¨": 6567,
      "äº§çĶŁäºİ": 6568,
      "éŁ³ä¹Ĳ": 6569,
      "è¯ķè¡Į": 6570,
      "æµĭå®ļ": 6571,
      "æķĻå¸ĪçļĦ": 6572,
      "æķĻå¸ĪæķĻèĤ²": 6573,
      "è¶ħè¶Ĭ": 6574,
      "ä½Ļé¢Ŀ": 6575,
      "è¿Ļæĺ¯ä¸Ģç§į": 6576,
      "ä½ľä¸ºä¸Ģä¸ª": 6577,
      "ä½įç½®ä¿¡æģ¯": 6578,
      "åĪĿæ¬¡": 6579,
      "çīĪå¼ı": 6580,
      "çĽĺçĤ¹": 6581,
      "çľ¼çĿĽ": 6582,
      "æĬķèµĦèĢħ": 6583,
      "èıŁéĥ¡": 6584,
      "ç»¿èī²çİ¯ä¿Ŀ": 6585,
      "ç§¯æŀģæĢ§": 6586,
      "ä¸¾åĬŀ": 6587,
      "ä¸¾æİª": 6588,
      "åħįå¾ģä¸ªäººæīĢå¾Ĺç¨İ": 6589,
      "åĨľèį¯": 6590,
      "åį°åĪ·äº§ä¸ļ": 6591,
      "å¼Ĥåľ°": 6592,
      "å»ºç«ĭäºĨ": 6593,
      "æĸĩåĮĸçłĶç©¶": 6594,
      "ç¢İ": 6595,
      "æľĿé²ľ": 6596,
      "æģ¶æĦı": 6597,
      "ç¼ĸåı·": 6598,
      "å°½åı¯èĥ½": 6599,
      "æĹ©å·²": 6600,
      "æŃ£ä¹īè§Ĥ": 6601,
      "äºĴèģĶç½ĳæĸ°éĹ»": 6602,
      "æĭĽæĬķæłĩæ³ķ": 6603,
      "ä½ıæĪ¿": 6604,
      "è¯¾ä»¶": 6605,
      "çİĦä¹ī": 6606,
      "çİĦèıŁéĥ¡": 6607,
      "åĲĪä½ľçļĦ": 6608,
      "æıĲåĩºçļĦ": 6609,
      "åĭĺ": 6610,
      "åĽ°æī°": 6611,
      "åĢŁéī´": 6612,
      "å®¡æł¸": 6613,
      "æľīåħ³ä¸ªäººæīĢå¾Ĺç¨İ": 6614,
      "çŁ¥è¯ĨåĴĮ": 6615,
      "èĴ´": 6616,
      "åĲ«éĩı": 6617,
      "éľĢæ±ĤçļĦ": 6618,
      "åĨ²åĩ»": 6619,
      "åĽ½éĻħæľºåľº": 6620,
      "ç¡®å®ļçļĦ": 6621,
      "æħķ": 6622,
      "èĹī": 6623,
      "ä¸ļåĬ¡çļĦ": 6624,
      "åħ¶ä¸Ńä¸Ģä¸ª": 6625,
      "ä¹Ĳè¶£": 6626,
      "è¯¢éĹ®": 6627,
      "æĤ£çĹħ": 6628,
      "è§Ĵåº¦": 6629,
      "æĸ°èĥ½æºĲè½¦": 6630,
      "çļ®è´¨": 6631,
      "çļ®ç½Ĺ": 6632,
      "ä»¤ç¬¬": 6633,
      "å»¶ä¼¸": 6634,
      "å½¢æĪĲçļĦ": 6635,
      "å§Ķæīĺ": 6636,
      "ç§ĳæĬĢåıĳå±ķ": 6637,
      "ç¿¼": 6638,
      "åĲ¬åĪ°": 6639,
      "è´«ç©·": 6640,
      "å·¥ä¸ļäº§åĵģ": 6641,
      "è°Īè¯Ŀ": 6642,
      "æ±Łè¥¿": 6643,
      "æ±Łèĭı": 6644,
      "èĻļæŀĦ": 6645,
      "éĶĢåĶ®æĪĸèĢħ": 6646,
      "å®ĺæĸ¹": 6647,
      "ç»Ŀå¤§å¤ļæķ°": 6648,
      "è½»æĿ¾": 6649,
      "åĸľå¥½": 6650,
      "åıªæľīåľ¨": 6651,
      "ãĢĲâĢľ": 6652,
      "çĽĸéĶģ": 6653,
      "å¿ĥçĲĨåŃ¦": 6654,
      "çĻ¾åº¦çĻ¾ç§ĳ": 6655,
      "ä¼Łå¤§å¤įåħ´": 6656,
      "èĪªç©º": 6657,
      "å¢ŀéķ¿äºĨ": 6658,
      "èİ·å¾ĹäºĨ": 6659,
      "æ¤Ĵ": 6660,
      "ä¸įä»ħä»ħ": 6661,
      "çŁŃæľŁ": 6662,
      "äºĮåįģå¤§": 6663,
      "çĶ·å¥³": 6664,
      "æĭ¥æĬ±": 6665,
      "å¤įæĿĤæĢ§": 6666,
      "çĽĳçĿ£æ£ĢéªĮæ£Ģçĸ«": 6667,
      "æĵįä½ľç³»ç»Ł": 6668,
      "åħ¸èĮĥ": 6669,
      "åģ¿åĢº": 6670,
      "å¸®åĬ©æĪĳä»¬": 6671,
      "æ°¸åİĨ": 6672,
      "æŃ£å¸¸å¦ĩå¥³": 6673,
      "éĴĪå½¢": 6674,
      "å©ª": 6675,
      "å©´": 6676,
      "çĨĬ": 6677,
      "åħļçļĦäºĮåįģå¤§": 6678,
      "éĻĦåĬł": 6679,
      "éģĩåĪ°": 6680,
      "æ´ŀåħĥ": 6681,
      "éħĴç²¾": 6682,
      "èĻİçļĦ": 6683,
      "æĴŃç§į": 6684,
      "åģ¥åº·åıĳå±ķ": 6685,
      "åį«æĺŁ": 6686,
      "åįģäºĮäºº": 6687,
      "åįģäºĮæĿ¡": 6688,
      "æ¨¡åŀĭçļĦ": 6689,
      "é»ĳèī²": 6690,
      "çĻ»å½ķ": 6691,
      "ç»Łä¸ĢçļĦ": 6692,
      "èħºçĻĮ": 6693,
      "æħ¢æħ¢": 6694,
      "åŁĥåıĬæ²¹æ°Ķå·¥ä¸ļ": 6695,
      "Ġåľ°åĿĢçļĦ": 6696,
      "ä¼ĳæģ¯": 6697,
      "éĹŃç»ı": 6698,
      "è¿Ŀåıį": 6699,
      "å°ļä¹¦": 6700,
      "ä¸įå¾Ĺè½¬è®©": 6701,
      "åħ¨åĽ½äººæ°ĳ": 6702,
      "å¼ĢæĶ¾å¹³åı°": 6703,
      "ä¼°è®¡": 6704,
      "æīĢè¿°èĨľå£³": 6705,
      "åıĬåħ¶äº§çĶŁçļĦ": 6706,
      "å¾Ģå¾Ģæĺ¯": 6707,
      "èĨľä¸ĿæĿŁ": 6708,
      "åģľæŃ¢": 6709,
      "è¿«åĪĩ": 6710,
      "çĶ²çĬ¶": 6711,
      "ä¸Ńä¿Ħåħ³ç³»": 6712,
      "æ±ĩç®Ĺæ¸ħç¼´": 6713,
      "éĽĦçĭ®": 6714,
      "èĪ¹èĪ¶": 6715,
      "é²ľæĺİ": 6716,
      "æľ±åħĥçĴ": 6717,
      "é¢ĳç¹ģ": 6718,
      "é¡µéĿ¢": 6719,
      "ç¼ĺæķħ": 6720,
      "åĮĹäº¬å¤§åŃ¦": 6721,
      "éºŁ": 6722,
      "äººçĶŁçļĦ": 6723,
      "åĽĽä¸ªåħ¨éĿ¢": 6724,
      "è´¢åĬ¡ç®¡çĲĨ": 6725,
      "å°ıé¢Ŀè´·æ¬¾åħ¬åı¸çļĦ": 6726,
      "çļĦä¸»é¢ĺ": 6727,
      "æķĮäºº": 6728,
      "æ´¥è´´": 6729,
      "ä¾Ŀæ³ķæ²»åĽ½": 6730,
      "å¸ĸæľ¨åĦ¿å¸ĿåĽ½": 6731,
      "åĪĳæ³ķ": 6732,
      "æĶ¶çĽĬçİĩ": 6733,
      "è£Ĥä¼¤": 6734,
      "èĽĭç³ķ": 6735,
      "ç¬ĶèĢħ": 6736,
      "èµĦæľ¬å®¶": 6737,
      "æļĤæĹ¶": 6738,
      "å´Ľèµ·": 6739,
      "æĬ½è±¡": 6740,
      "è¿ĲèĲ¥åķĨ": 6741,
      "ç¦ģæŃ¢": 6742,
      "æĿĥå¨ģåŁŁåĲįæľįåĬ¡åĻ¨çļĦ": 6743,
      "åĽŀçŃĶæĬ¥æĸĩ": 6744,
      "å¿«éĢŁåıĳå±ķ": 6745,
      "çĶĺèĤĥ": 6746,
      "æĭĨè¿ģ": 6747,
      "éĶ¦é£ŀè£Ļ": 6748,
      "åıįæĺłäºĨ": 6749,
      "è¶ĬæĿ¥è¶Ĭå¤ļ": 6750,
      "æ¹ĸåįĹ": 6751,
      "ä¼Ĭå¾·": 6752,
      "æĸ¹ç¨ĭçļĦ": 6753,
      "åħ¬åŃĻåº¦": 6754,
      "äºĭä¸ļéĥ¨": 6755,
      "åĳĬè¯īæĪĳä»¬": 6756,
      "è¡¨çİ°è¾ĥå·®çļĦåĳĺå·¥": 6757,
      "SPI": 6758,
      "ä¸ŃéļĶåĪĩéĻ¤": 6759,
      "èĢ³æľµ": 6760,
      "æµĵåº¦": 6761,
      "çİ°éĩĳæµģéĩı": 6762,
      "åīĬåĩı": 6763,
      "çĤİçĹĩ": 6764,
      "è·Ŀç¦»": 6765,
      "å¸¸è§ģçļĦ": 6766,
      "åĲĦåľ°åĲĦéĥ¨éĹ¨": 6767,
      "å°¤åħ¶æĺ¯": 6768,
      "å¤ıçļ®ç½Ĺ": 6769,
      "åįĴæľ¬": 6770,
      "è´¦æĪ·": 6771,
      "ç§ĺå¯Ĩ": 6772,
      "è¿Ļå°±è¦ģæ±Ĥ": 6773,
      "èĩªçĶ±è´¸æĺĵ": 6774,
      "æĮ¯åħ´": 6775,
      "èĤłéģĵ": 6776,
      "ä¼ĺç§ĢçļĦ": 6777,
      "ç§ŁèĪ¹": 6778,
      "æ²¿çĿĢ": 6779,
      "éĺµèĲ¥": 6780,
      "è¡¥åĬ©éĩĳ": 6781,
      "è¡¥åĬ©è´¹": 6782,
      "èªīä¸º": 6783,
      "åħ°å±¿": 6784,
      "æĹ¨åľ¨": 6785,
      "æ´Ľä¼Ĭå¾·": 6786,
      "åħ¬æ°ĳä¸ªäººä¿¡æģ¯": 6787,
      "å¤©æĸĩåı°": 6788,
      "æĹ¥å¸¸çĶŁæ´»": 6789,
      "äº§åĵģçļĦå½¢çĬ¶": 6790,
      "ä¹¡éķĩåħ¬åĬ¡": 6791,
      "å·¥ä¼¤ä¿ĿéĻ©": 6792,
      "æ·±åĮĸæĶ¹éĿ©": 6793,
      "é¡¶çº§åŁŁåĲįæľįåĬ¡åĻ¨": 6794,
      "çļĦè§Ĵåº¦": 6795,
      "ä»ĵåºĵ": 6796,
      "ä¸ŃåĮ»èį¯": 6797,
      "æľ¬è´¨ä¸Ĭ": 6798,
      "ä¸īåįģåħŃ": 6799,
      "æīĵåĩ»ç¾İåĨĽ": 6800,
      "å¾ħåĪĨç¦»çī©": 6801,
      "___": 6802,
      "çºłçº·": 6803,
      "é©±åĬ¨": 6804,
      "å¾ģæĶ¶ä¸ªäººæīĢå¾Ĺç¨İ": 6805,
      "éī´å®ļæłĩåĩĨ": 6806,
      "è´ªå©ª": 6807,
      "æ¡Ĩæŀ¶": 6808,
      "åŃ¢åŃĲ": 6809,
      "æĿĨèıĮ": 6810,
      "ä¸ºä¸ĭèĬĤ": 6811,
      "åĢ¾åĲĳ": 6812,
      "æĹ¥è®°å¸Ĳ": 6813,
      "åľĪå¤ĸäºº": 6814,
      "èĤ¡éª¨å¤´ç¼ºè¡ĢæĢ§åĿıæŃ»": 6815,
      "ä¸ºä¸ĬèĬĤ": 6816,
      "æĬ«éĴĪå½¢": 6817,
      "æ°§åĮĸ": 6818,
      "è°¦è®©": 6819,
      "çĥ¦æģ¼": 6820,
      "æĲºå¸¦": 6821,
      "çĮİçĭĹ": 6822,
      "éĽĦé»ĦçŁ¿": 6823,
      "éĺ¿éĩĮå·´å·´": 6824,
      "è¯±æĥĳåĴĮ": 6825,
      "å¾ģæ±ĤæĦıè§ģç¨¿": 6826,
      "æŁ´æ²¹æľº": 6827,
      "æĹ±èĤ²": 6828,
      "å¼Ĺæ´Ľä¼Ĭå¾·": 6829,
      "åıĳåĬ¨æľºçĽĸéĶģ": 6830,
      "éĩıåĮĸå®½æĿ¾": 6831,
      "åĨĻä½ľé£İæł¼": 6832,
      "ä¸Ńåįİæ°ĳæĹıä¼Łå¤§å¤įåħ´": 6833,
      "èµłéĢģç¤¼åĵģ": 6834,
      "raphy": 6835,
      "çļĦåīįæıĲä¸ĭ": 6836,
      "ä¼Łå¤§æ¢¦æĥ³çļĦå®ŀçİ°éľĢè¦ģ": 6837,
      "ĠUDP": 6838,
      "åıĳå±ķä¸ŃåĽ½å®¶": 6839,
      "åķ¡èĤ½": 6840,
      "åıĤä¿Ŀäºº": 6841,
      "Kelly": 6842,
      "sketch": 6843,
      "ä¸ªå·¥ä½ľæĹ¥åĨħ": 6844,
      "å¦Ĭå¨ł": 6845,
      "çŃīåĭĩæķ¢çļĦäºº": 6846,
      "ä»İä¸¥æ²»åħļ": 6847,
      "åıĸåĨ³äºİ": 6848,
      "ä¸ªäººçĭ¬èµĦ": 6849,
      "èĢģå©Ĩ": 6850,
      "é¡¹çĽ®å¹²ç³»": 6851,
      "ä¸ĥå·§æĿ¿": 6852,
      "ä¿Ħä¹ĮåĨ²çªģ": 6853,
      "äºĴèģĶç½ĳæĸ°éĹ»ä¿¡æģ¯æľįåĬ¡": 6854,
      "çĽĳçĿ£æ£ĢéªĮæ£Ģçĸ«æĢ»å±Ģ": 6855,
      "åıĬåħ¶äº§çĶŁçļĦæĶ¶çĽĬ": 6856,
      "æľ±åħĥçĴĭ": 6857,
      "!âĢĿ": 6858,
      "04": 6859,
      "05": 6860,
      "08": 6861,
      "1000": 6862,
      "5000": 6863,
      "72": 6864,
      "83": 6865,
      "95": 6866,
      "98": 6867,
      "AS": 6868,
      "Açº§": 6869,
      "CA": 6870,
      "Car": 6871,
      "DNA": 6872,
      "GO": 6873,
      "II": 6874,
      "IGO": 6875,
      "LIGO": 6876,
      "MI": 6877,
      "Nam": 6878,
      "PC": 6879,
      "PMI": 6880,
      "RH": 6881,
      "She": 6882,
      "UG": 6883,
      "ab": 6884,
      "ex": 6885,
      "est": 6886,
      "il": 6887,
      "iv": 6888,
      "noty": 6889,
      "ph": 6890,
      "sa": 6891,
      "ure": 6892,
      "ver": 6893,
      "¤å±±": 6894,
      "»çĤ¼": 6895,
      "èļ": 6896,
      "ĠW": 6897,
      "ĠåĪĨ": 6898,
      "ĠçłĶç©¶": 6899,
      "Ġå¦Ĥä½ķ": 6900,
      "Ġæ·ĭå·´": 6901,
      "Ġè¡¨ç¤º": 6902,
      "Ġè°ĥæŁ¥": 6903,
      "Ġæī¶ä½Ļ": 6904,
      "ĠéĹ®åį·": 6905,
      "Ġof": 6906,
      "ĠåįĴæľ¬": 6907,
      "ĥæŃ¢è§Ĥ": 6908,
      "ħåĬĽ": 6909,
      "Įå¦Ĥ": 6910,
      "Ľéĥ¨": 6911,
      "łçļĦ": 6912,
      "ä¸Ļ": 6913,
      "ä¸Ľ": 6914,
      "ï¼ĮãĢĮ": 6915,
      "ãĢİ": 6916,
      "ãĢı": 6917,
      "çļĦä¸¤": 6918,
      "çļĦç®¡çĲĨ": 6919,
      "çļĦæµ·": 6920,
      "çļĦèī¯": 6921,
      "çļĦåºĶçĶ¨": 6922,
      "çļĦè´¨éĩı": 6923,
      "çļĦè¯Ńè¨Ģ": 6924,
      "çļĦåİĭåĬĽ": 6925,
      "çļĦå¸ĮæľĽ": 6926,
      "çļĦåħ³éĶ®": 6927,
      "çļĦæķĪæŀľ": 6928,
      "çļĦè§Ħæ¨¡": 6929,
      "çļĦä¸´åºĬ": 6930,
      "çļĦçĬ¶æĢģ": 6931,
      "çļĦæĶ¹åĸĦ": 6932,
      "çļĦè¯ĬæĸŃ": 6933,
      "çļĦè¯ģæį®": 6934,
      "çļĦä¾Ŀæį®": 6935,
      "çļĦçĽ®çļĦ": 6936,
      "çļĦäº¤éĢļ": 6937,
      "çļĦæ¯Ķä¾ĭ": 6938,
      "çļĦç²¾ç¥ŀåĪĨæŀĲ": 6939,
      "çļĦåıĺæĽ´": 6940,
      "çļĦæķĻåĮĸ": 6941,
      "çļĦçİ°çĬ¶": 6942,
      "çļĦåı¯èĥ½æĢ§": 6943,
      "çļĦçĽ®çļĦæĺ¯": 6944,
      "äºı": 6945,
      "åıĻ": 6946,
      "åħ¹": 6947,
      "åħĶ": 6948,
      "åĪĬ": 6949,
      "åĪł": 6950,
      "è¿ª": 6951,
      "è¿Ł": 6952,
      "åĲı": 6953,
      "æĺŃ": 6954,
      "ä¹ŀ": 6955,
      "ç»£": 6956,
      "ç»Ľ": 6957,
      "æĺ¯ä»¥": 6958,
      "æĺ¯ä¼ģä¸ļ": 6959,
      "æĺ¯å¾Ī": 6960,
      "æĺ¯éĢļè¿ĩ": 6961,
      "æĺ¯å®ŀçİ°": 6962,
      "æĺ¯ä¸ºäºĨ": 6963,
      "æĺ¯äººç±»": 6964,
      "æĺ¯éĴĪå¯¹": 6965,
      "ä¸Ģæĸ¹": 6966,
      "ä¸ĢæĿ¥": 6967,
      "ä¸Ģè¯´": 6968,
      "ä¸Ģæµģ": 6969,
      "ä¸Ģæĥ³": 6970,
      "ä¸Ģæīĭ": 6971,
      "ä¸Ģçº§": 6972,
      "ä¸Ģå±Ĥ": 6973,
      "ä¸Ģå¸¦": 6974,
      "ä¸Ģä»½": 6975,
      "ä¸Ģåı¥è¯Ŀ": 6976,
      "è¯ı": 6977,
      "è¯ĥæŃ¢è§Ĥ": 6978,
      "åįĪ": 6979,
      "åįĵ": 6980,
      "äººå¯¹": 6981,
      "äººåĬĽ": 6982,
      "äººå®¶": 6983,
      "äººçī©": 6984,
      "äººèº«": 6985,
      "ä¸įå¤§": 6986,
      "ä¸įèĩª": 6987,
      "ä¸įæĥ³": 6988,
      "ä¸įåıĺ": 6989,
      "ä¸įéľĢè¦ģ": 6990,
      "ä¸įå¤Ł": 6991,
      "ä¸įä½ı": 6992,
      "ä¸įè¯¦": 6993,
      "åľ¨äºĨ": 6994,
      "åľ¨ä¸ĭ": 6995,
      "åľ¨åħ¶": 6996,
      "åľ¨ä¸»ç®¡": 6997,
      "åľ¨çº¿": 6998,
      "åľ¨åŃ©åŃĲ": 6999,
      "åľ¨ä¸ĸçķĮ": 7000,
      "åľ¨æ±½è½¦": 7001,
      "åľ¨è¿Ļä¸Ģ": 7002,
      "åľ¨å®ŀéĻħ": 7003,
      "åľ¨ç»Ħç»ĩ": 7004,
      "åľ¨åĨħçļĦ": 7005,
      "è¡·": 7006,
      "è¡į": 7007,
      "æľīæĹł": 7008,
      "æľīåĪ©": 7009,
      "æľīå®³": 7010,
      "æľīä¸ĢäºĽ": 7011,
      "ä¸ºå¤§": 7012,
      "ä¸ºæľ¬": 7013,
      "ä¸ºåħ¶": 7014,
      "ä¸ºæŃ¤": 7015,
      "ä¸ºå¹¼åĦ¿": 7016,
      "ä¸ºéĺ³": 7017,
      "ä¸ºéĺ´": 7018,
      "ä¸Ńæĸ¹": 7019,
      "ä¸Ńæĸĩ": 7020,
      "ä¸ŃéĹ¨": 7021,
      "ä¸Ńåĩºçİ°": 7022,
      "ä¸ŃåŃĺåľ¨": 7023,
      "ä¸Ńäºļ": 7024,
      "ä¸ŃæĸĩåŃĹ": 7025,
      "ä¸Ńä¸¹çĶ°": 7026,
      "éĢ¸": 7027,
      "éĢĿ": 7028,
      "æĢĴ": 7029,
      "åĮ¡": 7030,
      "å¸§": 7031,
      "åĴ¸": 7032,
      "å±¯": 7033,
      "åĴĮå»ºè®¾": 7034,
      "åĴĮå®ŀéĻħ": 7035,
      "åĴĮå®ŀè·µ": 7036,
      "ä»¥äºĭ": 7037,
      "ä»¥åįĹ": 7038,
      "ä¿±": 7039,
      "æĶĢ": 7040,
      "äºĨæĪĳä»¬": 7041,
      "äºĨéŁ©ä¿¡": 7042,
      "äºĨå¾Īå¤ļ": 7043,
      "äºĨè®¸å¤ļ": 7044,
      "äºĨå¤ļå°ĳ": 7045,
      "çĶŁäºİ": 7046,
      "çĶŁæ°Ķ": 7047,
      "çĶŁåŃ¢åŃĲ": 7048,
      "æ³½": 7049,
      "åĽ½ç¨İ": 7050,
      "å½°": 7051,
      "èĥ½åľ¨": 7052,
      "èĥ½ä¸º": 7053,
      "å¤§å¸Ī": 7054,
      "å¤§ä¼Ĺ": 7055,
      "å¤§è§Ħæ¨¡": 7056,
      "å¤§ä¼ļä¸Ĭ": 7057,
      "æ°®": 7058,
      "æ°¯": 7059,
      "è¿Ļä¹Ł": 7060,
      "è¿Ļåı¥": 7061,
      "è¿Ļåĩł": 7062,
      "è¿Ļç¯ĩ": 7063,
      "è¿Ļæĸ¹éĿ¢çļĦ": 7064,
      "æŀª": 7065,
      "å¿Į": 7066,
      "è¦ģåľ¨": 7067,
      "è¦ģä»¥": 7068,
      "è¦ģä¹Ī": 7069,
      "åİ¦": 7070,
      "å¹´éĹ´": 7071,
      "å¹´èµ·": 7072,
      "å¹´å®ŀçİ°": 7073,
      "å¹´çºª": 7074,
      "å¹´æĸ°èĥ½æºĲæ±½è½¦": 7075,
      "âĢĿâĢľ": 7076,
      "âĢĿï¼Ī": 7077,
      "åıĳæĥħ": 7078,
      "åıĳè¯ģ": 7079,
      "å¯¹éĥ¨å±ŀ": 7080,
      "å¯¹ä»ĸä»¬": 7081,
      "å¯¹è¯¥": 7082,
      "å¯¹è¯Ŀ": 7083,
      "ä¸ĬäºĨ": 7084,
      "ä¸ĬæľĢ": 7085,
      "ä¸Ĭçº§": 7086,
      "ä¸ĬåįĬå¹´": 7087,
      "ä¸Ĭæ¸¯": 7088,
      "ç¨į": 7089,
      "äºİä¸ŃåĽ½": 7090,
      "åı¯æĺ¯": 7091,
      "ä¼ļéķ¿": 7092,
      "åŃ¦éĹ®": 7093,
      "åŃ¦éĩĳ": 7094,
      "åŃ¦å£«": 7095,
      "çº½": 7096,
      "æĪĲçļĦ": 7097,
      "æĪĲäºº": 7098,
      "æĪĲåĽł": 7099,
      "åľ°åŁŁ": 7100,
      "åľ°å¤Ħ": 7101,
      "å¥´": 7102,
      "å¥¶": 7103,
      "å¥ı": 7104,
      "å¥ĳ": 7105,
      "è¾ī": 7106,
      "æĹ¶ä¸į": 7107,
      "æĹ¶ç¤¼": 7108,
      "åĩºå®¶": 7109,
      "åĩºéĿ¢": 7110,
      "æĪĳæĥ³": 7111,
      "æĪĳè§īå¾Ĺ": 7112,
      "æĪĳçĽ¸ä¿¡": 7113,
      "æ²Įå¦Ĥ": 7114,
      "åĪĨæĪĲ": 7115,
      "åĪĨå¼Ģ": 7116,
      "åĪĨè§£": 7117,
      "åĪĨè£Ĥ": 7118,
      "åĪĨæĭ£": 7119,
      "åĪĨå¨©": 7120,
      "èĩªä¿¡": 7121,
      "èĩªä¿¡å¿ĥ": 7122,
      "åĳµ": 7123,
      "æ³ķç²¾ç¥ŀåĪĨæŀĲ": 7124,
      "ä¸»å¼ł": 7125,
      "æĿ¥äºĨ": 7126,
      "æĿ¥è¿Ľè¡Į": 7127,
      "æĿ¥è®²": 7128,
      "æĿ¥æĦĪ": 7129,
      "å·¥åİĤ": 7130,
      "åĵŃ": 7131,
      "å°±è¶Ĭ": 7132,
      "å¦¥": 7133,
      "å¦Ħ": 7134,
      "äº§åĩº": 7135,
      "äº§ç¨İ": 7136,
      "äº§åĢ¼": 7137,
      "ä¹ĭéģĵ": 7138,
      "ä¹ĭæĹħ": 7139,
      "ä¸ĭéĥ¨": 7140,
      "ä¸ĭä¸Ģä¸ª": 7141,
      "åĲİæŀľ": 7142,
      "åĲİåľŁ": 7143,
      "æĢ§çŃī": 7144,
      "æĢ§çłĶç©¶": 7145,
      "å®ŀä½ĵ": 7146,
      "å®ŀäºĭ": 7147,
      "å®ŀè¯ģ": 7148,
      "ä¸İäºº": 7149,
      "ä¸İéĥ¨å±ŀçļĦ": 7150,
      "ä¸İæĮĩå¯¼": 7151,
      "æĥ¨": 7152,
      "æĥķ": 7153,
      "ç½Ĳ": 7154,
      "ä¾¦å¯Ł": 7155,
      "ä¹Łå¯¹": 7156,
      "ä¹Łåı¯èĥ½": 7157,
      "åīĸ": 7158,
      "è¿ĩä¸ĸ": 7159,
      "è¿ĩéļ¾": 7160,
      "èĢĮåľ¨": 7161,
      "åŃĲè¯´": 7162,
      "åĮĸæĪĲ": 7163,
      "åĮĸè§£": 7164,
      "åĬ¨ä½ľ": 7165,
      "åĬ¨æĢģ": 7166,
      "åĬ¨èį¡": 7167,
      "è¿ĽåĪ¶": 7168,
      "è¿Ľå®«": 7169,
      "åĪ¶æĪĲ": 7170,
      "åĪ¶åĶ®": 7171,
      "éĿ¢åĲĳ": 7172,
      "åħ¶èº«": 7173,
      "ï¼ī&": 7174,
      "åĲĮæŃ¥": 7175,
      "åĲĮéŁ³": 7176,
      "å¦ĤåĽ¾": 7177,
      "é«ĺä½į": 7178,
      "é«ĺæ°´å¹³": 7179,
      "æ¬£": 7180,
      "å¤ļæķ°": 7181,
      "å¤ļå¹´çļĦ": 7182,
      "çŃīè¡Įä¸ļ": 7183,
      "ä¿¡ç¤¾": 7184,
      "åºĶç¨İ": 7185,
      "åºĶå¦Ĥä½ķ": 7186,
      "ä½ĵçİ°åľ¨": 7187,
      "éĢļçĶ¨": 7188,
      "éĢļä¿Ĺ": 7189,
      "æ¸Ĭ": 7190,
      "ç§įæ¤į": 7191,
      "æģ¨": 7192,
      "éļĻ": 7193,
      "åħ¨ä¼ļ": 7194,
      "åħ¨æĸĩ": 7195,
      "åħ¨æĸ°çļĦ": 7196,
      "éĺĲ": 7197,
      "åĨħæ¶µ": 7198,
      "åĨħåķ¡èĤ½": 7199,
      "åĿİ": 7200,
      "åĵģçīĮ": 7201,
      "æĸ°è®¾å¤ĩ": 7202,
      "ç¬¨": 7203,
      "å°ıèĦĳ": 7204,
      "ä¸īåĲĪ": 7205,
      "ä¸īæ¬¡": 7206,
      "ä¸īå¯¸": 7207,
      "ä¸īèī²ä¹ĭ": 7208,
      "éķ¿åº¦": 7209,
      "æķĻä¹ī": 7210,
      "æķĻçłĶ": 7211,
      "æĪĸåľ¨": 7212,
      "æĪĸå¤ļ": 7213,
      "æĻĥ": 7214,
      "åīįéĿ¢": 7215,
      "åīįæ¬¾": 7216,
      "åīįæĻ¯": 7217,
      "åīįåĪĹ": 7218,
      "ï¼Ľ$": 7219,
      "ï¼ĽãĢĬ": 7220,
      "éĥ½åı¯ä»¥": 7221,
      "éĥ½å¿ħé¡»": 7222,
      "éĥ½åħ·æľī": 7223,
      "éĥ½åºĶè¯¥": 7224,
      "å¿ĥçĹħ": 7225,
      "åĬłè´´": 7226,
      "æĶ¿å®¢": 7227,
      "éĹ´æİ¥": 7228,
      "2021": 7229,
      "2023": 7230,
      "æľĢå°ı": 7231,
      "å»ºæ¡£": 7232,
      "éĩįçļĦ": 7233,
      "éĩįå»º": 7234,
      "éĩįå¤į": 7235,
      "çłĴ": 7236,
      "ç»ĵèĥİ": 7237,
      "ç»ĵçĽŁ": 7238,
      "å½ĵäºĭ": 7239,
      "æķ°æİ§": 7240,
      "æķ°ä¸ĩ": 7241,
      "è§£æĶ¾": 7242,
      "æĸĩçĮ®": 7243,
      "ç¡ĥ": 7244,
      "åı¯ä»¥æł¹æį®": 7245,
      "çĽ¸çŃī": 7246,
      "çĽ¸åıį": 7247,
      "çĽ¸ä¼¼": 7248,
      "æ°´åĪ©": 7249,
      "æ°´èĴ¸": 7250,
      "äºĮæ¬¡": 7251,
      "å¤ĸäº¤": 7252,
      "å¤ĸéħį": 7253,
      "å°Ĩåħ¶": 7254,
      "ä¿Ŀåģ¥": 7255,
      "ä¸Ģä¸ªæĺ¯": 7256,
      "å¹¶æ²¡æľī": 7257,
      "å¹¶ä¸įèĥ½": 7258,
      "å¹¶æ²Ĵæľī": 7259,
      "éľī": 7260,
      "ç¥Ń": 7261,
      "æĦıå¤ĸ": 7262,
      "æĦıå¿Ĺ": 7263,
      "èĬ¬": 7264,
      "èĬ³": 7265,
      "æĪĳä»¬ä»İ": 7266,
      "åģļå¾Ĺ": 7267,
      "åģļä¸Ģä¸ª": 7268,
      "åģļä»Ģä¹Ī": 7269,
      "åģļæ¢¦": 7270,
      "åģļç¤ºèĮĥ": 7271,
      "ç¬¬äºĶ": 7272,
      "ç¬¬åħ«": 7273,
      "æľŁæľĽ": 7274,
      "æľŁéĻĲ": 7275,
      "èĲ¼": 7276,
      "èĲİ": 7277,
      "æį®è¯´": 7278,
      "æ¯Ķçİĩ": 7279,
      "æ¯ĶèµĽ": 7280,
      "ç²¹": 7281,
      "åŀĭçļĦ": 7282,
      "ä»£æķ°": 7283,
      "æ°ĳèĲ¥": 7284,
      "æĽ´æľīæķĪ": 7285,
      "åİŁåŃĲ": 7286,
      "åİŁåŀĭ": 7287,
      "åįģä¸į": 7288,
      "è®¡è°ĭ": 7289,
      "æĥħæ¬²": 7290,
      "æµģäº§": 7291,
      "è¿ĺéľĢè¦ģ": 7292,
      "æº¯": 7293,
      "å½¢å®¹": 7294,
      "éĶ»çĤ¼": 7295,
      "æ´»æ³¼": 7296,
      "å®īå¸Ĥ": 7297,
      "å®īå®ģ": 7298,
      "åįķåĢį": 7299,
      "åıĹæįŁ": 7300,
      "å§ĳ": 7301,
      "èµ·ä¹ī": 7302,
      "èµ·æºĲ": 7303,
      "ä»»åĳ½": 7304,
      "çĿĢçľ¼": 7305,
      "è¢ģ": 7306,
      "ç±»åĪ«": 7307,
      "åıĸçļĦ": 7308,
      "ä½ķæĹ¶": 7309,
      "è´¨ç»Ĩèĥŀ": 7310,
      "è´¨çĸĳ": 7311,
      "èĪ±": 7312,
      "ä¸¤å®ļ": 7313,
      "å¼ºåĪ¶": 7314,
      "åŁŁç½ĳ": 7315,
      "èºº": 7316,
      "èºģ": 7317,
      "æ±Ĥæĺ¯": 7318,
      "æ¡©": 7319,
      "æ¡Ĥ": 7320,
      "æĮĩç¤º": 7321,
      "åĲĳå¤ĸ": 7322,
      "åĲĳä¿Ħç½Ĺæĸ¯": 7323,
      "åĲĳæľ¬åįķä½į": 7324,
      "æĥ³èµ·": 7325,
      "çŁ¥ç¤¼": 7326,
      "ç¦Ħ": 7327,
      "ï¼ŁãĢį": 7328,
      "çłĶåĪ¶": 7329,
      "çłĶç»Ĩ": 7330,
      "è¢«æĬķèµĦ": 7331,
      "è¢«è§Ĩä¸º": 7332,
      "è¢«çĶ¨æĿ¥": 7333,
      "å¾Īé«ĺ": 7334,
      "å¾Īå°ĳ": 7335,
      "èĦ¸": 7336,
      "æĶ¶è´§": 7337,
      "æĶ¶ç¼©": 7338,
      "æĢ»ç»ıçĲĨ": 7339,
      "ä¸ªäººçļĦ": 7340,
      "ä¸ªäººè´Ńä¹°": 7341,
      "ç«ĭåį¡": 7342,
      "ç¤¾ä¼ļåħ¬ä¼Ĺ": 7343,
      "è¡Ģæµģ": 7344,
      "è¡Ģåİĭ": 7345,
      "æĬ¥èŃ¦": 7346,
      "åĲĦæľī": 7347,
      "æĿĥçĽĬ": 7348,
      "åıĺåĮĸçļĦ": 7349,
      "æīĢå¾Ĺé¡¹çĽ®": 7350,
      "å·¥ä½ľä¸Ń": 7351,
      "å·¥ä½ľæĬķåħ¥": 7352,
      "æĹ¥åĲİ": 7353,
      "çĭĤ": 7354,
      "èĬĤåŃĿ": 7355,
      "èĬĤçªį": 7356,
      "èĬĤå¥ı": 7357,
      "ä¸»ç®¡ä¼ļ": 7358,
      "é£Łç®¡": 7359,
      "è§ĤåĴĮ": 7360,
      "è§Ĥæĳ©": 7361,
      "åĮ»èį¯": 7362,
      "å£¤": 7363,
      "è®ºè¿°": 7364,
      "æ®·": 7365,
      "æīĭçļĦ": 7366,
      "æķĪåºĶ": 7367,
      "çĶŁäº§èµĦæĸĻ": 7368,
      "åĸ»": 7369,
      "åŃĺæ¬¾": 7370,
      "çĶµåİĭ": 7371,
      "ä¸ĵçĶ¨": 7372,
      "åĮħè¡£": 7373,
      "å°±æĺ¯è¦ģ": 7374,
      "çľĭæ³ķ": 7375,
      "çľĭå¾ħ": 7376,
      "çľĭä¼¼": 7377,
      "æ¸ħæ´ģ": 7378,
      "çĹħäºº": 7379,
      "åĽ¾åĥı": 7380,
      "æ¨¡ä»¿": 7381,
      "èĮ¶": 7382,
      "åħĪçĶŁ": 7383,
      "åħĪéĶĭ": 7384,
      "ç¾İèģĶ": 7385,
      "ç¾İä¸½": 7386,
      "ä¸ĸæģ©": 7387,
      "å¤±èĥ½": 7388,
      "æŁ¥çľĭ": 7389,
      "è®©æĪĳ": 7390,
      "è®©éĥ¨å±ŀ": 7391,
      "å¥³åĦ¿": 7392,
      "æ·±åıĹ": 7393,
      "æ·±å¤Ħ": 7394,
      "æ·±è¿ľ": 7395,
      "å²©": 7396,
      "è®°å¾Ĺ": 7397,
      "ä¹¦éĿ¢": 7398,
      "ç½®äºİ": 7399,
      "æ£Ĵ": 7400,
      "ç»ĻæĪĳ": 7401,
      "ç»Ļä½ł": 7402,
      "ç»ĻåŃ©åŃĲ": 7403,
      "ç»Ļåĳĺå·¥": 7404,
      "è£ķ": 7405,
      "åįĹæ²Ļ": 7406,
      "åħ±äº§": 7407,
      "åı¸é©¬": 7408,
      "æŀģåĬĽ": 7409,
      "å¤ĩæ¡Ī": 7410,
      "åŃĹæ¯į": 7411,
      "æĦŁçļĦ": 7412,
      "æĦŁåħ´è¶£": 7413,
      "æĬĢæľ¯åĴĮ": 7414,
      "æĬĢæľ¯éĹ®é¢ĺ": 7415,
      "è·¯çļĦ": 7416,
      "è·¯æ¼Ķ": 7417,
      "é£ŁåĵģçĶŁäº§": 7418,
      "é£Łåĵģç»ıèĲ¥": 7419,
      "é£ŁåĵģçĶŁäº§è®¸åı¯": 7420,
      "åĽŀæĶ¶": 7421,
      "åĽŀè·¯çļĦ": 7422,
      "äºĶè¡Į": 7423,
      "äºĶåĪĨ": 7424,
      "äºĶåįĥ": 7425,
      "äºĶç±»é£Łåĵģ": 7426,
      "ä¼łéĢĴ": 7427,
      "æŃ¥åħ¥": 7428,
      "è´§ä½į": 7429,
      "åıįæĢĿ": 7430,
      "åıįè¦Ĩ": 7431,
      "æķĻèĤ²éĥ¨": 7432,
      "æ¯ıä¸Ģ": 7433,
      "ç®Ĺæĺ¯": 7434,
      "ä¸ĩéĩĮ": 7435,
      "ä¸ĩåĲ¨": 7436,
      "ä¹ĿæľĪ": 7437,
      "ä¹Ŀæ°Ķ": 7438,
      "ä¹Ŀå¯¸": 7439,
      "ç»ıæµİçļĦ": 7440,
      "éĴ§": 7441,
      "éĴ®": 7442,
      "æĸŃå±Ĥ": 7443,
      "è¥¿å²³": 7444,
      "éļ¾é¢ĺ": 7445,
      "çľŁå®ŀ": 7446,
      "èİ±": 7447,
      "åĬŀç¨İ": 7448,
      "å¼ķåıĳ": 7449,
      "èĩ´çĹħ": 7450,
      "æµ·å¤ĸ": 7451,
      "åıĤçħ§": 7452,
      "ä¸»è¦ģåĨħå®¹": 7453,
      "ç³»ç»ŁçļĦ": 7454,
      "åıĪè¦ģ": 7455,
      "çĽ´è¾ĸ": 7456,
      "ä¾ĿçĦ¶": 7457,
      "éħįå¤ĩ": 7458,
      "å±Ĥçº§": 7459,
      "æĮīéĴ®": 7460,
      "èĲ¥éĢł": 7461,
      "é¦ĸå±Ĭ": 7462,
      "ä»ĬæĹ¥": 7463,
      "å¤ªå¤§": 7464,
      "æľªå¿ħ": 7465,
      "æľªæĿ¥çļĦ": 7466,
      "åį³æĹ¶": 7467,
      "éĻ¢èĲ½": 7468,
      "çİ¯å¢ĥä¸ĭ": 7469,
      "çİ¯å¢ĥæ²»çĲĨ": 7470,
      "ä½¿çĶ¨çļĦ": 7471,
      "è¿ĻäºĽéĹ®é¢ĺ": 7472,
      "è¿ĻäºĽéĥ½æĺ¯": 7473,
      "è¿ĻäºĽåİŁåĪĻ": 7474,
      "å®ŀçİ°ä¸İ": 7475,
      "çªĹ": 7476,
      "çªĿ": 7477,
      "å¹¼åĦ¿åľ¨": 7478,
      "åħļåĨħ": 7479,
      "å¹¿åľº": 7480,
      "çĶŁæ´»çļĦ": 7481,
      "æ±īé«ĺç¥ĸ": 7482,
      "ä»¥åıĬåħ¶ä»ĸ": 7483,
      "è¶Ĭå¤ļ": 7484,
      "è¶ĬåįĹ": 7485,
      "æ¢³": 7486,
      "æ¢µ": 7487,
      "æĤĸ": 7488,
      "è´¢ç»ı": 7489,
      "è´¢çī©": 7490,
      "æł¸å¯¹": 7491,
      "æĹ¶éĹ´éĩĮ": 7492,
      "åħ¬åı¸çļĦ": 7493,
      "æİĴåĪĹ": 7494,
      "æĪĲä¸ºäºĨ": 7495,
      "åĬŁèĥ½æĢ§": 7496,
      "çļĦäººéĻħåħ³ç³»": 7497,
      "ä¾ĭåŃĲ": 7498,
      "è´Łèį·": 7499,
      "åŃ¦ä¹łåĴĮ": 7500,
      "è¡Įä¸ºçļĦ": 7501,
      "é»Ħä¸ĸæģ©": 7502,
      "å¹²éĥ¨": 7503,
      "æŃ»æ°Ķ": 7504,
      "é¢ĦåħĪ": 7505,
      "åįıåķĨ": 7506,
      "æ±½åĮĸ": 7507,
      "æĻ®åıĬ": 7508,
      "åŁºç¡Ģè®¾æĸ½": 7509,
      "ç»´åĽ¾": 7510,
      "ä¸¥å³»": 7511,
      "æīĵç®Ĺ": 7512,
      "äºīç«¯": 7513,
      "æ¶Īæ¯Ĵ": 7514,
      "æĴ¤": 7515,
      "æĴķ": 7516,
      "æĽ¾åŃĲ": 7517,
      "æĽ¾å·©": 7518,
      "è®¾è®¡å¸Ī": 7519,
      "ä¸ĸçķĮçļĦ": 7520,
      "æĶ¿åºľèģĮèĥ½": 7521,
      "æķ°æį®å¸§": 7522,
      "ç©ºè°ĥ": 7523,
      "èŀįåħ¥": 7524,
      "å¤§åŃ¦éĻĦ": 7525,
      "çº¦ä¸º": 7526,
      "åħŃåĪĨ": 7527,
      "åĩıç¨İ": 7528,
      "åĩıéĢĢ": 7529,
      "ä¿®å»º": 7530,
      "ä¿®æŃ£": 7531,
      "ä¿®èº«": 7532,
      "ç®ĢçĽ´": 7533,
      "æĪĳåĽ½åı¤ä»£": 7534,
      "æ±½è½¦åıĳåĬ¨æľºçĽĸéĶģ": 7535,
      "ä¸įèĥ½çĶ¨": 7536,
      "è´Ńçī©": 7537,
      "æĸ¹å¼ıçļĦ": 7538,
      "åı¤åħ¸": 7539,
      "ä¸ĥæľĪ": 7540,
      "çļĦä¸ĢäºĽ": 7541,
      "çļĦä¸Ģéĥ¨åĪĨ": 7542,
      "å¤«å¦»": 7543,
      "å·¥ç¨ĭç®¡çĲĨ": 7544,
      "æĸ¯ç§ĳ": 7545,
      "ç«¯æŃ£": 7546,
      "ç«¯ç²Ĵ": 7547,
      "ç½ĳç»ľè¯ĪéªĹ": 7548,
      "äºĳéĽĨ": 7549,
      "äºĳé£ŀ": 7550,
      "äºĳè®¡ç®Ĺ": 7551,
      "è¯Ħè®º": 7552,
      "ä¿Ħä¸Ń": 7553,
      "éĻĲæľŁ": 7554,
      "åı¶èĥĮ": 7555,
      "è¡¥åħħ": 7556,
      "å·®åĪ«": 7557,
      "ç¼ºå¤±": 7558,
      "å¿«ä¹Ĳ": 7559,
      "ï¼īãĢĤï¼ļ": 7560,
      "æķĻå¸Īä¸ĵä¸ļ": 7561,
      "è¿Ļæĺ¯åĽłä¸º": 7562,
      "è¾ĵéĢģ": 7563,
      "è®¤ä¸ºæĺ¯": 7564,
      "çªģçĦ¶": 7565,
      "é¥±": 7566,
      "é¥¼": 7567,
      "çł´è£Ĥ": 7568,
      "éĺ²å¾¡": 7569,
      "åĿļå®ļ": 7570,
      "åĿļåĨ³": 7571,
      "2002": 7572,
      "2006": 7573,
      "å®³äºĨ": 7574,
      "èĥŀæł¹": 7575,
      "èĥŀèĥİ": 7576,
      "çľ¼åĬ¨": 7577,
      "çľ¼çĲĥ": 7578,
      "æĬķèµĦåħ¥èĤ¡": 7579,
      "åħ´å»º": 7580,
      "äººæ°ĳçļĦ": 7581,
      "æŁĵèī²": 7582,
      "å°Ħç¨ĭ": 7583,
      "èĤ¡ç¥¨": 7584,
      "åħħè¶³": 7585,
      "çıł": 7586,
      "ä¸¾æĬ¥": 7587,
      "åĨľä¿¡ç¤¾": 7588,
      "å¥¹çļĦ": 7589,
      "æĶ¶åħ¥çļĦ": 7590,
      "çº¢åĪ©": 7591,
      "æłĩåĩĨçļĦ": 7592,
      "æłĩåĩĨåĮĸ": 7593,
      "åįĥä¸ĩ": 7594,
      "åįĥç±³": 7595,
      "æł¡éķ¿": 7596,
      "åºĻåĨħ": 7597,
      "åºĻå®ĩ": 7598,
      "æĵįåľº": 7599,
      "é¼İ": 7600,
      "æģ¶åĮĸ": 7601,
      "ä¸ĢèĪ¬çļĦ": 7602,
      "å°½å¿«": 7603,
      "åıĭè°Ĭ": 7604,
      "æŃ£ä¹īè®º": 7605,
      "äº²èĩª": 7606,
      "æĹıäºº": 7607,
      "æĬĹä½ĵ": 7608,
      "çĲĥåľº": 7609,
      "åħ¨éĿ¢æİ¨è¿Ľ": 7610,
      "æİ§åĪ¶ä»·": 7611,
      "æİ¢ç©¶": 7612,
      "åĭ¾": 7613,
      "åĭĴ": 7614,
      "å¼¹å¤´": 7615,
      "åĬłå¼ºèĩªèº«çļĦ": 7616,
      "åĢŁçĶ¨": 7617,
      "æľ¨åĻ¨": 7618,
      "äººä»¬åľ¨": 7619,
      "çİīä»Ļ": 7620,
      "éĩĳèŀįæľºæŀĦ": 7621,
      "çĮª": 7622,
      "å¯ĨçļĦ": 7623,
      "å¯Ĩçłģ": 7624,
      "æ¹Ľ": 7625,
      "åĲ«ä¹ī": 7626,
      "åįĬå²Ľ": 7627,
      "åĽ½éĻħåħ³ç³»": 7628,
      "æħİ": 7629,
      "çķĻä½ı": 7630,
      "æ°´å¹³åĴĮ": 7631,
      "æĿ¡ä»¶çļĦ": 7632,
      "ä¿ĥè¿Ľå¹¼åĦ¿": 7633,
      "ä¸¤ä¸ªåŃ©åŃĲ": 7634,
      "å¢ŀåĬłäºĨ": 7635,
      "çļ®åĪº": 7636,
      "ç¥ĸçĪ¶æ¯į": 7637,
      "all": 7638,
      "çĵ£": 7639,
      "çĵ¶": 7640,
      "æİĪäºĪ": 7641,
      "è½¯äº§éģĵ": 7642,
      "å®ĮæĪĲä»»åĬ¡": 7643,
      "åĬ³åĬ¨åĲĪåĲĮ": 7644,
      "æĹ¢æĺ¯": 7645,
      "æĿİåģ¥": 7646,
      "èĻļåģĩ": 7647,
      "ä»·åĢ¼çļĦ": 7648,
      "èĮĥåĽ´çļĦ": 7649,
      "å°ģå»º": 7650,
      "åĵªä¸ª": 7651,
      "éģĹä¼ł": 7652,
      "éĺŁä¼į": 7653,
      "å¼ĢåıĳåĩºæĿ¥çļĦ": 7654,
      "çłģå¤´": 7655,
      "çŁ¥éģĵäºĨ": 7656,
      "çĻ¾åº¦ä¸İ": 7657,
      "è®Ńç»ĥä¸İæĮĩå¯¼": 7658,
      "æĢİä¹ĪåĬŀ": 7659,
      "çĭ¬çĶŁåŃĲå¥³å®¶åºŃ": 7660,
      "åĪļæīį": 7661,
      "ä¸įä¼ļæľī": 7662,
      "ç¼©å°ı": 7663,
      "çĦ¶åĲİåľ¨": 7664,
      "çĦ¶åĲİæīįèĥ½": 7665,
      "çŁŃä¿¡": 7666,
      "åŁİå¸Ĥç¾¤": 7667,
      "çıŃä¸»ä»»": 7668,
      "æ³ķå¾ĭèĭ¥å¹²éĹ®é¢ĺçļĦ": 7669,
      "çº³ç¨İçĶ³æĬ¥": 7670,
      "åįıè®®åĮ»å¸Ī": 7671,
      "âĳ£": 7672,
      "åĤħ": 7673,
      "èµĽæĹ¶ç¤¼": 7674,
      "å®ļçĤ¹ç®¡çĲĨæļĤè¡ĮåĬŀæ³ķ": 7675,
      "åºĶå½ĵæĮīçħ§": 7676,
      "ç¯®": 7677,
      "åħ¸ç±į": 7678,
      "è¯¸å·±": 7679,
      "è¯Ĺè¯į": 7680,
      "è¯ĹæŃĮ": 7681,
      "èĥ¡æĽ¾": 7682,
      "ç´§ç¼©": 7683,
      "1998": 7684,
      "æĶ»åĿļ": 7685,
      "æ··æ²Įå¦Ĥ": 7686,
      "çĨĻ": 7687,
      "éĿĴå¹´": 7688,
      "åħļçļĦæĢĿæĥ³è·¯çº¿": 7689,
      "ä¸įåı¯éģ¿åħį": 7690,
      "å½Ĵå®¿": 7691,
      "çģŃç»Ŀ": 7692,
      "ä¿Ħç½Ĺæĸ¯äºº": 7693,
      "etMet": 7694,
      "è¯¯å·®": 7695,
      "å·¨å¤§": 7696,
      "å·¨å¤´": 7697,
      "åĮ»ä¿Ŀåįıè®®åĮ»å¸Ī": 7698,
      "ç§»åĬ¨ä½įç½®æľįåĬ¡": 7699,
      "æĶ¿åĬ¡åħ¬å¼Ģ": 7700,
      "åľ°åĽ¾æķ°æį®": 7701,
      "é¢Ĩå¯¼äºº": 7702,
      "åŁĥåıĬçŁ³æ²¹": 7703,
      "334313": 7704,
      "ä¹ıåĬĽ": 7705,
      "æī¶æĮģ": 7706,
      "æĿ°åĩº": 7707,
      "ç«ŀèµĽ": 7708,
      "èµĦäº§è´ŁåĢº": 7709,
      "èĭıèģĶ": 7710,
      "åĪĽéĢłäºĨ": 7711,
      "çļĦéĩįè¦ģæĢ§": 7712,
      "äº¦ä¸į": 7713,
      "ä¼ĳåħ»": 7714,
      "ç§ģåĪ©": 7715,
      "åģļåĩºçļĦ": 7716,
      "å®ĥä»¬çļĦ": 7717,
      "åĶĲèĴĻ": 7718,
      "å®ĮåĸĦçļĦ": 7719,
      "ä¸įå¾Ĺä¸į": 7720,
      "è¥¿æĸ¹äºº": 7721,
      "éĨĩ": 7722,
      "éĨī": 7723,
      "è½®çº¹": 7724,
      "å¼ĢæĶ¾çļĦ": 7725,
      "åı«åģļ": 7726,
      "é¡¾éĹ®": 7727,
      "åĬ³åĬ¡è´¹": 7728,
      "æĹĭæµģéĢļéģĵ": 7729,
      "ä¸Ńå°ıéĵ¶è¡Į": 7730,
      "çĶµåĬ¨è½¦": 7731,
      "è½¯ä»¶çļĦ": 7732,
      "ation": 7733,
      "æĻļå¹´": 7734,
      "çĽ¸åĲĮçļĦ": 7735,
      "èģļéĽĨ": 7736,
      "èĦ±ç¦»": 7737,
      "æľªæĿ¥å°Ĩ": 7738,
      "ä¸Ńä¿Ħä¹ĭéĹ´çļĦ": 7739,
      "éĩİåħ½": 7740,
      "æŁĶæ¯Ľ": 7741,
      "èĦıåĻ¨": 7742,
      "èŃ¦æĥķ": 7743,
      "å°¤ä¸º": 7744,
      "åĪĨå¸ĥåĽ¾": 7745,
      "æĬ¥åĳĬæĮĩåĩº": 7746,
      "ä»°ç¥ĿæĽ°": 7747,
      "èµłä¸İ": 7748,
      "æ¯ķä¸ļ": 7749,
      "æ¯ķç«Ł": 7750,
      "å½¢éķ¿ä¸īå¯¸": 7751,
      "icon": 7752,
      "çļĦçĶŁåŃĺ": 7753,
      "åįµå½¢æĪĸ": 7754,
      "åī²æį®": 7755,
      "èµĦéĩĳæĿ¥æºĲ": 7756,
      "å®Įæķ´æĢ§": 7757,
      "ä»ĭç»įä¸Ģä¸ĭ": 7758,
      "é¥®é£Ł": 7759,
      "ç¹ģåįİ": 7760,
      "æĬ±æĢ¨": 7761,
      "ç¨»ç§į": 7762,
      "çĦ¦çĤ¹": 7763,
      "æīĭæľ¯æ²»çĸĹ": 7764,
      "ï¼ħï¼Į": 7765,
      "ä»¿ä½Ľ": 7766,
      "åĲ¯ç¤º": 7767,
      "èĥ¶è´¨ç»Ĩèĥŀ": 7768,
      "ä¾µçĬ¯": 7769,
      "ity": 7770,
      "æĢĢçĸĳ": 7771,
      "æĬ½åıĸ": 7772,
      "ç³ĸå°¿": 7773,
      "åĪ©æ¶¦çİĩ": 7774,
      "çĨŁæĤī": 7775,
      "åĽ½å®¶ç¨İåĬ¡æĢ»å±Ģåħ³äºİåıĳå¸ĥ": 7776,
      "çĽĪåĪ©æ¨¡å¼ı": 7777,
      "åªĴä½ĵåĴĮ": 7778,
      "åŃ¦åīįæķĻèĤ²å¸ĪèµĦ": 7779,
      "è¤Ĳèī²èĩ³": 7780,
      "æĦĪæĿ¥æĦĪ": 7781,
      "éĿ¢ä¸´çļĦ": 7782,
      "æĽ¿ä»£": 7783,
      "ä»Ĭå¤©çļĦ": 7784,
      "ä¸Ńå°ıå¾®ä¼ģä¸ļæĬĹçĸ«": 7785,
      "å³°": 7786,
      "æĿ¨å¹¿": 7787,
      "çĶŁæĢģçİ¯å¢ĥ": 7788,
      "å¿½çķ¥": 7789,
      "æĮĩå®ļç«¯åı£": 7790,
      "éĢĤçĶ¨ä¸ªäººæīĢå¾Ĺç¨İ": 7791,
      "ä¸°å¯ĮçļĦ": 7792,
      "åĲŀåĲĲ": 7793,
      "å¹ħåº¦": 7794,
      "æīİå®ŀ": 7795,
      "æĳĦåıĸ": 7796,
      "éĶĻè¯¯çļĦ": 7797,
      "åĺī": 7798,
      "çĳĽ": 7799,
      "æĺ¯æľĢå¥½çļĦ": 7800,
      "è¯±å¯¼": 7801,
      "éģŃåĪ°": 7802,
      "åĲĮåŃ¦ä»¬": 7803,
      "ç¦ħå®Ĺ": 7804,
      "æĹ¥èµ·æĸ½è¡Į": 7805,
      "ä¸»ç®¡ä¸İéĥ¨å±ŀå¿ħé¡»": 7806,
      "æĳ©è¯ĥæŃ¢è§Ĥ": 7807,
      "å°ıåŃ¦æķĻèĤ²ä¸ĵä¸ļåŃ¦çĶŁ": 7808,
      "æĮºçĽ´": 7809,
      "æĹłäººæľº": 7810,
      "æĹłäººé©¾é©¶": 7811,
      "èİ«æĸ¯ç§ĳ": 7812,
      "åĽºå®ļçļĦ": 7813,
      "æķ°åŃĹåĮĸè½¬åŀĭ": 7814,
      "æīĢè°ĵçļĦ": 7815,
      "æ´Ľéĺ³": 7816,
      "åĵįåºĶæĬ¥æĸĩ": 7817,
      "ä¹¡æĿĳçļĦç»¿èī²": 7818,
      "ä¸Ńåįİäººæ°ĳåħ±åĴĮåĽ½ä¸ªäººæīĢå¾Ĺç¨İæ³ķ": 7819,
      "äº§åĲİåĩºè¡ĢçļĦåİŁåĽł": 7820,
      "ä¹łè¿ĳå¹³ä¸»å¸Ń": 7821,
      "707": 7822,
      "é¹¤å±±": 7823,
      "æĪªæŃ¢": 7824,
      "åĵ¥åĵ¥": 7825,
      "åħ¬ä¼Ĺåı·": 7826,
      "ä¸ľçĽŁèĩªçĶ±è´¸æĺĵ": 7827,
      "èħĲè´¥": 7828,
      "è´¯å½»æī§è¡Į": 7829,
      "ography": 7830,
      "éŀŃ": 7831,
      "éĻ¶åĻ¨": 7832,
      "è¿ĩæķıåıįåºĶ": 7833,
      "åĬłçıŃè´¹": 7834,
      "éħįéĢģä¸Ńå¿ĥ": 7835,
      "ç¿»è¯ĳ": 7836,
      "æī£ç¼´çĶ³æĬ¥": 7837,
      "é²ģåĽ½": 7838,
      "313334313": 7839,
      "ĠTCP": 7840,
      "åºŀå¤§": 7841,
      "ä»¥å¤ĸçļĦä¸ªäºº": 7842,
      "åıĳè¨Ģäºº": 7843,
      "éĺĶçļĦ": 7844,
      "ç¾½çĽĸ": 7845,
      "éĤ£æł·çļĦäºº": 7846,
      "å¹¼åĦ¿åĽŃæķĻå¸Īä¸ĵä¸ļ": 7847,
      "çħ®": 7848,
      "å¼¯æĽ²": 7849,
      "éĻķè¥¿çľģ": 7850,
      "ä¾įéĥİ": 7851,
      "åī¥å¤º": 7852,
      "åī©ä¸ĭ": 7853,
      "æ¸¡è¿ĩéļ¾": 7854,
      "çĿ¡çľł": 7855,
      "çĪ¸çĪ¸": 7856,
      "æĺ¯åĲ¦éľĢè¦ģç¼´çº³ä¸ªäººæīĢå¾Ĺç¨İ": 7857,
      "å¤ĸä¼¤æĢ§åĩºè¡ĢçļĦ": 7858,
      "éĢĨè½¬": 7859,
      "åĨ¯å¼Ĥ": 7860,
      "çĶŁåŃĺçļĦ": 7861,
      "çī¢åĽº": 7862,
      "é«ĺå¾·åľ°åĽ¾": 7863,
      "æĸ°é£İæľºç»Ħ": 7864,
      "å¤©çĦ¶æ°Ķ": 7865,
      "æĸĩçī©ä¿ĿæĬ¤": 7866,
      "éħ¿éħĴ": 7867,
      "èĪŀåı°": 7868,
      "å¤ªæŀģæĭ³": 7869,
      "èĳ£æ°¸": 7870,
      "æ¦Ĥæĭ¬åĩº": 7871,
      "......": 7872,
      "BCD": 7873,
      "äººå·¥æĻºèĥ½": 7874,
      "ä¸Ńç©ºçº¤ç»´èĨľä¸Ŀ": 7875,
      "å¼ĺæī¬": 7876,
      "æĬ¬å¤´": 7877,
      "è½¨éģĵ": 7878,
      "å®ŀè®Ńå®¤": 7879,
      "æıŃç¤º": 7880,
      "æŃ£éĿ¢æ¸ħåįķ": 7881,
      "å¢¨æ°´": 7882,
      "ç¡ķå£«": 7883,
      "çī©æĸĻæ¸ħåįķ": 7884,
      "ä»£çĲĨäºº": 7885,
      "è¿ľç¨ĭæķĻèĤ²": 7886,
      "éĻĦè¿ĳçļĦ": 7887,
      "åŃĲå®«èħĶéķľ": 7888,
      "èĻļæĭŁæł·æľºæĬĢæľ¯": 7889,
      "éĺ³åħīæĶ¿åĬ¡ä¿¡æģ¯æľįåĬ¡å·¥ç¨ĭå»ºè®¾": 7890,
      "çĥŁåı°å¸Ĥ": 7891,
      "åħĦå¼Łå§": 7892,
      "åķĨåĬ¡æ´»åĬ¨æĮĩæķ°ä¸º": 7893,
      "æ¾Ħ": 7894,
      "ä¸Īå¤«": 7895,
      "æ°¨éħ¸": 7896,
      "èĩªæ²»åĮº": 7897,
      "å¤ļæł·åĮĸ": 7898,
      "æ¯Ķä¸ĬæľĪä¸ĭéĻį": 7899,
      "èį§åħī": 7900,
      "æĢ»é¢Ŀé¢Ħç®Ĺ": 7901,
      "æĬĢæľ¯è·¯çº¿åĽ¾": 7902,
      "å¤ªéĺ³ç³»": 7903,
      "æī¿åĮħä¼ģä¸ļ": 7904,
      "åŁºæľ¬åĮ»çĸĹä¿ĿéĻ©": 7905,
      "æĳ§æ¯ģ": 7906,
      "ç§ĳæĬĢæĪĲæŀľè½¬åĮĸ": 7907,
      "åºĵåŃĺéĩı": 7908,
      "æī©å±ķèµĦæĸĻ": 7909,
      "å¤§åŃ¦çĶŁåĪĽæĸ°åĪĽä¸ļè®Ńç»ĥä¸İæĮĩå¯¼": 7910,
      "åıĤèĢĥèµĦæĸĻæĿ¥æºĲ": 7911,
      "rome": 7912,
      "é³Ľéĥ¨": 7913,
      "ä¸įäºĪåıĹçĲĨ": 7914,
      "ä»¥å¤ªç½ĳ": 7915,
      "åĪĨæµģåŃĶ": 7916,
      "ç»ıåĬŀæľºæŀĦ": 7917,
      "è½¬æį¢ä¸º": 7918,
      "æĻ¯æ°ĶåĮºéĹ´": 7919,
      "ç¢°æĴŀ": 7920,
      "å®¤åĨħå®ļä½į": 7921,
      "å®¶åºŃç»ıæµİåĽ°éļ¾åŃ¦çĶŁ": 7922,
      "èĥ¡èĲĿåįľç´ł": 7923,
      "èĿ¶": 7924,
      "åĩ½æķ°": 7925,
      "é¢łè¦Ĩ": 7926,
      "æµıè§ĪåĻ¨": 7927,
      "æľĢæĹ©çļĦ": 7928,
      "æĹłçĽĺæĬĽç§§": 7929,
      "åįķè½¦BOM": 7930,
      "æł¹è·¯å¾Ħå¼ĢéĶĢ": 7931,
      "åħŃèĲ¥æĿĳ": 7932,
      "åıĮä¸ŃåŃĲæĺŁå¹¶åĲĪ": 7933,
      "æĸĩåĮĸçłĶç©¶ä¼ļ": 7934,
      "çĶ²çĬ¶èħº": 7935,
      "åĲĦåľ°åĲĦéĥ¨éĹ¨è¦ģ": 7936,
      "Name": 7937,
      "SheetMet": 7938,
      "notyet": 7939,
      "ä¸ŃæĸĩåŃĹæł·": 7940,
      "æ³ķç²¾ç¥ŀåĪĨæŀĲåŁ¹è®Ń": 7941,
      "å®ŀäºĭæ±Ĥæĺ¯": 7942,
      "åºĶç¨İæīĢå¾Ĺé¡¹çĽ®": 7943,
      "å»ºæ¡£ç«ĭåį¡": 7944,
      "æ°´èĴ¸æ°Ķ": 7945,
      "çĿĢçľ¼äºİ": 7946,
      "åĲĳæľ¬åįķä½įä»¥å¤ĸçļĦä¸ªäºº": 7947,
      "åįĹæ²ĻéĽĨåĽ¢": 7948,
      "çĽ´è¾ĸå¸Ĥ": 7949,
      "å¤§åŃ¦éĻĦå±ŀ": 7950,
      "ç«¯ç²Ĵéħ¶": 7951,
      "è½¯äº§éģĵè£Ĥä¼¤": 7952,
      "åĲŀåĲĲéĩı": 7953,
      "é¹¤å±±æĿĳ": 7954,
      "ä¸ľçĽŁèĩªçĶ±è´¸æĺĵåĮº": 7955,
      "3133343136": 7956,
      "æ¸¡è¿ĩéļ¾åħ³": 7957,
      "SheetMetal": 7958,
      "å»ºæ¡£ç«ĭåį¡è´«åĽ°æĪ·": 7959,
      "åĲĳæľ¬åįķä½įä»¥å¤ĸçļĦä¸ªäººèµłéĢģç¤¼åĵģ": 7960,
      "$ï¼Ī": 7961,
      "%ï¼Ľ": 7962,
      "):": 7963,
      "+âĢĿ": 7964,
      "32": 7965,
      "36": 7966,
      "320": 7967,
      "46": 7968,
      "47": 7969,
      "51": 7970,
      "53": 7971,
      "567": 7972,
      "61": 7973,
      "616": 7974,
      "626": 7975,
      "76": 7976,
      "91": 7977,
      "92": 7978,
      "964": 7979,
      "Al": 7980,
      "Am": 7981,
      "BA": 7982,
      "CG": 7983,
      "Cl": 7984,
      "DH": 7985,
      "EE": 7986,
      "ERT": 7987,
      "GDP": 7988,
      "Le": 7989,
      "PT": 7990,
      "TSH": 7991,
      "Val": 7992,
      "ay": 7993,
      "air": 7994,
      "bm": 7995,
      "cn": 7996,
      "con": 7997,
      "ga": 7998,
      "gbm": 7999,
      "hop": 8000,
      "ib": 8001,
      "ian": 8002,
      "ki": 8003,
      "nel": 8004,
      "pe": 8005,
      "ple": 8006,
      "rot": 8007,
      "ric": 8008,
      "ram": 8009,
      "ss": 8010,
      "tr": 8011,
      "tine": 8012,
      "ub": 8013,
      "ut": 8014,
      "ual": 8015,
      "yc": 8016,
      "¡æħķ": 8017,
      "£åħ³ç³»": 8018,
      "¨è¯¢": 8019,
      "®å°ı": 8020,
      "®æĬĹ": 8021,
      "¹èģĶ": 8022,
      "ºçī": 8023,
      "æ©": 8024,
      "ç°": 8025,
      "Ġ-": 8026,
      "ĠE": 8027,
      "ĠP": 8028,
      "Ġs": 8029,
      "Ġä»¥": 8030,
      "Ġé«ĺ": 8031,
      "Ġ10": 8032,
      "ĠæľįåĬ¡åĻ¨": 8033,
      "Ġ25": 8034,
      "Ġä»¥ä¸ĭ": 8035,
      "ĠåŁºäºİ": 8036,
      "Ġ100": 8037,
      "ĠåĪ¶ä½ľ": 8038,
      "Ġä¸ĸçºª": 8039,
      "Ġåħ¬åħĥåīį": 8040,
      "Ġä¹¡éķĩ": 8041,
      "Ġbaidu": 8042,
      "Ġå°ī": 8043,
      "Ġæ°ĳèĲ¥": 8044,
      "Ĭå¤©": 8045,
      "ıåĪ¶": 8046,
      "ĲçļĦ": 8047,
      "Ĳå¦¹": 8048,
      "Ĺåİĭ": 8049,
      "ļè¯Ń": 8050,
      "ŀçĶŁ": 8051,
      "ŁåŃĲè¯´": 8052,
      "ï¼Ĳ": 8053,
      "ï¼ĳ": 8054,
      "ï¼Į(": 8055,
      "ï¼Įï¼Ī": 8056,
      "çļĦè¿ĩ": 8057,
      "çļĦå®¶": 8058,
      "çļĦå¼Ģ": 8059,
      "çļĦå¿ĥ": 8060,
      "çļĦåĽĽ": 8061,
      "çļĦè¿Ľè¡Į": 8062,
      "çļĦå®īåħ¨": 8063,
      "çļĦéĵ": 8064,
      "çļĦç½ĳç»ľ": 8065,
      "çļĦæīĢæľī": 8066,
      "çļĦç§¯æŀģ": 8067,
      "çļĦåĨľ": 8068,
      "çļĦç¬¬äºĮ": 8069,
      "çļĦè®¾å¤ĩ": 8070,
      "çļĦå®¶åºŃ": 8071,
      "çļĦæľ¨": 8072,
      "çļĦæľ¬æĢ§": 8073,
      "çļĦä¼łç»Ł": 8074,
      "çļĦè´£ä»»": 8075,
      "çļĦèĮĥåĽ´": 8076,
      "çļĦæĪĲæľ¬": 8077,
      "çļĦå¢ŀéķ¿": 8078,
      "çļĦåĨ³å®ļ": 8079,
      "çļĦåĪĨéħį": 8080,
      "çļĦæķ°åŃĹ": 8081,
      "çļĦé£İéĻ©": 8082,
      "çļĦèµĦäº§": 8083,
      "çļĦåĦ¿åŃĲ": 8084,
      "çļĦå¤±çĭ¬": 8085,
      "çļĦæķĪçİĩ": 8086,
      "çļĦä¼ĺåĮĸ": 8087,
      "çļĦè¡Ģç®¡": 8088,
      "çļĦåıĺåĮĸ": 8089,
      "çļĦæķħäºĭ": 8090,
      "çļĦæĸ°åŀĭ": 8091,
      "çļĦæĿĥåĪ©": 8092,
      "çļĦæĸĩåŃĹ": 8093,
      "çļĦå¦Īå¦Ī": 8094,
      "çļĦé«ĺåº¦": 8095,
      "çļĦéĶģ": 8096,
      "çļĦç´łè´¨": 8097,
      "çļĦæ¦Ĥå¿µ": 8098,
      "çļĦè¿Ŀæ³ķ": 8099,
      "çļĦæķıæĦŁ": 8100,
      "çļĦä¹łä¿Ĺ": 8101,
      "çļĦä¿®åħ»": 8102,
      "çļĦç¼©åĨĻ": 8103,
      "çļĦæīĭæ³ķ": 8104,
      "å®¾": 8105,
      "å¤ķ": 8106,
      "å¤Ń": 8107,
      "åĲ¹": 8108,
      "ãĢģâĢľ": 8109,
      "ç»³": 8110,
      "ä¸ĢæĹ¶": 8111,
      "ä¸ĢåĲį": 8112,
      "ä¸Ģä¹¦": 8113,
      "ä¸Ģæ¬¾": 8114,
      "ä¸Ģå¼Ģå§ĭ": 8115,
      "ä¸Ģå¼ł": 8116,
      "ä¸Ģä½ĵçļĦ": 8117,
      "ä¸ĢæĿ¯": 8118,
      "ä¸Ģéĺµ": 8119,
      "ä¸Ģç³»åĪĹ": 8120,
      "ä¸Ģä¹¦ä¸Ń": 8121,
      "åŃŁåŃĲè¯´": 8122,
      "è¯ŀçĶŁ": 8123,
      "å°ĺ": 8124,
      "å¹ķ": 8125,
      "äººæĸĩ": 8126,
      "äººç¾¤": 8127,
      "äººæĪĸèĢħ": 8128,
      "äººéĻħåħ³ç³»": 8129,
      "æī«": 8130,
      "ä¸įçĲĨ": 8131,
      "ä¸įåĪĨ": 8132,
      "ä¸įåĬ¨": 8133,
      "ä¸įè¿Ľ": 8134,
      "ä¸įåºĶ": 8135,
      "ä¸įåıĬ": 8136,
      "ä¸įçĶ±": 8137,
      "ä¸įä½Ĩ": 8138,
      "ä¸įåħ·": 8139,
      "ä¸įåıĹ": 8140,
      "ä¸įçŁ¥": 8141,
      "ä¸įè®º": 8142,
      "ä¸įæŃ»": 8143,
      "ä¸įæ»¡": 8144,
      "ä¸įæŃ£ä¹ī": 8145,
      "ä¸įä¸Ģæł·": 8146,
      "ä¸įåĪ©äºİ": 8147,
      "ä¸įå¾ģæĶ¶ä¸ªäººæīĢå¾Ĺç¨İ": 8148,
      "åľ¨å¤ĸ": 8149,
      "åľ¨ä¸¤": 8150,
      "åľ¨ç½ĳç»ľ": 8151,
      "åľ¨ç»ıèĲ¥": 8152,
      "åľ¨æ³ķå¾ĭ": 8153,
      "åľ¨åĽ½åĨħ": 8154,
      "åľ¨è¿ĩåİ»": 8155,
      "åľ¨åħ¨çĲĥ": 8156,
      "åľ¨æķ´ä¸ª": 8157,
      "åľ¨åĪ¶åĵģ": 8158,
      "åľ¨ä¸ªäººæĪĲéķ¿": 8159,
      "è¡Ķ": 8160,
      "æľīä¸ª": 8161,
      "æľīåĬĽ": 8162,
      "æľīçĤ¹": 8163,
      "æľīåŁº": 8164,
      "æľīå¾Īå¤ļ": 8165,
      "æľīä¿¡å¿ĥ": 8166,
      "æľīä¸¤ç§į": 8167,
      "ä¸ºä»ĸ": 8168,
      "ä¸ºä¸Ģä¸ª": 8169,
      "ä¸ºæĪĳä»¬": 8170,
      "ä¸ºé¢ĺ": 8171,
      "ä¸ºæł¹": 8172,
      "ä¸ºåĳĺå·¥": 8173,
      "ä¸ºéĽ¶": 8174,
      "ä¸ºå¤ļå·´èĥº": 8175,
      "ä¸ºå¤§å°ĨåĨĽ": 8176,
      "ä¸ºèĵĿèī²": 8177,
      "è´±": 8178,
      "ä¸ŃæľĢ": 8179,
      "ä¸ŃæŃ£": 8180,
      "ä¸Ńä¹¦": 8181,
      "ä¸Ńè¡¨è¾¾": 8182,
      "ä¸Ńæ³ķç²¾ç¥ŀåĪĨæŀĲåŁ¹è®Ń": 8183,
      "èĥ¤": 8184,
      "èĥļ": 8185,
      "å¯¡": 8186,
      "å¯ĵ": 8187,
      "éĢĬ": 8188,
      "åĩ°": 8189,
      "åĩ¶": 8190,
      "åĩĦ": 8191,
      "åĩĭ": 8192,
      "åĩĳ": 8193,
      "æķ²": 8194,
      "æķĽ": 8195,
      "å¸ķ": 8196,
      "èĢį": 8197,
      "åĴ¨è¯¢": 8198,
      "åĨ¬": 8199,
      "çİ»": 8200,
      "å±ł": 8201,
      "åĴĮè¾": 8202,
      "åĴĮæĸ°": 8203,
      "åĴĮä¸ŃåĽ½": 8204,
      "åĴĮæĬĢæľ¯": 8205,
      "åĴĮä½¿çĶ¨": 8206,
      "åĴĮè¡Įä¸º": 8207,
      "åĴĮåĪĽæĸ°": 8208,
      "åĴĮçĪ±": 8209,
      "åĴĮPRL": 8210,
      "åĴĮè®¯": 8211,
      "åĴĮåĪ©çĽĬ": 8212,
      "åĴĮçł´åĿı": 8213,
      "åĴĮèī²å½©": 8214,
      "åĴĮå°Ĭéĩį": 8215,
      "åĴĮMRI": 8216,
      "åĴĮä¾¿æ°ĳ": 8217,
      "çĽ¼": 8218,
      "çĽĹ": 8219,
      "æĬ¹": 8220,
      "æĬ¼": 8221,
      "ä»¥æĪĲ": 8222,
      "ä»¥æīĭ": 8223,
      "ä»¥ä¾¿": 8224,
      "ä»¥åħį": 8225,
      "ä»¥æľ¬åĳ½": 8226,
      "ä¿Ĭ": 8227,
      "èĩŃ": 8228,
      "äºĨä¸ª": 8229,
      "äºĨä»ĸ": 8230,
      "äºĨè¿Ļä¸ª": 8231,
      "äºĨä¸ĢäºĽ": 8232,
      "äºĨåĲĹ": 8233,
      "äºĨä¸įå°ĳ": 8234,
      "ä¸ªç¨İ": 8235,
      "ä¸ªæ¡Ī": 8236,
      "éĥĳ": 8237,
      "çĶŁæģ¯": 8238,
      "çĶŁæĹ¥": 8239,
      "æ³ª": 8240,
      "åĽ½æ°ĳ": 8241,
      "åĽ½çİĭ": 8242,
      "èĥ½åĲ¦": 8243,
      "èĥ½äº§çĶŁ": 8244,
      "å¤§ä¸Ń": 8245,
      "å¤§å¥½": 8246,
      "å¤§åĨĽ": 8247,
      "å¤§å¸Ŀ": 8248,
      "å¤§åĬ¿": 8249,
      "å¤§æķ°æį®": 8250,
      "å¤§æ¦Ĥ": 8251,
      "å¤§çĶ°": 8252,
      "çĶ¨è½¦": 8253,
      "çĶ¨èį¯": 8254,
      "çĶ¨æĻ®éĢļè¯Ŀ": 8255,
      "è¿Ļå¯¹": 8256,
      "è¿ĻåĽĽ": 8257,
      "è¿ĻæĹ¶åĢĻ": 8258,
      "è¿Ļä½¿å¾Ĺ": 8259,
      "è¿Ļä¸īä¸ª": 8260,
      "è¿Ļä¸¤ç§į": 8261,
      "èµ«": 8262,
      "è¦ģåįł": 8263,
      "åİ¥": 8264,
      "å¹´åľ¨": 8265,
      "å¹´ä¸º": 8266,
      "å¹´åĲİ": 8267,
      "å¹´ä¸ŃåĽ½": 8268,
      "âĢĿ;": 8269,
      "åıĳäºº": 8270,
      "åıĳä½ľ": 8271,
      "åıĳæİĺ": 8272,
      "å¯¹æŃ¤": 8273,
      "å¯¹ä¸ŃåĽ½": 8274,
      "å¯¹éĥ¨å±ŀçļĦ": 8275,
      "ä¸Ĭç½ĳ": 8276,
      "ä¸Ĭæ¸ħ": 8277,
      "ä¸Ĭè·¯": 8278,
      "ä¸Ĭå±Ĥ": 8279,
      "äºİä¸ĭéĿ¢": 8280,
      "äºİåĪĢ": 8281,
      "åı¯æł¹æį®": 8282,
      "åı¯è¯»": 8283,
      "åı¯åĪĨä¸º": 8284,
      "åı¯éħįç½®": 8285,
      "ä¼ļæĺ¯": 8286,
      "ä¼ļå¯¹": 8287,
      "ä¼ļéĿ¢": 8288,
      "ä¼ļè®¡": 8289,
      "ä¼ļç©´": 8290,
      "åŃ¦å¾Ĵ": 8291,
      "çīºçī": 8292,
      "è¡ĮäºĨ": 8293,
      "æĪĲåĪĨ": 8294,
      "æĪĲè´¥": 8295,
      "è¾Ī": 8296,
      "é¢ĩ": 8297,
      "åĩºåħ¥": 8298,
      "åĩºåħ·": 8299,
      "åĩºåİ»": 8300,
      "åĩºåĶ®": 8301,
      "åĩºäºĨä¸Ģ": 8302,
      "çĲĨå·¥": 8303,
      "æĪĳæĺ¯": 8304,
      "æĪĳå°±": 8305,
      "æĪĳä¹Ł": 8306,
      "æĪĳæīį": 8307,
      "æ²ĥ": 8308,
      "åĪĨå·¥": 8309,
      "åĪĨåĮº": 8310,
      "åĪĨæŀĿ": 8311,
      "åĪĨéĴŁ": 8312,
      "åĪĨçĶŁåŃ¢åŃĲ": 8313,
      "æĮ¡": 8314,
      "æĮ«": 8315,
      "ä½ľä¹±": 8316,
      "ï¼ļãĢĮ": 8317,
      "å®ļçļĦ": 8318,
      "å®ļè¦ģ": 8319,
      "å®ļæľŁ": 8320,
      "æ³ķä»¤": 8321,
      "ä¸»æµģ": 8322,
      "ä¸»è§Ĥ": 8323,
      "åĬ¡å¿ħ": 8324,
      "æĿ¥æīĵåĩ»ç¾İåĨĽ": 8325,
      "æīĢè¯´": 8326,
      "æīĢç¤º": 8327,
      "æīĢè¶ĭ": 8328,
      "å·¥åķĨ": 8329,
      "åĵĢ": 8330,
      "åĵĪ": 8331,
      "å°±åı¯": 8332,
      "å°±åĮ»": 8333,
      "å°±éľĢè¦ģ": 8334,
      "å°±å¿ħé¡»": 8335,
      "å°±å·²ç»ı": 8336,
      "å°±åºĶè¯¥": 8337,
      "éĥ¨åıĳ": 8338,
      "éĥ¨ä½į": 8339,
      "éĥ¨å§Ķ": 8340,
      "éĥ¨å°ļä¹¦": 8341,
      "å¦®": 8342,
      "åĪ°è¾¾": 8343,
      "åĪ°è®¿": 8344,
      "äº§çļĦ": 8345,
      "æĭ¨": 8346,
      "æĭĺ": 8347,
      "æĭ®æĬĹ": 8348,
      "ä¹ĭäºº": 8349,
      "ä¹ĭä¸º": 8350,
      "ä¹ĭåĴĮ": 8351,
      "ä¹ĭè·¯": 8352,
      "çİ°è¡Į": 8353,
      "å¾ĹåĪ°äºĨ": 8354,
      "ä¸ĭè¡Į": 8355,
      "ä¸ĭåħ¥": 8356,
      "ä¸ĭæĿ¥çļĦ": 8357,
      "ä¸ĭèħĶ": 8358,
      "ä¸ĭè·Į": 8359,
      "åĲİç»Ń": 8360,
      "æĢ§éĹ®é¢ĺ": 8361,
      "æĢ§æł¼": 8362,
      "å®ŀåĬĽ": 8363,
      "å®ŀçī©": 8364,
      "å®ŀæĥł": 8365,
      "ä¸İæĪĳ": 8366,
      "ä¸İåİŁ": 8367,
      "ä¸İè¢«": 8368,
      "ä¸İå®ŀè·µ": 8369,
      "ä¸İå®ŀçĶ¨": 8370,
      "ä¸İç²¾åĬĽ": 8371,
      "ä¸İèĲ¥éĶĢ": 8372,
      "ç½©": 8373,
      "ä¾¨": 8374,
      "ä¹ŁæĹł": 8375,
      "ä¹Łè¾ĥ": 8376,
      "ä¹Łå¿ħé¡»": 8377,
      "ä¹ŁåºĶè¯¥": 8378,
      "ä¹Łéļıä¹ĭ": 8379,
      "æ±ª": 8380,
      "è¿ĩæĿ¥": 8381,
      "è¿ĩéķ¿": 8382,
      "è¿ĩæ»¤": 8383,
      "è¿ĩæµģéĢļéģĵ": 8384,
      "ä»ĸä¸º": 8385,
      "ä»ĸä¼ļ": 8386,
      "ä»ĸè¯´": 8387,
      "ä»ĸèİ«": 8388,
      "èĢĮæľī": 8389,
      "èĢĮä¸Ĭ": 8390,
      "èĢĮæĿ¥": 8391,
      "èĢĮå¾Ĺ": 8392,
      "èĢĮæĹł": 8393,
      "èĢĮéĿŀ": 8394,
      "èĢĮæĺĵ": 8395,
      "èĢĮä¸įåĲĮ": 8396,
      "èĢĮæĺ¯åľ¨": 8397,
      "åŃĲä¸Ń": 8398,
      "åĮĸæ¾Ħ": 8399,
      "åĬ¨çļĦ": 8400,
      "è¿Ľå£«": 8401,
      "ç»ıçĶ±": 8402,
      "ç»ıçº±": 8403,
      "åĪ¶åĨ·": 8404,
      "åĲĪè®¡": 8405,
      "åĲĪåı°": 8406,
      "åħ³å¿ĥ": 8407,
      "åħ³èģĶ": 8408,
      "éģ¥": 8409,
      "æľ¬æľº": 8410,
      "æľ¬ç§ĳ": 8411,
      "æľ¬çĹħ": 8412,
      "éĿ¢ä¸Ĭ": 8413,
      "éĿ¢èī²": 8414,
      "åģ·": 8415,
      "åħ¶ä¸Ģ": 8416,
      "åħ¶èģĮ": 8417,
      "åħ¶ä½Ļ": 8418,
      "ï¼īãĢĭ": 8419,
      "åĲĮä¸Ģä¸ª": 8420,
      "åĲĮå¿Ĺ": 8421,
      "çľī": 8422,
      "å¦Ĥå®ŀ": 8423,
      "æı½": 8424,
      "é«ĺåħ´": 8425,
      "é«ĺè´µ": 8426,
      "é«ĺåĥ§": 8427,
      "å¤ļä¿¡": 8428,
      "å¤ļä¹Ī": 8429,
      "çŃīæĪĳ": 8430,
      "çŃīå¥³åŃĲå°ıåŃ¦": 8431,
      "çŃīåĪ¶åĵģ": 8432,
      "æĽ¼": 8433,
      "åºĶå¾Ĺ": 8434,
      "åºĶæľīçļĦ": 8435,
      "éĢļè´§": 8436,
      "éĢļè®¯": 8437,
      "çĤ¸": 8438,
      "æįī": 8439,
      "ç§įç§į": 8440,
      "åħ¥è§Ħå®ļ": 8441,
      "å»ī": 8442,
      "æģ¤": 8443,
      "æģĤ": 8444,
      "éļĺ": 8445,
      "åħ¨å®¶": 8446,
      "åħ¨å¸Ĥ": 8447,
      "åħ¨è¿ĩç¨ĭ": 8448,
      "éĺĢ": 8449,
      "åĽłæĸ¯åĿ¦": 8450,
      "å¼Ģçªį": 8451,
      "åĨħåľ¨": 8452,
      "åĨħè®¾": 8453,
      "åĨħåŃĺ": 8454,
      "åĨħæł¸": 8455,
      "åĨħèĨľ": 8456,
      "æıĲåįķ": 8457,
      "æıĲèµ·": 8458,
      "æĸ°åįİ": 8459,
      "æĸ°åĨł": 8460,
      "æĸ°é²ľ": 8461,
      "æŁı": 8462,
      "ç¬¼": 8463,
      "ç¬Ī": 8464,
      "åħ¬å¼ı": 8465,
      "åħ¬äº®": 8466,
      "èĢħä»¥": 8467,
      "éĩıåŃĲ": 8468,
      "éĩıçº§": 8469,
      "å°ıåº·": 8470,
      "å°ıæľĭåıĭ": 8471,
      "å°ıæĹ¶çļĦ": 8472,
      "å°ıæĸĳçĤ¹": 8473,
      "ä¸īåĪĨ": 8474,
      "ä¸īåħ³": 8475,
      "ä¸īç»´": 8476,
      "ä¸īçĶ²": 8477,
      "éķ¿çļĦ": 8478,
      "éķ¿åĩº": 8479,
      "éķ¿ä¸īè§Ĵ": 8480,
      "æłĩé¢ĺ": 8481,
      "æłĩè®°": 8482,
      "çŁ©": 8483,
      "çŁ®å°ı": 8484,
      "æķĻå¯¼": 8485,
      "è°¥": 8486,
      "æĪĸä¼ģä¸ļ": 8487,
      "æĪĸä¸ªäºº": 8488,
      "æĪĸç¼º": 8489,
      "æĻ¶": 8490,
      "æĻķ": 8491,
      "èµĦæ·±": 8492,
      "èµĦè®¯": 8493,
      "åīįçļĦ": 8494,
      "åīįä½ĵ": 8495,
      "åīįä¸¤": 8496,
      "åīįå¾Ģ": 8497,
      "åīįèĭıèģĶ": 8498,
      "éĥ½å¾Ī": 8499,
      "éĥ½æ²¡æľī": 8500,
      "å¿ĥèĦı": 8501,
      "åĬłåį°": 8502,
      "åĬłæ¹¿": 8503,
      "åĬłåī§": 8504,
      "æĶ¿æĿĥçļĦ": 8505,
      "åıĬåħ¶ä»ĸ": 8506,
      "å¤©æĹ©": 8507,
      "å¤©èµĭ": 8508,
      "éĹ´éļĶ": 8509,
      "2030": 8510,
      "æľĢå¼º": 8511,
      "æľĢéĩįè¦ģ": 8512,
      "æľĢé«ĺçļĦ": 8513,
      "å»ºæ¨¡": 8514,
      "éĩįå¤§çļĦ": 8515,
      "çł·": 8516,
      "æĹłæĥħ": 8517,
      "æĹłå½¢": 8518,
      "æĹłå¥Ī": 8519,
      "ç¼Ķ": 8520,
      "è¡¨è¿°": 8521,
      "ä»İå°ı": 8522,
      "ä»İä¼¤åı£": 8523,
      "æŃ£ä¸Ń": 8524,
      "æŃ£å½ĵ": 8525,
      "æŃ£æ®¿": 8526,
      "æŃ£å¤Ħäºİ": 8527,
      "ç»ĵæ°Ķ": 8528,
      "å½ĵæĪĳ": 8529,
      "å½ĵä¸ĭ": 8530,
      "å½ĵéĩı": 8531,
      "å½ĵå¤©": 8532,
      "å½ĵä½ł": 8533,
      "å½ĵä¸»ç®¡": 8534,
      "å½ĵåĪĿ": 8535,
      "å½ĵå½Ĵ": 8536,
      "æķ°é¢Ŀ": 8537,
      "æķ°åįĥ": 8538,
      "æķ°ä¸Ģå®ļ": 8539,
      "è§£ç»ĵ": 8540,
      "è§£éĻ¤": 8541,
      "è§£åīĸ": 8542,
      "æĸĩåŃ¦": 8543,
      "æĸĩåı¥": 8544,
      "åı¯ä»¥è¢«": 8545,
      "åı¯ä»¥åĩıå°ĳ": 8546,
      "åĲįä¹ī": 8547,
      "çĽ¸åºĶ": 8548,
      "æ°´æ²³": 8549,
      "æ°´éĽ·": 8550,
      "æ°´èĤ¿": 8551,
      "æ°´æµ¸": 8552,
      "ç´Ĭ": 8553,
      "å¥½äºĨ": 8554,
      "å¥½è½¬": 8555,
      "å¥½å¤Ħ": 8556,
      "å¥½çĶ»": 8557,
      "çĹķ": 8558,
      "åĪ©äºļ": 8559,
      "äºĮèĢħ": 8560,
      "äºĮæľĪ": 8561,
      "äºĮçº§": 8562,
      "å¤ĸèµĦ": 8563,
      "å¤ĸè®¾": 8564,
      "å¤ĸçº¿": 8565,
      "å¤ĸä¾§": 8566,
      "å¤ĸè´¸": 8567,
      "è¯´æĪĲ": 8568,
      "è¯´è¿ĩ": 8569,
      "è¯´è¯Ŀ": 8570,
      "è¯´çļĦæĺ¯": 8571,
      "å°Ĩè¦ģ": 8572,
      "å°ĨæĪĲä¸º": 8573,
      "æĺİçļĦ": 8574,
      "æĺİä»£": 8575,
      "ä¿Ŀç®¡": 8576,
      "ä¸Ģä¸ªæľĪ": 8577,
      "ä¸Ģä¸ªåŃ©åŃĲ": 8578,
      "ä¸Ģä¸ªæĸ°çļĦ": 8579,
      "æ·Ģ": 8580,
      "å¹¶çĶ¨": 8581,
      "å¹¶ä¸İ": 8582,
      "å¹¶å°Ĩ": 8583,
      "å¹¶åĲĳ": 8584,
      "å¹¶åŃĺ": 8585,
      "ç¾¡æħķ": 8586,
      "çī©åĵģ": 8587,
      "çī©èµĦ": 8588,
      "ç¥Ī": 8589,
      "ç¥Ĳ": 8590,
      "ç¥ł": 8591,
      "éĤĵ": 8592,
      "èģĬå¤©": 8593,
      "èĬ½": 8594,
      "è·ĥ": 8595,
      "æĪĳä»¬éľĢè¦ģ": 8596,
      "æĪĳä»¬åºĶè¯¥": 8597,
      "æĪĳä»¬åıĳçİ°": 8598,
      "åģļè¿ĩ": 8599,
      "åģļé¥Ń": 8600,
      "ç¬¬ä¹Ŀ": 8601,
      "ç¬¬ä¸Ģç§į": 8602,
      "èĲĥåıĸ": 8603,
      "éħ·": 8604,
      "æŃ¤åĮºåŁŁ": 8605,
      "åıĳå±ķåĩº": 8606,
      "åıĳå±ķç©ºéĹ´": 8607,
      "æ¯Ķä¸Ĭ": 8608,
      "æ¯ĶèĲ¨": 8609,
      "æ¯Ķåĸ»": 8610,
      "æľįåĬ¡åįıè®®": 8611,
      "åŀĭå¼¹éģĵå¯¼å¼¹": 8612,
      "åŀĭé«ĺæ³Įä¹³ç´łè¡ĢçĹĩ": 8613,
      "ä»£ä¸º": 8614,
      "æł·åĵģ": 8615,
      "å¹³åıĽ": 8616,
      "çķ¸": 8617,
      "çķı": 8618,
      "æ°ĳä¼Ĺ": 8619,
      "æĽ´å¤§": 8620,
      "æĽ´ä¸įæĺ¯": 8621,
      "æĽ´æİ¥è¿ĳ": 8622,
      "åİŁå§ĭ": 8623,
      "å¸¸è¯Ĩ": 8624,
      "åįģåĽĽ": 8625,
      "åįģä¹Ŀ": 8626,
      "è®¡ç¨İ": 8627,
      "è®¡çĶ»": 8628,
      "æĥħåĬ¿": 8629,
      "æµģåŁŁçļĦ": 8630,
      "æµģåĪ©çļĦ": 8631,
      "è¿ĺèĥ½": 8632,
      "è¿ĺåĲĳ": 8633,
      "è¿ĺè®°å¾Ĺ": 8634,
      "æº¼": 8635,
      "ä¸ŃåĽ½åİĨåı²": 8636,
      "ä¸ŃåĽ½æ¢¦": 8637,
      "ä¼ģä¸ļé£ŁåĵģçĶŁäº§è®¸åı¯è¯ģ": 8638,
      "ä½ĨçĽ®åīį": 8639,
      "çī¹ç§į": 8640,
      "åįķè¯ģ": 8641,
      "åįķçº¯": 8642,
      "éĩĳé¢Ŀ": 8643,
      "éĩĳåĪļ": 8644,
      "éĩĳå¸Ĳ": 8645,
      "éĩĳåħīæĺİ": 8646,
      "åıĹéĻĲ": 8647,
      "ä»¶äºĭ": 8648,
      "å§¿": 8649,
      "å§Ĩ": 8650,
      "å§ľ": 8651,
      "èµ·äºĨ": 8652,
      "èµ·æŃ¥": 8653,
      "æľĪå¼Ģå·¥": 8654,
      "è¿ĲåĲŀåĲĲéĩı": 8655,
      "å¸Ĥæ°ĳ": 8656,
      "å¸ĤåĮº": 8657,
      "çĿĢä¸Ģä¸ª": 8658,
      "çĿĢè¿Ļç§į": 8659,
      "çĿĢåĲĦç§į": 8660,
      "éªĦ": 8661,
      "èĪĮ": 8662,
      "èĪľ": 8663,
      "ä¸¤ç±»": 8664,
      "ä¸¤çŃīå¥³åŃĲå°ıåŃ¦": 8665,
      "åĦ¿ç§ĳ": 8666,
      "æĮĩåĲĳ": 8667,
      "æĮĩè´£": 8668,
      "åĲĳæľ¬åľ°åŁŁåĲįæľįåĬ¡åĻ¨": 8669,
      "ä½łè¦ģ": 8670,
      "ä½łå¥½": 8671,
      "ä½łæĢİä¹Ī": 8672,
      "è¢«éĢī": 8673,
      "è¢«èªīä¸º": 8674,
      "å¾Īæľī": 8675,
      "å¾Īå¿«": 8676,
      "å¾Īå®¹æĺĵ": 8677,
      "å¾Īç®Ģåįķ": 8678,
      "åľºåĲĪ": 8679,
      "åħĥä»£": 8680,
      "åħĥé¦ĸ": 8681,
      "åħĥè®¤çŁ¥": 8682,
      "è¯ģåĪ¸": 8683,
      "æ°ĶåĬ¿": 8684,
      "æ°Ķæ¸©": 8685,
      "æ°Ķæ°Ľ": 8686,
      "æĢĿç´¢": 8687,
      "æĶ¶åĪ°": 8688,
      "æĢ»çĿ£": 8689,
      "æĢ»ä¹¦è®°": 8690,
      "ç«ĭæľī": 8691,
      "ç«ĭæĸ¹": 8692,
      "ç«ĭä½ĵ": 8693,
      "ç«ĭè¶³": 8694,
      "è¡Ģç³ĸ": 8695,
      "èº«ä¸º": 8696,
      "åĽĽå¤§": 8697,
      "åĽĽåĳ¨": 8698,
      "åĽĽè§Ĵ": 8699,
      "åĽĽç»´åĽ¾": 8700,
      "æŀĦéĢł": 8701,
      "æŀĦçŃĳ": 8702,
      "åĬŁå¾·": 8703,
      "è¾ĥå¤§": 8704,
      "è¾ĥå·®": 8705,
      "æĬ¥åĲį": 8706,
      "è½¬åŁºåĽł": 8707,
      "åĲĦåĽ½": 8708,
      "åĲĦæĸ¹": 8709,
      "åĲĦåı¸": 8710,
      "æĿĥçº§çļĦ": 8711,
      "åıĺå½¢": 8712,
      "å·¥ä½ľèĢħ": 8713,
      "ç®¡çĲĨæ°´å¹³": 8714,
      "ç®¡çĲĨä¸İèĲ¥éĶĢ": 8715,
      "åĽ½å®¶ç»Łè®¡": 8716,
      "åĽ½å®¶ä¸»å¸Ń": 8717,
      "èĬĤèĬĤ": 8718,
      "ä¸»ç®¡çĶļèĩ³": 8719,
      "ä¿¡æģ¯èµĦæºĲ": 8720,
      "ä¿¡æģ¯åĮĸçļĦ": 8721,
      "é£Łç±»é£Łåĵģ": 8722,
      "è§Ĥå¿ĥ": 8723,
      "éĩĮéĿ¢": 8724,
      "è°ĥåĬ¨": 8725,
      "è°ĥåĳ³": 8726,
      "èĻ¹": 8727,
      "èĻ¾": 8728,
      "æĮģä¹ħ": 8729,
      "è¿Ľè¡Įä¼Łå¤§": 8730,
      "è¿Ľè¡ĮåĪĨç±»": 8731,
      "çº§åĴĮ": 8732,
      "çĶŁäº§çļĦ": 8733,
      "çĶŁäº§åİĤ": 8734,
      "çĶŁäº§æĮĩæķ°": 8735,
      "çĶŁäº§ç»ıèĲ¥æīĢå¾Ĺ": 8736,
      "æİ¥åĪ°": 8737,
      "æİ¥åħ¥": 8738,
      "æİ¥çĿĢ": 8739,
      "æİ¥ä¸ĭæĿ¥": 8740,
      "åıªä¼ļ": 8741,
      "çİ¯æ¯Ķ": 8742,
      "åİ»æĥ³": 8743,
      "äº¤å¾Ģ": 8744,
      "äº¤æį¢": 8745,
      "äº¤è°Ī": 8746,
      "å®ĥåı¯ä»¥": 8747,
      "çĶµæ±ł": 8748,
      "å¿ħéľĢ": 8749,
      "åĮħè£": 8750,
      "åĮħåĽ´": 8751,
      "å¤´éĿ¢": 8752,
      "å°±æĺ¯åľ¨": 8753,
      "å°±æĺ¯ä¸Ģä¸ª": 8754,
      "çľĭè§ģ": 8755,
      "çľĭèµ·æĿ¥": 8756,
      "æ¸ħæĶ¿åºľ": 8757,
      "æ¸ħæľĿ": 8758,
      "æ¸ħéĨĴ": 8759,
      "ç¥ŀç§ĺ": 8760,
      "çĹħåıĺ": 8761,
      "ç²¾ç¡®": 8762,
      "ç²¾æ²¹": 8763,
      "ç²¾ç»ĨåĮĸ": 8764,
      "æ¨¡æĭŁ": 8765,
      "æ¨¡ç³Ĭ": 8766,
      "ä¸ľæĸ¹": 8767,
      "çłĶç©¶åĳĺ": 8768,
      "çłĶç©¶å¼ĢåıĳåĩºæĿ¥çļĦ": 8769,
      "åħĪæĺ¯": 8770,
      "åħĪå¤©": 8771,
      "ç¾İå¥½": 8772,
      "å·²æĪĲä¸º": 8773,
      "è®©ä¸»ç®¡": 8774,
      "åĶ¤": 8775,
      "åĶ¿": 8776,
      "å²¸": 8777,
      "é©°": 8778,
      "é©³": 8779,
      "è®°ä½ı": 8780,
      "æĶ¹å°ģ": 8781,
      "è¯¥éĥ¨å±ŀ": 8782,
      "å¢ŀçĶŁ": 8783,
      "ç´łæĿĲ": 8784,
      "ç½®æį¢": 8785,
      "åķĨåľº": 8786,
      "åķĨè·¯": 8787,
      "æĶ¾çºµ": 8788,
      "åįĹæĺİ": 8789,
      "åįĹä¸°": 8790,
      "åįĹè¿ģ": 8791,
      "éĢļè¿ĩå¯¹": 8792,
      "åħ±è®¡": 8793,
      "åħ±èµ¢": 8794,
      "æŀģå¤§": 8795,
      "æŀģåħ¶": 8796,
      "åŃĹæł·çļĦ": 8797,
      "æĦŁåı¹": 8798,
      "æĬĢæľ¯çļĦ": 8799,
      "æĬĢæľ¯çĽĳçĿ£æ£ĢéªĮæ£Ģçĸ«æĢ»å±Ģ": 8800,
      "æ²¡æľīåģļåĪ°": 8801,
      "å®Įå¤ĩ": 8802,
      "è´¹åĬĽ": 8803,
      "éĿŀåĩ¡": 8804,
      "éĿŀåĪ¶éĢłä¸ļ": 8805,
      "åŁİåĮº": 8806,
      "é£ŁåĵģçļĦ": 8807,
      "åĽŀåºĶ": 8808,
      "åĽŀé£İ": 8809,
      "äºĶéĥ¨": 8810,
      "äºĶä»£": 8811,
      "äºĶæ¬¡": 8812,
      "ä¼ĺéĢīæĭ©": 8813,
      "èħķ": 8814,
      "ä¼łéĢģ": 8815,
      "å±ĢéĻĲ": 8816,
      "å±ĢåŁŁç½ĳ": 8817,
      "çĻ¾ä¼ļç©´": 8818,
      "æł¼å¼ı": 8819,
      "ä¾Ľç»Ļ": 8820,
      "çĸĹæķĪ": 8821,
      "æĺ¾å¾®": 8822,
      "è¥Ħ": 8823,
      "ç¤ºæĦıåĽ¾": 8824,
      "çĭ¬æľīçļĦ": 8825,
      "æ¯ıä¸Ģæ¬¡": 8826,
      "è±ļ": 8827,
      "ä¸ĩç©´": 8828,
      "ä¸ĩäº¿åħĥ": 8829,
      "ä¹ĿéĢļ": 8830,
      "ç»ıæµİå»ºè®¾": 8831,
      "ç»ıæµİä¸ĭè¡Į": 8832,
      "éĴ¥": 8833,
      "éĴ©": 8834,
      "ä½İé¢ĳ": 8835,
      "æĪĺçļĦ": 8836,
      "éļ¾åº¦": 8837,
      "éļ¾çĤ¹": 8838,
      "çľŁçĲĨ": 8839,
      "å¤įå·¥": 8840,
      "å¤įåĲĪ": 8841,
      "åĬ©åŃ¦": 8842,
      "åĬ©åĬĽ": 8843,
      "è§ģäºİ": 8844,
      "è§ģè¿ĩ": 8845,
      "èİİ": 8846,
      "æİ¨éĢģ": 8847,
      "å¼ķäºº": 8848,
      "æ³¨åĨĮ": 8849,
      "æµ·éĩı": 8850,
      "æµ·æ´ĭ": 8851,
      "ä¸»è¦ģçļĦ": 8852,
      "ç³»ç»Łä¸Ń": 8853,
      "çķĮçļĦ": 8854,
      "åıĪä¼ļ": 8855,
      "åıĪç§°": 8856,
      "çĽ´èĩ³": 8857,
      "çĽ´è§ī": 8858,
      "åİĨç¨ĭ": 8859,
      "åı¯èĥ½æľī": 8860,
      "è±¡çľ¼": 8861,
      "ä¾ĿæĹ§": 8862,
      "çĥ¹": 8863,
      "ä¸įæĺ¯åıĳæĥħ": 8864,
      "æĢģæĢ§ä¸İ": 8865,
      "åĮĹåĲį": 8866,
      "åĮĹå®ĭ": 8867,
      "å±ĤçļĦ": 8868,
      "å±Ĥæĺ¯": 8869,
      "ä¸Ģç§įæĸ°åŀĭ": 8870,
      "äº§åĵģç»ĵæŀĦ": 8871,
      "äº§åĵģåİŁåŀĭ": 8872,
      "æĸ½äºİäºº": 8873,
      "æĸ½è¯¸å·±": 8874,
      "å¦Ĥæŀľæĺ¯": 8875,
      "å¦Ĥæŀľæ²¡æľī": 8876,
      "åŁŁåĲįçļĦ": 8877,
      "åĪ«äººçļĦ": 8878,
      "æĮīè§Ħå®ļ": 8879,
      "èĲ¥åħ»": 8880,
      "é¦ĸè¦ģ": 8881,
      "ä»ĬåĲİ": 8882,
      "åĸĦäºİ": 8883,
      "åĸĦæĦı": 8884,
      "æľªç»ı": 8885,
      "æľªèİ·å¾Ĺ": 8886,
      "æľªæī§è¡Į": 8887,
      "åį³ä½į": 8888,
      "ä¼¤çŃī": 8889,
      "ä¼¤åĴĮè¾": 8890,
      "ä¸įåĲĮç¨ĭåº¦": 8891,
      "å¾ģç¨İ": 8892,
      "å¾ģæľį": 8893,
      "è¿ĻäºĽäºº": 8894,
      "è¿ĻäºĽéĥ½": 8895,
      "è¿ĻäºĽä¸»ç®¡": 8896,
      "è¿ĻäºĽåĳĺå·¥": 8897,
      "å®ŀçİ°ä¼Łå¤§æ¢¦æĥ³": 8898,
      "å®ŀçİ°ä¸Ńåįİæ°ĳæĹıä¼Łå¤§å¤įåħ´": 8899,
      "è¿ľæĸ¹": 8900,
      "è¿ľç¦»": 8901,
      "è¿ľå«ģ": 8902,
      "é¡¹çĽ®ç»Ħ": 8903,
      "é¡¹çĽ®æł¸å¿ĥ": 8904,
      "çİĭåĲİ": 8905,
      "å¸ĤåľºéľĢæ±Ĥ": 8906,
      "èĨĪ": 8907,
      "è¿Ļä¸ªä¸ĸçķĮ": 8908,
      "è¿Ļä¸ªæķħäºĭ": 8909,
      "åħīéĶ¦": 8910,
      "åħīæŃ¦å¸Ŀ": 8911,
      "åħļåĴĮ": 8912,
      "çĶŁæ´»åľ¨": 8913,
      "æ±īæŃ¦å¸Ŀ": 8914,
      "çľģæĶ¿åºľ": 8915,
      "äººçļĦæĻºæħ§": 8916,
      "äººçļĦå¿ĥçģµ": 8917,
      "äººçļĦæĥħæ¬²": 8918,
      "å±±å®¶": 8919,
      "å±±å¤ĸ": 8920,
      "å±±ä¸ľ": 8921,
      "å±±åŁİ": 8922,
      "æĹ¶éĹ´è¿ĩéķ¿": 8923,
      "æİĴå¼Ģ": 8924,
      "æİĴæĸ¥": 8925,
      "å¾·éŁ¶": 8926,
      "çĽĬè¡¨": 8927,
      "çļĦäººåľ¨": 8928,
      "çļĦäººå·¥": 8929,
      "åħĭæĸ¯": 8930,
      "çĻ½èĬ": 8931,
      "çĻ½éĶ¦": 8932,
      "åĮħæĭ¬å¯¹": 8933,
      "æ£Ģè®¨": 8934,
      "åĨįåĪĨéħį": 8935,
      "æł¹æį®æĪĳåĽ½": 8936,
      "é©¬ç©Ĩ": 8937,
      "æĬĬå®ĥ": 8938,
      "æĬĬæı¡": 8939,
      "é»Ħéĩĳ": 8940,
      "é»Ħè¿ŀ": 8941,
      "é»Ħæ²³": 8942,
      "ï¼ģ$": 8943,
      "å¹²ä»Ģä¹Ī": 8944,
      "å¹²æ¶ī": 8945,
      "å¹²çĩ¥": 8946,
      "åĬ¿åĬĽ": 8947,
      "é¢ĦåĲİ": 8948,
      "é¢Ħè§ģ": 8949,
      "é¢Ħè¨Ģ": 8950,
      "å»ºè®¾åĴĮ": 8951,
      "éĢĤå®ľ": 8952,
      "âĢĿãĢĤâĢľ": 8953,
      "æĻ®æŁ¥": 8954,
      "æĻ®äº¬": 8955,
      "ä¸¥è°¨": 8956,
      "æīĵä¸ĭ": 8957,
      "è¡Įä¸ļä¼ģä¸ļ": 8958,
      "æĪĸèĢħæĺ¯": 8959,
      "æĪĸèĢħåıĹéĽĩ": 8960,
      "äºīåıĸ": 8961,
      "æ¶Īå¤±": 8962,
      "åĪĹè¡¨": 8963,
      "æĽ¾åıĤ": 8964,
      "æĽ¾åħ¬äº®": 8965,
      "æ´»åĬ¨äº§çĶŁçļĦ": 8966,
      "æ´»åĬ¨é¢ĦæľŁ": 8967,
      "çħ§é¡¾": 8968,
      "åĽ´æ£ĭ": 8969,
      "èĢĥè¯ķ": 8970,
      "åĪĺæĮ¯": 8971,
      "ä¸ĸçķĮåĲĦåľ°": 8972,
      "æıĲé«ĺåĨĽéĺŁçļĦ": 8973,
      "æĶ¿åºľéĥ¨éĹ¨": 8974,
      "æķ°æį®æĺ¾ç¤º": 8975,
      "ç©ºç®±": 8976,
      "åĪĨæŀĲåĴĮ": 8977,
      "åĨħå®¹æĺ¯": 8978,
      "åĨħå®¹ç®Ģä»ĭ": 8979,
      "åħŃåºľ": 8980,
      "è®²è§£": 8981,
      "è®²è¯Ŀ": 8982,
      "è®²çļĦæĺ¯": 8983,
      "åĩıåİ»": 8984,
      "åĩıè½»": 8985,
      "æĪ¿åľ°": 8986,
      "æĪ¿åŃĲ": 8987,
      "æĪĳåĽ½çļĦ": 8988,
      "å½±åĵįçļĦ": 8989,
      "å½±åĵįåĬĽ": 8990,
      "æ±½è½¦åİĤåķĨ": 8991,
      "ä¸įèĥ½å¤Ł": 8992,
      "åĳ¨æľīåŁº": 8993,
      "åı¤ä»Ĭ": 8994,
      "æŁĲä½į": 8995,
      "æĻºèĢħ": 8996,
      "ä¸ĥå¯¸": 8997,
      "ä¸ĥæĺł": 8998,
      "çļĦä¸ĢåĪĩ": 8999,
      "çļĦä¸ĢèĪ¬": 9000,
      "å¾®ç±³": 9001,
      "è¦ģæ±Ĥåħļ": 9002,
      "å·¥ç¨ĭå¸Ī": 9003,
      "å·¥ç¨ĭæĭĽæĬķæłĩ": 9004,
      "åĳĺå·¥è¡¨çİ°": 9005,
      "è£ħè½½": 9006,
      "è£ħå¡«": 9007,
      "æĸ¯åŁº": 9008,
      "ç¨İåĬ¡å±Ģ": 9009,
      "ç½ĳç»ľäº§åĵģ": 9010,
      "äºĳæľįåĬ¡": 9011,
      "äºĳç«¯": 9012,
      "äºĳå¹³åı°": 9013,
      "äºĳç¬Ī": 9014,
      "åĪĴåĪĨ": 9015,
      "ç»ĪæŃ¢": 9016,
      "å²ģåīį": 9017,
      "å²ģæľĪ": 9018,
      "å²ģä»¥ä¸Ĭ": 9019,
      "éŁ©ä¿¡åĩĨå¤ĩ": 9020,
      "æ¼Ĥ": 9021,
      "æ¼ł": 9022,
      "ç¬¬ä¸Ģæ¬¾": 9023,
      "åħ·æľīéĩįè¦ģ": 9024,
      "åįķä½įåĴĮä¸ªäºº": 9025,
      "åıĮæŃ§": 9026,
      "åıĮä¸Ģæµģ": 9027,
      "ä¼Ĺå¤ļçļĦ": 9028,
      "åĨĻåľ¨": 9029,
      "æ¥¹èģĶ": 9030,
      "å®¢è¿ĲåĲŀåĲĲéĩı": 9031,
      "æµĭéĩı": 9032,
      "æĭ©ä¼ĺéĢīæĭ©": 9033,
      "åħ³äºİä¸ªäººåıĸå¾Ĺ": 9034,
      "ï¼īãĢĤï¼Ī": 9035,
      "æķĻå¸ĪèµĦæł¼": 9036,
      "ä½Ļå¹´": 9037,
      "ä¸ºäºĨéĺ²æŃ¢": 9038,
      "å·¦å®¤": 9039,
      "è¿Ļæĺ¯ä¸Ģä¸ª": 9040,
      "æĳĺ": 9041,
      "ä¿ĥæĪĲ": 9042,
      "ä¿ĥä½¿": 9043,
      "çł´è§£": 9044,
      "åİĨåı²çļĦ": 9045,
      "åİĨåı²èĪŀåı°": 9046,
      "åłª": 9047,
      "åĪĿåĳĪ": 9048,
      "çĶ³è®º": 9049,
      "éĺ²æİ§": 9050,
      "éĺ²æĬ¤": 9051,
      "åĿļå¼º": 9052,
      "2003": 9053,
      "çĽĺåĽº": 9054,
      "çľ¼éĩĮ": 9055,
      "æ¯Ķè¾ĥå®¹æĺĵ": 9056,
      "äººæ°ĳç¾¤ä¼Ĺ": 9057,
      "èĲ½åı¶": 9058,
      "åĮ»çĸĹæľįåĬ¡": 9059,
      "åĮ»çĸĹæķĳåĬ©": 9060,
      "å°Ħçº¿": 9061,
      "åºıåĪĹ": 9062,
      "éĢīæĭ©äºĨ": 9063,
      "ç»¿èī²åĮĸ": 9064,
      "ç»¿èī²åį°åĪ·": 9065,
      "ç»¿èī²éĢļéģĵ": 9066,
      "åľŁå£¤": 9067,
      "ä¸¾äºĭ": 9068,
      "ä¸¾ä¾ĭ": 9069,
      "ä¸¾èįĲ": 9070,
      "åĽºä½ĵ": 9071,
      "æī§æ³ķ": 9072,
      "åĨľåİĨ": 9073,
      "ç¦ıå±±": 9074,
      "æĶ¶åħ¥éĢĤçĶ¨ä¸ªäººæīĢå¾Ĺç¨İ": 9075,
      "åį°åĪ·è¡Įä¸ļçļĦ": 9076,
      "åį´æĺ¯": 9077,
      "å¼Ĥä½į": 9078,
      "å¼Ĥå¸¸": 9079,
      "çĶ±äºİèĲ§ä½ķ": 9080,
      "åįĥåħĭ": 9081,
      "åįĥå¯»": 9082,
      "åįĥå¤ļå¹´": 9083,
      "ä¸įæĸŃå¢ŀåĬł": 9084,
      "ä¸įæĸŃå®ĮåĸĦ": 9085,
      "æł¡åĽŃ": 9086,
      "åĿĩåºĶ": 9087,
      "ãĢĢãĢĢ": 9088,
      "äº¬åŁİ": 9089,
      "çŁ³éĹ¨": 9090,
      "ç»Ħç»ĩåĴĮ": 9091,
      "ç»Ħç»ĩåĨħ": 9092,
      "æĵįçºµ": 9093,
      "ç¢§": 9094,
      "ä¸ĢèĪ¬æĥħåĨµä¸ĭ": 9095,
      "èīĩäºİ": 9096,
      "130": 9097,
      "ä½ıå®ħ": 9098,
      "è¯¾åłĤ": 9099,
      "æĹıç¾¤": 9100,
      "æĬĹæ³Įä¹³ç´ł": 9101,
      "ç½Ĺå°Ķ": 9102,
      "åħ¨éĿ¢å»ºæĪĲ": 9103,
      "åħ¨éĿ¢ä¾Ŀæ³ķæ²»åĽ½": 9104,
      "åħ¨éĿ¢ä»İä¸¥æ²»åħļ": 9105,
      "è´¨éĩıåĴĮ": 9106,
      "è´¨éĩıæłĩåĩĨ": 9107,
      "åĲĪä½ľåħ³ç³»": 9108,
      "æľĢåĲİçļĦ": 9109,
      "è§£åĨ³éĹ®é¢ĺ": 9110,
      "æ¿ĢçĥĪ": 9111,
      "indow": 9112,
      "åĭŁ": 9113,
      "å¼¹ä¼¤åĴĮè¾": 9114,
      "èµ°äºĨ": 9115,
      "èµ°è¿Ľ": 9116,
      "å¥ĸåŃ¦éĩĳ": 9117,
      "åĬłå¼ºå¯¹å¤ĸ": 9118,
      "åĢŁæį®": 9119,
      "åĢŁåĬ©": 9120,
      "16964": 9121,
      "æľ¨åĮł": 9122,
      "å®¡æī¹": 9123,
      "å®½åº¦": 9124,
      "æľīåħ³æĶ¶åħ¥éĢĤçĶ¨ä¸ªäººæīĢå¾Ĺç¨İ": 9125,
      "çİīå¥³": 9126,
      "çİīåįİ": 9127,
      "çİīç«¥": 9128,
      "çİīçļĩ": 9129,
      "éģ¿å¼Ģ": 9130,
      "è¿ĺæĺ¯æľī": 9131,
      "éĩĳèŀįæľįåĬ¡": 9132,
      "çĮĽ": 9133,
      "ä»ĺåĩº": 9134,
      "äººåĳĺçļĦ": 9135,
      "èĩªçĦ¶çļĦ": 9136,
      "çŁ¥è¯ĨçĤ¹": 9137,
      "èĴĤ": 9138,
      "å®Ŀé©¬": 9139,
      "å¯Łè§ī": 9140,
      "å¯ŁåĲĪåı°": 9141,
      "æŃ¦åŁİ": 9142,
      "åıĳçĶŁäºĨ": 9143,
      "è®¡ç®Ĺç¼´çº³ä¸ªäººæīĢå¾Ĺç¨İ": 9144,
      "çĥŃæ°´": 9145,
      "åĨ²åĬ¨": 9146,
      "æ³¢æ®µ": 9147,
[...]
