{
  "version": "1.0",
  "truncation": null,
  "padding": null,
  "added_tokens": [
    {
      "id": 0,
      "content": "<|endoftext|>",
      "single_word": false,
      "lstrip": false,
      "rstrip": false,
      "normalized": false,
      "special": true
    },
    {
      "id": 1,
      "content": "<|pad|>",
      "single_word": false,
      "lstrip": false,
      "rstrip": false,
      "normalized": false,
      "special": true
    }
  ],
  "normalizer": null,
  "pre_tokenizer": {
    "type": "ByteLevel",
    "add_prefix_space": false,
    "trim_offsets": true,
    "use_regex": true
  },
  "post_processor": {
    "type": "TemplateProcessing",
    "single": [
      {
        "Sequence": {
          "id": "A",
          "type_id": 0
        }
      }
    ],
    "pair": [
      {
        "Sequence": {
          "id": "A",
          "type_id": 0
        }
      },
      {
        "Sequence": {
          "id": "B",
          "type_id": 1
        }
      }
    ],
    "special_tokens": {}
  },
  "decoder": {
    "type": "ByteLevel",
    "add_prefix_space": true,
    "trim_offsets": true,
    "use_regex": true
  },
  "model": {
    "type": "BPE",
    "dropout": null,
    "unk_token": null,
    "continuing_subword_prefix": null,
    "end_of_word_suffix": null,
    "fuse_unk": false,
    "byte_fallback": false,
    "ignore_merges": false,
    "vocab": {
      "<|endoftext|>": 0,
      "<|pad|>": 1,
      "!": 2,
      "\"": 3,
      "#": 4,
      "$": 5,
      "%": 6,
      "&": 7,
      "'": 8,
      "(": 9,
      ")": 10,
      "*": 11,
      "+": 12,
      ",": 13,
      "-": 14,
      ".": 15,
      "/": 16,
      "0": 17,
      "1": 18,
      "2": 19,
      "3": 20,
      "4": 21,
      "5": 22,
      "6": 23,
      "7": 24,
      "8": 25,
      "9": 26,
      ":": 27,
      ";": 28,
      "<": 29,
      "=": 30,
      ">": 31,
      "?": 32,
      "@": 33,
      "A": 34,
      "B": 35,
      "C": 36,
      "D": 37,
      "E": 38,
      "F": 39,
      "G": 40,
      "H": 41,
      "I": 42,
      "J": 43,
      "K": 44,
      "L": 45,
      "M": 46,
      "N": 47,
      "O": 48,
      "P": 49,
      "Q": 50,
      "R": 51,
      "S": 52,
      "T": 53,
      "U": 54,
      "V": 55,
      "W": 56,
      "X": 57,
      "Y": 58,
      "Z": 59,
      "[": 60,
      "\\": 61,
      "]": 62,
      "^": 63,
      "_": 64,
      "`": 65,
      "a": 66,
      "b": 67,
      "c": 68,
      "d": 69,
      "e": 70,
      "f": 71,
      "g": 72,
      "h": 73,
      "i": 74,
      "j": 75,
      "k": 76,
      "l": 77,
      "m": 78,
      "n": 79,
      "o": 80,
      "p": 81,
      "q": 82,
      "r": 83,
      "s": 84,
      "t": 85,
      "u": 86,
      "v": 87,
      "w": 88,
      "x": 89,
      "y": 90,
      "z": 91,
      "{": 92,
      "|": 93,
      "}": 94,
      "~": 95,
      "¡": 96,
      "¢": 97,
      "£": 98,
      "¤": 99,
      "¥": 100,
      "¦": 101,
      "§": 102,
      "¨": 103,
      "©": 104,
      "ª": 105,
      "«": 106,
      "¬": 107,
      "®": 108,
      "¯": 109,
      "°": 110,
      "±": 111,
      "²": 112,
      "³": 113,
      "´": 114,
      "µ": 115,
      "¶": 116,
      "·": 117,
      "¸": 118,
      "¹": 119,
      "º": 120,
      "»": 121,
      "¼": 122,
      "½": 123,
      "¾": 124,
      "¿": 125,
      "Â": 126,
      "Ã": 127,
      "Ä": 128,
      "Å": 129,
      "Æ": 130,
      "Ç": 131,
      "È": 132,
      "É": 133,
      "Ê": 134,
      "Ë": 135,
      "Ì": 136,
      "Í": 137,
      "Î": 138,
      "Ï": 139,
      "Ð": 140,
      "Ñ": 141,
      "Ò": 142,
      "Ó": 143,
      "Ô": 144,
      "Õ": 145,
      "Ö": 146,
      "×": 147,
      "Ø": 148,
      "Ù": 149,
      "Ú": 150,
      "Û": 151,
      "Ü": 152,
      "Ý": 153,
      "ß": 154,
      "à": 155,
      "á": 156,
      "â": 157,
      "ã": 158,
      "ä": 159,
      "å": 160,
      "æ": 161,
      "ç": 162,
      "è": 163,
      "é": 164,
      "ê": 165,
      "ë": 166,
      "ì": 167,
      "í": 168,
      "î": 169,
      "ï": 170,
      "ð": 171,
      "ñ": 172,
      "ó": 173,
      "ĉ": 174,
      "Ċ": 175,
      "Ġ": 176,
      "ġ": 177,
      "Ģ": 178,
      "ģ": 179,
      "Ĥ": 180,
      "ĥ": 181,
      "Ħ": 182,
      "ħ": 183,
      "Ĩ": 184,
      "ĩ": 185,
      "Ī": 186,
      "ī": 187,
      "Ĭ": 188,
      "ĭ": 189,
      "Į": 190,
      "į": 191,
      "İ": 192,
      "ı": 193,
      "Ĳ": 194,
      "ĳ": 195,
      "Ĵ": 196,
      "ĵ": 197,
      "Ķ": 198,
      "ķ": 199,
      "ĸ": 200,
      "Ĺ": 201,
      "ĺ": 202,
      "Ļ": 203,
      "ļ": 204,
      "Ľ": 205,
      "ľ": 206,
      "Ŀ": 207,
      "ŀ": 208,
      "Ł": 209,
      "ł": 210,
      "Ń": 211,
      "ï¼": 212,
      "ä¸": 213,
      "ãĢ": 214,
      "ï¼Į": 215,
      "çļ": 216,
      "çļĦ": 217,
      "äº": 218,
      "æľ": 219,
      "ãĢĤ": 220,
      "åħ": 221,
      "åľ": 222,
      "åı": 223,
      "å¤": 224,
      "å¹": 225,
      "ä»": 226,
      "æĸ": 227,
      "å®": 228,
      "åĪ": 229,
      "å¹´": 230,
      "åĲ": 231,
      "ãĢģ": 232,
      "çĶ": 233,
      "ä½": 234,
      "åį": 235,
      "å°": 236,
      "åŃ": 237,
      "æĺ": 238,
      "åĽ": 239,
      "å¾": 240,
      "æĹ": 241,
      "ä¹": 242,
      "æĪ": 243,
      "ä¸Ń": 244,
      "åľ¨": 245,
      "ä¸Ģ": 246,
      "ï¼Ī": 247,
      "ï¼ī": 248,
      "å¸": 249,
      "éĢ": 250,
      "äºº": 251,
      "åĬ": 252,
      "å¤§": 253,
      "æĺ¯": 254,
      "æŃ": 255,
      "åĮ": 256,
      "éģ": 257,
      "è¡": 258,
      "å·": 259,
      "è¿": 260,
      "éĩ": 261,
      "æĶ": 262,
      "çī": 263,
      "æľī": 264,
      "æķ": 265,
      "èĢ": 266,
      "âĢ": 267,
      "å±": 268,
      "æ°": 269,
      "åº": 270,
      "åĴ": 271,
      "19": 272,
      "çĤ": 273,
      "åĴĮ": 274,
      "éĻ": 275,
      "èĩ": 276,
      "æī": 277,
      "æĿ": 278,
      "éĥ": 279,
      "å¼": 280,
      "çĽ": 281,
      "ä¼": 282,
      "éĽ": 283,
      "æ³": 284,
      "åľĭ": 285,
      "åĽ½": 286,
      "æĹ¥": 287,
      "åĩ": 288,
      "æľĪ": 289,
      "ç»": 290,
      "20": 291,
      "çĤº": 292,
      "ä»¥": 293,
      "èĪ": 294,
      "åĨ": 295,
      "å¯": 296,
      "è®": 297,
      "æĻ": 298,
      "ï¼ļ": 299,
      "ç§": 300,
      "å¥": 301,
      "æ²": 302,
      "ç«": 303,
      "å½": 304,
      "äºĨ": 305,
      "ç¾": 306,
      "æĪĲ": 307,
      "ä¸į": 308,
      "åľ°": 309,
      "åī": 310,
      "è¦": 311,
      "åŁ": 312,
      "çİ": 313,
      "æł": 314,
      "æµ": 315,
      "åİ": 316,
      "çĲ": 317,
      "ä¸º": 318,
      "è¯": 319,
      "ä¾": 320,
      "æĭ": 321,
      "æĽ": 322,
      "ä¹ĭ": 323,
      "ä¸Ĭ": 324,
      "åĢ": 325,
      "çķ": 326,
      "éĿ": 327,
      "è¨": 328,
      "æ¸": 329,
      "å»": 330,
      "ç´": 331,
      "åĩº": 332,
      "åĵ": 333,
      "ä¸»": 334,
      "ãĢĬ": 335,
      "ãĢĭ": 336,
      "æ´": 337,
      "æĢ": 338,
      "æİ": 339,
      "çĻ": 340,
      "åĭ": 341,
      "é¦": 342,
      "çĶŁ": 343,
      "ä¿": 344,
      "è¡Į": 345,
      "éĥ¨": 346,
      "ç¬": 347,
      "é«": 348,
      "å®¶": 349,
      "çº": 350,
      "ç¨": 351,
      "ä½ľ": 352,
      "ä»ĸ": 353,
      "åĳ": 354,
      "è§": 355,
      "çĶ¨": 356,
      "æ°ĳ": 357,
      "éĸ": 358,
      "åħ¬": 359,
      "æĸĩ": 360,
      "èģ": 361,
      "æ¯": 362,
      "åħ¶": 363,
      "çµ": 364,
      "æĸ¼": 365,
      "çŃ": 366,
      "æĸ¯": 367,
      "å¿": 368,
      "æ±": 369,
      "åĪĨ": 370,
      "æ³ķ": 371,
      "éļ": 372,
      "åŃ¦": 373,
      "ç¬¬": 374,
      "èĥ": 375,
      "èª": 376,
      "æŀ": 377,
      "æĶ¿": 378,
      "èµ": 379,
      "æĬ": 380,
      "éĺ": 381,
      "åŃ¸": 382,
      "éķ": 383,
      "æ¬": 384,
      "èĢĮ": 385,
      "åŃĲ": 386,
      "åĪ°": 387,
      "è¢": 388,
      "åıĬ": 389,
      "è¥": 390,
      "éĹ": 391,
      "åĲį": 392,
      "å§": 393,
      "æľĥ": 394,
      "æĸ¹": 395,
      "æĻĤ": 396,
      "ãĢĮ": 397,
      "ãĢį": 398,
      "çĪ": 399,
      "æľ¬": 400,
      "è¾": 401,
      "è»": 402,
      "å¾Į": 403,
      "å¤ļ": 404,
      "è¥¿": 405,
      "åĲĮ": 406,
      "ä¸ĸ": 407,
      "èĩª": 408,
      "èĭ": 409,
      "Â·": 410,
      "æĮ": 411,
      "è¢«": 412,
      "åı¯": 413,
      "è·": 414,
      "å¸Ĥ": 415,
      "ä»£": 416,
      "çĶ±": 417,
      "åįĹ": 418,
      "è³": 419,
      "ç¶": 420,
      "ç©": 421,
      "æĸ°": 422,
      "é»": 423,
      "ä¸ĭ": 424,
      "âĢľ": 425,
      "âĢĿ": 426,
      "äºİ": 427,
      "æľĢ": 428,
      "åł": 429,
      "æ¨": 430,
      "å£": 431,
      "é¡": 432,
      "é«ĺ": 433,
      "èĪĩ": 434,
      "ĠĊ": 435,
      "åĮĹ": 436,
      "éł": 437,
      "çŃī": 438,
      "ç«ĭ": 439,
      "çľ": 440,
      "ä¸ī": 441,
      "ä¹Ł": 442,
      "æīĢ": 443,
      "çĲĨ": 444,
      "200": 445,
      "çī©": 446,
      "æķĻ": 447,
      "è¦ģ": 448,
      "çī¹": 449,
      "ç½": 450,
      "ç¤": 451,
      "å¦": 452,
      "ä½į": 453,
      "å¤ĸ": 454,
      "ç¾İ": 455,
      "åīį": 456,
      "æ¼": 457,
      "æĦ": 458,
      "ç¥": 459,
      "çĦ": 460,
      "åĽł": 461,
      "åĮĸ": 462,
      "éŁ": 463,
      "çģ": 464,
      "å»º": 465,
      "å¾·": 466,
      "èŃ": 467,
      "è´": 468,
      "åĲİ": 469,
      "ä¸ª": 470,
      "æı": 471,
      "èī": 472,
      "åĪ©": 473,
      "äºĭ": 474,
      "å®ļ": 475,
      "å±±": 476,
      "èĥ½": 477,
      "éĤ": 478,
      "æµ·": 479,
      "åĬł": 480,
      "æŃ¤": 481,
      "å¤©": 482,
      "æľŁ": 483,
      "çı": 484,
      "çŁ": 485,
      "ä¼ļ": 486,
      "å¾Ĺ": 487,
      "äºĮ": 488,
      "ä»»": 489,
      "èĢħ": 490,
      "è©": 491,
      "æĹ¶": 492,
      "åħ¨": 493,
      "çİĭ": 494,
      "éģĵ": 495,
      "åĲĪ": 496,
      "å·¥": 497,
      "æĵ": 498,
      "è½": 499,
      "è¶": 500,
      "éĢļ": 501,
      "åĢĭ": 502,
      "åı°": 503,
      "åħĭ": 504,
      "èĩ³": 505,
      "å°ı": 506,
      "ä½¿": 507,
      "çĻ¼": 508,
      "æĢ§": 509,
      "è¡¨": 510,
      "è£": 511,
      "åº¦": 512,
      "ç±": 513,
      "åįģ": 514,
      "æĥ": 515,
      "åħ¥": 516,
      "èĻ": 517,
      "é¢": 518,
      "åħ±": 519,
      "è·¯": 520,
      "ä½Ĩ": 521,
      "åĿ": 522,
      "æ¥": 523,
      "è²": 524,
      "ç³": 525,
      "éĩį": 526,
      "æ¸¯": 527,
      "å¹³": 528,
      "er": 529,
      "èĲ": 530,
      "èĤ": 531,
      "10": 532,
      "éĻ¢": 533,
      "æ¬¡": 534,
      "ç®": 535,
      "éĥ½": 536,
      "çĽ¸": 537,
      "åĮº": 538,
      "éĩĮ": 539,
      "ï¼Ľ": 540,
      "éĿ¢": 541,
      "èĳ": 542,
      "é£": 543,
      "an": 544,
      "åĬĽ": 545,
      "åİŁ": 546,
      "åįĢ": 547,
      "å¼ı": 548,
      "çį": 549,
      "åģ": 550,
      "ç¦": 551,
      "æº": 552,
      "ä¾Ĩ": 553,
      "æĭī": 554,
      "åĤ": 555,
      "åıĳ": 556,
      "æĺİ": 557,
      "ç¸": 558,
      "è»į": 559,
      "éĽ»": 560,
      "åħĥ": 561,
      "å¢": 562,
      "å¦Ĥ": 563,
      "ç·": 564,
      "å°į": 565,
      "åŁº": 566,
      "éĩĳ": 567,
      "å®ī": 568,
      "èĭ±": 569,
      "è¼": 570,
      "ç³»": 571,
      "åŁİ": 572,
      "æŁ": 573,
      "æ©": 574,
      "åĪ¶": 575,
      "ç§ĳ": 576,
      "æ²»": 577,
      "æ®": 578,
      "èı": 579,
      "åĭķ": 580,
      "çĲĥ": 581,
      "ï¼īï¼Į": 582,
      "çł": 583,
      "å£«": 584,
      "åķ": 585,
      "ä¸İ": 586,
      "18": 587,
      "å·ŀ": 588,
      "å°Ķ": 589,
      "æĪĸ": 590,
      "ä¸¦": 591,
      "æŃ£": 592,
      "æ°´": 593,
      "åĵ¡": 594,
      "åĨĽ": 595,
      "éķ·": 596,
      "in": 597,
      "åºľ": 598,
      "éĩı": 599,
      "é¦Ļ": 600,
      "on": 601,
      "é©": 602,
      "è¿Ļ": 603,
      "èĬ": 604,
      "å½±": 605,
      "å¸¸": 606,
      "199": 607,
      "åı²": 608,
      "éĢĻ": 609,
      "å¯¹": 610,
      "æ¯Ķ": 611,
      "è«": 612,
      "åĽĽ": 613,
      "çķĮ": 614,
      "éĸĭ": 615,
      "åı£": 616,
      "èµ·": 617,
      "æģ": 618,
      "12": 619,
      "æ¢": 620,
      "åĸ": 621,
      "æ¡": 622,
      "æĪ°": 623,
      "å¥³": 624,
      "åı¸": 625,
      "âĢĶ": 626,
      "æĶ¹": 627,
      "å¡": 628,
      "ç¶ĵ": 629,
      "å²": 630,
      "æł¼": 631,
      "çĦ¶": 632,
      "éķ¿": 633,
      "æİ¥": 634,
      "éŁ³": 635,
      "æ¼Ķ": 636,
      "æĿ¥": 637,
      "èĹ": 638,
      "æĿ±": 639,
      "æıĲ": 640,
      "æł¡": 641,
      "å¿ĥ": 642,
      "åĶ": 643,
      "00": 644,
      "å°±": 645,
      "åĪĹ": 646,
      "ç¨ĭ": 647,
      "æŀĹ": 648,
      "ä¸ŃåĽ½": 649,
      "çı¾": 650,
      "æĦı": 651,
      "å¸ĥ": 652,
      "é¦Ļæ¸¯": 653,
      "ç¤¾": 654,
      "æ©Ł": 655,
      "çĽ®": 656,
      "éħ": 657,
      "èİ": 658,
      "çķ¶": 659,
      "ä¸ľ": 660,
      "éģİ": 661,
      "æ·": 662,
      "éľ": 663,
      "äº¤": 664,
      "é«Ķ": 665,
      "çģ£": 666,
      "å¼Ģ": 667,
      "çĪ¾": 668,
      "éĸĵ": 669,
      "æĴ": 670,
      "11": 671,
      "èĺ": 672,
      "é¦ĸ": 673,
      "æľĿ": 674,
      "ç¯": 675,
      "å°¼": 676,
      "å½¢": 677,
      "å¤ª": 678,
      "åĬ¨": 679,
      "éĺ¿": 680,
      "å¹¶": 681,
      "åĲĳ": 682,
      "åħ§": 683,
      "åı¤": 684,
      "åıĹ": 685,
      "åŃĹ": 686,
      "åĥ": 687,
      "å°ĩ": 688,
      "ç»ı": 689,
      "ç«Ļ": 690,
      "å·´": 691,
      "ä¿Ŀ": 692,
      "äºĽ": 693,
      "æį": 694,
      "ĠĠ": 695,
      "åĵģ": 696,
      "æĺŁ": 697,
      "å§ĭ": 698,
      "æĹı": 699,
      "æķ¸": 700,
      "en": 701,
      "æµģ": 702,
      "æīĭ": 703,
      "ç¨±": 704,
      "åŀ": 705,
      "äºŀ": 706,
      "or": 707,
      "èī²": 708,
      "æķ°": 709,
      "ç©º": 710,
      "åł´": 711,
      "æ¶": 712,
      "æĮĩ": 713,
      "è°": 714,
      "éĽĨ": 715,
      "æĶ¿åºľ": 716,
      "å·²": 717,
      "æĹ¥æľ¬": 718,
      "åĨħ": 719,
      "éĢ²": 720,
      "å¸Ŀ": 721,
      "åĮħ": 722,
      "å±ķ": 723,
      "åĲĦ": 724,
      "åıį": 725,
      "æħ": 726,
      "çĽ´": 727,
      "è±": 728,
      "éĵ": 729,
      "ar": 730,
      "æľº": 731,
      "äºĶ": 732,
      "å¨": 733,
      "æ£": 734,
      "al": 735,
      "ç¥ŀ": 736,
      "èĳĹ": 737,
      "æĮģ": 738,
      "æ¥Ń": 739,
      "ä¿¡": 740,
      "ä½ĵ": 741,
      "è¿ĩ": 742,
      "æ±Ł": 743,
      "èį": 744,
      "é¦¬": 745,
      "èº": 746,
      "çľģ": 747,
      "çİ°": 748,
      "èı¯": 749,
      "çīĪ": 750,
      "ç²": 751,
      "ç¿": 752,
      "åĦ": 753,
      "åĳĺ": 754,
      "198": 755,
      "æ²³": 756,
      "ä¸ļ": 757,
      "äº¬": 758,
      "å§Ķ": 759,
      "çĿ": 760,
      "æĽ´": 761,
      "çµ±": 762,
      "æ»": 763,
      "ç®¡": 764,
      "è»Ĭ": 765,
      "äºļ": 766,
      "å°ĳ": 767,
      "éĹľ": 768,
      "åı¯ä»¥": 769,
      "åĳ½": 770,
      "ç¬¬ä¸Ģ": 771,
      "èªŀ": 772,
      "æĪĺ": 773,
      "å®ĺ": 774,
      "èĢĥ": 775,
      "ç¹": 776,
      "æ´²": 777,
      "ä½¿çĶ¨": 778,
      "ç±³": 779,
      "åŀĭ": 780,
      "æĽ¾": 781,
      "æ¸ħ": 782,
      "è¿Ľ": 783,
      "åĻ": 784,
      "èº«": 785,
      "å³": 786,
      "ä»¶": 787,
      "201": 788,
      "ç§°": 789,
      "åħī": 790,
      "éĿŀ": 791,
      "çĭ": 792,
      "çłĶ": 793,
      "éŃ": 794,
      "çĶµ": 795,
      "éĢł": 796,
      "ç¢": 797,
      "æ¹": 798,
      "è§£": 799,
      "éģĭ": 800,
      "éĹ´": 801,
      "åħ©": 802,
      "éº": 803,
      "es": 804,
      "åķĨ": 805,
      "è¨Ń": 806,
      "at": 807,
      "æĥħ": 808,
      "ç¨®": 809,
      "ç¾©": 810,
      "å°Ĩ": 811,
      "èģ¯": 812,
      "åıĸ": 813,
      "é¾": 814,
      "ï¼īãĢĤ": 815,
      "æĶ¯": 816,
      "åĽŀ": 817,
      "ĠS": 818,
      "äº§": 819,
      "Ġ(": 820,
      "è¨Ģ": 821,
      "çŁ³": 822,
      "ä¸ĸçķĮ": 823,
      "èĮ": 824,
      "ãĥ": 825,
      "ç§į": 826,
      "è¦ĸ": 827,
      "ç¸½": 828,
      "åİ¿": 829,
      "æŃ¦": 830,
      "çĦ¡": 831,
      "è¯Ń": 832,
      "ä¸Ńåľĭ": 833,
      "æĿİ": 834,
      "é©¬": 835,
      "çĥ": 836,
      "åį³": 837,
      "ç»Ł": 838,
      "çµĲ": 839,
      "éļĬ": 840,
      "ç¤º": 841,
      "æĩ": 842,
      "åħ¬åı¸": 843,
      "æ´»": 844,
      "Ġ-": 845,
      "çĹ": 846,
      "åį¡": 847,
      "ç©¶": 848,
      "åıª": 849,
      "å®Ĺ": 850,
      "å±Ģ": 851,
      "çļĩ": 852,
      "å®ĥ": 853,
      "ç·ļ": 854,
      "èŃ°": 855,
      "é¤": 856,
      "ç¾ħ": 857,
      "å¤«": 858,
      "è³½": 859,
      "æĢ»": 860,
      "æĶ¾": 861,
      "ç´Ħ": 862,
      "è¿ĳ": 863,
      "çĻ½": 864,
      "è®¾": 865,
      "åĻ¨": 866,
      "çłĶç©¶": 867,
      "éģ¸": 868,
      "äººæ°ĳ": 869,
      "èĤ²": 870,
      "æ¨Ĥ": 871,
      "æ´¾": 872,
      "åıĤ": 873,
      "å½ĵ": 874,
      "ç¼": 875,
      "èĴ": 876,
      "èĩº": 877,
      "æ³¢": 878,
      "çĩ": 879,
      "åīĩ": 880,
      "åħĪ": 881,
      "ä¸Ģä¸ª": 882,
      "ĠC": 883,
      "æŀľ": 884,
      "åįİ": 885,
      "åıĥ": 886,
      "æ¿": 887,
      "æĽ²": 888,
      "æĽ¸": 889,
      "ic": 890,
      "ä¸»è¦ģ": 891,
      "åĤ³": 892,
      "çĳ": 893,
      "ç½Ĺ": 894,
      "èĻŁ": 895,
      "åıĪ": 896,
      "æºĲ": 897,
      "åħ³": 898,
      "æĻ®": 899,
      "èħ": 900,
      "ï¼į": 901,
      "ä»Ĭ": 902,
      "15": 903,
      "éģĶ": 904,
      "èģĶ": 905,
      "éĦ": 906,
      "çĶ¢": 907,
      "è¨Ī": 908,
      "æĭ¬": 909,
      "çµĦ": 910,
      "æĶ¶": 911,
      "èªª": 912,
      "åħŃ": 913,
      "èĺŃ": 914,
      "ä¾ĭ": 915,
      "è§Ĵ": 916,
      "ä¹ī": 917,
      "he": 918,
      "æŃĮ": 919,
      "16": 920,
      "ä¸¤": 921,
      "åľŁ": 922,
      "å¯¦": 923,
      "çĸ": 924,
      "17": 925,
      "ç¾İåľĭ": 926,
      "is": 927,
      "197": 928,
      "åİ»": 929,
      "åĪĿ": 930,
      "ä»¥åıĬ": 931,
      "éĮ": 932,
      "åĮħæĭ¬": 933,
      "å®ŀ": 934,
      "å¾ŀ": 935,
      "ä¹¦": 936,
      "çŁ¥": 937,
      "å®Į": 938,
      "æľª": 939,
      "åħµ": 940,
      "ä»İ": 941,
      "éĻ¤": 942,
      "åĢĳ": 943,
      "åħ¶ä»ĸ": 944,
      "åĨį": 945,
      "åĳ¨": 946,
      "æŃ»": 947,
      "æł¹": 948,
      "çīĩ": 949,
      "it": 950,
      "å¾Ī": 951,
      "åħ«": 952,
      "éĸĢ": 953,
      "éĥ¨åĪĨ": 954,
      "è³ĩ": 955,
      "å¼ķ": 956,
      "ä¸Ķ": 957,
      "åĭĻ": 958,
      "ä¼Ĭ": 959,
      "ç¦ı": 960,
      "ç»Ħ": 961,
      "æĪĳ": 962,
      "åŃĺ": 963,
      "äº¦": 964,
      "è¿Ĳ": 965,
      "å¤§åŃ¦": 966,
      "éĢ£": 967,
      "èĪª": 968,
      "å¾Ģ": 969,
      "ĠA": 970,
      "ä»¤": 971,
      "ĠM": 972,
      "è¾¾": 973,
      "ĠP": 974,
      "æĸĻ": 975,
      "èªį": 976,
      "ä¸ĢåĢĭ": 977,
      "èĦ": 978,
      "194": 979,
      "ä»¬": 980,
      "çĮ": 981,
      "ç´Ģ": 982,
      "å¤§åŃ¸": 983,
      "å±ħ": 984,
      "æľį": 985,
      "å¨ģ": 986,
      "é»¨": 987,
      "æĸĩåĮĸ": 988,
      "æ¬Ĭ": 989,
      "æ¯ı": 990,
      "è®¡": 991,
      "æ®µ": 992,
      "æĶ¿æ²»": 993,
      "å®£": 994,
      "çħ": 995,
      "æļ": 996,
      "éĲ": 997,
      "le": 998,
      "æ¦": 999,
      "ä¹Ŀ": 1000,
      "åĬŁ": 1001,
      "åı·": 1002,
      "195": 1003,
      "æİ¨": 1004,
      "åħ¶ä¸Ń": 1005,
      "æĬĢ": 1006,
      "å¢ŀ": 1007,
      "äººåı£": 1008,
      "çĶ°": 1009,
      "çĻ¾": 1010,
      "å¸Į": 1011,
      "196": 1012,
      "çİĩ": 1013,
      "å»£": 1014,
      "é¡ŀ": 1015,
      "åħ·": 1016,
      "çº¿": 1017,
      "èĬ±": 1018,
      "è¶ħ": 1019,
      "è«ĸ": 1020,
      "å¥½": 1021,
      "éĢŁ": 1022,
      "ä¿®": 1023,
      "æĩī": 1024,
      "æ¾": 1025,
      "æ±Ĥ": 1026,
      "ï¼īãĢģ": 1027,
      "åı°çģ£": 1028,
      "æĹ©": 1029,
      "åľº": 1030,
      "å¤®": 1031,
      "è®Ĭ": 1032,
      "æ½": 1033,
      "çĨ": 1034,
      "çº¦": 1035,
      "è®®": 1036,
      "ç¬¬äºĮ": 1037,
      "å®¢": 1038,
      "çĵ": 1039,
      "æ§": 1040,
      "åĽ½å®¶": 1041,
      "æīĵ": 1042,
      "å¹¿": 1043,
      "åħ°": 1044,
      "ç¡": 1045,
      "æĴŃ": 1046,
      "åľĺ": 1047,
      "åħļ": 1048,
      "ä¼ł": 1049,
      "åı¦": 1050,
      "ç¸£": 1051,
      "æķħ": 1052,
      "å¢ĥ": 1053,
      "å±ŀ": 1054,
      "åİĨ": 1055,
      "éĺŁ": 1056,
      "åŁŁ": 1057,
      "éĿ©": 1058,
      "è¯´": 1059,
      "ç±»": 1060,
      "ä¸ŃçļĦ": 1061,
      "å¼µ": 1062,
      "ä¸Ńå¤®": 1063,
      "è¶³": 1064,
      "è¶Ĭ": 1065,
      "14": 1066,
      "åĽłæŃ¤": 1067,
      "èĩ´": 1068,
      "éĬ": 1069,
      "ĠT": 1070,
      "å°İ": 1071,
      "éłĺ": 1072,
      "æ¯į": 1073,
      "çģ«": 1074,
      "çĤ¹": 1075,
      "åĬ¡": 1076,
      "éĶ": 1077,
      "å®¹": 1078,
      "çº§": 1079,
      "13": 1080,
      "ä¼¯": 1081,
      "åį°": 1082,
      "ä¸ĩ": 1083,
      "è©²": 1084,
      "æ¡Ī": 1085,
      "åĪ¥": 1086,
      "æĬķ": 1087,
      "ä¸ĥ": 1088,
      "çª": 1089,
      "åĵĪ": 1090,
      "æĺĵ": 1091,
      "æŃ·": 1092,
      "ç½®": 1093,
      "èĲ¬": 1094,
      "é¢Ĩ": 1095,
      "å³¶": 1096,
      "ä½ķ": 1097,
      "çĬ": 1098,
      "ol": 1099,
      "æŁ¥": 1100,
      "èĻķ": 1101,
      "æķ´": 1102,
      "ç´ł": 1103,
      "å¯Ĩ": 1104,
      "æĶ»": 1105,
      "å±¬": 1106,
      "æĹł": 1107,
      "ç»ĵ": 1108,
      "åĲī": 1109,
      "çļĦä¸Ģ": 1110,
      "çķ«": 1111,
      "å¸«": 1112,
      "ãĢĭï¼Į": 1113,
      "å·±": 1114,
      "è½¦": 1115,
      "æĻ¯": 1116,
      "çĹħ": 1117,
      "è±¡": 1118,
      "å¤±": 1119,
      "åĬĩ": 1120,
      "å¥¹": 1121,
      "æ²Ļ": 1122,
      "éĤ£": 1123,
      "çľŁ": 1124,
      "è¡ĵ": 1125,
      "æ¨¡": 1126,
      "æĥ³": 1127,
      "ãĢįï¼Į": 1128,
      "ç¾İåĽ½": 1129,
      "é»ŀ": 1130,
      "30": 1131,
      "åħ±åĴĮ": 1132,
      "éª": 1133,
      "åŃ£": 1134,
      "ä¾Ľ": 1135,
      "ä»£è¡¨": 1136,
      "æ¹ĸ": 1137,
      "æĪĲçĤº": 1138,
      "å¿Ĺ": 1139,
      "åįĬ": 1140,
      "çºª": 1141,
      "åĿĩ": 1142,
      "å¤Ħ": 1143,
      "åºĶ": 1144,
      "ion": 1145,
      "éĹ¨": 1146,
      "ä¸įåĲĮ": 1147,
      "åĥı": 1148,
      "ç¾¤": 1149,
      "è¿ĺ": 1150,
      "åįļ": 1151,
      "è®º": 1152,
      "å¸Ń": 1153,
      "éĿĴ": 1154,
      "æĳ": 1155,
      "âĢĶâĢĶ": 1156,
      "åı¯èĥ½": 1157,
      "çįİ": 1158,
      "èĪī": 1159,
      "æĢĿ": 1160,
      "æľ¯": 1161,
      "éĻĲ": 1162,
      "çĶ·": 1163,
      "å¾ĭ": 1164,
      "çıŃ": 1165,
      "åħ¸": 1166,
      "éĨ": 1167,
      "çį²": 1168,
      "èĭı": 1169,
      "å¯¼": 1170,
      "ç®Ĺ": 1171,
      "ä»½": 1172,
      "æ±ī": 1173,
      "èĢģ": 1174,
      "å¡Ķ": 1175,
      "é²": 1176,
      "zh": 1177,
      "åº§": 1178,
      "ä¸Ńå¿ĥ": 1179,
      "22": 1180,
      "st": 1181,
      "æķĻèĤ²": 1182,
      "æīį": 1183,
      "el": 1184,
      "of": 1185,
      "è¬": 1186,
      "ĠB": 1187,
      "éļĽ": 1188,
      "è®°": 1189,
      "éĴ": 1190,
      "éľĢ": 1191,
      "ç»´": 1192,
      "ç¶Ń": 1193,
      "èĩªå·±": 1194,
      "åł±": 1195,
      "åĬ©": 1196,
      "è®¤": 1197,
      "è¨ĺ": 1198,
      "éĲµ": 1199,
      "è¦ĭ": 1200,
      "å°Ħ": 1201,
      "ä¹ĭä¸Ģ": 1202,
      "æĵĬ": 1203,
      "åĺ": 1204,
      "Ġt": 1205,
      "âĢĿãĢĤ": 1206,
      "å¿µ": 1207,
      "å´": 1208,
      "ç´ļ": 1209,
      "èĸ": 1210,
      "çĽŁ": 1211,
      "å®¤": 1212,
      "å·Ŀ": 1213,
      "å©": 1214,
      "re": 1215,
      "æ¸¸": 1216,
      "æĤ": 1217,
      "é£Ł": 1218,
      "ç¯Ģ": 1219,
      "æ²Ĵ": 1220,
      "æİĴ": 1221,
      "ro": 1222,
      "æĸ½": 1223,
      "åĳĬ": 1224,
      "æ´Ľ": 1225,
      "åıĺ": 1226,
      "æį®": 1227,
      "ä»į": 1228,
      "æĿĳ": 1229,
      "21": 1230,
      "æľ¨": 1231,
      "æĿĥ": 1232,
      "åĸ®": 1233,
      "æĦŁ": 1234,
      "åłĤ": 1235,
      "æŃ¥": 1236,
      "æ¢Ŀ": 1237,
      "èĲ½": 1238,
      "ä½Ľ": 1239,
      "åľĭå®¶": 1240,
      "å°Ī": 1241,
      "æĪĲç«ĭ": 1242,
      "æī¹": 1243,
      "åĭĴ": 1244,
      "æĬĬ": 1245,
      "åľĸ": 1246,
      "çĿ£": 1247,
      "é»ĳ": 1248,
      "}-": 1249,
      "ç«ł": 1250,
      "å·¥ä½ľ": 1251,
      "çĴ": 1252,
      "ĊĊ": 1253,
      "éĸĭå§ĭ": 1254,
      "ä»ĸçļĦ": 1255,
      "é¾į": 1256,
      "åĽ¢": 1257,
      "è¡ĮæĶ¿": 1258,
      "éĽ»è¦ĸ": 1259,
      "ä¹Ĳ": 1260,
      "é¢¨": 1261,
      "ä¾¿": 1262,
      "ãĤ": 1263,
      "æ±º": 1264,
      "25": 1265,
      "ä½ı": 1266,
      "ãĢĭï¼Ī": 1267,
      "ãĢįãĢĤ": 1268,
      "åĪĻ": 1269,
      "ç²¾": 1270,
      "æ¼¢": 1271,
      "è¯¥": 1272,
      "åıĭ": 1273,
      "æĵļ": 1274,
      "éłŃ": 1275,
      "åº·": 1276,
      "ĠL": 1277,
      "âĢĿï¼Į": 1278,
      "æ·±": 1279,
      "ä½İ": 1280,
      "è£½": 1281,
      "å¹´ä»£": 1282,
      "æŃ¢": 1283,
      "çĪŃ": 1284,
      "éĵģ": 1285,
      "æ°ı": 1286,
      "çĪ¶": 1287,
      "æ°£": 1288,
      "æµİ": 1289,
      "åĽ¾": 1290,
      "æĦĽ": 1291,
      "éĺ²": 1292,
      "è§Ģ": 1293,
      "åľĴ": 1294,
      "çĻ»": 1295,
      "æĲ": 1296,
      "193": 1297,
      "åĶĲ": 1298,
      "åįł": 1299,
      "éĤĦ": 1300,
      "çľĭ": 1301,
      "æī¿": 1302,
      "éĻį": 1303,
      "éħį": 1304,
      "æĽ¼": 1305,
      "èµĦ": 1306,
      "å¼·": 1307,
      "ĠI": 1308,
      "éĢī": 1309,
      "é¡Į": 1310,
      "ä½ľåĵģ": 1311,
      "23": 1312,
      "è³ª": 1313,
      "-{": 1314,
      "éĺ³": 1315,
      "åī¯": 1316,
      "è½ī": 1317,
      "åįĥ": 1318,
      "çķĻ": 1319,
      "ac": 1320,
      "åŁİå¸Ĥ": 1321,
      "éĻħ": 1322,
      "Ġof": 1323,
      "è¨±": 1324,
      "å¡ŀ": 1325,
      "ç¶²": 1326,
      "éĽ·": 1327,
      "å¸¶": 1328,
      "çĿĢ": 1329,
      "ä¸ĬçļĦ": 1330,
      "éģĬ": 1331,
      "ãģ": 1332,
      "am": 1333,
      "éĻ³": 1334,
      "åīµ": 1335,
      "æ´ĭ": 1336,
      "ĠR": 1337,
      "å¸Ī": 1338,
      "æ³¨": 1339,
      "éĻ¸": 1340,
      "ç§»": 1341,
      "ä¸Ńèı¯": 1342,
      "èģĸ": 1343,
      "æĬ¥": 1344,
      "è¼ĥ": 1345,
      "å¯Į": 1346,
      "åĢ¼": 1347,
      "ĠH": 1348,
      "il": 1349,
      "é½": 1350,
      "åĮĹäº¬": 1351,
      "å¹´çļĦ": 1352,
      "et": 1353,
      "å¤§çļĦ": 1354,
      "èĩºçģ£": 1355,
      "è¡Ĺ": 1356,
      "å»ºç«ĭ": 1357,
      "æŀĦ": 1358,
      "åľ°åĮº": 1359,
      "å¥¥": 1360,
      "and": 1361,
      "ĠD": 1362,
      "æ£®": 1363,
      "è¦ª": 1364,
      "æ¨Ļ": 1365,
      "åĵ¥": 1366,
      "å¼ł": 1367,
      "æīĢæľī": 1368,
      "æķĪ": 1369,
      "ä¿Ħ": 1370,
      "ä¾Ŀ": 1371,
      "æİ§": 1372,
      "è¿°": 1373,
      "éĽ»å½±": 1374,
      "å¥ĩ": 1375,
      "æīĺ": 1376,
      "éĽ¢": 1377,
      "éĩįè¦ģ": 1378,
      "æ¶Ī": 1379,
      "äºī": 1380,
      "æ°Ķ": 1381,
      "æŃĲ": 1382,
      "æ²Ĵæľī": 1383,
      "æĿ¡": 1384,
      "æĬĹ": 1385,
      "è´¨": 1386,
      "id": 1387,
      "åįķ": 1388,
      "åĪ«": 1389,
      "éķĩ": 1390,
      "è¡¨ç¤º": 1391,
      "èªįçĤº": 1392,
      "ç°": 1393,
      "åģļ": 1394,
      "èĴĻ": 1395,
      "èģ·": 1396,
      "ä¸ĢäºĽ": 1397,
      "åĩºçīĪ": 1398,
      "çĵ¦": 1399,
      "è§Ĩ": 1400,
      "ĠĠĠĠ": 1401,
      "å¿ħ": 1402,
      "äº¡": 1403,
      "æŃ£å¼ı": 1404,
      "çīĻ": 1405,
      "èµĽ": 1406,
      "as": 1407,
      "èĪ¬": 1408,
      "æłĩ": 1409,
      "èĶ": 1410,
      "åľ°åįĢ": 1411,
      "å¤ı": 1412,
      "æĪĲä¸º": 1413,
      "us": 1414,
      "æĹħ": 1415,
      "åįĩ": 1416,
      "åĶ±": 1417,
      "ç®¡çĲĨ": 1418,
      "å¯Ł": 1419,
      "å¥§": 1420,
      "å·¥ç¨ĭ": 1421,
      "å®ĭ": 1422,
      "å¼Ģå§ĭ": 1423,
      "åĢĻ": 1424,
      "ch": 1425,
      "æł¸": 1426,
      "ĠG": 1427,
      "åĪĴ": 1428,
      "ent": 1429,
      "å®Ī": 1430,
      "å¤į": 1431,
      "æľĽ": 1432,
      "èĹı": 1433,
      "è§ģ": 1434,
      "||": 1435,
      "24": 1436,
      "çº³": 1437,
      "ç½ĳ": 1438,
      "åķı": 1439,
      "åĨł": 1440,
      "æ¾³": 1441,
      "äººçļĦ": 1442,
      "åĲ«": 1443,
      "om": 1444,
      "åºķ": 1445,
      "æ§ĭ": 1446,
      "çºĮ": 1447,
      "ä¸ĵ": 1448,
      "æ°¸": 1449,
      "ç·¨": 1450,
      "èİ·": 1451,
      "çħ§": 1452,
      "æ²¡": 1453,
      "èĺĩ": 1454,
      "çĶ±æĸ¼": 1455,
      "èĪĪ": 1456,
      "ç¥ĸ": 1457,
      "éİ": 1458,
      "ing": 1459,
      "åİĨåı²": 1460,
      "åĽłçĤº": 1461,
      "çŃĸ": 1462,
      "è§Ħ": 1463,
      "åŃ¦éĻ¢": 1464,
      "å°ģ": 1465,
      "ig": 1466,
      "èª¿": 1467,
      "é»ĥ": 1468,
      "çĶ²": 1469,
      "éĽĦ": 1470,
      "æ³°": 1471,
      "ä¹Łæĺ¯": 1472,
      "éĤ¦": 1473,
      "æ¤": 1474,
      "ur": 1475,
      "çł´": 1476,
      "éĮĦ": 1477,
      "é¤¨": 1478,
      "å§Ĩ": 1479,
      "éĻĦ": 1480,
      "å§Ķåĳĺ": 1481,
      "ed": 1482,
      "èĵ": 1483,
      "é§": 1484,
      "é£İ": 1485,
      "æİĪ": 1486,
      "æĺ¥": 1487,
      "è¦ı": 1488,
      "å¤ĸéĥ¨": 1489,
      "èĹĿ": 1490,
      "ä¾ĭå¦Ĥ": 1491,
      "ĠE": 1492,
      "éĩİ": 1493,
      "çĩŁ": 1494,
      "åĨ³": 1495,
      "éģĭåĭķ": 1496,
      "ç´¢": 1497,
      "æĨ": 1498,
      "åĩĨ": 1499,
      "åŁĥ": 1500,
      "çķ¶æĻĤ": 1501,
      "æŃ·åı²": 1502,
      "ç¥¨": 1503,
      "äºĭä»¶": 1504,
      "èĭ±åľĭ": 1505,
      "ĠF": 1506,
      "çĻ¼å±ķ": 1507,
      "ãĢĭãĢģ": 1508,
      "å²Ľ": 1509,
      "åĩºçĶŁ": 1510,
      "è¿Ľè¡Į": 1511,
      "éĦī": 1512,
      "éĢ²è¡Į": 1513,
      "28": 1514,
      "è¿ª": 1515,
      "çľ¾": 1516,
      "é£Ľ": 1517,
      "Ġ200": 1518,
      "è¾¦": 1519,
      "é¬": 1520,
      "å»¶": 1521,
      "ä¸»ä¹ī": 1522,
      "åģľ": 1523,
      "æģ¯": 1524,
      "æģ©": 1525,
      "éĢĿ": 1526,
      "æĸ¹éĿ¢": 1527,
      "å·¦": 1528,
      "åºı": 1529,
      "çµ¦": 1530,
      "æĶ¯æĮģ": 1531,
      "åħĴ": 1532,
      "ä»ĸåĢĳ": 1533,
      "ç»ıæµİ": 1534,
      "é¢ĺ": 1535,
      "çļĦäºº": 1536,
      "ç´į": 1537,
      "un": 1538,
      "èĬĤ": 1539,
      "éŁ¿": 1540,
      "å¸¦": 1541,
      "æĺ¯ä¸Ģ": 1542,
      "çĳŀ": 1543,
      "è¡Ľ": 1544,
      "èģ²": 1545,
      "éĻ½": 1546,
      "è©±": 1547,
      "ä¸ģ": 1548,
      "æĪ²": 1549,
      "æıĲä¾Ľ": 1550,
      "æ¿Ł": 1551,
      "çªģ": 1552,
      "æĭ¿": 1553,
      "éĢĢ": 1554,
      "è£Ŀ": 1555,
      "åľĭéļĽ": 1556,
      "éĹ®": 1557,
      "éļ¨": 1558,
      "å¿«": 1559,
      "è°ĥ": 1560,
      "é¹": 1561,
      "ç¬¬ä¸ī": 1562,
      "åįĶ": 1563,
      "åĲĽ": 1564,
      "ä¸Ĭæµ·": 1565,
      "Ġï¼Ī": 1566,
      "ä¸¹": 1567,
      "èŃ¦": 1568,
      "æ¨£": 1569,
      "âĢĵ": 1570,
      "27": 1571,
      "èĩªçĶ±": 1572,
      "50": 1573,
      "ä¼¼": 1574,
      "ä½³": 1575,
      "26": 1576,
      "çµĤ": 1577,
      "ç£": 1578,
      "åĺī": 1579,
      "çīĮ": 1580,
      "çį¨": 1581,
      "ä¸ĢèĪ¬": 1582,
      "ä½Ĩæĺ¯": 1583,
      "å¼º": 1584,
      "ĠW": 1585,
      "éļĨ": 1586,
      "åħ¬éĩĮ": 1587,
      "è®¤ä¸º": 1588,
      "åºĹ": 1589,
      "èĭ¥": 1590,
      "æ²¡æľī": 1591,
      "åĽŃ": 1592,
      "äººæ°ĳåħ±åĴĮ": 1593,
      "åľ°æĸ¹": 1594,
      "èĪ¹": 1595,
      "ç¤¾æľĥ": 1596,
      "éĻĨ": 1597,
      "å¯«": 1598,
      "ä¹ħ": 1599,
      "å°±æĺ¯": 1600,
      "åĪĽ": 1601,
      "æ¬§": 1602,
      "è¿ŀ": 1603,
      "è®¸": 1604,
      "è§Ĥ": 1605,
      "åī§": 1606,
      "æ¥µ": 1607,
      "ãĢĭãĢģãĢĬ": 1608,
      "ĠãĢĬ": 1609,
      "æ°ĳåľĭ": 1610,
      "åĬĥ": 1611,
      "ä¸¾": 1612,
      "å¾®": 1613,
      "ç¤¾ä¼ļ": 1614,
      "çĴ°": 1615,
      "åĪ¤": 1616,
      "åª": 1617,
      "éĢļè¿ĩ": 1618,
      "èĩ£": 1619,
      "åŃĺåľ¨": 1620,
      "é»Ħ": 1621,
      "é¼": 1622,
      "çĮ®": 1623,
      "ãĢĢ": 1624,
      "ç¨±çĤº": 1625,
      "ĠN": 1626,
      "ä¸ĸçºª": 1627,
      "ä¸Ńåįİ": 1628,
      "éłħ": 1629,
      "ä¹ĭå¾Į": 1630,
      "ç³»çµ±": 1631,
      "åĬŀ": 1632,
      "äººçī©": 1633,
      "éĨ«": 1634,
      "ï¼Īï¼ī": 1635,
      "åł¡": 1636,
      "ĠĊĊ": 1637,
      "æŀ¶": 1638,
      "ç¹¼": 1639,
      "æ²¹": 1640,
      "éĿ©åĳ½": 1641,
      "æł·": 1642,
      "æ®º": 1643,
      "000": 1644,
      "ç±į": 1645,
      "å²¸": 1646,
      "ä¸»ç¾©": 1647,
      "éĽħ": 1648,
      "ç´ħ": 1649,
      "èĥ¡": 1650,
      "çķ¥": 1651,
      "æĻĤæľŁ": 1652,
      "åıĤèĢĥ": 1653,
      "æĪ¿": 1654,
      "ç¦»": 1655,
      "åı³": 1656,
      "ç¼ĸ": 1657,
      "ä¸ĸç´Ģ": 1658,
      "æľ«": 1659,
      "æľĢé«ĺ": 1660,
      "29": 1661,
      "åį«": 1662,
      "æ¯Ľ": 1663,
      "åħ¨åĽ½": 1664,
      "èŀ": 1665,
      "è¡Ģ": 1666,
      "åĪĩ": 1667,
      "éħĴ": 1668,
      "è©ŀ": 1669,
      "çĶļ": 1670,
      "éĢĲ": 1671,
      "è¾ĥ": 1672,
      "åĬī": 1673,
      "å¤´": 1674,
      "è®ĵ": 1675,
      "è©ķ": 1676,
      "å¾ģ": 1677,
      "çĶŁæ´»": 1678,
      "éĢĿä¸ĸ": 1679,
      "åĿ¦": 1680,
      "æ¢ħ": 1681,
      "åĤĻ": 1682,
      "åıĳå±ķ": 1683,
      "æ°ĳä¸»": 1684,
      "å¼Ł": 1685,
      "éļı": 1686,
      "å½¢æĪĲ": 1687,
      "åĩ»": 1688,
      "åĨľ": 1689,
      "äº¤éĢļ": 1690,
      "å¹²": 1691,
      "èŃī": 1692,
      "é¾Ļ": 1693,
      "éľĢè¦ģ": 1694,
      "Ġthe": 1695,
      "éĥ¡": 1696,
      "èģĮ": 1697,
      "åĽ½éĻħ": 1698,
      "éĢļå¸¸": 1699,
      "å¯º": 1700,
      "åįı": 1701,
      "èī¯": 1702,
      "ç»Ļ": 1703,
      "æľĹ": 1704,
      "ç³»åĪĹ": 1705,
      "è½¬": 1706,
      "æĿŁ": 1707,
      "æķĹ": 1708,
      "ç»ĩ": 1709,
      "é¸": 1710,
      "ä»ĸä»¬": 1711,
      "ç½²": 1712,
      "æĿ¾": 1713,
      "æĹĹ": 1714,
      "æ°ĳæĹı": 1715,
      "éĽĻ": 1716,
      "æĳ©": 1717,
      "ä»ĭ": 1718,
      "éŁ³æ¨Ĥ": 1719,
      "ä½įæĸ¼": 1720,
      "åºŃ": 1721,
      "å¾©": 1722,
      "å½±éŁ¿": 1723,
      "é³": 1724,
      "æĸ¹å¼ı": 1725,
      "å¥ĸ": 1726,
      "ç§¯": 1727,
      "å§Ķåĵ¡": 1728,
      "æīĢä»¥": 1729,
      "åĨĻ": 1730,
      "èĮĥ": 1731,
      "ç³»ç»Ł": 1732,
      "æ¨ĵ": 1733,
      "ç¹Ķ": 1734,
      "å®®": 1735,
      "èµ°": 1736,
      "èŃ·": 1737,
      "åıĹåĪ°": 1738,
      "çļ®": 1739,
      "èĽ": 1740,
      "éģŃ": 1741,
      "äºĴ": 1742,
      "ç§Ģ": 1743,
      "æĬ¤": 1744,
      "é¦Ĩ": 1745,
      "åĲĮæĻĤ": 1746,
      "æıĲåĩº": 1747,
      "ä½įäºİ": 1748,
      "çĶ±äºİ": 1749,
      "han": 1750,
      "ä¸»å¸Ń": 1751,
      "èįī": 1752,
      "å®ģ": 1753,
      "æĹ¶æľŁ": 1754,
      "å±¤": 1755,
      "é¥": 1756,
      "å·®": 1757,
      "åĸĦ": 1758,
      "åľĭæ°ĳ": 1759,
      "è²»": 1760,
      "åģĩ": 1761,
      "éĢģ": 1762,
      "çĪĨ": 1763,
      "ç«¯": 1764,
      "é²ģ": 1765,
      "iv": 1766,
      "ï¼ļâĢľ": 1767,
      "åħį": 1768,
      "è¦ģæ±Ĥ": 1769,
      "èĪªç©º": 1770,
      "ä»ģ": 1771,
      "çŁŃ": 1772,
      "æ¤į": 1773,
      "èĤ¡": 1774,
      "å©ļ": 1775,
      "åĭĿ": 1776,
      "å½¹": 1777,
      "èĨ": 1778,
      "èĢ¶": 1779,
      "æĿĲ": 1780,
      "ãĥ»": 1781,
      "çº¢": 1782,
      "çļĦå¤§": 1783,
      "æĪĲåĬŁ": 1784,
      "ad": 1785,
      "åľį": 1786,
      "ç¶ĵæ¿Ł": 1787,
      "çĥĪ": 1788,
      "çĭĢ": 1789,
      "éİ®": 1790,
      "éħ¸": 1791,
      "åĵį": 1792,
      "éĤĬ": 1793,
      "2005": 1794,
      "åĢ«": 1795,
      "çĽĽ": 1796,
      "çĽ®åīį": 1797,
      "èĭ±åĽ½": 1798,
      "é¡¹": 1799,
      "åĭ¢": 1800,
      "è¯į": 1801,
      "åħ´": 1802,
      "ä¼ģ": 1803,
      "è¯Ŀ": 1804,
      "çĭ¬": 1805,
      "æķ£": 1806,
      "æħĭ": 1807,
      "40": 1808,
      "åĮ»": 1809,
      "è¯ģ": 1810,
      "æª": 1811,
      "ä½ľä¸º": 1812,
      "çį²å¾Ĺ": 1813,
      "èİ«": 1814,
      "æĻĤéĸĵ": 1815,
      "åħ·æľī": 1816,
      "å¤§åĪ©": 1817,
      "ation": 1818,
      "æľĢå¾Į": 1819,
      "å¾Ĵ": 1820,
      "ä¼¦": 1821,
      "åĩºçı¾": 1822,
      "çŃĳ": 1823,
      "åį°åº¦": 1824,
      "èĲ¨": 1825,
      "å°ļ": 1826,
      "60": 1827,
      "ä¹ĺ": 1828,
      "çİī": 1829,
      "ãĢĤâĢĿ": 1830,
      "åŃ¦å®¶": 1831,
      "å¾ĹåĪ°": 1832,
      "æĻļ": 1833,
      "çİ¯": 1834,
      "è¿ĲåĬ¨": 1835,
      "ç§¦": 1836,
      "è£¡": 1837,
      "æľ±": 1838,
      "æ¯Ĵ": 1839,
      "é¡¯": 1840,
      "æºĸ": 1841,
      "ut": 1842,
      "å¢ŀåĬł": 1843,
      "ç¬¦": 1844,
      "çļĦæĺ¯": 1845,
      "åĩł": 1846,
      "èµ«": 1847,
      "åį·": 1848,
      "åľ£": 1849,
      "çĨ±": 1850,
      "åĶ®": 1851,
      "éģł": 1852,
      "è¾¹": 1853,
      "ä¿Ĥ": 1854,
      "ä½ľçĤº": 1855,
      "ï¼ļãĢĮ": 1856,
      "å®³": 1857,
      "ç»Ħç»ĩ": 1858,
      "éĵģè·¯": 1859,
      "éŁĵ": 1860,
      "éĽĸ": 1861,
      "åŃ¸å®¶": 1862,
      "éŃ¯": 1863,
      "å½Ī": 1864,
      "æĻº": 1865,
      "èĩªçĦ¶": 1866,
      "èīº": 1867,
      "èĳĹåĲį": 1868,
      "åĸľ": 1869,
      "å®ĮæĪĲ": 1870,
      "éĢłæĪĲ": 1871,
      "æİ§åĪ¶": 1872,
      "æŃ²": 1873,
      "è«¾": 1874,
      "ä½Ļ": 1875,
      "Ġ199": 1876,
      "ç»Ń": 1877,
      "å°¾": 1878,
      "æ¢ģ": 1879,
      "æ¸©": 1880,
      "2010": 1881,
      "è£ħ": 1882,
      "Ġand": 1883,
      "äº²": 1884,
      "é»İ": 1885,
      "åıĥèĢĥ": 1886,
      "ä¸Ńèı¯æ°ĳåľĭ": 1887,
      "ç©į": 1888,
      "æĸ¹æ³ķ": 1889,
      "è¨±å¤ļ": 1890,
      "å¼Ĺ": 1891,
      "é£ŀ": 1892,
      "um": 1893,
      "è¯º": 1894,
      "æĺĮ": 1895,
      "èĲ¥": 1896,
      "éĻµ": 1897,
      "åŃ¦æł¡": 1898,
      "æºª": 1899,
      "è¼ī": 1900,
      "æĵĶ": 1901,
      "åĥ¹": 1902,
      "å§Ķåĳĺä¼ļ": 1903,
      "ĠO": 1904,
      "è°·": 1905,
      "ç»Ī": 1906,
      "2000": 1907,
      "åħ¼": 1908,
      "ç¦ģ": 1909,
      "éĬĢ": 1910,
      "æľīä¸Ģ": 1911,
      "æŀģ": 1912,
      "ç¢º": 1913,
      "2004": 1914,
      "åŃ¸æł¡": 1915,
      "çĪ±": 1916,
      "çĶŁçī©": 1917,
      "éĥ½æĺ¯": 1918,
      "å±Ĩ": 1919,
      "ç¦®": 1920,
      "å£°": 1921,
      "åļ": 1922,
      "å¤ĩ": 1923,
      "å¹¾": 1924,
      "ow": 1925,
      "ãĢĭãĢĤ": 1926,
      "ä¸Ńåħ±": 1927,
      "190": 1928,
      "çīĽ": 1929,
      "éĢĻäºĽ": 1930,
      "Ġd": 1931,
      "æ²¿": 1932,
      "çĦ¶èĢĮ": 1933,
      "èī¾": 1934,
      "åŃ¸éĻ¢": 1935,
      "ag": 1936,
      "äºĮåįģ": 1937,
      "ç¯ĩ": 1938,
      "èį·": 1939,
      "è¿Ļä¸ª": 1940,
      "ĠĊĠĊ": 1941,
      "èĥĮ": 1942,
      "æ»¿": 1943,
      "ï¼īï¼ļ": 1944,
      "è³ĩæĸĻ": 1945,
      "è©¦": 1946,
      "æº«": 1947,
      "æŁĲ": 1948,
      "å»·": 1949,
      "æ¸¬": 1950,
      "æ´¥": 1951,
      "2006": 1952,
      "è¿½": 1953,
      "äºĪ": 1954,
      "æĸĩçĮ®": 1955,
      "éĩĩ": 1956,
      "æĢģ": 1957,
      "æĬĢæľ¯": 1958,
      "ä¸įæĺ¯": 1959,
      "å¦Ĥæŀľ": 1960,
      "çĪµ": 1961,
      "æ¦Ĥ": 1962,
      "ç§°ä¸º": 1963,
      "ĊĠ": 1964,
      "è¨Ńè¨Ī": 1965,
      "æ³ķåĽ½": 1966,
      "ä¼Ĺ": 1967,
      "å¾Įä¾Ĩ": 1968,
      "åĥħ": 1969,
      "è¾²": 1970,
      "çĶ»": 1971,
      "åĲĮæĹ¶": 1972,
      "ç½ª": 1973,
      "è®Ģ": 1974,
      "å½ķ": 1975,
      "èİ·å¾Ĺ": 1976,
      "é£¾": 1977,
      "ä»»ä½ķ": 1978,
      "æİ¡": 1979,
      "åªĴ": 1980,
      "çĽĬ": 1981,
      "èĸ©": 1982,
      "èı²": 1983,
      "ãĢįï¼Ī": 1984,
      "ers": 1985,
      "åĲĮå¹´": 1986,
      "äººæ°ĳåħ±åĴĮåĽ½": 1987,
      "åĬłåħ¥": 1988,
      "è¼¯": 1989,
      "çµĦç¹Ķ": 1990,
      "80": 1991,
      "ä»Ģ": 1992,
      "æ¡¥": 1993,
      "åĵ²": 1994,
      "åĦ¿": 1995,
      "Ġp": 1996,
      "è¿ĻäºĽ": 1997,
      "ç°¡": 1998,
      "äºĨä¸Ģ": 1999,
      "ç»§": 2000,
      "éĢĻåĢĭ": 2001,
      "éĢı": 2002,
      "ä¹¡": 2003,
      "æ³ķåľĭ": 2004,
      "è¨Ĭ": 2005,
      "è¶³çĲĥ": 2006,
      "è·Ŀ": 2007,
      "è²ł": 2008,
      "ç¸½çµ±": 2009,
      "æĪĺäºī": 2010,
      "éŃĶ": 2011,
      "ot": 2012,
      "èĪŀ": 2013,
      "çĻ¼çı¾": 2014,
      "çļĩå¸Ŀ": 2015,
      "ĠJ": 2016,
      "åıªæľī": 2017,
      "åį»": 2018,
      "èľ": 2019,
      "èŃ¯": 2020,
      "æĮī": 2021,
      "2008": 2022,
      "åķıé¡Į": 2023,
      "éĻĪ": 2024,
      "éģĬæĪ²": 2025,
      "çĻ¼çĶŁ": 2026,
      "éĿŀå¸¸": 2027,
      "å±Ĭ": 2028,
      "è¾ĸ": 2029,
      "os": 2030,
      "èĴĤ": 2031,
      "åĲĪä½ľ": 2032,
      "åŃ«": 2033,
      "æĺ¯åľ¨": 2034,
      "im": 2035,
      "åŁºæľ¬": 2036,
      "od": 2037,
      "æ¬¾": 2038,
      "å½±åĵį": 2039,
      "æ¼Ķåĵ¡": 2040,
      "åĲ¸": 2041,
      "éĽ²": 2042,
      "å»ºçŃĳ": 2043,
      "åĲ¦": 2044,
      "2012": 2045,
      "ĠK": 2046,
      "åı¦å¤ĸ": 2047,
      "éĹľä¿Ĥ": 2048,
      "æİ¢": 2049,
      "èŃĺ": 2050,
      "åĦª": 2051,
      "2007": 2052,
      "è¯Ħ": 2053,
      "å®ĹæķĻ": 2054,
      "åĪĺ": 2055,
      "æĸ¯çī¹": 2056,
      "æı´": 2057,
      "ä¹Łæľī": 2058,
      "éĻ¤äºĨ": 2059,
      "èķ": 2060,
      "éĽ£": 2061,
      "ç¡®": 2062,
      "åŁ·": 2063,
      "ç¯ī": 2064,
      "æıı": 2065,
      "åĽº": 2066,
      "éºĹ": 2067,
      "å³°": 2068,
      "ä¸ĢçĽ´": 2069,
      "åĪĬ": 2070,
      "ç§ģ": 2071,
      "æĪı": 2072,
      "ç«¥": 2073,
      "éªĮ": 2074,
      "éłĲ": 2075,
      "å¤§éĩı": 2076,
      "2011": 2077,
      "äºĳ": 2078,
      "ç«¹": 2079,
      "ul": 2080,
      "ay": 2081,
      "æľīéĻĲ": 2082,
      "çĶļèĩ³": 2083,
      "æĶ¿çŃĸ": 2084,
      "åħ¬è·¯": 2085,
      "æĭľ": 2086,
      "æĪ¶": 2087,
      "æ©ĭ": 2088,
      "æ¦®": 2089,
      "ct": 2090,
      "å·¨": 2091,
      "éĥİ": 2092,
      "åĶ¯": 2093,
      "å¤ľ": 2094,
      "ï¼ĮãĢĬ": 2095,
      "æĴ¤": 2096,
      "èģŀ": 2097,
      "ir": 2098,
      "æ¼«": 2099,
      "æ³ģ": 2100,
      "Ġf": 2101,
      "æİ¥åıĹ": 2102,
      "å¯¶": 2103,
      "ä¸Ńåįİäººæ°ĳåħ±åĴĮåĽ½": 2104,
      "Ġ||": 2105,
      "op": 2106,
      "æĿ¿": 2107,
      "éĩĭ": 2108,
      "è´Ŀ": 2109,
      "æĪ°çĪŃ": 2110,
      "æļ´": 2111,
      "ĠV": 2112,
      "å½¢å¼ı": 2113,
      "è«ĭ": 2114,
      "å®ĩ": 2115,
      "ä»ħ": 2116,
      "æĸ·": 2117,
      "éłĵ": 2118,
      "å½ĵæĹ¶": 2119,
      "ä¹ĭåĲİ": 2120,
      "æľĢä½³": 2121,
      "Ġc": 2122,
      "éĹ®é¢ĺ": 2123,
      "åĿĢ": 2124,
      "å¾·åĽ½": 2125,
      "åĽłä¸º": 2126,
      "çĽ´æİ¥": 2127,
      "å±Ĥ": 2128,
      "ia": 2129,
      "æ¿Ģ": 2130,
      "Ġs": 2131,
      "è²¬": 2132,
      "å§ĵ": 2133,
      "åĪ»": 2134,
      "èİ±": 2135,
      "æĵį": 2136,
      "2013": 2137,
      "éĢ£çµĲ": 2138,
      "2003": 2139,
      "åĪ°äºĨ": 2140,
      "è¯ķ": 2141,
      "éĿĪ": 2142,
      "æĢ§çļĦ": 2143,
      "Ġb": 2144,
      "çķ°": 2145,
      "em": 2146,
      "åĽ´": 2147,
      "åĳ¼": 2148,
      "éĵ¾": 2149,
      "ä¸įèĥ½": 2150,
      "éĭ": 2151,
      "è²Ŀ": 2152,
      "æķĳ": 2153,
      "ä¹İ": 2154,
      "æ½®": 2155,
      "ä¸»æķĻ": 2156,
      "æŃ¤å¤ĸ": 2157,
      "ä½ł": 2158,
      "èĩªå·±çļĦ": 2159,
      "è»Ĭç«Ļ": 2160,
      "æľįåĭĻ": 2161,
      "æ´»åĭķ": 2162,
      "100": 2163,
      "åŁºçĿ£": 2164,
      "70": 2165,
      "2014": 2166,
      "å®Įåħ¨": 2167,
      "ç¿»": 2168,
      "èī¦": 2169,
      "å¿ł": 2170,
      "æĿľ": 2171,
      "èĥŀ": 2172,
      "çį»": 2173,
      "çļĨ": 2174,
      "è´¹": 2175,
      "éŃı": 2176,
      "ä¸Ńæĸĩ": 2177,
      "ç§ĳåŃ¦": 2178,
      "ç¯Ħ": 2179,
      "èĳī": 2180,
      "ä½Ī": 2181,
      "åºĨ": 2182,
      "å±ĭ": 2183,
      "æ°§": 2184,
      "æľŁéĸĵ": 2185,
      "æĸĹ": 2186,
      "ä¹ĭéĸĵ": 2187,
      "åıĮ": 2188,
      "å®ĺæĸ¹": 2189,
      "åļ´": 2190,
      "ä½Ķ": 2191,
      "ter": 2192,
      "çµķ": 2193,
      "æ®ĸ": 2194,
      "åħħ": 2195,
      "çĶµå½±": 2196,
      "è¿ľ": 2197,
      "ç§ĺ": 2198,
      "ç§ĭ": 2199,
      "çī©çĲĨ": 2200,
      "èĪĬ": 2201,
      "2016": 2202,
      "æ³ī": 2203,
      "æĿĢ": 2204,
      "æĪĲåĵ¡": 2205,
      "æµĭ": 2206,
      "æķ¦": 2207,
      "èĢ³": 2208,
      "å®£å¸ĥ": 2209,
      "é¡¿": 2210,
      "éĢĶ": 2211,
      "æ¥¼": 2212,
      "è·Ł": 2213,
      "2009": 2214,
      "ä½ľçĶ¨": 2215,
      "ç¼º": 2216,
      "ç¿°": 2217,
      "æĻĤä»£": 2218,
      "æĹ¶éĹ´": 2219,
      "å¹ķ": 2220,
      "åĲ³": 2221,
      "âĢ¦": 2222,
      "èģļ": 2223,
      "çĽ£": 2224,
      "çĬ¶": 2225,
      "éĽª": 2226,
      "è¿«": 2227,
      "æĵģ": 2228,
      "åıĤèĢĥæĸĩçĮ®": 2229,
      "éģĹ": 2230,
      "çĥŃ": 2231,
      "éĽĸçĦ¶": 2232,
      "ç´°": 2233,
      "å»ºç¯ī": 2234,
      "ap": 2235,
      "ä¾µ": 2236,
      "31": 2237,
      "æ´ª": 2238,
      "æł¹æĵļ": 2239,
      "éłĪ": 2240,
      "å²ģ": 2241,
      "ä»·": 2242,
      "Ġin": 2243,
      "æķħäºĭ": 2244,
      "åı¦ä¸Ģ": 2245,
      "æł¹æį®": 2246,
      "è©©": 2247,
      "è¯Ńè¨Ģ": 2248,
      "è§Ĵèī²": 2249,
      "åŃ¸çĶŁ": 2250,
      "åĪ¶åº¦": 2251,
      "æ··": 2252,
      "å¸Ŀåľĭ": 2253,
      "èŀį": 2254,
      "æĥł": 2255,
      "åı¬": 2256,
      "æĪ·": 2257,
      "th": 2258,
      "çĽ¸éĹľ": 2259,
      "æŁĵ": 2260,
      "æĺ¾": 2261,
      "è½½": 2262,
      "2015": 2263,
      "189": 2264,
      "æ»¡": 2265,
      "æ³ķå¾ĭ": 2266,
      "å£ĵ": 2267,
      "é®": 2268,
      "ãĢĤãĢį": 2269,
      "åıĸå¾Ĺ": 2270,
      "é©Ĺ": 2271,
      "ç»Ĩ": 2272,
      "|-": 2273,
      "å°¤": 2274,
      "åģ¥": 2275,
      "å¾·åľĭ": 2276,
      "æŃĲæ´²": 2277,
      "å®ļçļĦ": 2278,
      "åįģäºĮ": 2279,
      "æ³Ľ": 2280,
      "åĪ©çĶ¨": 2281,
      "é¦ĸæ¬¡": 2282,
      "ä¹ĭåīį": 2283,
      "ç¯ĢçĽ®": 2284,
      "éĽ¨": 2285,
      "2020": 2286,
      "ä¾¯": 2287,
      "è¤": 2288,
      "å¾Ĳ": 2289,
      "å¾Īå¤ļ": 2290,
      "åķŁ": 2291,
      "æĽ¹": 2292,
      "å¤§å¤ļ": 2293,
      "å§Ķåĵ¡æľĥ": 2294,
      "åĩºçİ°": 2295,
      "=\"": 2296,
      "ä¹ĭéĹ´": 2297,
      "çīĪæľ¬": 2298,
      "æĺł": 2299,
      "éģĩ": 2300,
      "Ġ198": 2301,
      "çĬ¯": 2302,
      "åº«": 2303,
      "å¤ĸéĥ¨éĢ£çµĲ": 2304,
      "å¹³æĸ¹": 2305,
      "ç¢¼": 2306,
      "é¤ĺ": 2307,
      "æŁı": 2308,
      "ï½": 2309,
      "og": 2310,
      "è¯Ĩ": 2311,
      "..": 2312,
      "æĸ°çļĦ": 2313,
      "éŁ©": 2314,
      "2002": 2315,
      "åĿ¡": 2316,
      "ç«ĭæ³ķ": 2317,
      "åħ¨çĲĥ": 2318,
      "ç¿Ĵ": 2319,
      "æ¥Ĭ": 2320,
      "æĵĶä»»": 2321,
      "å«": 2322,
      "åĪº": 2323,
      "SB": 2324,
      "ç®Ģ": 2325,
      "Ġ3": 2326,
      "æŀĲ": 2327,
      "è´£": 2328,
      "æŃĮæīĭ": 2329,
      "åĤ·": 2330,
      "çĤºäºĨ": 2331,
      "è®¸å¤ļ": 2332,
      "å¤§éĻ¸": 2333,
      "ist": 2334,
      "çľ¼": 2335,
      "å·²ç»ı": 2336,
      "æĶ¹éĿ©": 2337,
      "ä¸ĭçļĦ": 2338,
      "ä¼ļè®®": 2339,
      "ç©Ĩ": 2340,
      "ä¸»æĮģ": 2341,
      "è®¾è®¡": 2342,
      "å·¥ä¸ļ": 2343,
      "éº¥": 2344,
      "å·²ç¶ĵ": 2345,
      "åıĳçĶŁ": 2346,
      "ç¬¬åĽĽ": 2347,
      "éĩįæĸ°": 2348,
      "æĭį": 2349,
      "2017": 2350,
      "å¥ı": 2351,
      "æĹ©æľŁ": 2352,
      "åºĵ": 2353,
      "éĵ¶": 2354,
      "âĶ": 2355,
      "å¦»": 2356,
      "ãĢī": 2357,
      "2019": 2358,
      "èĮ¶": 2359,
      "åįĹäº¬": 2360,
      "ãĢĪ": 2361,
      "ĠU": 2362,
      "ä¼ĳ": 2363,
      "oc": 2364,
      "éľį": 2365,
      "å¥ī": 2366,
      "åħ³ç³»": 2367,
      "å¸ķ": 2368,
      "78": 2369,
      "è¿Ķ": 2370,
      "æĬµ": 2371,
      "éį": 2372,
      "å¾ħ": 2373,
      "çİĭæľĿ": 2374,
      "æķĻæİĪ": 2375,
      "è¥¿çıŃ": 2376,
      "çī¹åĪ¥": 2377,
      "äºķ": 2378,
      "å°įæĸ¼": 2379,
      "å¥³æĢ§": 2380,
      "èĩªæ²»": 2381,
      "è¥¿çıŃçīĻ": 2382,
      "èĹ¥": 2383,
      "ä½ľå®¶": 2384,
      "åĬ¿": 2385,
      "2018": 2386,
      "åĪĳ": 2387,
      "ä¹Į": 2388,
      "å®«": 2389,
      "çĲ´": 2390,
      "é²ľ": 2391,
      "çĶ¢çĶŁ": 2392,
      "éĢĥ": 2393,
      "èĢĮä¸Ķ": 2394,
      "è±Ĳ": 2395,
      "åıĳçİ°": 2396,
      "2001": 2397,
      "åĳ½åĲį": 2398,
      "éĲµè·¯": 2399,
      "è¼ķ": 2400,
      "éĳ": 2401,
      "ä½¿å¾Ĺ": 2402,
      "å®ľ": 2403,
      "æ®¿": 2404,
      "è¿Ļä¸Ģ": 2405,
      "èªŀè¨Ģ": 2406,
      "éĢļéģİ": 2407,
      "æĸŃ": 2408,
      "èĲĬ": 2409,
      "é¨": 2410,
      "åĨµ": 2411,
      "Ġm": 2412,
      "éģ¿": 2413,
      "ä¸½": 2414,
      "è¯»": 2415,
      "éļİ": 2416,
      "åĪĨåĪ¥": 2417,
      "æŃ¸": 2418,
      "å¸ĿåĽ½": 2419,
      "ç¶«": 2420,
      "åħĥç´ł": 2421,
      "æĢĿæĥ³": 2422,
      "åĬŁèĥ½": 2423,
      "èģ¯åĲĪ": 2424,
      "éľ²": 2425,
      "æ±½": 2426,
      "å¹³åĿĩ": 2427,
      "é¬¥": 2428,
      "æ¥ļ": 2429,
      "çļĦåľ°": 2430,
      "åŁ¹": 2431,
      "èĻİ": 2432,
      "å½Ĵ": 2433,
      "é¢Ĩå¯¼": 2434,
      "åĳ³": 2435,
      "èĤī": 2436,
      "èĥ½å¤": 2437,
      "çĤ¸": 2438,
      "å¹´èĩ³": 2439,
      "ä¸´": 2440,
      "æľĥèŃ°": 2441,
      "æıĽ": 2442,
      "èĥ½åĬĽ": 2443,
      "éŃļ": 2444,
      "çį¨ç«ĭ": 2445,
      "è¡ĮçļĦ": 2446,
      "å®īåħ¨": 2447,
      "ï½ŀ": 2448,
      "è£½ä½ľ": 2449,
      "ĠSt": 2450,
      "èĴĻåı¤": 2451,
      "å²©": 2452,
      "åĦĦ": 2453,
      "90": 2454,
      "æħ¶": 2455,
      "æ¨¹": 2456,
      "è²¡": 2457,
      "éģ¸èĪī": 2458,
      "å°Ĭ": 2459,
      "è¯Ĺ": 2460,
      "çĶµè§Ĩ": 2461,
      "åĩ½": 2462,
      "èĥľ": 2463,
      "æŃ»äº¡": 2464,
      "çıł": 2465,
      "ç©¿": 2466,
      "åį±": 2467,
      "ä¿Ĺ": 2468,
      "éĵ¾æİ¥": 2469,
      "åħĦ": 2470,
      "åħ±äº§": 2471,
      "æ±ºå®ļ": 2472,
      "35": 2473,
      "éĿł": 2474,
      "æĢ»ç»Ł": 2475,
      "åīįå¾Ģ": 2476,
      "èģĶåĲĪ": 2477,
      "è´Ł": 2478,
      "éŁ³ä¹Ĳ": 2479,
      "ä»ĸåľ¨": 2480,
      "ä¸įåĲĮçļĦ": 2481,
      "æī¾": 2482,
      "ign": 2483,
      "ĠThe": 2484,
      "çĥı": 2485,
      "æ¸¡": 2486,
      "åĨ·": 2487,
      "èĳ£": 2488,
      "åĮĹéĥ¨": 2489,
      "ess": 2490,
      "å°º": 2491,
      "æĽ¿": 2492,
      "æĭħ": 2493,
      "åŃĶ": 2494,
      "æįķ": 2495,
      "ä¸įéģİ": 2496,
      "éĩĬ": 2497,
      "æ´»åĬ¨": 2498,
      "çĽ´åĪ°": 2499,
      "è£ģ": 2500,
      "éļ¾": 2501,
      "ä¿ĿæĬ¤": 2502,
      "åĮħåĲ«": 2503,
      "æ¼¸": 2504,
      "æĪĲçļĦ": 2505,
      "Ġ1": 2506,
      "å®Ŀ": 2507,
      "æ³½": 2508,
      "éģº": 2509,
      "ä½įç½®": 2510,
      "ç¹ģ": 2511,
      "åĩºçļĦ": 2512,
      "Ġ9": 2513,
      "äº¿": 2514,
      "av": 2515,
      "ä¸¤ä¸ª": 2516,
      "è¿İ": 2517,
      "åı¥": 2518,
      "ç¬¬ä¸Ģæ¬¡": 2519,
      "éĦŃ": 2520,
      "æ¤įçī©": 2521,
      "æĵģæľī": 2522,
      "çĸĳ": 2523,
      ")ï¼Į": 2524,
      "åİĭ": 2525,
      "çĹĩ": 2526,
      "æĹĭ": 2527,
      "çļĦæĥħ": 2528,
      "åħ¬åħ±": 2529,
      "ä¸¦ä¸Ķ": 2530,
      "éı": 2531,
      "æĪĸèĢħ": 2532,
      "å´ĩ": 2533,
      "ãĢįãĢģ": 2534,
      "èħ¦": 2535,
      "åĨłè»į": 2536,
      "åħ±åĲĮ": 2537,
      "å¢ĵ": 2538,
      "æĸ¯åĿ¦": 2539,
      "ä¸¥": 2540,
      "æ§į": 2541,
      "ï¼Ł": 2542,
      "éľĩ": 2543,
      "SBN": 2544,
      "æ¬§æ´²": 2545,
      "æĪ´": 2546,
      "ä¹ł": 2547,
      "èĩ¨": 2548,
      "çĶ³": 2549,
      "åĶ¯ä¸Ģ": 2550,
      "è¼¸": 2551,
      "æĻī": 2552,
      "åı¶": 2553,
      "çĳª": 2554,
      "å¹´åĩºçĶŁ": 2555,
      "åįĹéĥ¨": 2556,
      "éĢ²åħ¥": 2557,
      "éª¨": 2558,
      "å¶": 2559,
      "ri": 2560,
      "éĽľ": 2561,
      "2021": 2562,
      "éĻĦè¿ĳ": 2563,
      "æį·": 2564,
      "å¹´éĢĿä¸ĸ": 2565,
      "åĲ´": 2566,
      "æ¸Ľ": 2567,
      "1999": 2568,
      "åįļçī©": 2569,
      "æľŁéĹ´": 2570,
      "1990": 2571,
      "åĭķçķ«": 2572,
      "æİĮ": 2573,
      "åı°åĮĹ": 2574,
      "å·¡": 2575,
      "åħ©åĢĭ": 2576,
      "å»ī": 2577,
      "åĪĹè¡¨": 2578,
      "å¤ĸéĥ¨éĵ¾æİ¥": 2579,
      "ce": 2580,
      "æĺŃ": 2581,
      "åľ°çļĦ": 2582,
      "è®¡ç®Ĺ": 2583,
      "ab": 2584,
      "64": 2585,
      "1998": 2586,
      "æľīéĻĲåħ¬åı¸": 2587,
      "è¼ª": 2588,
      "æĺ¯çĶ±": 2589,
      "è³¼": 2590,
      "è®©": 2591,
      "èĹĿè¡ĵ": 2592,
      "åı«": 2593,
      "è¡£": 2594,
      "æ´ŀ": 2595,
      "ç»Ŀ": 2596,
      "éº»": 2597,
      "åĨ°": 2598,
      "åĦĢ": 2599,
      "æ¶ī": 2600,
      "æ¹¾": 2601,
      "åŃĻ": 2602,
      "Âł": 2603,
      "è´¥": 2604,
      "åĽ½çİĭ": 2605,
      "ä¹¾": 2606,
      "å¤ĸäº¤": 2607,
      "åĪĨåŃĲ": 2608,
      "ç¬¬åįģ": 2609,
      "æ²ĥ": 2610,
      "ç§ĳæĬĢ": 2611,
      "åľ°çĲĥ": 2612,
      "æ±ł": 2613,
      "çĶŁäº§": 2614,
      "å¥Ĺ": 2615,
      "2022": 2616,
      "%ï¼Į": 2617,
      "éĪ": 2618,
      "åĤĳ": 2619,
      "æĭ¥": 2620,
      "æ¶²": 2621,
      "åİŁåĽł": 2622,
      "å½©": 2623,
      "æ±Ĺ": 2624,
      "èģ¯çĽŁ": 2625,
      "éĺ»": 2626,
      "ä¸Ģèµ·": 2627,
      "çİ©": 2628,
      "ä¸Ģæ¬¡": 2629,
      "ĠIn": 2630,
      "å»ł": 2631,
      "éº¦": 2632,
      "ï¼Īï¼īï¼Į": 2633,
      "åıĥèĪĩ": 2634,
      "åįĪ": 2635,
      "éĽ¶": 2636,
      "ç¾ħé¦¬": 2637,
      "éļĶ": 2638,
      "äº®": 2639,
      "è®¡åĪĴ": 2640,
      "å¾µ": 2641,
      "éĥŃ": 2642,
      "é®®": 2643,
      "ä¸ŃåŃ¦": 2644,
      "è²´": 2645,
      "ä¸Ģä¸ĸ": 2646,
      "åĤ³çµ±": 2647,
      "éĺ¿æĭī": 2648,
      "éĺ¶": 2649,
      "è´µ": 2650,
      "ï¼ģ": 2651,
      "æĢ¥": 2652,
      "hans": 2653,
      "åºĦ": 2654,
      "è¹": 2655,
      "èĤ¯": 2656,
      "è«¸": 2657,
      "éĹ»": 2658,
      "é±": 2659,
      "åħ¬åħĥ": 2660,
      "è¿Ļç§į": 2661,
      "æĦıå¤§åĪ©": 2662,
      "çĭ¬ç«ĭ": 2663,
      "éĿ¢ç§¯": 2664,
      "åĲİæĿ¥": 2665,
      "ä»Ļ": 2666,
      "æī§": 2667,
      "éģ·": 2668,
      "èį¯": 2669,
      "ä¼Ĳ": 2670,
      "1997": 2671,
      "%ãĢĤ": 2672,
      "åĩºçīĪç¤¾": 2673,
      "çłģ": 2674,
      "å¢¨": 2675,
      "èĿ": 2676,
      "Ġ2": 2677,
      "è¾Ľ": 2678,
      "å®¶åºŃ": 2679,
      "ä½Ĳ": 2680,
      "å¥´": 2681,
      "äºĤ": 2682,
      "æį¢": 2683,
      "Ġ4": 2684,
      "èıľ": 2685,
      "éĢ±": 2686,
      "ä»įçĦ¶": 2687,
      "ä»¥ä¸Ĭ": 2688,
      "äºĮä¸ĸ": 2689,
      "è§£æĶ¾": 2690,
      "å¥ª": 2691,
      "æľĢæĹ©": 2692,
      "ç§ĳåŃ¸": 2693,
      "æĸĩåŃ¸": 2694,
      "çĦ¡æ³ķ": 2695,
      "æĬĢè¡ĵ": 2696,
      "å±ħæ°ĳ": 2697,
      "è£Ĥ": 2698,
      "é«ĺéĢŁ": 2699,
      "èĹ¤": 2700,
      "å¤§éĥ¨åĪĨ": 2701,
      "èĭıèģĶ": 2702,
      "æŃ¡": 2703,
      "ç½Ĺé©¬": 2704,
      "ä»¥ä¸ĭ": 2705,
      "å»ºè®¾": 2706,
      "ä»ĺ": 2707,
      "éł»": 2708,
      "èĬ¬": 2709,
      "te": 2710,
      "åľ°çĲĨ": 2711,
      "åŃ©": 2712,
      "æŃĮæĽ²": 2713,
      "é©»": 2714,
      "ç¾İåħĥ": 2715,
      "çĶ¨äºİ": 2716,
      "æĭĽ": 2717,
      "å°ıèªª": 2718,
      "æĿ±äº¬": 2719,
      "èĪį": 2720,
      "çĶĺ": 2721,
      "åĬª": 2722,
      "äº§çĶŁ": 2723,
      "æĻĭ": 2724,
      "âĶĢ": 2725,
      "å¦¹": 2726,
      "ç·´": 2727,
      "çļĦåĲį": 2728,
      "æĶĿ": 2729,
      "æĹ§": 2730,
      "çĽ¸åĲĮ": 2731,
      ";}-": 2732,
      "è£Ķ": 2733,
      "èµ¤": 2734,
      "æģ¢": 2735,
      "å¸ĮæľĽ": 2736,
      "è¯ĳ": 2737,
      "éłĨ": 2738,
      "å¨ľ": 2739,
      "çı¾ä»£": 2740,
      "å¤§éĻĨ": 2741,
      "è¿ģ": 2742,
      "åĨĽäºĭ": 2743,
      "äº«": 2744,
      "æľĢçµĤ": 2745,
      "æ©Łåł´": 2746,
      "ç§Ł": 2747,
      "æĿ¨": 2748,
      "åĨįæ¬¡": 2749,
      "é½Ĳ": 2750,
      "ç»ĵæŀĦ": 2751,
      "33": 2752,
      "75": 2753,
      "éĬ·": 2754,
      "è»Ł": 2755,
      "èĭ±æĸĩ": 2756,
      "éĻ¶": 2757,
      "æĨ²": 2758,
      "65": 2759,
      "æİ¨åĩº": 2760,
      "ï¼Īï¼Į": 2761,
      "ae": 2762,
      "è²¨": 2763,
      "èīºæľ¯": 2764,
      "çļĦä¸»": 2765,
      "è¡¡": 2766,
      "å°İèĩ´": 2767,
      "ç¾ħæĸ¯": 2768,
      "ç£ģ": 2769,
      "åĨ¬": 2770,
      "é¤Ĭ": 2771,
      "æĿĤ": 2772,
      "åŃĿ": 2773,
      "éĩįè¦ģçļĦ": 2774,
      "åŃ¦çĶŁ": 2775,
      "æ£Ĵ": 2776,
      "ä¹ĥ": 2777,
      "çĢ": 2778,
      "æ»ħ": 2779,
      "åĨ³å®ļ": 2780,
      "ub": 2781,
      "åĢĴ": 2782,
      "ä¸īå¹´": 2783,
      "éģį": 2784,
      "æľīçļĦ": 2785,
      "æĭĶ": 2786,
      "ï¼ļãĢĬ": 2787,
      "å®¶æĹı": 2788,
      "ä½ĽæķĻ": 2789,
      "çļĦæĸ°": 2790,
      "æľĢå¤§çļĦ": 2791,
      "45": 2792,
      "æļĹ": 2793,
      "è¿Ľåħ¥": 2794,
      "ç¥Ń": 2795,
      "å¤ªå¹³": 2796,
      "éĽ»åŃĲ": 2797,
      "æ¸¸æĪı": 2798,
      "çĤ®": 2799,
      "æ¼ĶåĶ±": 2800,
      "ä¿¡æģ¯": 2801,
      "è¾ĵ": 2802,
      "çĽĳ": 2803,
      "çĲĨè®º": 2804,
      "çİ°ä»£": 2805,
      "åħĭæĸ¯": 2806,
      "æ¾³éĸĢ": 2807,
      "ä¼ĺ": 2808,
      "éĥ¨ä»½": 2809,
      "ç¿¼": 2810,
      "æııè¿°": 2811,
      "å¤ļçļĦ": 2812,
      "åľĪ": 2813,
      "äººé¡ŀ": 2814,
      "é¢ĳ": 2815,
      "æģĲ": 2816,
      "åĬłæĭ¿": 2817,
      "éļª": 2818,
      "è¨ĪåĬĥ": 2819,
      "éģ©": 2820,
      "ç½Ĺæĸ¯": 2821,
      "ä¸įå°ĳ": 2822,
      "èĳ¡": 2823,
      "è¾ĳ": 2824,
      "æľºæŀĦ": 2825,
      "é¼ĵ": 2826,
      "align": 2827,
      "åĲįçĤº": 2828,
      "éĢĻç¨®": 2829,
      "æĮ¯": 2830,
      "å¼Ĥ": 2831,
      "èĽĭ": 2832,
      "ä½µ": 2833,
      "ä¼¸": 2834,
      "ãĢįãĢģãĢĮ": 2835,
      "ä¸Ģå¹´": 2836,
      "è½¯": 2837,
      "ï¼ĮâĢľ": 2838,
      "èĪīè¡Į": 2839,
      "è¨İ": 2840,
      "æĪª": 2841,
      "åĴĮå¹³": 2842,
      "é§Ĳ": 2843,
      "èĩºåĮĹ": 2844,
      "ä½©": 2845,
      "æĵ´": 2846,
      "äººå£«": 2847,
      "éĢŁåº¦": 2848,
      "äºŀæ´²": 2849,
      "è¯·": 2850,
      "ãĢİ": 2851,
      "ãĢı": 2852,
      "çļĦä¸»è¦ģ": 2853,
      "æĿ°": 2854,
      "å°¼äºļ": 2855,
      "åĬ³": 2856,
      "ç¬¬äºĮæ¬¡": 2857,
      "çĩķ": 2858,
      "æľīéĹľ": 2859,
      "ew": 2860,
      "Ġ=": 2861,
      "æľĢå¤§": 2862,
      "å¯§": 2863,
      "æĭĴ": 2864,
      "æ¡ĥ": 2865,
      "åĭŀ": 2866,
      "ity": 2867,
      "åģı": 2868,
      "åľ¨æŃ¤": 2869,
      "çĽĥ": 2870,
      "æľĿé²ľ": 2871,
      "ä¸Ńå±±": 2872,
      "èĪ°": 2873,
      "ä¾Ĩèĩª": 2874,
      "çµĲæĿŁ": 2875,
      "æľįåĬ¡": 2876,
      "èĢħçļĦ": 2877,
      "èªĮ": 2878,
      "åĪĨæŀĲ": 2879,
      "æī©": 2880,
      "æĮĩåĩº": 2881,
      "èĶ¡": 2882,
      "é»ĺ": 2883,
      "å»³": 2884,
      "ç¾½": 2885,
      "èĹį": 2886,
      "æ®Ĭ": 2887,
      "é¢Ħ": 2888,
      "åıĤè§ģ": 2889,
      "åŁĶ": 2890,
      "èĻ½": 2891,
      "å¾½": 2892,
      "å®¿": 2893,
      "èĩ³ä»Ĭ": 2894,
      "æ¦Ĥå¿µ": 2895,
      "ä¸ŃåŃ¸": 2896,
      "ine": 2897,
      "åĢĭäºº": 2898,
      "ä¸ĺ": 2899,
      "åħ±äº§åħļ": 2900,
      "æĤ£": 2901,
      "38": 2902,
      "åĿĲ": 2903,
      "ç¤¼": 2904,
      "éĻ·": 2905,
      "è¿·": 2906,
      "è£ľ": 2907,
      "äº¨": 2908,
      "è«ĩ": 2909,
      "æķı": 2910,
      "âĢĿï¼Ī": 2911,
      "åħ¬åľĴ": 2912,
      "ç¡¬": 2913,
      "è¶ĬåįĹ": 2914,
      "çģµ": 2915,
      "188": 2916,
      "Ġw": 2917,
      "çĶ¨çļĦ": 2918,
      "åİŁåŃĲ": 2919,
      "å±¬æĸ¼": 2920,
      "å·´å£«": 2921,
      "å¹¼": 2922,
      "1980": 2923,
      "æķ°æį®": 2924,
      "ï¼ı": 2925,
      "åľĵ": 2926,
      "tw": 2927,
      "æ®ĸæ°ĳ": 2928,
      "ä»°": 2929,
      "æĸ°èģŀ": 2930,
      "åıĤåĬł": 2931,
      "èŁ": 2932,
      "ä¸»ä»»": 2933,
      "æ³ķéĻ¢": 2934,
      "åģ¶": 2935,
      "æ¾¤": 2936,
      "èĶ£": 2937,
      "éĶĢ": 2938,
      "éļľ": 2939,
      "åı¸ä»¤": 2940,
      "åįķä½į": 2941,
      "Ġzh": 2942,
      "è¨ª": 2943,
      "å¹»": 2944,
      "çµĲæŀľ": 2945,
      "èĮ¨": 2946,
      "åĢŁ": 2947,
      "åħ¨éĥ¨": 2948,
      "ell": 2949,
      "ov": 2950,
      "å¼Ģåıĳ": 2951,
      "è»Į": 2952,
      "åħ±æľī": 2953,
      "èİİ": 2954,
      "ä¿ĥ": 2955,
      "éŁĵåľĭ": 2956,
      "1996": 2957,
      "çŃīäºº": 2958,
      "è¥¿æĸ¹": 2959,
      "è³ĵ": 2960,
      "è»įäºĭ": 2961,
      "æ¯Ķè³½": 2962,
      "è¯¸": 2963,
      "å¼±": 2964,
      "ht": 2965,
      "if": 2966,
      "å°½": 2967,
      "ç»ľ": 2968,
      "è¦º": 2969,
      "è·¨": 2970,
      "ä¸°": 2971,
      "ç´Ĳ": 2972,
      "æĸĩåŃ¦": 2973,
      "è¬Ľ": 2974,
      "çĲĥåĵ¡": 2975,
      "å°Īè¼¯": 2976,
      "åľ°ä½į": 2977,
      "èĭ±æł¼": 2978,
      "èį£": 2979,
      "ç°½": 2980,
      "åĽ°": 2981,
      "èµµ": 2982,
      "åħ»": 2983,
      "48": 2984,
      "çĻ¼è¡Į": 2985,
      "èª²": 2986,
      "ç³ĸ": 2987,
      "æ°§åĮĸ": 2988,
      "ç²Ĵ": 2989,
      "éĻ£": 2990,
      "å¥Ī": 2991,
      "æĸĩåŃĹ": 2992,
      "æķµ": 2993,
      "åĳĪ": 2994,
      "å¯¹äºİ": 2995,
      "ãĢĤï¼Ī": 2996,
      "å¼ķèµ·": 2997,
      "å¹´åº¦": 2998,
      "èĳ¬": 2999,
      "è¶Ļ": 3000,
      "æľĢç»Ī": 3001,
      "éĲĺ": 3002,
      "èıĮ": 3003,
      "åħ¨åľĭ": 3004,
      "ä¾ĨçļĦ": 3005,
      "è¶ħéģİ": 3006,
      "è´¢": 3007,
      "åľŁåľ°": 3008,
      "ard": 3009,
      "çĸ¾": 3010,
      "åĭĩ": 3011,
      "ç¬¬äºĶ": 3012,
      "åĬłæĭ¿å¤§": 3013,
      "æħĪ": 3014,
      "99": 3015,
      "ind": 3016,
      "å¾¡": 3017,
      "åĽ½æ°ĳ": 3018,
      "Ġ197": 3019,
      "éłĤ": 3020,
      "âĢĿãĢģ": 3021,
      "37": 3022,
      "å¯¼èĩ´": 3023,
      "é¡º": 3024,
      "æµģè¡Į": 3025,
      "åĢį": 3026,
      "æ¼Ķåĩº": 3027,
      "åħģ": 3028,
      "çĶŁçĶ¢": 3029,
      "å¤©ä¸»æķĻ": 3030,
      "åİĤ": 3031,
      "è¨Ĥ": 3032,
      "éłĴ": 3033,
      "æ¦ľ": 3034,
      "çĲĨè«ĸ": 3035,
      "æŁ¯": 3036,
      "ç²¾ç¥ŀ": 3037,
      "åĪĨå¸ĥ": 3038,
      "36": 3039,
      "ob": 3040,
      "åħ³äºİ": 3041,
      "çī§": 3042,
      "æ¸ħæľĿ": 3043,
      "è²łè²¬": 3044,
      "æµ¦": 3045,
      "èŃ°åĵ¡": 3046,
      "èİī": 3047,
      "åĬłä¸Ĭ": 3048,
      "è±ª": 3049,
      "éŀ": 3050,
      "1994": 3051,
      "åľĭç«ĭ": 3052,
      "æ°ĳåĽ½": 3053,
      "è¡Ŀ": 3054,
      "å¿ħéłĪ": 3055,
      "æĸ¹åĲĳ": 3056,
      "ä¹¦è®°": 3057,
      "ĠCh": 3058,
      "ç´Ģå¿µ": 3059,
      "å¯©": 3060,
      "å·¥æ¥Ń": 3061,
      "æĪĪ": 3062,
      "ä»Ķ": 3063,
      "é´": 3064,
      "åĪ©äºļ": 3065,
      "ï¼īï¼Ī": 3066,
      "åĲĽä¸»": 3067,
      "è¡°": 3068,
      "ĠĠĠĠĠĠĠĠ": 3069,
      "æĴĴ": 3070,
      "çĻĤ": 3071,
      "å·ŀå¸Ĥ": 3072,
      "æľĢåĲİ": 3073,
      "æĹ¶ä»£": 3074,
      "æĭ¥æľī": 3075,
      "55": 3076,
      "hk": 3077,
      "åİ»ä¸ĸ": 3078,
      "æ¯«": 3079,
      "è¿ĩç¨ĭ": 3080,
      "å¹£": 3081,
      "éĸĭçĻ¼": 3082,
      "åŃĲçļĦ": 3083,
      "ç»ĦæĪĲ": 3084,
      "æľīäºĽ": 3085,
      "âĨ": 3086,
      "æł¡åıĭ": 3087,
      "æµª": 3088,
      "ç´«": 3089,
      "æµĻ": 3090,
      "è½Ħ": 3091,
      "çĩĥ": 3092,
      "çĨĻ": 3093,
      "ill": 3094,
      "æĮ¥": 3095,
      "åįģåĪĨ": 3096,
      "é½Ĭ": 3097,
      "é±¼": 3098,
      "åĨ²": 3099,
      "åłħ": 3100,
      "æĻ¶": 3101,
      "æĹģ": 3102,
      "å»¢": 3103,
      "1949": 3104,
      "éĻ°": 3105,
      "æłĩåĩĨ": 3106,
      "åįļå£«": 3107,
      "è¿ĺæľī": 3108,
      "èĻķçĲĨ": 3109,
      "æ²Ī": 3110,
      "ç¥¥": 3111,
      "æłĳ": 3112,
      "åĸ®ä½į": 3113,
      "å½¼": 3114,
      "çķ¢": 3115,
      "32": 3116,
      "åıĸä»£": 3117,
      "1995": 3118,
      "å·¦åı³": 3119,
      "ä¼°": 3120,
      "å±ŀäºİ": 3121,
      "åĩ¡": 3122,
      "å±ħä½ı": 3123,
      "ç«¶": 3124,
      "å¼¹": 3125,
      "çı¾åľ¨": 3126,
      "æ©Łæ§ĭ": 3127,
      "èĳĹä½ľ": 3128,
      "åľĺé«Ķ": 3129,
      "æ¯ıå¹´": 3130,
      "34": 3131,
      "ä¸ºäºĨ": 3132,
      "æ¡ĳ": 3133,
      "çĻ¼è¡¨": 3134,
      "åĬ¨çī©": 3135,
      "éĽĨåĽ¢": 3136,
      "çļĦçī¹": 3137,
      "åıįå°į": 3138,
      "1993": 3139,
      "ä¸įåı¯": 3140,
      "æ¢°": 3141,
      "åı¤ä»£": 3142,
      "åĪ©äºŀ": 3143,
      "æĸĩçį»": 3144,
      "éī": 3145,
      "åĩ±": 3146,
      "æİĴåĲį": 3147,
      "è¡ĮçĤº": 3148,
      "è¸": 3149,
      "è¨ĵ": 3150,
      "å®ª": 3151,
      "éĻĲåĪ¶": 3152,
      "II": 3153,
      "åģ´": 3154,
      "åĪĨåĪ«": 3155,
      "ç¢ĳ": 3156,
      "ä¼łç»Ł": 3157,
      "éĽĨåľĺ": 3158,
      "åĭķçī©": 3159,
      "è¿ħ": 3160,
      "ud": 3161,
      "æħķ": 3162,
      "çĳŁ": 3163,
      "çŃ¾": 3164,
      "çĶµåŃĲ": 3165,
      "æ¨¡å¼ı": 3166,
      "åĮĪ": 3167,
      "å¤ªéĻ½": 3168,
      "è¢ģ": 3169,
      "å¹´åľ¨": 3170,
      "çµ±æ²»": 3171,
      "enter": 3172,
      "ï¼ĮãĢĮ": 3173,
      "çİĽ": 3174,
      "ä¹ĭå¤ĸ": 3175,
      "åħ¬åĽŃ": 3176,
      "æľºåľº": 3177,
      "çĽ¸çķ¶": 3178,
      "é«ĺçŃī": 3179,
      "èĲĦ": 3180,
      "å®ĥçļĦ": 3181,
      "ra": 3182,
      "éĢıéģİ": 3183,
      "å¤©çļĩ": 3184,
      "è¦Ĩ": 3185,
      "èĳ¡èĲĦ": 3186,
      "å¤¢": 3187,
      "ä½Ĩåľ¨": 3188,
      "æ¨Ļæºĸ": 3189,
      "68": 3190,
      "The": 3191,
      "åŁºçĿ£æķĻ": 3192,
      "éĻ©": 3193,
      "æª¢": 3194,
      "æĻ®éĢļ": 3195,
      "çĤİ": 3196,
      "åıĽ": 3197,
      "47": 3198,
      "åŁºç¡": 3199,
      "æ¼«çķ«": 3200,
      "åĮĸçļĦ": 3201,
      "åį´": 3202,
      "åıĬåħ¶": 3203,
      "å°ĩè»į": 3204,
      "ian": 3205,
      "ä¹Ī": 3206,
      "éĩıçļĦ": 3207,
      "1992": 3208,
      "çĲĥéļĬ": 3209,
      "å°¼äºŀ": 3210,
      "è¤ĩ": 3211,
      "åĩı": 3212,
      "è¡Ĺéģĵ": 3213,
      "çĸĨ": 3214,
      "eb": 3215,
      "å¹ħ": 3216,
      "åŁºç¡Ģ": 3217,
      "all": 3218,
      "åħ§å®¹": 3219,
      "æķ¬": 3220,
      "é¡§": 3221,
      "çº½": 3222,
      "æ¸Ĳ": 3223,
      "æ¡Ĥ": 3224,
      "éĥ½æľī": 3225,
      "çļĦä¸Ģä¸ª": 3226,
      "å½Ń": 3227,
      "ä¿ĿæĮģ": 3228,
      "ç¹¼çºĮ": 3229,
      "æĿĲæĸĻ": 3230,
      "ran": 3231,
      "ç¨ĭåºı": 3232,
      "å¤ļæ¬¡": 3233,
      "æĥ¡": 3234,
      "åį¢": 3235,
      "åĽ½åĬ¡": 3236,
      "èĭ¦": 3237,
      "Ġ18": 3238,
      "è¨»": 3239,
      "å¤§èĩ£": 3240,
      "çĹħæ¯Ĵ": 3241,
      "åķĨæ¥Ń": 3242,
      "å¹¸": 3243,
      "é¡ĺ": 3244,
      "èģ½": 3245,
      "å¸Ĥåł´": 3246,
      "æĿ¯": 3247,
      "çµĦæĪĲ": 3248,
      "ç²ī": 3249,
      "Ġl": 3250,
      "å¥³åŃĲ": 3251,
      "åĹ": 3252,
      "çĽ¸åħ³": 3253,
      "åĪĢ": 3254,
      "å¤©æ´¥": 3255,
      "39": 3256,
      "ä¼į": 3257,
      "çŃĶ": 3258,
      "åĮ¹": 3259,
      "æľĢåĪĿ": 3260,
      "ä¹Ļ": 3261,
      "ç¨ĭåº¦": 3262,
      "èĵĭ": 3263,
      "å¹¶ä¸Ķ": 3264,
      "é¡¯ç¤º": 3265,
      "est": 3266,
      "åŃŁ": 3267,
      "âĢĿãĢģâĢľ": 3268,
      "çĤºä¸»": 3269,
      "æ¹ĸåįĹ": 3270,
      "çŁ¿": 3271,
      "æ·¡": 3272,
      "äººåĵ¡": 3273,
      "ä¾§": 3274,
      "ä¸ĸçķĮå¤§": 3275,
      "è®²": 3276,
      "åĮĸåŃ¦": 3277,
      "çıį": 3278,
      "æĬĺ": 3279,
      "éģĵè·¯": 3280,
      "å®ĥä»¬": 3281,
      "NA": 3282,
      "ec": 3283,
      "åįģå¹´": 3284,
      "å·´é»İ": 3285,
      "åıĥåĬł": 3286,
      "çĽĸ": 3287,
      "ge": 3288,
      "éĬĢè¡Į": 3289,
      "æŁ±": 3290,
      "çĽ®çļĦ": 3291,
      "åŁºåľ°": 3292,
      "å®ŀéªĮ": 3293,
      "çĸ«": 3294,
      "æĪĲåĳĺ": 3295,
      "ak": 3296,
      "åıįåºĶ": 3297,
      "åŃĹæ¯į": 3298,
      "ç´ĢéĮĦ": 3299,
      "åĲĥ": 3300,
      "ĠâĢĵ": 3301,
      "éĿĴå¹´": 3302,
      "ç»Łæ²»": 3303,
      "éĿ¢çļĦ": 3304,
      "çĶ¨æĸ¼": 3305,
      "åĨĽéĺŁ": 3306,
      "è¬Ŀ": 3307,
      "ä¸įä¹ħ": 3308,
      "1950": 3309,
      "1991": 3310,
      "ä¼Ĭæĸ¯": 3311,
      "ä¸Ńåħ±ä¸Ńå¤®": 3312,
      "åīĽ": 3313,
      "åľĭçİĭ": 3314,
      "æĪĳä»¬": 3315,
      "é¡¶": 3316,
      "Ġ0": 3317,
      "èĥĮæĻ¯": 3318,
      "æİ¡çĶ¨": 3319,
      "Ġ5": 3320,
      "éĽ»èħ¦": 3321,
      "åĽĽå¹´": 3322,
      "ä¼´": 3323,
      "ç¶ł": 3324,
      "åıªæĺ¯": 3325,
      "åĪĨçĤº": 3326,
      "art": 3327,
      "æ²ī": 3328,
      "åĬĽçļĦ": 3329,
      "çĪ²": 3330,
      "ev": 3331,
      "é¤Ĳ": 3332,
      "æı®": 3333,
      "æĶ¹çĤº": 3334,
      "é¦ĸéĥ½": 3335,
      "èĳĽ": 3336,
      "ä¸ĩäºº": 3337,
      "æĭħä»»": 3338,
      "èĮ²": 3339,
      "åŁĥåıĬ": 3340,
      "Ġ19": 3341,
      "ä¸ĢæŃ¥": 3342,
      "å®Ļ": 3343,
      "åĬį": 3344,
      "æ£Ģ": 3345,
      "æĩ·": 3346,
      "è¡Įåĭķ": 3347,
      "æĺ¯åĲ¦": 3348,
      "éı¡": 3349,
      "èĻ½çĦ¶": 3350,
      "Ġn": 3351,
      "èĬ³": 3352,
      "åįĢåŁŁ": 3353,
      "åİļ": 3354,
      "å¦ĥ": 3355,
      "çĴ°å¢ĥ": 3356,
      "ç½ĳç»ľ": 3357,
      "è¢ĸ": 3358,
      "ä¼¤": 3359,
      "è´§": 3360,
      "ä¼ģä¸ļ": 3361,
      "èĳĹåĲįçļĦ": 3362,
      "é¬¼": 3363,
      "åŀĭçļĦ": 3364,
      "çİ°åľ¨": 3365,
      "æĸĩä»¶": 3366,
      "èĢĮåľ¨": 3367,
      "åŁºéĩĳ": 3368,
      "æµ·è»į": 3369,
      "éģİç¨ĭ": 3370,
      "é¡»": 3371,
      "ip": 3372,
      "Ġst": 3373,
      "å°ıåŃ¸": 3374,
      "çİĦ": 3375,
      "å¹«": 3376,
      "è½¨": 3377,
      "èŃ°æľĥ": 3378,
      "çĪ¶è¦ª": 3379,
      "çļĩåĲİ": 3380,
      "éĤĢ": 3381,
      "è·ĳ": 3382,
      "åĽĽå·Ŀ": 3383,
      "å¾ĳ": 3384,
      "æĪĢ": 3385,
      "åħĥå¹´": 3386,
      "èģ¯è³½": 3387,
      "å»Ł": 3388,
      "--": 3389,
      "æĭīæĸ¯": 3390,
      "åĪĨä¸º": 3391,
      "èµĦæĸĻ": 3392,
      "ä¿Ħç½Ĺæĸ¯": 3393,
      "æĿ¥çļĦ": 3394,
      "å¹´èµ·": 3395,
      "ãĢĤãĢĬ": 3396,
      "èŃ½": 3397,
      "1945": 3398,
      "âĨĴ": 3399,
      "è½»": 3400,
      "èĩĺ": 3401,
      "çİ¯å¢ĥ": 3402,
      "å¤©æĸĩ": 3403,
      "æĿ¥èĩª": 3404,
      "åĲįä¸º": 3405,
      "Ġï¼Į": 3406,
      "æĺĨ": 3407,
      "ä¹±": 3408,
      "å²¡": 3409,
      "éĽĨä¸Ń": 3410,
      "çĨŁ": 3411,
      "éĢĤ": 3412,
      "æĭĵ": 3413,
      "èħĬ": 3414,
      "çłĶç©¶æīĢ": 3415,
      "æĪĳåĢĳ": 3416,
      "ä¼ı": 3417,
      "è¾½": 3418,
      "èª¤": 3419,
      "å»ºéĢł": 3420,
      "1960": 3421,
      "67": 3422,
      "å®ļä¹ī": 3423,
      "éĽ»è¦ĸåı°": 3424,
      "åĲ¯": 3425,
      "åįģåħŃ": 3426,
      "è®¿": 3427,
      "çµ²": 3428,
      "è¥¿åįĹ": 3429,
      "çļĦé«ĺ": 3430,
      "è¼Ŀ": 3431,
      "è¥¿éĥ¨": 3432,
      "å°ıè¯´": 3433,
      "è³£": 3434,
      "åĦĴ": 3435,
      "é¡į": 3436,
      "ç¾İæ´²": 3437,
      "å¨ģå»ī": 3438,
      "æĶ»æĵĬ": 3439,
      "æŃ¦åĻ¨": 3440,
      "ĠĠĠ": 3441,
      "æľĿé®®": 3442,
      "æĭīåħĭ": 3443,
      "åħ¶å®ĥ": 3444,
      "ç»ĵæĿŁ": 3445,
      "å®¡": 3446,
      "è¥²": 3447,
      "å¡ĺ": 3448,
      "åıįå¯¹": 3449,
      "1989": 3450,
      "ok": 3451,
      "è®¾ç«ĭ": 3452,
      "æħ§": 3453,
      "Ġ\"": 3454,
      "æĸ¼æĺ¯": 3455,
      "æĽĨ": 3456,
      "å¸ģ": 3457,
      "åĩºäºĨ": 3458,
      "æħ¢": 3459,
      "éģ£": 3460,
      "ie": 3461,
      "ĠY": 3462,
      "ä¿¡ä»°": 3463,
      "çģŃ": 3464,
      "è´Łè´£": 3465,
      "éģĤ": 3466,
      "éĸ£": 3467,
      "éģŃåĪ°": 3468,
      "åĬłåĿ¡": 3469,
      "äººåľ¨": 3470,
      "èº«ä»½": 3471,
      "æ¹ĺ": 3472,
      "çī¹åĪ«": 3473,
      "und": 3474,
      "åĲĦåľ°": 3475,
      "çŃĨ": 3476,
      "å¯¦éļĽ": 3477,
      "åİŁæľ¬": 3478,
      "çºªå¿µ": 3479,
      "ä»»åĳ½": 3480,
      "è¥¿åĮĹ": 3481,
      "è¡ĮæĶ¿åĮº": 3482,
      "é³¥": 3483,
      "äººç±»": 3484,
      "éĩĮæĸ¯": 3485,
      "ep": 3486,
      "1970": 3487,
      "center": 3488,
      "ç¶ĵéģİ": 3489,
      "èĭĹ": 3490,
      "èĦ«": 3491,
      "æł¸å¿ĥ": 3492,
      "éĮ¢": 3493,
      "åĬĽéĩı": 3494,
      "å§Ĳ": 3495,
      "å»¶ä¼¸": 3496,
      "ĠUn": 3497,
      "æĸĩçī©": 3498,
      "æ»ĳ": 3499,
      "çµĲæ§ĭ": 3500,
      "è¨Ńæľī": 3501,
      "ä¿±": 3502,
      "ç¸¾": 3503,
      "44": 3504,
      "ä¿Ħç¾ħæĸ¯": 3505,
      "å¥½çļĦ": 3506,
      "åºŁ": 3507,
      "èĺĩèģ¯": 3508,
      "åħĦå¼Ł": 3509,
      "é¨İ": 3510,
      "äº¤æµģ": 3511,
      "Ġv": 3512,
      "åĪĿæľŁ": 3513,
      "æĪĸæĺ¯": 3514,
      "ç¾Ĭ": 3515,
      "ä¸»è§Ĵ": 3516,
      "å¾ĮçļĦ": 3517,
      "äººæ°ĳåħ±åĴĮåľĭ": 3518,
      "æĸ¹æ¡Ī": 3519,
      "åĲįçļĦ": 3520,
      "å¢ĥåĨħ": 3521,
      "è²¿": 3522,
      "é¸Ł": 3523,
      "æ©«": 3524,
      "å°ĸ": 3525,
      "è¨Īçķ«": 3526,
      "é«ĺéĽĦ": 3527,
      "éĽķ": 3528,
      "éĥ¨éķ¿": 3529,
      "ä¸ľåĮĹ": 3530,
      "æ¯ķ": 3531,
      "ä¿ĿèŃ·": 3532,
      "ä¸įæľĥ": 3533,
      "ĠPr": 3534,
      "æĺ¯æĮĩ": 3535,
      "åįĹæĸ¹": 3536,
      "å»£æĴŃ": 3537,
      "äºĭåĭĻ": 3538,
      "åħ¬ä¸»": 3539,
      "æĸ°åĬłåĿ¡": 3540,
      "åªĴé«Ķ": 3541,
      "è½®": 3542,
      "æ±ĩ": 3543,
      "å®ŀéĻħ": 3544,
      "å¤§ä¼ļ": 3545,
      "'s": 3546,
      "ç¯Ħåľį": 3547,
      "ç¢³": 3548,
      "èİĬ": 3549,
      "ç¶²ç«Ļ": 3550,
      "58": 3551,
      "æī¹åĩĨ": 3552,
      "éļ¨èĳĹ": 3553,
      "æģĨ": 3554,
      "åıĥèĢĥè³ĩæĸĻ": 3555,
      "è¬Ģ": 3556,
      "ç¦ıå»º": 3557,
      "æĵĩ": 3558,
      "åįĹåĮĹ": 3559,
      "è¼Ķ": 3560,
      "è¡ĮæĺŁ": 3561,
      "Ġ/": 3562,
      "1988": 3563,
      "é¹¿": 3564,
      "èŃ¦å¯Ł": 3565,
      "éļ¶": 3566,
      "ç©ºéĹ´": 3567,
      "å°¤åħ¶": 3568,
      "åŃ¸èĢħ": 3569,
      "å£ģ": 3570,
      "å£½": 3571,
      "åıĳè¡¨": 3572,
      "åıĥè¦ĭ": 3573,
      "æĻ®éģį": 3574,
      "ç»Ĩèĥŀ": 3575,
      "èĵ®": 3576,
      "åŁ·è¡Į": 3577,
      "é³³": 3578,
      "çŀ": 3579,
      "æĺ¯ä¸Ģä¸ª": 3580,
      "åįĵ": 3581,
      "ĠISBN": 3582,
      "éĺ¿æĭīä¼¯": 3583,
      "èĥ½å¤ł": 3584,
      "ç¬¬åħŃ": 3585,
      "åħ§çļĦ": 3586,
      "Ġa": 3587,
      "çķ¶åľ°": 3588,
      "æĺĤ": 3589,
      "å¥¹çļĦ": 3590,
      "éłĺå°İ": 3591,
      "sp": 3592,
      "å±ı": 3593,
      "è¨´": 3594,
      "éĤĦæľī": 3595,
      "èĪīè¾¦": 3596,
      "ä¸įåĨį": 3597,
      "çļĦæĦı": 3598,
      "äº¤æĺĵ": 3599,
      "59": 3600,
      "ä¹Ķ": 3601,
      "ä½¿çĶ¨çļĦ": 3602,
      "æĮĩæĮ¥": 3603,
      "å®¾": 3604,
      "åħ¹": 3605,
      "è¾Ń": 3606,
      "500": 3607,
      "åľĨ": 3608,
      "åĽ½åĬ¡éĻ¢": 3609,
      "çļĦçłĶç©¶": 3610,
      "è»įéļĬ": 3611,
      "åľĭæ°ĳé»¨": 3612,
      "å®ļç¾©": 3613,
      "ä¼ģæ¥Ń": 3614,
      "éŁ©åĽ½": 3615,
      "éº¼": 3616,
      "åĸ¬": 3617,
      "ä¿ĿçķĻ": 3618,
      "çģ°": 3619,
      "å¤ĦçĲĨ": 3620,
      "å²³": 3621,
      "èģĶéĤ¦": 3622,
      "57": 3623,
      "éĩĩçĶ¨": 3624,
      "è§Ħæ¨¡": 3625,
      "2023": 3626,
      "æĶ¶åħ¥": 3627,
      "çĺ": 3628,
      "ive": 3629,
      "66": 3630,
      "å®ħ": 3631,
      "æĢª": 3632,
      "çķ¶ä¸Ń": 3633,
      "åºĶçĶ¨": 3634,
      "è´¡": 3635,
      "æīİ": 3636,
      "ou": 3637,
      "éĩĳèŀį": 3638,
      "éĿŀæ´²": 3639,
      "å¢ŀéķ¿": 3640,
      "çĽ§": 3641,
      "åĲĦç¨®": 3642,
      "è¥¿äºŀ": 3643,
      "èĬĿ": 3644,
      "æĹħæ¸¸": 3645,
      "éĥĳ": 3646,
      "qu": 3647,
      "äºĶå¹´": 3648,
      "å¹¹": 3649,
      "å¹¿ä¸ľ": 3650,
      "æľīæķĪ": 3651,
      "çĹĽ": 3652,
      "çĽ¡": 3653,
      "çĶŁåĳ½": 3654,
      "æĢĢ": 3655,
      "ç§»æ°ĳ": 3656,
      "çĶ·åŃĲ": 3657,
      "äººåĳĺ": 3658,
      "ç¸®": 3659,
      "æµĻæ±Ł": 3660,
      "æŁĲäºĽ": 3661,
      "å°ĭ": 3662,
      "åħ¶å¾Į": 3663,
      "åĲĪçī©": 3664,
      "ä¸Ģä½į": 3665,
      "èªī": 3666,
      "è¿Ļæł·": 3667,
      "è£½éĢł": 3668,
      "æ£®æŀĹ": 3669,
      "æĸ¯çļĦ": 3670,
      "éĦ°": 3671,
      "49": 3672,
      "Ġ7": 3673,
      "åĲĮæĦı": 3674,
      "éĢĻæĺ¯": 3675,
      "ä»ª": 3676,
      "åĨľä¸ļ": 3677,
      "æľĭ": 3678,
      "ãĥ¼": 3679,
      "æĽ¾ç¶ĵ": 3680,
      "ä½ľæĽ²": 3681,
      "æ£ĭ": 3682,
      "çļĦç¬¬ä¸Ģ": 3683,
      "æ¯Ģ": 3684,
      "ç½ķ": 3685,
      "æµ®": 3686,
      "ib": 3687,
      "å¤·": 3688,
      "éĩĿ": 3689,
      "ä¸Ńåľĭå¤§éĻ¸": 3690,
      "åĽłèĢĮ": 3691,
      "æĭĨ": 3692,
      "å¡ĳ": 3693,
      "Ġ196": 3694,
      "æĸ¹è¨Ģ": 3695,
      "ä¸¦åľ¨": 3696,
      "åıįæĩī": 3697,
      "è¶ħè¿ĩ": 3698,
      "çī¹æ®Ĭ": 3699,
      "çĬ¹": 3700,
      "çĶº": 3701,
      "çŃīçŃī": 3702,
      "our": 3703,
      "ç¿ł": 3704,
      "åºĻ": 3705,
      "è°Ī": 3706,
      "åĪĹè»Ĭ": 3707,
      "ä»¥åīį": 3708,
      "æ£Ħ": 3709,
      "å°ĳå¹´": 3710,
      "åħ¬æ°ĳ": 3711,
      "æŁ³": 3712,
      "è¡¥": 3713,
      "69": 3714,
      "æ¯Ķä¾ĭ": 3715,
      "åĭĥ": 3716,
      "éĢĲæ¼¸": 3717,
      "åľ³": 3718,
      "ç»ĵæŀľ": 3719,
      "éĴ±": 3720,
      "åīµä½ľ": 3721,
      "éĥ¨éļĬ": 3722,
      "é£¾æ¼Ķ": 3723,
      "ä»¥å¤ĸ": 3724,
      "åĮºåŁŁ": 3725,
      "çĶ·æĢ§": 3726,
      "èĹī": 3727,
      "æĭ³": 3728,
      "ord": 3729,
      "ä¸įå¾Ĺ": 3730,
      "å£ŀ": 3731,
      "æĵįä½ľ": 3732,
      "å±¯": 3733,
      "å¦ĤæŃ¤": 3734,
      "ç®Ń": 3735,
      "æ²³åįĹ": 3736,
      "ï¼īï¼Ľ": 3737,
      "è³ĩè¨Ĭ": 3738,
      "ç¤İ": 3739,
      "ç´Ļ": 3740,
      "ff": 3741,
      "éĽ»è¦ĸåĬĩ": 3742,
      "å®ĩå®Ļ": 3743,
      "çĶŁå¹³": 3744,
      "è´¸": 3745,
      "æĴŀ": 3746,
      "çķª": 3747,
      "åħ±åĴĮåĽ½": 3748,
      "ik": 3749,
      "éĺ¿å°Ķ": 3750,
      "Ġ8": 3751,
      "ä¹³": 3752,
      "æīĢåľ¨": 3753,
      "å¸Įèĩĺ": 3754,
      "éĴŁ": 3755,
      "ä¸¦ä¸į": 3756,
      "è¼Ľ": 3757,
      "åıªèĥ½": 3758,
      "æĶ¯æı´": 3759,
      "åŁºç¤İ": 3760,
      "åİħ": 3761,
      "çŁ¥éģĵ": 3762,
      "åĭ¤": 3763,
      "çļĩå®¶": 3764,
      "æĳĦ": 3765,
      "éľ¸": 3766,
      "éĥ¨çļĦ": 3767,
      "è³´": 3768,
      "åģī": 3769,
      "è¥¿äºļ": 3770,
      "ows": 3771,
      "èª¿æŁ¥": 3772,
      "å¹³æĸ¹åħ¬éĩĮ": 3773,
      "æĲį": 3774,
      "æĪĲäºĨ": 3775,
      "èĦ±": 3776,
      "ç´Ķ": 3777,
      "ç©ºéĸĵ": 3778,
      "è·¯ç·ļ": 3779,
      "æĹ¢": 3780,
      "æıĲé«ĺ": 3781,
      "æķ°åŃ¦": 3782,
      "ä¸ĢåĲį": 3783,
      "çİ»": 3784,
      "åĨħå®¹": 3785,
      "è±Ĩ": 3786,
      "1985": 3787,
      "å¸ĮèħĬ": 3788,
      "ack": 3789,
      "æķĻæľĥ": 3790,
      "å¤«äºº": 3791,
      "å¦®": 3792,
      "æıĴ": 3793,
      "åħ±çĶ¢": 3794,
      "æİ¥è¿ĳ": 3795,
      "åĩ½æķ°": 3796,
      "èĳ£äºĭ": 3797,
      "çĽ¤": 3798,
      "æĲŃ": 3799,
      "æĺİæľĿ": 3800,
      "åļ´éĩį": 3801,
      "åĽŀåĪ°": 3802,
      "èµĦæºĲ": 3803,
      "è¶£": 3804,
      "300": 3805,
      "è°ĭ": 3806,
      "éĵ¶è¡Į": 3807,
      "å¿ĥçĲĨ": 3808,
      "ç¬¬ä¸ĥ": 3809,
      "å´İ": 3810,
      "çİĭåľĭ": 3811,
      "åī²": 3812,
      "éłģ": 3813,
      "çļĦåīį": 3814,
      "äºĮå¹´": 3815,
      "é«ĶèĤ²": 3816,
      "çĵľ": 3817,
      "èµ´": 3818,
      "ç¨ĭå¼ı": 3819,
      "çļĦéĩįè¦ģ": 3820,
      "ç©©": 3821,
      "ä¸¾è¡Į": 3822,
      "éĩįçĤ¹": 3823,
      "è¨Ńç«ĭ": 3824,
      "xt": 3825,
      "ä¸īä¸ĸ": 3826,
      "æļ«": 3827,
      "éĥ¨éĺŁ": 3828,
      "æº¶": 3829,
      "åĩ¯": 3830,
      "æµ·åĨĽ": 3831,
      "ä¸Ńèı¯äººæ°ĳåħ±åĴĮåľĭ": 3832,
      "ä¸Ģæ¨£": 3833,
      "ä¸Ģç¨®": 3834,
      "é«ĺçļĦ": 3835,
      "è¡¨çı¾": 3836,
      "èĪĪå»º": 3837,
      "é¢Ŀ": 3838,
      "æ·®": 3839,
      "å®ŀçİ°": 3840,
      "çİĭåĽ½": 3841,
      "ong": 3842,
      "ç»ıè¿ĩ": 3843,
      "å¤§åŀĭ": 3844,
      "åĲĦç§į": 3845,
      "å£ĩ": 3846,
      "77": 3847,
      "ç·Ĭ": 3848,
      "éļıçĿĢ": 3849,
      "è½¯ä»¶": 3850,
      "Â°": 3851,
      "æĸĩç«ł": 3852,
      "èĢĮæĺ¯": 3853,
      "å¹³åİŁ": 3854,
      "åģľæŃ¢": 3855,
      "æľ¬èº«": 3856,
      "éĿ¢ç©į": 3857,
      "è£ķ": 3858,
      "ĠAn": 3859,
      "çĮ¶": 3860,
      "éĺµ": 3861,
      "éģ¸æĵĩ": 3862,
      "TV": 3863,
      "èĭ±éĽĦ": 3864,
      "ang": 3865,
      "è³ŀ": 3866,
      "çļĦå°ı": 3867,
      "å¯¬": 3868,
      "åĮĸåŃ¸": 3869,
      "å®½": 3870,
      "æ¯ģ": 3871,
      "åıĤä¸İ": 3872,
      "è·¯æĺĵ": 3873,
      "è¡¨æ¼Ķ": 3874,
      "ivers": 3875,
      "ç»Łä¸Ģ": 3876,
      "èīĺ": 3877,
      "æĭīä¸ģ": 3878,
      "å°ıæĻĤ": 3879,
      "çº¦ç¿°": 3880,
      "åįĶæľĥ": 3881,
      "éļ§": 3882,
      "æĶ¹è®Ĭ": 3883,
      "éĨ«éĻ¢": 3884,
      "å·¥åħ·": 3885,
      "ç»§ç»Ń": 3886,
      "éĿĸ": 3887,
      "âĢ¦âĢ¦": 3888,
      "éĶ¡": 3889,
      "åħĪçĶŁ": 3890,
      "è¿Ļæĺ¯": 3891,
      "æ¶¯": 3892,
      "ä»²": 3893,
      "äºŃ": 3894,
      "äº¦æľī": 3895,
      "åĲįç¨±": 3896,
      "è²·": 3897,
      "ä¹Ŀé¾į": 3898,
      "1986": 3899,
      "éĬħ": 3900,
      "åīĩæĺ¯": 3901,
      "èī²çļĦ": 3902,
      "æĪ°é¬¥": 3903,
      "æ¯Ķè¼ĥ": 3904,
      "å¤©ä¸ĭ": 3905,
      "42": 3906,
      "ãĢģãĢģ": 3907,
      "åĩºä»»": 3908,
      "ort": 3909,
      "idae": 3910,
      "é¡ŀä¼¼": 3911,
      "å¸Ĥåľº": 3912,
      "è¡ĮæĶ¿åįĢ": 3913,
      "è¦ĸçĤº": 3914,
      "æĶ¹ä¸º": 3915,
      "åĶ±çīĩ": 3916,
      "ä¸Ģå®ļ": 3917,
      "å®ı": 3918,
      "å¾ª": 3919,
      "åįģä¸Ģ": 3920,
      "å°İæ¼Ķ": 3921,
      "å¾Ħ": 3922,
      "éģĭåĭķåĵ¡": 3923,
      "æī¬": 3924,
      "98": 3925,
      "åĳĤ": 3926,
      "å¦»åŃĲ": 3927,
      "ä¹ı": 3928,
      "æİī": 3929,
      "ä¸ĵä¸ļ": 3930,
      "è¾¾åĪ°": 3931,
      "åĪ¶ä½ľ": 3932,
      "ich": 3933,
      "æģĴ": 3934,
      "1987": 3935,
      "èĭ±èªŀ": 3936,
      "è©¹": 3937,
      "çĲ³": 3938,
      "äº¨åĪ©": 3939,
      "çļĦä¸ī": 3940,
      "ä¸Ģç§į": 3941,
      "è°¢": 3942,
      "åŁºåĽł": 3943,
      "ç¦ģæŃ¢": 3944,
      "ast": 3945,
      "åĲĮçĽŁ": 3946,
      "æĹ¦": 3947,
      "éĮ¯": 3948,
      "ary": 3949,
      "æ¯Ķå¦Ĥ": 3950,
      "å¤ªç©º": 3951,
      "ç§Ĵ": 3952,
      "æĥħåĨµ": 3953,
      "è¦½": 3954,
      "æĸ¯ç§ĳ": 3955,
      "è·³": 3956,
      "æ³¨æĦı": 3957,
      "æĢ»çĲĨ": 3958,
      "è§ī": 3959,
      "ä¹Łè¢«": 3960,
      "åħ¬éĸĭ": 3961,
      "é¡¹çĽ®": 3962,
      "éĭ¼": 3963,
      "è²¢": 3964,
      "éĥ½å¸Ĥ": 3965,
      "AR": 3966,
      "æĹłæ³ķ": 3967,
      "æĢ»äººåı£": 3968,
      "1982": 3969,
      "èģ¯éĤ¦": 3970,
      "èģĶçĽŁ": 3971,
      "æ±¡": 3972,
      "åĿļ": 3973,
      "éĮ¦": 3974,
      "å¥ĳ": 3975,
      "æĴŃåĩº": 3976,
      "åĨĬ": 3977,
      "è®¨": 3978,
      "åĳ½ä»¤": 3979,
      "ç´¹": 3980,
      "æµ·æ´ĭ": 3981,
      "ç²¹": 3982,
      "è¿ĶåĽŀ": 3983,
      "å¹´åīį": 3984,
      "çµ±ä¸Ģ": 3985,
      "46": 3986,
      "éģ¿åħį": 3987,
      "ä¼¯çī¹": 3988,
      "éĩĳå±¬": 3989,
      "äººä»¬": 3990,
      "æĮĳ": 3991,
      "å»£æĿ±": 3992,
      "1983": 3993,
      "åķĨä¸ļ": 3994,
      "èħ³": 3995,
      "up": 3996,
      "åıĳå¸ĥ": 3997,
      "éĵľ": 3998,
      "ä»¥ä¾Ĩ": 3999,
      "è¡Įä¸º": 4000,
      "St": 4001,
      "å¿«éĢŁ": 4002,
      "äº§ä¸ļ": 4003,
      "ç»¿": 4004,
      "å®¹æĺĵ": 4005,
      "Ġ10": 4006,
      "éĿľ": 4007,
      "è¦ıæ¨¡": 4008,
      "è²¿æĺĵ": 4009,
      "Ġå¤§": 4010,
      "AM": 4011,
      "ç¥Ŀ": 4012,
      "èĤ¥": 4013,
      "ä»¥èī²": 4014,
      "èĦĳ": 4015,
      "å²Ń": 4016,
      "çĶ¢åĵģ": 4017,
      "ä½ĵèĤ²": 4018,
      "æ²³æµģ": 4019,
      "æĸ°éĹ»": 4020,
      "ry": 4021,
      "ä¹ĭä¸ĭ": 4022,
      "ate": 4023,
      "å±±èĦ": 4024,
      "è¨ĺè¼ī": 4025,
      "å¯¦é©Ĺ": 4026,
      "é§Ľ": 4027,
      "ä½ľèĢħ": 4028,
      "èĢĢ": 4029,
      "åľĸæĽ¸": 4030,
      "æĴ°": 4031,
      "æĵĬæķĹ": 4032,
      ").": 4033,
      "åľ°åĪ©": 4034,
      "äº§åĵģ": 4035,
      "æĿŃ": 4036,
      "è®Ń": 4037,
      "ä»¥èī²åĪĹ": 4038,
      "åĭ³": 4039,
      "ä¿Ĭ": 4040,
      "å¤±åİ»": 4041,
      "åħ¬å°º": 4042,
      "åĩºåı£": 4043,
      "çļĦæĸ¹å¼ı": 4044,
      "æķĻåłĤ": 4045,
      "Ġfor": 4046,
      "äººå¤§": 4047,
      "åħ¥ä¾µ": 4048,
      "indows": 4049,
      "ass": 4050,
      "æľīäºº": 4051,
      "æĥħæ³ģ": 4052,
      "ç¹ª": 4053,
      "ert": 4054,
      "å¤ªåŃĲ": 4055,
      "62": 4056,
      "èĮĥåĽ´": 4057,
      "èļ": 4058,
      "å¾·éĩĮ": 4059,
      "å¸Ĥæ°ĳ": 4060,
      "æ¬²": 4061,
      "å®£ä½Ī": 4062,
      "å±±ä¸ľ": 4063,
      "åĴ¸": 4064,
      "io": 4065,
      "æ¼ĶåĶ±æľĥ": 4066,
      "åĲİçļĦ": 4067,
      "çĨĬ": 4068,
      "å¿ħé¡»": 4069,
      "æģ¢å¤į": 4070,
      "æ´Ĺ": 4071,
      "ä¸Ģåº¦": 4072,
      "åı°æ¹¾": 4073,
      "é¡ı": 4074,
      "èĽĭçĻ½": 4075,
      "å¹´åºķ": 4076,
      "æµ·å¤ĸ": 4077,
      "æµ©": 4078,
      "è®¡ç®Ĺæľº": 4079,
      "ect": 4080,
      "éĢĲæ¸Ĳ": 4081,
      "ç¬ĳ": 4082,
      "ory": 4083,
      "1979": 4084,
      "æ½Ń": 4085,
      "æī¹è©ķ": 4086,
      "ey": 4087,
      "ä¸ĸçķĮä¸Ĭ": 4088,
      "å·ŀçļĦ": 4089,
      "è³¢": 4090,
      "æķĮ": 4091,
      "èīĩ": 4092,
      "æ·±åľ³": 4093,
      "ä¸ºä¸»": 4094,
      "èĹ©": 4095,
      "ä¹ĭéĸĵçļĦ": 4096,
      "æ¯Ľæ³½": 4097,
      "1984": 4098,
      "æıļ": 4099,
      "æĺŁæľŁ": 4100,
      "åĮĹæĸ¹": 4101,
      "åľ°ä¸ĭ": 4102,
      "åĪ¶éĢł": 4103,
      "ç¼©": 4104,
      "å»Ī": 4105,
      "é¥°": 4106,
      "å¤º": 4107,
      "å·§": 4108,
      "ä¸ŃåĽ½åħ±äº§åħļ": 4109,
      "åıĸæ¶Ī": 4110,
      "éļ§éģĵ": 4111,
      "åı¯èĥ½æĺ¯": 4112,
      "yle": 4113,
      "å¼¦": 4114,
      "çķ¢æ¥Ń": 4115,
      "åĿĳ": 4116,
      "æ¯Ľæ³½ä¸ľ": 4117,
      "æĹ¶åĢĻ": 4118,
      "å½¢è±¡": 4119,
      "åĿĹ": 4120,
      "è¬Ĥ": 4121,
      "col": 4122,
      "ç²µ": 4123,
      "è®°è½½": 4124,
      "41": 4125,
      "ç´¯": 4126,
      "ä¸ĭéĻį": 4127,
      "æĮīçħ§": 4128,
      "é«ĺåº¦": 4129,
      "èĥ½éĩı": 4130,
      "ç´Ħç¿°": 4131,
      "çº¸": 4132,
      "æ¨¡åŀĭ": 4133,
      "çļĦåľ°æĸ¹": 4134,
      "éĩįå»º": 4135,
      "åĩĮ": 4136,
      "åįģåħ«": 4137,
      "æ¯ĶèµĽ": 4138,
      "å¾Ĺä»¥": 4139,
      "ç¶ľ": 4140,
      "åĽłç´ł": 4141,
      "è·ĿéĽ¢": 4142,
      "åĨĮ": 4143,
      "æĨ¶": 4144,
      "æİª": 4145,
      "è´Ŀå°Ķ": 4146,
      "çĻ¼åĭķ": 4147,
      "ç¶ĵå¸¸": 4148,
      "çĪĨçĻ¼": 4149,
      "ä»¿": 4150,
      "æĹ¥åľ¨": 4151,
      "æĪĴ": 4152,
      "å¼ĺ": 4153,
      "äººæ°ĳæĶ¿åºľ": 4154,
      "æ¯Ķè¾ĥ": 4155,
      "èģ·æ¥Ń": 4156,
      "è§Ħå®ļ": 4157,
      "æ³¥": 4158,
      "æĬķç¥¨": 4159,
      "èįĴ": 4160,
      "çĽĲ": 4161,
      "åīĤ": 4162,
      "æĶ¿æĿĥ": 4163,
      "èĳ¡èĲĦçīĻ": 4164,
      "æĮģçºĮ": 4165,
      "å¹¿æĴŃ": 4166,
      "In": 4167,
      "æĦ¿": 4168,
      "åģ¥åº·": 4169,
      "æŁ´": 4170,
      "é£²": 4171,
      "åŃ¦ä¹ł": 4172,
      "éĢĻæ¨£": 4173,
      "æĺ¯ä»¥": 4174,
      "æľīåħ³": 4175,
      "hy": 4176,
      "è¿ħéĢŁ": 4177,
      "ä¸ŃåĽ½äººæ°ĳ": 4178,
      "ä¸įè¶³": 4179,
      "çļĦåİŁ": 4180,
      "èĥ½å¤Ł": 4181,
      "å¿į": 4182,
      "å©¦": 4183,
      "æĸ¯åŁº": 4184,
      "åµ": 4185,
      "å±ł": 4186,
      "å¯Ĵ": 4187,
      "éĢīä¸¾": 4188,
      "æĻĤåĢĻ": 4189,
      "88": 4190,
      "her": 4191,
      "çĩĴ": 4192,
      "èį·èĺŃ": 4193,
      "å®ĥåĢĳ": 4194,
      "æ½ĺ": 4195,
      "çĭĦ": 4196,
      "çĸ¾çĹħ": 4197,
      "æĭ¼": 4198,
      "æĿ¥æºĲ": 4199,
      "ç¸½çĿ£": 4200,
      "43": 4201,
      "ies": 4202,
      "è§¸": 4203,
      "æ¬¢": 4204,
      "51": 4205,
      "ä¸Ńæľī": 4206,
      "åįģåŃĹ": 4207,
      "éĩįåºĨ": 4208,
      "Ġto": 4209,
      "èĲ¬äºº": 4210,
      "ĠãĢĤ": 4211,
      "ä¹Łåı¯ä»¥": 4212,
      "éĦ§": 4213,
      "åĿĬ": 4214,
      "çļĦäºĭ": 4215,
      "hant": 4216,
      "man": 4217,
      "çĽ´èĩ³": 4218,
      "éģľ": 4219,
      "æ°´å¹³": 4220,
      "éĽ¢éĸĭ": 4221,
      "æĿ¡ä»¶": 4222,
      "çĽĺ": 4223,
      "1958": 4224,
      "è´Ń": 4225,
      "è®ĬåĮĸ": 4226,
      "åĪļ": 4227,
      "éĺ´": 4228,
      "ç·£": 4229,
      "åįľ": 4230,
      "é£Łåĵģ": 4231,
      "56": 4232,
      "çĶŁæ¶¯": 4233,
      "BS": 4234,
      "éĴĪ": 4235,
      "å¹³åı°": 4236,
      "ens": 4237,
      "å¾Ĺä¸»": 4238,
      "ä¸ŃåĽ½å¤§éĻĨ": 4239,
      "Ġ6": 4240,
      "æªĶ": 4241,
      "çĽ¸ä¼¼": 4242,
      "ãģ®": 4243,
      "æĬĹæĹ¥": 4244,
      "ä¹ĭéĹ´çļĦ": 4245,
      "åĲįåŃĹ": 4246,
      "çĦ¡ç¶«": 4247,
      "å¸®": 4248,
      "ä¸įè¿ĩ": 4249,
      "å¤§æľĥ": 4250,
      "éļ»": 4251,
      "èµŀ": 4252,
      "åĨħçļĦ": 4253,
      "1978": 4254,
      "\"|": 4255,
      "éĻĢ": 4256,
      "ç¶²è·¯": 4257,
      "å¸ĤçļĦ": 4258,
      "èĨľ": 4259,
      "åľĭçļĦ": 4260,
      "æľªèĥ½": 4261,
      "æĲľ": 4262,
      "éĸī": 4263,
      "åħ¨éĿ¢": 4264,
      "Ã©": 4265,
      "èĩ³å°ĳ": 4266,
      "ç±»ä¼¼": 4267,
      "åıĳè¡Į": 4268,
      "è¡į": 4269,
      "è®¢": 4270,
      "æĩīçĶ¨": 4271,
      "å¦Ĥä½ķ": 4272,
      "å¡«": 4273,
      "Ġåľ¨": 4274,
      "æ¯įè¦ª": 4275,
      "ant": 4276,
      "æįŁ": 4277,
      "æ©ŁéĹľ": 4278,
      "æĪ°å¾Į": 4279,
      "å»ºæĪĲ": 4280,
      "åĶĲæľĿ": 4281,
      "æĹ¥èµ·": 4282,
      "åĤħ": 4283,
      "ä¾ĨæºĲ": 4284,
      "åħ¬åħĥåīį": 4285,
      "èĢĮè¨Ģ": 4286,
      "ï¼ħ": 4287,
      "æĽ°": 4288,
      "åıĥèĢĥæĸĩçį»": 4289,
      "å¹¿å·ŀ": 4290,
      "è¦ıå®ļ": 4291,
      "çµ¡": 4292,
      "çŃīåľ°": 4293,
      "ç»¼": 4294,
      "é¡¾": 4295,
      "èĭ±æł¼èĺŃ": 4296,
      "åį¿": 4297,
      "å¹´éĸĵ": 4298,
      "ç»ĥ": 4299,
      "ç¨¿": 4300,
      "ä¸īè§Ĵ": 4301,
      "éĸĭæĶ¾": 4302,
      "ç«ŀ": 4303,
      "æľĢå¤ļ": 4304,
      "æĭ©": 4305,
      "çļĦåĪĨ": 4306,
      "éĢĻä¸Ģ": 4307,
      "æīįèĥ½": 4308,
      "æĮĩæı®": 4309,
      "éµ": 4310,
      "çĪŃèŃ°": 4311,
      "âĢł": 4312,
      "Ġon": 4313,
      "è¨Ńæĸ½": 4314,
      "å¤§æ¨ĵ": 4315,
      "åĥ§": 4316,
      "è¡¨éĿ¢": 4317,
      "æ¶ħ": 4318,
      "è¨Īç®Ĺ": 4319,
      "å½°": 4320,
      "çļĦå¥³": 4321,
      "è¢«ç§°ä¸º": 4322,
      "æĿī": 4323,
      "é£Ľæ©Ł": 4324,
      "å»ºèŃ°": 4325,
      "éĥ¨èĲ½": 4326,
      "æľīæīĢ": 4327,
      "æ¢¯": 4328,
      "éļĭ": 4329,
      "ä»¥æĿ¥": 4330,
      "ä¾į": 4331,
      "èĩªè¡Į": 4332,
      "æĶ¿æ²»äººçī©": 4333,
      "çĽ¾": 4334,
      "åŃ¦èĢħ": 4335,
      "AT": 4336,
      "éĢĬ": 4337,
      "æ»¨": 4338,
      "76": 4339,
      "éĢĨ": 4340,
      "éįµ": 4341,
      "æľĭåıĭ": 4342,
      "ial": 4343,
      "æĴŃæĶ¾": 4344,
      "åįļçī©é¦Ĩ": 4345,
      "åĪ·": 4346,
      "79": 4347,
      "æ±ª": 4348,
      "æ³Ĭ": 4349,
      "éĢ£çºĮ": 4350,
      "åĲĮä¸Ģ": 4351,
      "ER": 4352,
      "ä¸¦æĸ¼": 4353,
      "è¿´": 4354,
      "é¢ĨåŁŁ": 4355,
      "éĤĵ": 4356,
      "åŃ¸ç¿Ĵ": 4357,
      "Ġ978": 4358,
      "äººåı£ä¸º": 4359,
      "æŃ£åľ¨": 4360,
      "éĹľæĸ¼": 4361,
      "æĺ¯ä¸ĢåĢĭ": 4362,
      "éĽ»åı°": 4363,
      "é«ĺéĢŁåħ¬è·¯": 4364,
      "èķŃ": 4365,
      "åĲĲ": 4366,
      "åĢī": 4367,
      "çĸĹ": 4368,
      "æ°ĶåĢĻ": 4369,
      "ç´§": 4370,
      "çĦ¦": 4371,
      "ä¹¾éļĨ": 4372,
      "Ġde": 4373,
      "éĥĬ": 4374,
      "éĽĨåĲĪ": 4375,
      "1946": 4376,
      "å¼ĢæĶ¾": 4377,
      "é£Łçī©": 4378,
      "ä¸ªäºº": 4379,
      "è¢«ç¨±çĤº": 4380,
      "Ġæĸ°": 4381,
      "AS": 4382,
      "çļĦæĪĲ": 4383,
      "ä¸²": 4384,
      "åıĺåĮĸ": 4385,
      "çī©è³ª": 4386,
      "å°¼æĸ¯": 4387,
      "å½ĵåľ°": 4388,
      "Ch": 4389,
      "æĸĩæĺİ": 4390,
      "åĤ¨": 4391,
      "çĽ¸å°į": 4392,
      "å¯¿": 4393,
      "æŁıæŀĹ": 4394,
      "åŃ¤": 4395,
      "èªł": 4396,
      "ä½ĵçļĦ": 4397,
      "çĬ¹å¤ª": 4398,
      "å¦Ĥä¸ĭ": 4399,
      "çĶ¸": 4400,
      "åĦĺ": 4401,
      "éĥ½æľĥ": 4402,
      "é«ĺä¸Ń": 4403,
      "éĢ£æİ¥": 4404,
      "èĽĩ": 4405,
      "åł±åĳĬ": 4406,
      "ç½ĳç«Ļ": 4407,
      "çĳŀåħ¸": 4408,
      "52": 4409,
      "åıĶ": 4410,
      "ä¹ĭä¸Ń": 4411,
      "å°½ç®¡": 4412,
      "è´¸æĺĵ": 4413,
      "åħĴåŃĲ": 4414,
      "ä¸īåįģ": 4415,
      "éħįéŁ³": 4416,
      "èµ·æºĲ": 4417,
      "èĸĦ": 4418,
      "end": 4419,
      "åĨįåº¦": 4420,
      "åį³ä½¿": 4421,
      "çľŁæŃ£": 4422,
      "IS": 4423,
      "åįĢçļĦ": 4424,
      "æī§è¡Į": 4425,
      "å°ī": 4426,
      "éĻ¸è»į": 4427,
      "éģİåİ»": 4428,
      "Ġ+": 4429,
      "åĲ¾": 4430,
      "éĺħ": 4431,
      "å°ıçļĦ": 4432,
      "å½±çīĩ": 4433,
      "éģµ": 4434,
      "èĵĿ": 4435,
      "åı²ä¸Ĭ": 4436,
      "ãĥ³": 4437,
      "æ¨ª": 4438,
      "åĲ¬": 4439,
      "æ¶Īæģ¯": 4440,
      "æ²³åĮĹ": 4441,
      "æĻ¨": 4442,
      "1981": 4443,
      "çģ½": 4444,
      "æĹ¥èĩ³": 4445,
      "æĶ¿æ¬Ĭ": 4446,
      "ç»į": 4447,
      "æµ·å²¸": 4448,
      "ith": 4449,
      "å¢Ļ": 4450,
      "é«ĶçļĦ": 4451,
      "è²Į": 4452,
      "çī©è´¨": 4453,
      "äººåĴĮ": 4454,
      "ä¹Łä¸į": 4455,
      "è¿¹": 4456,
      "éļıåĲİ": 4457,
      "age": 4458,
      "å¹¶ä¸į": 4459,
      "ond": 4460,
      "ç¨İ": 4461,
      "å¾Ģå¾Ģ": 4462,
      "Ġh": 4463,
      "éĤ»": 4464,
      "æĬķåħ¥": 4465,
      "çĩĪ": 4466,
      "ä¼½": 4467,
      "åī©": 4468,
      "ç¨³": 4469,
      "ç¶ŃæĮģ": 4470,
      "æĽ¾åľ¨": 4471,
      "âĶĢâĶĢ": 4472,
      "é¡Ĩ": 4473,
      "ç¹¼æī¿": 4474,
      "æ«": 4475,
      "å¶¼": 4476,
      "æĽ´åĬł": 4477,
      "ä»¥å¾Į": 4478,
      "åįıä¼ļ": 4479,
      ")ãĢĤ": 4480,
      "è¯¯": 4481,
      "äºļæ´²": 4482,
      "æ¨Ĥåľĺ": 4483,
      "ç´Ĳç´Ħ": 4484,
      "ue": 4485,
      "æ¹¯": 4486,
      "é«ĺç´ļ": 4487,
      "æ¬£": 4488,
      "èĻĽ": 4489,
      "å¹´è¢«": 4490,
      "é£ŀæľº": 4491,
      "ç¨ħ": 4492,
      "å¤ıåŃ£": 4493,
      "è¢Ń": 4494,
      "è§£æĶ¾åĨĽ": 4495,
      "ain": 4496,
      "æŀª": 4497,
      "åŃ¦ç§ĳ": 4498,
      "åı¤åħ¸": 4499,
      "ĠAr": 4500,
      "ight": 4501,
      "åĭĭ": 4502,
      "èĪĴ": 4503,
      "åĽ¾ä¹¦": 4504,
      "é½¡": 4505,
      "è¯¾": 4506,
      "æķ´åĢĭ": 4507,
      "éĺģ": 4508,
      "åĸĢ": 4509,
      "OS": 4510,
      "æĹ¥è»į": 4511,
      "é¦ĸçĽ¸": 4512,
      "æĺ¯ä¸Ģç¨®": 4513,
      "å°ĳå¥³": 4514,
      "ç´°èĥŀ": 4515,
      "æĹº": 4516,
      "èł": 4517,
      "çĽ¸å¯¹": 4518,
      "çľĭåĪ°": 4519,
      "53": 4520,
      "åĮ»éĻ¢": 4521,
      "çļĦä¸Ń": 4522,
      "åĲ¸å¼ķ": 4523,
      "ä¸»å¼µ": 4524,
      "å»£åĳĬ": 4525,
      "å®Įæķ´": 4526,
      "åįĶåĬ©": 4527,
      "éĥµ": 4528,
      "ä¸īåĢĭ": 4529,
      "ä¸»é¡Į": 4530,
      "æ¯ķä¸ļ": 4531,
      "å¬": 4532,
      "æĪĺå½¹": 4533,
      "ä¹Łåľ¨": 4534,
      "æĦıå¿Ĺ": 4535,
      "å±±å¤§": 4536,
      "180": 4537,
      "çĴĥ": 4538,
      "ont": 4539,
      "ç¸½çĲĨ": 4540,
      "åĮ¯": 4541,
      "éĢīæĭ©": 4542,
      "61": 4543,
      "åŃ©åŃĲ": 4544,
      "æĸ¯åį¡": 4545,
      "åĲĮæ¨£": 4546,
      "å°ĨåĨĽ": 4547,
      "çĽ®æ¨Ļ": 4548,
      "åıĳåĬ¨": 4549,
      "æ®ĸæ°ĳåľ°": 4550,
      "è¿ŀæİ¥": 4551,
      "å§¬": 4552,
      "åįļçī©é¤¨": 4553,
      "å¹´éĹ´": 4554,
      "èŃľ": 4555,
      "æ³ķçļĦ": 4556,
      "å¤ªå¹³æ´ĭ": 4557,
      "éģĶåĪ°": 4558,
      "çĪĨåıĳ": 4559,
      "ĠĊĠĊĠĊĠĊ": 4560,
      "éļ¸": 4561,
      "iversity": 4562,
      "éľĢæ±Ĥ": 4563,
      "å§»": 4564,
      "éŁĭ": 4565,
      "å¹¶åľ¨": 4566,
      "æ±Łèĭı": 4567,
      "è®®ä¼ļ": 4568,
      "åĿı": 4569,
      "CD": 4570,
      "æı¡": 4571,
      "å£¤": 4572,
      "å¡Ĭ": 4573,
      "éŃĤ": 4574,
      "æķ´ä¸ª": 4575,
      "ĠX": 4576,
      "èĮĤ": 4577,
      "æĢĴ": 4578,
      "å·´è¥¿": 4579,
      "æĪªèĩ³": 4580,
      "çĽ¸äºĴ": 4581,
      "é©¬æĿ¥": 4582,
      "ç¼ºä¹ı": 4583,
      "åĪ¸": 4584,
      "çĽ¸ä¿¡": 4585,
      "éĽľèªĮ": 4586,
      "åħ¬çĪµ": 4587,
      "éł»éģĵ": 4588,
      "è¶ħç´ļ": 4589,
      "å¤§äºĭ": 4590,
      "éķľ": 4591,
      "ä¿Ŀå®Ī": 4592,
      "æĹ¥çļĦ": 4593,
      "å¹¾ä¹İ": 4594,
      "åĲĪæĪĲ": 4595,
      "æģ¶": 4596,
      "71": 4597,
      "54": 4598,
      "éļ±": 4599,
      "æ¸Ľå°ĳ": 4600,
      "ical": 4601,
      "åĽ½åĨħ": 4602,
      "çĩŁéģĭ": 4603,
      "è²ĿçĪ¾": 4604,
      "æī®": 4605,
      "ä¸¥éĩį": 4606,
      "å¹¿æ³Ľ": 4607,
      "Ġg": 4608,
      "æ¿±": 4609,
      "åįıè®®": 4610,
      "ä¸Ģæł·": 4611,
      "åĩºèº«": 4612,
      "çī¹èī²": 4613,
      "ç¶ĵçĩŁ": 4614,
      "cn": 4615,
      "çħ¤": 4616,
      "Ġ&": 4617,
      "ä¹Łå°±æĺ¯": 4618,
      "éłħçĽ®": 4619,
      "ä¸īä¸ª": 4620,
      "åĲĪä½µ": 4621,
      "å®īæİĴ": 4622,
      "æ½Ľ": 4623,
      "éĶĻ": 4624,
      "72": 4625,
      "çį¸": 4626,
      "åľ¨é¦Ļæ¸¯": 4627,
      "çĪ¶äº²": 4628,
      "1952": 4629,
      "åħ±åĴĮåľĭ": 4630,
      "éĺ¿çĪ¾": 4631,
      "èĴ¸": 4632,
      "çĽ¸æ¯Ķ": 4633,
      "1937": 4634,
      "å®¶çļĦ": 4635,
      "åŀĤ": 4636,
      "æ¢Ŀç´Ħ": 4637,
      "åĨłåĨĽ": 4638,
      "æĺ¾ç¤º": 4639,
      "æ±½è½¦": 4640,
      "ide": 4641,
      "æµ·æĭĶ": 4642,
      "ä¾ĭåŃĲ": 4643,
      "å·¥äºº": 4644,
      "1940": 4645,
      "éĻįä½İ": 4646,
      "æıĲåįĩ": 4647,
      "æĿ¡çº¦": 4648,
      "ork": 4649,
      "éļİæ®µ": 4650,
      "å£«åħµ": 4651,
      "è¥¿èĹı": 4652,
      "è¡¨æĺİ": 4653,
      "èĤ¡ä»½": 4654,
      "åºĬ": 4655,
      "çĸı": 4656,
      "éĴ¢": 4657,
      "éŁ¦": 4658,
      "åľ°éľĩ": 4659,
      "1948": 4660,
      "å¨Ľ": 4661,
      "ç¬Ķ": 4662,
      "åĨĴ": 4663,
      "çļĦä¸Ģéĥ¨åĪĨ": 4664,
      "åªĴä½ĵ": 4665,
      "éķ·æľŁ": 4666,
      "éĶ®": 4667,
      "1956": 4668,
      "AC": 4669,
      "ä»Ĭå¤©": 4670,
      "æĺŁçļĦ": 4671,
      "å»ºç«ĭçļĦ": 4672,
      "èģĶåĲĪåĽ½": 4673,
      "åħ±çĶ¢é»¨": 4674,
      "æķĻå®Ĺ": 4675,
      "æķĪæŀľ": 4676,
      "1955": 4677,
      "æīĢæľīçļĦ": 4678,
      "æĶ¿åºľçļĦ": 4679,
      "æĵ¬": 4680,
      "å¯Ħ": 4681,
      "éĸ±": 4682,
      "ä¹ĭåŃĲ": 4683,
      "æĬ½": 4684,
      "çĲī": 4685,
      "é¢¨æł¼": 4686,
      "èŁ²": 4687,
      "ISBN": 4688,
      "eg": 4689,
      "1975": 4690,
      "åĮĸåĲĪçī©": 4691,
      "èŃ°éĻ¢": 4692,
      "ĠCom": 4693,
      "ç¿ģ": 4694,
      "ç»¼åĲĪ": 4695,
      "æįĲ": 4696,
      "Windows": 4697,
      "é£Ľè¡Į": 4698,
      "çĭĢæħĭ": 4699,
      "ä¸»è¦ģçļĦ": 4700,
      "ä¿®æĶ¹": 4701,
      "ĠEn": 4702,
      "ĠçļĦ": 4703,
      "å¤§ç´Ħ": 4704,
      "ä»¥åĲİ": 4705,
      "ç¤¦": 4706,
      "åĴĮåħ¶ä»ĸ": 4707,
      "æĤī": 4708,
      "74": 4709,
      "æĵİ": 4710,
      "çŁ³æ²¹": 4711,
      "æĶ¹åĸĦ": 4712,
      "åĦĺç®¡": 4713,
      "éķ·çļĦ": 4714,
      "ãĢĢãĢĢ": 4715,
      "æĽ´å¤ļ": 4716,
      "å°ıæĹ¶": 4717,
      "è¾ŀ": 4718,
      "åįģä¸ī": 4719,
      "è§£éĩĭ": 4720,
      "èħĲ": 4721,
      "æ¯«ç±³": 4722,
      "åľĸæĽ¸é¤¨": 4723,
      "æŃ£å¸¸": 4724,
      "å»Ĭ": 4725,
      "è¿ĳä»£": 4726,
      "å¼ķçĶ¨": 4727,
      "éĿĻ": 4728,
      "æıŃ": 4729,
      "éļ¨å¾Į": 4730,
      "æŃ¤åĲİ": 4731,
      "ä¸Ńéĥ¨": 4732,
      "åĲĪå¹¶": 4733,
      "Ġ.": 4734,
      "çĶŁçļĦ": 4735,
      "æ¾³æ´²": 4736,
      "è£ı": 4737,
      "åįłé¢Ĩ": 4738,
      "è¯ģæĺİ": 4739,
      "æĺ¯ä¸ŃåĽ½": 4740,
      "ure": 4741,
      "æĹ¨": 4742,
      "éķ¿æ±Ł": 4743,
      "çĭ¼": 4744,
      "oh": 4745,
      "ä¸Ŀ": 4746,
      "1947": 4747,
      "rom": 4748,
      "è¢«è¿«": 4749,
      "é©ħ": 4750,
      "æĬ¥åĳĬ": 4751,
      "ä¹ĺå®¢": 4752,
      "ph": 4753,
      "ä¸»è¦ģæĺ¯": 4754,
      "åĭģ": 4755,
      "åº¦çļĦ": 4756,
      "äº¿åħĥ": 4757,
      "ĊĠĊ": 4758,
      "å¼ĥ": 4759,
      "è³½äºĭ": 4760,
      "èŀº": 4761,
      "ä¸Ģå¸¶": 4762,
      "ai": 4763,
      "ç±Į": 4764,
      "ä»»åĭĻ": 4765,
      "ä¸ľåįĹ": 4766,
      "èľĢ": 4767,
      "å¤ļå¹´": 4768,
      "èĢĮä¸į": 4769,
      "å¸ĤæĶ¿åºľ": 4770,
      "åĵģçīĮ": 4771,
      "è§ĦåĪĴ": 4772,
      "éĭĴ": 4773,
      "è²ĵ": 4774,
      "ä»»åĬ¡": 4775,
      "åľ¨åħ¶": 4776,
      "ãĢĭï¼ļ": 4777,
      "éĽĻæĸ¹": 4778,
      "Ġ|": 4779,
      "åİŁä½ı": 4780,
      "ä¿ĺ": 4781,
      "å®ªæ³ķ": 4782,
      "èĢĹ": 4783,
      "æĦŁåĪ°": 4784,
      "ç¤¾ä¼ļä¸»ä¹ī": 4785,
      "ç¥Ģ": 4786,
      "å¯¨": 4787,
      "é¦ĸåħĪ": 4788,
      "çļĦå½±éŁ¿": 4789,
      "ĠĊĊĠ": 4790,
      "éĸ©": 4791,
      "ex": 4792,
      "çįĦ": 4793,
      "çĶ¨æĪ·": 4794,
      "åı¸æ³ķ": 4795,
      "ish": 4796,
      "éłĺåŁŁ": 4797,
      "è½¨éģĵ": 4798,
      "1954": 4799,
      "çĭĤ": 4800,
      "æĤ²": 4801,
      "æ®ĺ": 4802,
      "çº½çº¦": 4803,
      "AN": 4804,
      "éĩįå¤§": 4805,
      "é§ķ": 4806,
      "åĪĨè£Ĥ": 4807,
      "çĭĹ": 4808,
      "çŁ¥åĲį": 4809,
      "æ±ºè³½": 4810,
      "åħĴç«¥": 4811,
      "æķ¸æĵļ": 4812,
      "éĤ®": 4813,
      "é¦¬ä¾Ĩ": 4814,
      "è¯ī": 4815,
      "è°ĵ": 4816,
      "æ³¢æĸ¯": 4817,
      "éĶ¦": 4818,
      "åıĪç¨±": 4819,
      "éĩıåŃĲ": 4820,
      "åĦ²": 4821,
      "æģĲæĢ": 4822,
      "1959": 4823,
      "çļĦä½ľåĵģ": 4824,
      "æĽ¾ä»»": 4825,
      "éªĳ": 4826,
      "ON": 4827,
      "ç¨»": 4828,
      "åŃ¸è¡ĵ": 4829,
      "æĻĤçļĦ": 4830,
      "æ©Łæľĥ": 4831,
      "æĬķéĻį": 4832,
      "å±ķéĸĭ": 4833,
      "è¡ĮåĬ¨": 4834,
      "éģķ": 4835,
      "é·": 4836,
      "åĪĨé¡ŀ": 4837,
      "ĊĊĠ": 4838,
      "çİ©å®¶": 4839,
      "Ġstyle": 4840,
      "å°ĳæķ°": 4841,
      "å¤§å¤ļæķ°": 4842,
      "çļĦæĶ¿æ²»": 4843,
      "ç·Ĵ": 4844,
      "BC": 4845,
      "åľ¨å¤§": 4846,
      "èĦĤ": 4847,
      "å¼ķæĵİ": 4848,
      "æĲ¬": 4849,
      "ä¸Ī": 4850,
      "åįģäºĶ": 4851,
      "å¶º": 4852,
      "æĺ¯ä¸Ģç§į": 4853,
      "çļĦæĥħæ³ģ": 4854,
      "è¥¿æ´ĭ": 4855,
      "éħįåĲĪ": 4856,
      "éĩĳå±ŀ": 4857,
      "åįģåĽĽ": 4858,
      "ĠAl": 4859,
      "æŁĶ": 4860,
      "ook": 4861,
      "æ³³": 4862,
      "çĲĥåł´": 4863,
      "è§£æ±º": 4864,
      "æŀĿ": 4865,
      "åħĪåĲİ": 4866,
      "86": 4867,
      "orm": 4868,
      "å¸¸è¦ĭ": 4869,
      "æľĪåĪĿ": 4870,
      "éĻ¢å£«": 4871,
      "æ¹ĸåĮĹ": 4872,
      "åĪĨéĲĺ": 4873,
      "çı¾è±¡": 4874,
      "åĪĽä½ľ": 4875,
      "èĭ±è¯Ń": 4876,
      "åĤ¾": 4877,
      "æī¿èªį": 4878,
      "éŁ»": 4879,
      "150": 4880,
      "1941": 4881,
      "çĻĮ": 4882,
      "å§Ĩæĸ¯": 4883,
      "çĳŀå£«": 4884,
      "æŀĹåĮ¹": 4885,
      "äººåĢĳ": 4886,
      "åľŁèĢ³": 4887,
      "æĭīå¤«": 4888,
      "é¹½": 4889,
      "Ġç¬¬": 4890,
      "ä¸ĭè¾ĸ": 4891,
      "ç¢Ł": 4892,
      "åįĬå³¶": 4893,
      "å¨Ľæ¨Ĥ": 4894,
      "åĮºçļĦ": 4895,
      "æĭŁ": 4896,
      "è»Įéģĵ": 4897,
      "73": 4898,
      "åįģå¤§": 4899,
      "åľŁèĢ³åħ¶": 4900,
      "ä¸ĢåĪĩ": 4901,
      "è®°å½ķ": 4902,
      "åħ¬å®¤": 4903,
      "ÃĹ": 4904,
      "è²«": 4905,
      "çīĻåĪ©": 4906,
      "æ¢Ŀä»¶": 4907,
      "åĮĪçīĻåĪ©": 4908,
      "æ¼Ķåĳĺ": 4909,
      "æĦŁæŁĵ": 4910,
      "çįħ": 4911,
      "æ¾³å¤§åĪ©": 4912,
      "é¼ł": 4913,
      "çļĦå¤ĸ": 4914,
      "åľĭæľĥ": 4915,
      "èģĮä¸ļ": 4916,
      "æģ¢å¾©": 4917,
      "åĪ©çĽĬ": 4918,
      "çł²": 4919,
      "æ¬ĬåĬĽ": 4920,
      "åıĤèĢĥèµĦæĸĻ": 4921,
      "åĨ¯": 4922,
      "ä¸įæĸ·": 4923,
      "åĬĳ": 4924,
      "åįģä¹Ŀ": 4925,
      "æ¶īåıĬ": 4926,
      "å¤©çĦ¶": 4927,
      "æĪ°å½¹": 4928,
      "æĭĴçµķ": 4929,
      "ç¡«": 4930,
      "åħ¬å¸ĥ": 4931,
      "å»£å·ŀ": 4932,
      "89": 4933,
      "çĶ¢æ¥Ń": 4934,
      "æħ®": 4935,
      "æľĪåı°": 4936,
      "å©Ĩ": 4937,
      "è³Ģ": 4938,
      "è¿ĳå¹´": 4939,
      "å¦ĩ": 4940,
      "ç§ĺå¯Ĩ": 4941,
      "å»£åł´": 4942,
      "éĥ¨éķ·": 4943,
      "çī¹çļĦ": 4944,
      "å¦Ļ": 4945,
      "åĩ¤": 4946,
      "ust": 4947,
      "çĦ¶å¾Į": 4948,
      "æŃ¡è¿İ": 4949,
      "èħ¹": 4950,
      "åĭ¢åĬĽ": 4951,
      "èª²ç¨ĭ": 4952,
      "éĹŃ": 4953,
      "æĻ®æŁ¥": 4954,
      "éĥ¨éĹ¨": 4955,
      "ä¼ĬæľĹ": 4956,
      "å¼ıçļĦ": 4957,
      "æ¢¦": 4958,
      "åįłæĢ»äººåı£": 4959,
      "çĮ¶å¤ª": 4960,
      "éĤ£äºĽ": 4961,
      "çĬ¶æĢģ": 4962,
      "ç¬¦åĲĪ": 4963,
      "åĪ¶çļĦ": 4964,
      "è¾ħ": 4965,
      "è°ĥæŁ¥": 4966,
      "ä¸ĭä»¤": 4967,
      "åī¯ä¸»å¸Ń": 4968,
      "åīĳ": 4969,
      "æĬķèµĦ": 4970,
      "An": 4971,
      "ĠUniversity": 4972,
      "éºŁ": 4973,
      "ä¸¦æ²Ĵæľī": 4974,
      "uc": 4975,
      "ç¶±": 4976,
      "åĵ²åŃ¦": 4977,
      "è¥¿åĵ¥": 4978,
      "æİĪäºĪ": 4979,
      "å¿½": 4980,
      "pt": 4981,
      "å½¼å¾Ĺ": 4982,
      "åħĨ": 4983,
      "ä¹°": 4984,
      "åĩºå¸Ń": 4985,
      "è¡¨çİ°": 4986,
      "ä»ĸåĢĳçļĦ": 4987,
      "é¢ľ": 4988,
      "åº·çĨĻ": 4989,
      "è¥¿å®ī": 4990,
      "çĲĨè§£": 4991,
      "âĢĻ": 4992,
      "éĮ«": 4993,
      "ä»»æľŁ": 4994,
      "è¨ĵç·´": 4995,
      "1939": 4996,
      "63": 4997,
      "å¯Ĩåº¦": 4998,
      "åĥ¹åĢ¼": 4999,
      "æ²»çĻĤ": 5000,
      "æıĲåĲį": 5001,
      "ĠæĿİ": 5002,
      "çĲĨäºĭ": 5003,
      "èĻļ": 5004,
      "èªķ": 5005,
      "èĩºåįĹ": 5006,
      "æī¶": 5007,
      "åĲĮæĢ§": 5008,
      "ç¬¬äºĮæ¬¡ä¸ĸçķĮå¤§": 5009,
      "Ġï¼ļ": 5010,
      "è§£åĨ³": 5011,
      "æĹħéģĬ": 5012,
      "IC": 5013,
      "åĲ¨": 5014,
      "1920": 5015,
      "æıĲåĪ°": 5016,
      "çķ¶éģ¸": 5017,
      "ĠPro": 5018,
      "ear": 5019,
      "ä¸ĥå¹´": 5020,
      "åĢ«æķ¦": 5021,
      "æĭįæĶĿ": 5022,
      "é¦®": 5023,
      "pl": 5024,
      "å»ºç«ĭäºĨ": 5025,
      "ä»£çĲĨ": 5026,
      "åı¸é¦¬": 5027,
      "æ¡ĥåľĴ": 5028,
      "è©³": 5029,
      "éĻķ": 5030,
      "é£İæł¼": 5031,
      "å¤§ä½¿": 5032,
      "å¥¶": 5033,
      "ä»ĸæĺ¯": 5034,
      "ä¸Ģèĩ´": 5035,
      "çĪĨçĤ¸": 5036,
      "æ±½è»Ĭ": 5037,
      "ç»ıå¸¸": 5038,
      "400": 5039,
      "1957": 5040,
      "ç»ĺ": 5041,
      "æģĲæĢĸ": 5042,
      "ld": 5043,
      "çģ¾": 5044,
      "éķ¿æ²Ļ": 5045,
      "è¿ĺæĺ¯": 5046,
      "çºµ": 5047,
      "è³ĩæºĲ": 5048,
      "å±±è¥¿": 5049,
      "çŁ¥è¯Ĩ": 5050,
      "æĥŁ": 5051,
      "ä¾ĿçĦ¶": 5052,
      "å¥³æ¼Ķåĵ¡": 5053,
      "æķ¸åŃ¸": 5054,
      "ç´Ľ": 5055,
      "1966": 5056,
      "å£ĺ": 5057,
      "è¨ĺéĮĦ": 5058,
      "è¿ĻéĩĮ": 5059,
      "è¡ĮæĶ¿éĻ¢": 5060,
      "å¤§å¤ļæķ¸": 5061,
      "éłĴçįİ": 5062,
      "æ³¡": 5063,
      "1930": 5064,
      "æĸ¹ç¨ĭ": 5065,
      "åĵ²åŃ¸": 5066,
      "è¨Ńç½®": 5067,
      "éĽĢ": 5068,
      "å¾Īå¿«": 5069,
      "span": 5070,
      "æŃ§": 5071,
      "çĽ¸å½ĵ": 5072,
      "Ġä¸Ń": 5073,
      "ä¸Ĭå¸Ŀ": 5074,
      "è®ĬæĪĲ": 5075,
      "éģĭè¼¸": 5076,
      "å«ģ": 5077,
      "åĿª": 5078,
      "æµ·å³": 5079,
      "æĩīè©²": 5080,
      "çªĹ": 5081,
      "ment": 5082,
      "åłĨ": 5083,
      "åĽºå®ļ": 5084,
      "iz": 5085,
      "ä¿ĿåŃĺ": 5086,
      "çıĬ": 5087,
      "å©ļå§»": 5088,
      "å¸¸å§Ķ": 5089,
      "çµ±è¨Ī": 5090,
      "æľĪçļĦ": 5091,
      "ä¸ĢåĲĮ": 5092,
      "åĩłä¹İ": 5093,
      "æĨ²æ³ķ": 5094,
      "æ³¢åħ°": 5095,
      "1953": 5096,
      "è¨ĺèĢħ": 5097,
      "ç²ĴåŃĲ": 5098,
      "ne": 5099,
      "åĲķ": 5100,
      "é©±": 5101,
      "åİĨåı²ä¸Ĭ": 5102,
      "åľĭåħ§": 5103,
      "å¥Ķ": 5104,
      "ä½ľæĪ°": 5105,
      "ç°¡ç¨±": 5106,
      "ç¬¬ä¸ĢåĢĭ": 5107,
      "åİŁå§ĭ": 5108,
      "-{}-": 5109,
      "æľºåħ³": 5110,
      "åįĳ": 5111,
      "èĩªèº«": 5112,
      "çļĦå½±åĵį": 5113,
      "çĶ¨ä¾Ĩ": 5114,
      "éĢ²æĶ»": 5115,
      "è»Łé«Ķ": 5116,
      "ä¸Ĭè¿°": 5117,
      "âĦ": 5118,
      "æ°ĳéĸĵ": 5119,
      "çŁ©": 5120,
      "1973": 5121,
      "æ³¨éĩĬ": 5122,
      "æĪ°å£«": 5123,
      "åħ©äºº": 5124,
      "æľªä¾Ĩ": 5125,
      "èĭĳ": 5126,
      "è¨İè«ĸ": 5127,
      "è¿¦": 5128,
      "ç¾©å¤§åĪ©": 5129,
      "äºİæĺ¯": 5130,
      "ah": 5131,
      "èµĸ": 5132,
      "æŃ¦å¸Ŀ": 5133,
      "ä½Ķéłĺ": 5134,
      "mer": 5135,
      "é£ŀè¡Į": 5136,
      "è¡ĮæĶ¿åĮºåĪĴ": 5137,
      "1976": 5138,
      "85": 5139,
      "å»ºè¨Ń": 5140,
      ")ãĢģ": 5141,
      "çº¯": 5142,
      "åīįçļĦ": 5143,
      "ore": 5144,
      "åĮĹäº¬å¸Ĥ": 5145,
      "%ï¼Ľ": 5146,
      "è´ı": 5147,
      "æĿ±åĮĹ": 5148,
      "ç¾¤å³¶": 5149,
      "å¤ªéĺ³": 5150,
      "ite": 5151,
      "å¼ķåħ¥": 5152,
      "éĢ»": 5153,
      "å°ĳæķ¸": 5154,
      "å´©": 5155,
      "åĩıå°ĳ": 5156,
      "éĤĦæĺ¯": 5157,
      "95": 5158,
      "æ°ĳçľ¾": 5159,
      "tern": 5160,
      "æ·¡æ°´": 5161,
      "åŁİåĮº": 5162,
      "å®ŀè¡Į": 5163,
      "åĽ½ä¼ļ": 5164,
      "å®¢å®¶": 5165,
      "1977": 5166,
      "è¾Ĩ": 5167,
      "çĲĨå·¥": 5168,
      "Ġ12": 5169,
      "çŁĽ": 5170,
      "åĲ«æľī": 5171,
      "ç©ºä¸Ń": 5172,
      "æł¡éķ¿": 5173,
      "èªªæ³ķ": 5174,
      "int": 5175,
      "olog": 5176,
      "æĴ¤éĶĢ": 5177,
      "æ¯Ķäºļ": 5178,
      "1967": 5179,
      "æ··åĲĪ": 5180,
      "ä¸įæĸŃ": 5181,
      "åĪ¶å®ļ": 5182,
      "æŃ¦æ±ī": 5183,
      "é¡µ": 5184,
      "åĪĹè½¦": 5185,
      "ç»§æī¿": 5186,
      "æŀĹåĮ¹åħĭ": 5187,
      "åĺīç¾©": 5188,
      "å¸ĪèĮĥ": 5189,
      "æĺ¥ç§ĭ": 5190,
      "ug": 5191,
      "å¤ļæķ¸": 5192,
      "å»£æ³Ľ": 5193,
      "å¹½": 5194,
      "è§Ī": 5195,
      "è·¡": 5196,
      "é¼»": 5197,
      "èĢĮè¢«": 5198,
      "æķ°åŃĹ": 5199,
      "çķĻä¸ĭ": 5200,
      "IN": 5201,
      "åħ§éĥ¨": 5202,
      "æľĥåľ¨": 5203,
      "ç»Łè®¡": 5204,
      "1938": 5205,
      "çĬ¬": 5206,
      "ä»¥ä¸ĬçļĦ": 5207,
      "åĽ¾ä¹¦é¦Ĩ": 5208,
      "åĩĿ": 5209,
      "å¤ªåĲİ": 5210,
      "åľ°åĮºçļĦ": 5211,
      "æĢ§è´¨": 5212,
      "æľºè½¦": 5213,
      "ç¬¬ä¸Ģä¸ª": 5214,
      "è®¾å¤ĩ": 5215,
      "æŁ¥çĲĨ": 5216,
      "ä¼¦æķ¦": 5217,
      "æį·éģĭ": 5218,
      "å¹´å¾Į": 5219,
      "æľīæĻĤ": 5220,
      "æ³ķæ¡Ī": 5221,
      "å´Ķ": 5222,
      "é¼İ": 5223,
      "1951": 5224,
      "ç¡®å®ļ": 5225,
      "åĲŀ": 5226,
      "æ¶µ": 5227,
      "ç¸±": 5228,
      "å®¢éģĭ": 5229,
      "èĬĤçĽ®": 5230,
      "çļĦæĸ¹æ³ķ": 5231,
      "å¹´åĪĿ": 5232,
      "éĩĳæĽ²": 5233,
      "æ±Łè¥¿": 5234,
      "éģĵå¾·": 5235,
      "å¾Īå¤§": 5236,
      "éĢļè»Ĭ": 5237,
      "èĪªå¤©": 5238,
      "è¦ıåĬĥ": 5239,
      "æĶ¹åıĺ": 5240,
      "çŁ¥èŃĺ": 5241,
      "UN": 5242,
      "æİªæĸ½": 5243,
      "æŀļ": 5244,
      "æĶ¿é»¨": 5245,
      "ç©ºè»į": 5246,
      "æķĻèĤ²éĥ¨": 5247,
      "éģ¼": 5248,
      "1000": 5249,
      "æķ°éĩı": 5250,
      "ber": 5251,
      "1972": 5252,
      "å¨ĺ": 5253,
      "èĢĥåı¤": 5254,
      "çĮĽ": 5255,
      "é¯": 5256,
      "æ±¤": 5257,
      "ly": 5258,
      "åľ¨æĹ¥æľ¬": 5259,
      "å¹«åĬ©": 5260,
      "åķŁçĶ¨": 5261,
      "PS": 5262,
      "å¤ļä¸ª": 5263,
      "ä¸¦éĿŀ": 5264,
      "1968": 5265,
      "çĻ½èī²": 5266,
      "çįµ": 5267,
      "è§£éĩĬ": 5268,
      "èħĶ": 5269,
      "åĽ½çļĦ": 5270,
      "å¤ķ": 5271,
      "æ£ĴçĲĥ": 5272,
      "ational": 5273,
      "å§ļ": 5274,
      "æł¡éķ·": 5275,
      "å¹´åı·": 5276,
      "æī¾åĪ°": 5277,
      "Ġé¦Ļæ¸¯": 5278,
      "çĽĨ": 5279,
      "åĤ³èªª": 5280,
      "è´Ĭ": 5281,
      "çł´å£ŀ": 5282,
      "æ¯ıä¸ª": 5283,
      "èĪŀåı°": 5284,
      "ĠSp": 5285,
      "ä½ľåĩº": 5286,
      "çĦ¶åĲİ": 5287,
      "ä¸»æ¼Ķ": 5288,
      "éĺª": 5289,
      "æĸ°çĸĨ": 5290,
      "çĽ®æłĩ": 5291,
      "æĹ¥åĨĽ": 5292,
      "æĬķè³ĩ": 5293,
      "å¡ŀå°Ķ": 5294,
      "æĸľ": 5295,
      "ãĢĬãĢĭ": 5296,
      "å¹³éĿ¢": 5297,
      "æĪĺæĸĹ": 5298,
      "å¯¦æĸ½": 5299,
      "Ġby": 5300,
      "1969": 5301,
      "),": 5302,
      "çļĦå·¥ä½ľ": 5303,
      "èĥİ": 5304,
      "è¡Ŀçªģ": 5305,
      "æ£ī": 5306,
      "âĦĥ": 5307,
      "éģĹåĿĢ": 5308,
      "éļĲ": 5309,
      "æ·»": 5310,
      "æĨĳ": 5311,
      "åĿİ": 5312,
      "èı¯äºº": 5313,
      "ace": 5314,
      "éħĴåºĹ": 5315,
      "èŃīæĺİ": 5316,
      "æ¦®èŃ½": 5317,
      "å±Ī": 5318,
      "æķ¢": 5319,
      "çº²": 5320,
      "ä¼Ł": 5321,
      "éĦĤ": 5322,
      "å¤§å°ı": 5323,
      "ä¸ŃåİŁ": 5324,
      "åĦ¿åŃĲ": 5325,
      "ost": 5326,
      "æľ¬åľŁ": 5327,
      "éħ¶": 5328,
      "åķĨåĵģ": 5329,
      "1944": 5330,
      "ice": 5331,
      "æ½ľ": 5332,
      "BA": 5333,
      "å¯®": 5334,
      "åĮ»åŃ¦": 5335,
      "ç¿»èŃ¯": 5336,
      "æ°¯": 5337,
      "æķ¸éĩı": 5338,
      "åľ¨ä¸Ģ": 5339,
      "éŃĶæ³ķ": 5340,
      "èģĺ": 5341,
      "é¢ģ": 5342,
      "èĩºä¸Ń": 5343,
      "éĢ¼": 5344,
      "å¨ģå°Ķ": 5345,
      "èĤº": 5346,
      "ä¸Ńåįİæ°ĳåĽ½": 5347,
      "com": 5348,
      "ç¿¡": 5349,
      "å¢¨è¥¿åĵ¥": 5350,
      "çİ»çĴĥ": 5351,
      "æł¡åĮº": 5352,
      "HK": 5353,
      "ç¬¬åħ«": 5354,
      "æľŁçļĦ": 5355,
      "1936": 5356,
      "éĨ«åŃ¸": 5357,
      "è¿Ī": 5358,
      "å®īå¾½": 5359,
      "ium": 5360,
      "æĸ¹çļĦ": 5361,
      "éĺ¶çº§": 5362,
      "åį³ä½į": 5363,
      "èĹĿäºº": 5364,
      "è¿Ĳè¡Į": 5365,
      "ark": 5366,
      "èĩªåĭķ": 5367,
      "è¾²æ¥Ń": 5368,
      "æģŃ": 5369,
      "æĬ¼": 5370,
      "1974": 5371,
      "èľĤ": 5372,
      "ern": 5373,
      "æ´¾çļĦ": 5374,
      "ç®±": 5375,
      "çī¹å®ļ": 5376,
      "åģµ": 5377,
      "å¯»": 5378,
      "ä»ĸä»¬çļĦ": 5379,
      "åĬ³åĬ¨": 5380,
      "åĢ¡": 5381,
      "æĺİæ²»": 5382,
      "é¢ĳéģĵ": 5383,
      "æ¶Į": 5384,
      "ä¾Ĩèªª": 5385,
      "æĿ±åįĹ": 5386,
      "è·Ŀç¦»": 5387,
      "çĥ§": 5388,
      "çĥŁ": 5389,
      "èĢķ": 5390,
      "åħĭéĩĮ": 5391,
      "æĪĳçļĦ": 5392,
      "æī¹è¯Ħ": 5393,
      "æĪĲæľ¬": 5394,
      "åľ°åįĢçļĦ": 5395,
      "åĲ¸æĶ¶": 5396,
      "ft": 5397,
      "1965": 5398,
      "çĪ¶æ¯į": 5399,
      "ç¿¡ç¿ł": 5400,
      "é¶": 5401,
      "æĽ¸éĻ¢": 5402,
      "åħ¬åı¸çļĦ": 5403,
      "åı¬å¼Ģ": 5404,
      "æľĿå»·": 5405,
      "åĵĪå°Ķ": 5406,
      "åįĬå²Ľ": 5407,
      "èĩºåĮĹå¸Ĥ": 5408,
      "çĶ¨éĢĶ": 5409,
      "èģ¯åĲĪåľĭ": 5410,
      "å½Į": 5411,
      "ä¸ĭåįĪ": 5412,
      "çķ¶æĻĤçļĦ": 5413,
      "MS": 5414,
      "åľ¨ä¸ŃåĽ½": 5415,
      "åĽ½ç«ĭ": 5416,
      "å±ķç¤º": 5417,
      "æ¸¯éĲµ": 5418,
      "æĶ¹éĢł": 5419,
      "æĸ°ç«¹": 5420,
      "è¾°": 5421,
      "ç¢İ": 5422,
      "æľ¬åľ°": 5423,
      "å°¤åħ¶æĺ¯": 5424,
      "åıĳå°Ħ": 5425,
      "ĠNew": 5426,
      "åŁºäºİ": 5427,
      "åį«æĺŁ": 5428,
      "ĠãĢĮ": 5429,
      "æĢ§è³ª": 5430,
      "é©¬åħĭ": 5431,
      "out": 5432,
      "son": 5433,
      "æ¯ĶåĪ©": 5434,
      "çĶ«": 5435,
      "çĶ±æŃ¤": 5436,
      "çİĭåŃĲ": 5437,
      "ç±»åŀĭ": 5438,
      "è¿Ľè¡ĮäºĨ": 5439,
      "è®¾ç½®": 5440,
      "çĻ¾ç§ĳ": 5441,
      "èĢĮéĿŀ": 5442,
      "åħŃå¹´": 5443,
      "æºĸåĤĻ": 5444,
      "åĸľæŃ¡": 5445,
      "çħĻ": 5446,
      "æ¥ŃåĭĻ": 5447,
      "ä¿®æŃ£": 5448,
      "é«®": 5449,
      "éĩĳå±±": 5450,
      "æ¼ł": 5451,
      "æºĲèĩª": 5452,
      "Ġ17": 5453,
      "äºĴçĽ¸": 5454,
      "è¾¨": 5455,
      "çĪ¾æĸ¯": 5456,
      "èħº": 5457,
      "åħ¨å¸Ĥ": 5458,
      "å¤ļåĢĭ": 5459,
      "é©ļ": 5460,
      "æĪĲéĥ½": 5461,
      "1961": 5462,
      "æī®æ¼Ķ": 5463,
      "åİŁä½ıæ°ĳ": 5464,
      "äºĭæķħ": 5465,
      "èĻ«": 5466,
      "çĲĨæĥ³": 5467,
      "çº¿è·¯": 5468,
      "äºĨè§£": 5469,
      "èĲ§": 5470,
      "åĽĽå¤§": 5471,
      "éĢĢåĩº": 5472,
      "ĠĠĊ": 5473,
      "åŁºæĸ¼": 5474,
      "Ġre": 5475,
      "AP": 5476,
      "çģ«ç®Ń": 5477,
      "è©ķè«ĸ": 5478,
      "æĽ¾ç»ı": 5479,
      "çļĦæĥħåĨµ": 5480,
      "éĽį": 5481,
      "æĮª": 5482,
      "æľĢä½İ": 5483,
      "éĺ¶æ®µ": 5484,
      "æłĩå¿Ĺ": 5485,
      "åħĪå¾Į": 5486,
      "æĻ¯åĮº": 5487,
      "per": 5488,
      "1964": 5489,
      "å¸®åĬ©": 5490,
      "åħģè®¸": 5491,
      "ä¸ŃæŃ£": 5492,
      "ence": 5493,
      "å®īå¾·": 5494,
      "åİ¥": 5495,
      "èĢĮä¸įæĺ¯": 5496,
      "æ®ĭ": 5497,
      "æĬĳ": 5498,
      "çłĶç©¶éĻ¢": 5499,
      "çļĦä¸į": 5500,
      "ä»ĩ": 5501,
      "éĢļä¿¡": 5502,
      "å°ıåŃ¦": 5503,
      "åı·çº¿": 5504,
      "æĹħè¡Į": 5505,
      "ä¸Ģæ®µ": 5506,
      "æ³ķå®ĺ": 5507,
      "æ°£åĢĻ": 5508,
      "æĽ¹æĵį": 5509,
      "è³Ī": 5510,
      "ire": 5511,
      "æ¿ĥ": 5512,
      "æĶ¿æ²»å±Ģ": 5513,
      "è¥Ħ": 5514,
      "ç©©å®ļ": 5515,
      "å¿Į": 5516,
      "è§ĤçĤ¹": 5517,
      "çļĦæĶ¯æĮģ": 5518,
      "çµĦåĲĪ": 5519,
      "ç¦»å¼Ģ": 5520,
      "çļĦæµ·": 5521,
      "èµ·ä¾Ĩ": 5522,
      "1942": 5523,
      "çģ«å±±": 5524,
      "ç§ĳåŃ¦éĻ¢": 5525,
      "åĬªåĬĽ": 5526,
      "è²ŀ": 5527,
      "åı¯ä»¥åľ¨": 5528,
      "ç¼ĺ": 5529,
      "éłĺåľŁ": 5530,
      "éłĺè¢ĸ": 5531,
      "åł±å°İ": 5532,
      "Al": 5533,
      "è°±": 5534,
      "è¿ĽæĶ»": 5535,
      "1971": 5536,
      "1935": 5537,
      "çĪµå£«": 5538,
      "ä¸įåĪ°": 5539,
      "åĬ«": 5540,
      "åĲįç§°": 5541,
      "éĥ¨éĸĢ": 5542,
      "ç§ģäºº": 5543,
      "é£¯": 5544,
      "çļĦåĲįåŃĹ": 5545,
      "çļĦé¦ĸ": 5546,
      "ä¿®å»º": 5547,
      "å°Īæ¥Ń": 5548,
      "éĤª": 5549,
      "å¥§éģĭ": 5550,
      "ction": 5551,
      "Ġ11": 5552,
      "äººåı£æĻ®æŁ¥": 5553,
      "æĹħå®¢": 5554,
      "æľ´": 5555,
      "èµ·æĿ¥": 5556,
      "é¦¬åħĭ": 5557,
      "ES": 5558,
      "åĪĨç±»": 5559,
      "è¥¿æĸ¯": 5560,
      "çļĦç¥ŀ": 5561,
      "èĭ±æł¼åħ°": 5562,
      "æħ£": 5563,
      "æĭĴç»Ŀ": 5564,
      "çļĦä¸ĢåĢĭ": 5565,
      "ä¹Łæľĥ": 5566,
      "æ¼Ķå¥ı": 5567,
      "ç²Ĺ": 5568,
      "ä¸Ĭæľī": 5569,
      "å§Ĭ": 5570,
      "åĨħéĥ¨": 5571,
      "æĹ©å¹´": 5572,
      "æīĭæ®µ": 5573,
      "ç»ª": 5574,
      "çı¾æĻĤ": 5575,
      "èªįçĤºæĺ¯": 5576,
      "ä¸¾åĬŀ": 5577,
      "è®¿éĹ®": 5578,
      "cl": 5579,
      "æĪĲç¸¾": 5580,
      "ç©Ĩæĸ¯": 5581,
      "âĪ": 5582,
      "æ°¢": 5583,
      "åĿĽ": 5584,
      "åľ¨éĢĻ": 5585,
      "1962": 5586,
      "éĺħè¯»": 5587,
      "æĿĥåĬĽ": 5588,
      "å¤§çº¦": 5589,
      "å¹´è¼ķ": 5590,
      "èĪŁ": 5591,
      "ç«ĭåį³": 5592,
      "âĢĺ": 5593,
      "åİĦ": 5594,
      "ä¹ĭæĪ°": 5595,
      "å®ĺåĵ¡": 5596,
      "å¤±æķĹ": 5597,
      "ä¸¸": 5598,
      "text": 5599,
      "äºĭæ¥Ń": 5600,
      "å¸Įçī¹": 5601,
      "äº¦æĺ¯": 5602,
      "Ġ[": 5603,
      "å®ļçĲĨ": 5604,
      "èĻĳ": 5605,
      "çı¾ä»Ĭ": 5606,
      "èı²å¾ĭ": 5607,
      "act": 5608,
      "ç¶ľåĲĪ": 5609,
      "çİ°è±¡": 5610,
      "åģ·": 5611,
      "æĮĩå®ļ": 5612,
      "èĴĭ": 5613,
      "çīĨ": 5614,
      "ç®Ģç§°": 5615,
      "å¤ĸçļĦ": 5616,
      "åħ¬å¼Ģ": 5617,
      "çģĮ": 5618,
      "åĨ¬åŃ£": 5619,
      "æĬ±": 5620,
      "æ°ĳä¸»é»¨": 5621,
      "è§£æķ£": 5622,
      "åĳ¨å¹´": 5623,
      "äººæķ¸": 5624,
      "1933": 5625,
      "ç¨Ģ": 5626,
      "ics": 5627,
      "åīµéĢł": 5628,
      "aw": 5629,
      "æĪĲå°±": 5630,
      "éĺ¿éĩĮ": 5631,
      "æĺİé¡¯": 5632,
      "ç¹ŀ": 5633,
      "æīģ": 5634,
      "ç»©": 5635,
      "çĬ¯ç½ª": 5636,
      "éĢ²é»¨": 5637,
      "æ¡£": 5638,
      "è¿ŀç»Ń": 5639,
      "åį°åĪ·": 5640,
      "åľĭæ°ĳå°ıåŃ¸": 5641,
      "1943": 5642,
      "å¯¸": 5643,
      "è®¯": 5644,
      "èĩ¨æĻĤ": 5645,
      "åĹ£": 5646,
      "æ¢ĿçĽ®": 5647,
      "ç¬¦èĻŁ": 5648,
      "ç¢§": 5649,
      "Ġr": 5650,
      "çĶ¨ä½ľ": 5651,
      "éĢ»è¾ĳ": 5652,
      "å¾·æĦıå¿Ĺ": 5653,
      "çµĲå©ļ": 5654,
      "æĸ°åŁİ": 5655,
      "åłª": 5656,
      "éĻ¢æł¡": 5657,
      "ä½ĵç³»": 5658,
      "éį¾": 5659,
      "ç½°": 5660,
      "åıįæĺł": 5661,
      "çµĲåĲĪ": 5662,
      "ä¸ľéĥ¨": 5663,
      "ä»İèĢĮ": 5664,
      "æİ¨åĭķ": 5665,
      "è³ªéĩı": 5666,
      "éģĵçļĦ": 5667,
      "å¯¹è±¡": 5668,
      "åĨĽåĮº": 5669,
      "æķĻä¼ļ": 5670,
      "èµ·ä¹ī": 5671,
      "å®ļå¾ĭ": 5672,
      "éĶĭ": 5673,
      "color": 5674,
      "æĪĲç«ĭçļĦ": 5675,
      "åıªè¦ģ": 5676,
      "1963": 5677,
      "çĦ¡ç¶«éĽ»è¦ĸ": 5678,
      "éķ¿æľŁ": 5679,
      "æ¯ħ": 5680,
      "ç»ĵåĲĪ": 5681,
      "æĶ¹ç·¨": 5682,
      "éºµ": 5683,
      "Un": 5684,
      "çļĦæķħäºĭ": 5685,
      "åĪĨéħį": 5686,
      "ç±ĥ": 5687,
      "è¿Ĳè¾ĵ": 5688,
      "èĢĮæĪĲ": 5689,
      "ä¼Ĭæĭīåħĭ": 5690,
      "åħ©ç¨®": 5691,
      "ä½ıå®ħ": 5692,
      "äºīè®®": 5693,
      "å¥ł": 5694,
      "æĮģç»Ń": 5695,
      "æļĸ": 5696,
      "èĸĽ": 5697,
      "é¥®": 5698,
      "ç®¡è¾ĸ": 5699,
      "æľºæ¢°": 5700,
      "ç£¨": 5701,
      "ç·©": 5702,
      "è§¦": 5703,
      "ç²®": 5704,
      "æ¡ĵ": 5705,
      "è¡ĽæĺŁ": 5706,
      "å·«": 5707,
      "æ¸¯åı£": 5708,
      "ä»ĬæĹ¥": 5709,
      "éĢ²ä¸ĢæŃ¥": 5710,
      "åĬĩåł´": 5711,
      "é´»": 5712,
      "å»ºè®®": 5713,
      "è¿ĲèĲ¥": 5714,
      "èĥ½æºĲ": 5715,
      "ä½įçļĦ": 5716,
      "éİĸ": 5717,
      "Ġ,": 5718,
      "æ²ĸ": 5719,
      "äºĨä¸Ģä¸ª": 5720,
      "æµ¸": 5721,
      "å°Ĩåħ¶": 5722,
      "å®£åĤ³": 5723,
      "æĿŃå·ŀ": 5724,
      "92": 5725,
      "åĢĭæľĪ": 5726,
      "çļĦæ°´": 5727,
      "çĶµè§Ĩåı°": 5728,
      "å°Ķæĸ¯": 5729,
      "å¤§å¹ħ": 5730,
      "æĮĩç¤º": 5731,
      "æļĤ": 5732,
      "å¤įæĿĤ": 5733,
      "è¡¨è¾¾": 5734,
      "å¾ĹçŁ¥": 5735,
      "åľ¨ç¾İåľĭ": 5736,
      "å¥³çİĭ": 5737,
      "å½ĵéĢī": 5738,
      "120": 5739,
      "çĶ¨æĿ¥": 5740,
      "æĹ¬": 5741,
      "æ²Ł": 5742,
      "èĨł": 5743,
      "ç¤Ļ": 5744,
      "è§Ģå¯Ł": 5745,
      "æľĢæĹ©çļĦ": 5746,
      "åľ°éĿ¢": 5747,
      "éĢ¸": 5748,
      "ĠPress": 5749,
      "96": 5750,
      "ç¨į": 5751,
      "ung": 5752,
      "ãĢĭï¼ī": 5753,
      "æĿ±æĸ¹": 5754,
      "åķĨäºº": 5755,
      "æī¿è®¤": 5756,
      "æł¼èĺŃ": 5757,
      "éĨĴ": 5758,
      "å¤§çįİ": 5759,
      "ä¸Ģå®¶": 5760,
      "PC": 5761,
      "//": 5762,
      "åįĶèŃ°": 5763,
      "çĻ¼å°Ħ": 5764,
      "éĢ¢": 5765,
      "éķ·å®ĺ": 5766,
      "æ°ĳéĢ²é»¨": 5767,
      "ä¸Ļ": 5768,
      "è»¸": 5769,
      "å¸ĥæĭī": 5770,
      "ä¸Ĭåįĩ": 5771,
      "å¹¿åľº": 5772,
      "è´¨éĩı": 5773,
      "éĩĿå°į": 5774,
      "æĸ°åĮĹ": 5775,
      "pe": 5776,
      "æĹ¥åł±": 5777,
      "ä¸īåľĭ": 5778,
      "åª½": 5779,
      "å°ļæľª": 5780,
      "å®ŀæĸ½": 5781,
      "æĸ¹ä¾¿": 5782,
      "åĭĿåĪ©": 5783,
      "æ´¾åĩº": 5784,
      "æŃ¤æĻĤ": 5785,
      "å·²æľī": 5786,
      "çªģçł´": 5787,
      "å²Ĺ": 5788,
      "æĿĤå¿Ĺ": 5789,
      "å¾ģæľį": 5790,
      "æĦĪ": 5791,
      "æŃĩ": 5792,
      "æ±ŁåįĹ": 5793,
      "åħ§éĸ£": 5794,
      "ss": 5795,
      "åĲĮæł·": 5796,
      "ä¸ľè¥¿": 5797,
      "ç¼ĵ": 5798,
      "æ°¨": 5799,
      "è½¦ç«Ļ": 5800,
      "ç®¡çĲĨå±Ģ": 5801,
      "éĽŀ": 5802,
      "çĶŁæĪĲ": 5803,
      "å¼ķçĻ¼": 5804,
      "ä¸īå¤§": 5805,
      "è¿Ľä¸ĢæŃ¥": 5806,
      "æ´¾éģ£": 5807,
      "éĤĳ": 5808,
      "ww": 5809,
      "å¸¸ä½ı": 5810,
      "æĹıçļĦ": 5811,
      "åĲĦèĩª": 5812,
      "çĭĢæ³ģ": 5813,
      "ID": 5814,
      "åľ¨ä»ĸ": 5815,
      "æĹ¥æ²»": 5816,
      "ãĦ": 5817,
      "èģĶèµĽ": 5818,
      "ĠâĢĶ": 5819,
      "è©ķåĥ¹": 5820,
      "æİ¥æĶ¶": 5821,
      "è®¤ä¸ºæĺ¯": 5822,
      "èº«é«Ķ": 5823,
      "å®£ä¼ł": 5824,
      "æĸ¤": 5825,
      "èĤĮ": 5826,
      "é¾Ħ": 5827,
      "æĿ¥è¯´": 5828,
      "çĶ·æ¼Ķåĵ¡": 5829,
      "å¼·èª¿": 5830,
      "ile": 5831,
      "OR": 5832,
      "è¹Ł": 5833,
      "83": 5834,
      "åŃ¦æľ¯": 5835,
      "èĥ¶": 5836,
      "èĤĥ": 5837,
      "ock": 5838,
      "1932": 5839,
      "èį·åħ°": 5840,
      "èľľ": 5841,
      "çļĦåıĳå±ķ": 5842,
      "ä¿Ŀéļľ": 5843,
      "æ²¿æµ·": 5844,
      "å¸ĤåĮº": 5845,
      "é©¬æĿ¥è¥¿äºļ": 5846,
      "EC": 5847,
      "ĠZ": 5848,
      "äººå·¥": 5849,
      "çī©çļĦ": 5850,
      "åīµç«ĭ": 5851,
      "1928": 5852,
      "èģĶç³»": 5853,
      "æ³ķèĺŃ": 5854,
      "oy": 5855,
      "æĸĲ": 5856,
      "åĲ¹": 5857,
      "å¹¶åħ¥": 5858,
      "çªģçĦ¶": 5859,
      "æ·ĳ": 5860,
      "èħĵ": 5861,
      "éĬľ": 5862,
      "æĹ¥æľŁ": 5863,
      "åı¦ä¸Ģæĸ¹éĿ¢": 5864,
      "éĤģ": 5865,
      "are": 5866,
      "MP": 5867,
      "ä¸ŃæľŁ": 5868,
      "orld": 5869,
      "ç¥¿": 5870,
      "æĽ¸ç±į": 5871,
      "åĴĸ": 5872,
      "æľĪèĩ³": 5873,
      "æľ¬äºº": 5874,
      "ric": 5875,
      "å®ĺåĳĺ": 5876,
      "æĢ¡": 5877,
      "äºĮäºº": 5878,
      "å¸¸è§ģ": 5879,
      "åĬĽåŃ¦": 5880,
      "1931": 5881,
      "åīĬ": 5882,
      "åĻ¨çļĦ": 5883,
      "è¡ĽçĶŁ": 5884,
      "åĸª": 5885,
      "çªģåİ¥": 5886,
      "éĢļçĶ¨": 5887,
      "éĬ·åĶ®": 5888,
      "å¤§äºĭè®°": 5889,
      "....": 5890,
      "ç¿¡ç¿łåı°": 5891,
      "åĭµ": 5892,
      "æĦĽçĪ¾": 5893,
      "è¯Ħä»·": 5894,
      "å·¢": 5895,
      "æ¢µ": 5896,
      "å·®çķ°": 5897,
      "ä¿ł": 5898,
      "æ¯Ķäºŀ": 5899,
      "åĵĪåĪ©": 5900,
      "æ±¡æŁĵ": 5901,
      "Ġ2005": 5902,
      "äºĳåįĹ": 5903,
      "éĻĨåĨĽ": 5904,
      "åıĪç§°": 5905,
      "ä»¥æŃ¤": 5906,
      "æĹ¥æĬ¥": 5907,
      "åĩ½æķ¸": 5908,
      "åĿĤ": 5909,
      "160": 5910,
      "æĹıç¾¤": 5911,
      "ram": 5912,
      "erv": 5913,
      "az": 5914,
      "æ¹¿": 5915,
      "ä¼Ĭæĸ¯èĺŃ": 5916,
      "å¿ĺ": 5917,
      "èĦļ": 5918,
      "æ¬ĬåĪ©": 5919,
      "ox": 5920,
      "éĨĩ": 5921,
      "å°Ķå¾·": 5922,
      "éģĭåĭķæľĥ": 5923,
      "æ±īè¯Ń": 5924,
      "èĢĲ": 5925,
      "è½Ł": 5926,
      "è±¡å¾µ": 5927,
      "ç¿»è¯ĳ": 5928,
      "æłĹ": 5929,
      "å¸¸å¸¸": 5930,
      "åĽĽä¸ĸ": 5931,
      "åŃĲå¥³": 5932,
      "è¡¨éģĶ": 5933,
      "ohn": 5934,
      "å®°": 5935,
      "é¢Ĩå¯¼äºº": 5936,
      "ä¸ŃæľĢ": 5937,
      "çī¹å¾ģ": 5938,
      "ä¸°å¯Į": 5939,
      "å¹³è¡¡": 5940,
      "åİ¦": 5941,
      "ä»£çļĦ": 5942,
      "å¿Ĩ": 5943,
      "è´¯": 5944,
      "éģĭä½ľ": 5945,
      "æ¼¢åŃĹ": 5946,
      "è¦ªçİĭ": 5947,
      "èĥľåĪ©": 5948,
      "æĸĳ": 5949,
      "å¸¥": 5950,
      "å¾ĮæľŁ": 5951,
      "æĦıæĢĿ": 5952,
      "ç»ķ": 5953,
      "çłĤ": 5954,
      "ç¸½éĥ¨": 5955,
      "éĢ®": 5956,
      "åķ¡": 5957,
      "å®Įå·¥": 5958,
      "åľ¨ä¸Ń": 5959,
      "æİĺ": 5960,
      "å¿ħè¦ģ": 5961,
      "87": 5962,
      "åħ¸ç¦®": 5963,
      "ä¸¤ç§į": 5964,
      "æ¶Īå¤±": 5965,
      "ä¸¦æľª": 5966,
      "æĶ»åĩ»": 5967,
      "çļĦæĹ¶åĢĻ": 5968,
      "å¾¹": 5969,
      "å®ĥæĺ¯": 5970,
      "åĸ¬æ²»": 5971,
      "ä¸Ńè¢«": 5972,
      "è®¾æĸ½": 5973,
      "ç·¨èĻŁ": 5974,
      "æ¯ıåĢĭ": 5975,
      "å¤§éĩıçļĦ": 5976,
      "åĪĹåħ¥": 5977,
      "ç¿Ķ": 5978,
      "çĽ£çĿ£": 5979,
      "æĤł": 5980,
      "æıĲä¾ĽäºĨ": 5981,
      "çļĦåİŁåĽł": 5982,
      "åįĹéĿŀ": 5983,
      "ç®Ģåįķ": 5984,
      "æĶ¾æ£Ħ": 5985,
      "ç¢ºå®ļ": 5986,
      "çŁĽçĽ¾": 5987,
      "æĸ¥": 5988,
      "åĢ¾": 5989,
      "ç¦§": 5990,
      "æķ¸åŃĹ": 5991,
      "Hz": 5992,
      "å¤§éģĵ": 5993,
      "åİŁçĲĨ": 5994,
      "çĶ³è«ĭ": 5995,
      "çĿ¡": 5996,
      "SS": 5997,
      "ä¸ĢçĻ¾": 5998,
      "å¤§éĿ©åĳ½": 5999,
      "åĤ¬": 6000,
      "èĥ¸": 6001,
      "åľ°å½¢": 6002,
      "è£ĿçĶ²": 6003,
      "æº«åº¦": 6004,
      "ä¹Ķæ²»": 6005,
      "åºĶè¯¥": 6006,
      "çŃ¹": 6007,
      "æļ¨": 6008,
      "è®®åĳĺ": 6009,
      "å®ļå±ħ": 6010,
      "600": 6011,
      "æ¯įäº²": 6012,
      "å¤§èĩ´": 6013,
      "ç¬¬ä¹Ŀ": 6014,
      "æķĻåŃ¦": 6015,
      "åĩĨå¤ĩ": 6016,
      "MA": 6017,
      "åį¡å°Ķ": 6018,
      "é¢Ĩè¢ĸ": 6019,
      "å¤§å»Ī": 6020,
      "å¾·å·Ŀ": 6021,
      "ç¶ĵåħ¸": 6022,
      "æĬ¥éģĵ": 6023,
      "æĹĹä¸ĭ": 6024,
      "ach": 6025,
      "å¤ĸåĽ½": 6026,
      "ç¶ĵæŃ·": 6027,
      "åĦ¿ç«¥": 6028,
      "è½´": 6029,
      "æ¼ģ": 6030,
      "åħ¶å¯¦": 6031,
      "82": 6032,
      "ä½ľæĪĺ": 6033,
      "å¥¥æĸ¯": 6034,
      "ç§»åĭķ": 6035,
      "æ°´åĪ©": 6036,
      "1934": 6037,
      "éģĹäº§": 6038,
      "è§Ģé»ŀ": 6039,
      "éĤĢè«ĭ": 6040,
      "å°ĩåħ¶": 6041,
      "ç¢©": 6042,
      "çħ§çīĩ": 6043,
      "ç¦ıå·ŀ": 6044,
      "éĤµ": 6045,
      "æĦıä¹ī": 6046,
      "ç§ŁçķĮ": 6047,
      "æ©Łæ¢°": 6048,
      "é«ĺçº§": 6049,
      "æŃ¤æĹ¶": 6050,
      "èģĸç¶ĵ": 6051,
      "åģ¶åĥı": 6052,
      "æ³¢èĺŃ": 6053,
      "æİĮæı¡": 6054,
      "å¹´åĪ°": 6055,
      "å¤ļç§į": 6056,
      "æĦıåĳ³": 6057,
      "ç©Ĩæĸ¯æŀĹ": 6058,
      "Ġé£¾": 6059,
      "äºĭå¯¦": 6060,
      "ä»·åĢ¼": 6061,
      "å£®": 6062,
      "å¸ĤåįĢ": 6063,
      "ä¸ŃåĽ½äººæ°ĳè§£æĶ¾åĨĽ": 6064,
      "97": 6065,
      "se": 6066,
      "è¨Ĺ": 6067,
      "èİ«æĸ¯ç§ĳ": 6068,
      "ä¼Ĭæĸ¯åħ°": 6069,
      "å°įæīĭ": 6070,
      "é¸¡": 6071,
      "èĤĸ": 6072,
      "84": 6073,
      "æº¯": 6074,
      "å¹³æĸ¹ç±³": 6075,
      "ET": 6076,
      "åĩºä¾Ĩ": 6077,
      "å£«å°¼": 6078,
      "ç¾¤å²Ľ": 6079,
      "è³ĩæł¼": 6080,
      "åįĸ": 6081,
      "è±«": 6082,
      "ç·¨è¼¯": 6083,
      "çİ²": 6084,
      "åħĭçļĦ": 6085,
      "èĦħ": 6086,
      "åıī": 6087,
      "æľīæĹ¶": 6088,
      "ux": 6089,
      "ode": 6090,
      "æĦĽçĪ¾èĺŃ": 6091,
      "1927": 6092,
      "IP": 6093,
      "çº·": 6094,
      "æºĿ": 6095,
      "æĶ¶éĮĦ": 6096,
      "åĮĹç¾İ": 6097,
      "çĻ¼æĺİ": 6098,
      "ä¸ĸçķĮçĽĥ": 6099,
      "éĺ²æŃ¢": 6100,
      "93": 6101,
      "è°ĥæķ´": 6102,
      "Ġk": 6103,
      "çł´åĿı": 6104,
      "åľ°éĵģ": 6105,
      "æ¬¡å¹´": 6106,
      "æĻĤä»»": 6107,
      "éĤ¨": 6108,
      "800": 6109,
      "å¯¼æ¼Ķ": 6110,
      "é»ĳèī²": 6111,
      "pr": 6112,
      "éĤ±": 6113,
      "è¿ªå£«å°¼": 6114,
      "æħķå®¹": 6115,
      "åĵĢ": 6116,
      "éĢļéģĵ": 6117,
      "è®¾æľī": 6118,
      "åºıåĪĹ": 6119,
      "åįģä¸ĥ": 6120,
      "è´¢æĶ¿": 6121,
      "æĢ§èĥ½": 6122,
      "å±Ĭåħ¨åĽ½": 6123,
      "åĲĳéĩı": 6124,
      "å§ĳ": 6125,
      "Ġä¸ŃåĽ½": 6126,
      "è¡Ķ": 6127,
      "è§Ĵåº¦": 6128,
      "VD": 6129,
      "åĺ´": 6130,
      "æĻļä¸Ĭ": 6131,
      "æłª": 6132,
      "çļĦä¸ĢäºĽ": 6133,
      "æķĺ": 6134,
      "æĬļ": 6135,
      "æĢķ": 6136,
      "çļĦåľ°ä½į": 6137,
      "94": 6138,
      "æĮªå¨ģ": 6139,
      "è§Ģæ¸¬": 6140,
      "ä¸Ģåº§": 6141,
      "æĸ¯å¡Ķ": 6142,
      "å·¨å¤§": 6143,
      "åŃķ": 6144,
      "åħ¼ä»»": 6145,
      "æĻĵ": 6146,
      "çļĦåĲĮ": 6147,
      "åĲįäºº": 6148,
      "æ°«": 6149,
      "åĽ½å®¶çº§": 6150,
      "åįłæĢ»äººåı£çļĦ": 6151,
      "æ·º": 6152,
      "æ³¢éŁ³": 6153,
      "ç«¶çĪŃ": 6154,
      "ä¸Ĭæĺł": 6155,
      "åĪĨæĶ¯": 6156,
      "è´¾": 6157,
      "ä¿¡åı·": 6158,
      "ä»Ģä¹Ī": 6159,
      "åīįèº«": 6160,
      "åĪ°è¾¾": 6161,
      "ç¤ºå¨ģ": 6162,
      "ath": 6163,
      "éĥ½åľ¨": 6164,
      "å¹´çĶ±": 6165,
      "æİĽ": 6166,
      "å¹³çŃī": 6167,
      "çļĦå¤©": 6168,
      "è¢ĭ": 6169,
      "æĵ¾": 6170,
      "å®ŀéªĮå®¤": 6171,
      "åĽ½éĺ²": 6172,
      "å¹´éĸĭå§ĭ": 6173,
      "å¤Ħäºİ": 6174,
      "äº¥": 6175,
      "æĲĸ": 6176,
      "ç§ģç«ĭ": 6177,
      "çļĦå½¢å¼ı": 6178,
      "æľĢé«ĺçļĦ": 6179,
      "åħĭæĭī": 6180,
      "è¨Ńå®ļ": 6181,
      "ĠTh": 6182,
      "åĭķåĬĽ": 6183,
      "çĭ±": 6184,
      "å¯¦éļĽä¸Ĭ": 6185,
      "åįĴ": 6186,
      "ä½ľæĽ²å®¶": 6187,
      "èĥº": 6188,
      "æİ¨è¡Į": 6189,
      "æĤ£èĢħ": 6190,
      "ä¿±ä¹Ĳ": 6191,
      "å¸ħ": 6192,
      "ä½¿çĶ¨èĢħ": 6193,
      "ition": 6194,
      "ĠÐ": 6195,
      "æĹıèĩªæ²»": 6196,
      "è¿ĩç¨ĭä¸Ń": 6197,
      "ä¸»æ¬Ĭ": 6198,
      "Ġ:": 6199,
      "åĬłå·ŀ": 6200,
      "è¨ªåķı": 6201,
      "ç²µèªŀ": 6202,
      "ax": 6203,
      "åı¦æľī": 6204,
      "åİŁåĲį": 6205,
      "Ġçİĭ": 6206,
      "çļĦåıį": 6207,
      "æĸ¹éĿ¢çļĦ": 6208,
      "ci": 6209,
      "å»ĸ": 6210,
      "åŃ¦ä½į": 6211,
      "06": 6212,
      "è²´æĹı": 6213,
      "æ·ĺ": 6214,
      "ä¸»æĮģäºº": 6215,
      "ç¨³å®ļ": 6216,
      "ä¸ŀ": 6217,
      "éĿ¢å°į": 6218,
      "æķ°çļĦ": 6219,
      "ä»£è¡¨å¤§ä¼ļ": 6220,
      "æķĻå¸«": 6221,
      "éĤ£ä¹Ī": 6222,
      "çļĦæĻĤåĢĻ": 6223,
      "éģĶæĪĲ": 6224,
      "åį°å°¼": 6225,
      "ubl": 6226,
      "è´ıå¾Ĺ": 6227,
      "åįµ": 6228,
      "æĺ¯ä¸į": 6229,
      "èı©": 6230,
      "æł¼å¼ı": 6231,
      "çįİéłħ": 6232,
      "å¥ªå¾Ĺ": 6233,
      "sh": 6234,
      "äºŀæŃ·": 6235,
      "åįĥç±³": 6236,
      "ç¶²çµ¡": 6237,
      "è¯ķåĽ¾": 6238,
      "éĹ½": 6239,
      "é¦ĸä½į": 6240,
      "åľĭæ°ĳæĶ¿åºľ": 6241,
      "ĠSh": 6242,
      "çļĦçĻ¼å±ķ": 6243,
      "åľĭéĺ²": 6244,
      "ä¸Ńåľĭåľĭæ°ĳé»¨": 6245,
      "åīµè¾¦": 6246,
      "è®¨è®º": 6247,
      "åĬ¨çĶ»": 6248,
      "è§ĦåĪĻ": 6249,
      "ç¬¦åı·": 6250,
      ".,": 6251,
      "è¨ĺæĨ¶": 6252,
      "çļĦæľī": 6253,
      "åľ¨ä½į": 6254,
      "æī¹åĪ¤": 6255,
      "å®ŀéĻħä¸Ĭ": 6256,
      "01": 6257,
      "æĿ±è¥¿": 6258,
      "ĠåĴĮ": 6259,
      "èªĵ": 6260,
      "æľĢè¿ĳ": 6261,
      "çĲĥéĺŁ": 6262,
      "ina": 6263,
      "ç®Ĺæ³ķ": 6264,
      "åĵª": 6265,
      "ç¦ıéŁ³": 6266,
      "éĢ®æįķ": 6267,
      "è²¡æĶ¿": 6268,
      "æł¼åħ°": 6269,
      "æħİ": 6270,
      "å¹´åĲİ": 6271,
      "è©¹å§Ĩæĸ¯": 6272,
      "è¾¯": 6273,
      "æ¼ĶåĮĸ": 6274,
      "ä¼¯çĪµ": 6275,
      "åħ¬å®ī": 6276,
      "åĲĪæ³ķ": 6277,
      "æ»¾": 6278,
      "è±¹": 6279,
      "ç¨±åĳ¼": 6280,
      "éŁµ": 6281,
      "åŃ¸ç³»": 6282,
      "æģĨæĺŁ": 6283,
      "çļĦéĹľä¿Ĥ": 6284,
      "ree": 6285,
      "éĺ»æŃ¢": 6286,
      "åŁİéķĩ": 6287,
      "row": 6288,
      "æĭ¿çł´": 6289,
      "ä¸įæ»¿": 6290,
      "ĠCol": 6291,
      "æ©ŁåĻ¨": 6292,
      "éľŀ": 6293,
      "æĺİæĺ¾": 6294,
      "èĩ³æĸ¼": 6295,
      "èµĽåŃ£": 6296,
      "æŀ¢": 6297,
      "è¨ŃåĤĻ": 6298,
      "æĹ¥æľ¬çļĦ": 6299,
      "è³¦": 6300,
      "æŃ¤å¾Į": 6301,
      "æĽ´æĸ°": 6302,
      "ĊĠĠĠĠ": 6303,
      "åŃ¸æľĥ": 6304,
      "æĺŃåĴĮ": 6305,
      "æķĻå£«": 6306,
      "ç©įæ¥µ": 6307,
      "rap": 6308,
      "ç¥ł": 6309,
      "å¸Ĥéķ·": 6310,
      "éĿĴå²Ľ": 6311,
      "é³´": 6312,
      "è©¢": 6313,
      "å°¿": 6314,
      "åľ¨åĮĹäº¬": 6315,
      "å§ľ": 6316,
      "äºĭåĬ¡": 6317,
      "æŀ¶æ§ĭ": 6318,
      "EE": 6319,
      "æĽī": 6320,
      "Ġå¹´": 6321,
      "å»ºäºİ": 6322,
      "åħ¶é¤ĺ": 6323,
      "ef": 6324,
      "åĮĹå®ĭ": 6325,
      "èĥ¡åĲĮ": 6326,
      "ult": 6327,
      "81": 6328,
      "org": 6329,
      "åĩłä¸ª": 6330,
      "ĠPh": 6331,
      "åĪĽéĢł": 6332,
      "æ¸ħä»£": 6333,
      "éŃģ": 6334,
      "é¾ľ": 6335,
      "ier": 6336,
      "åľ¨ä¸Ģèµ·": 6337,
      "æŃ¦è£ħ": 6338,
      "çĽ¸åıį": 6339,
      "æŃ·åı²ä¸Ĭ": 6340,
      "å¤ĸåľĭ": 6341,
      "èĢĥæħ®": 6342,
      "åĤ³æĴŃ": 6343,
      "é¦¬ä¾Ĩè¥¿äºŀ": 6344,
      "åĨĪ": 6345,
      "ç«ĭæĸ¹": 6346,
      "ç¿Į": 6347,
      "è¯´æ³ķ": 6348,
      "è¦ıåīĩ": 6349,
      "æĸ¯æĭīå¤«": 6350,
      "ä¸Ĭå¸Ĥ": 6351,
      "æ¢¨": 6352,
      "ç«Ł": 6353,
      "å¾·çļĦ": 6354,
      "ç¬¬ä¸Ģä½į": 6355,
      "å½»": 6356,
      "åĪ°çļĦ": 6357,
      "é¾Ĳ": 6358,
      "çĽ¸åĲĮçļĦ": 6359,
      "ä¾Ŀæĵļ": 6360,
      "åıĳæĺİ": 6361,
      "å½¢å®¹": 6362,
      "Ġéĺ¿": 6363,
      "ãĥ«": 6364,
      "ä¸´æĹ¶": 6365,
      "åĴĸåķ¡": 6366,
      "è´¤": 6367,
      "ç¤¾åįĢ": 6368,
      "éħ·": 6369,
      "ãĢĤâĢľ": 6370,
      "è³ľ": 6371,
      "åħĥæľĿ": 6372,
      "èİ·å¾ĹäºĨ": 6373,
      "land": 6374,
      "è»Ĭè¼Ľ": 6375,
      "CO": 6376,
      "åŁĭ": 6377,
      "æ¼¢èªŀ": 6378,
      "æľĢå¾Įä¸Ģ": 6379,
      "æ¸¯åħĥ": 6380,
      "æĦıèŃĺ": 6381,
      "åķĨåł´": 6382,
      "çĨ±å¸¶": 6383,
      "éī´": 6384,
      "è§Ģçľ¾": 6385,
      "ä»ĭç´¹": 6386,
      "éļİç´ļ": 6387,
      "æĦıç¾©": 6388,
      "ç§ĺæĽ¸": 6389,
      "å£ĵåĬĽ": 6390,
      "å¢ĥåħ§": 6391,
      "å®£è¨Ģ": 6392,
      "çģ¯": 6393,
      "åı¤èĢģ": 6394,
      "æĬµæĬĹ": 6395,
      "ç©Į": 6396,
      "æĸ°æķĻ": 6397,
      "ä½Ĩä»ĸ": 6398,
      "æ°Ķæ¸©": 6399,
      "èĪªçıŃ": 6400,
      "èģ²éŁ³": 6401,
      "æİĴè¡Į": 6402,
      "å¿Ļ": 6403,
      "CC": 6404,
      "ä¼łæĴŃ": 6405,
      "91": 6406,
      "è®®éĻ¢": 6407,
      "è¿ĲåĬ¨åĳĺ": 6408,
      "éĽħåħ¸": 6409,
      "è´Ī": 6410,
      "éģ¸åįĢ": 6411,
      "è¯ŀ": 6412,
      "çĻ»åł´": 6413,
      "çĮ©": 6414,
      "Ġ2006": 6415,
      "èĢ¶ç©Į": 6416,
      "èī¦éļĬ": 6417,
      "åīª": 6418,
      "å¤ļäºº": 6419,
      "ç°¡åĸ®": 6420,
      "å¤ł": 6421,
      "åĬłä»¥": 6422,
      "æľīèĳĹ": 6423,
      "æ³ķåħ°": 6424,
      "å¹´æĻĤ": 6425,
      "åĨľæ°ĳ": 6426,
      "è©¦åľĸ": 6427,
      "æ°ĳéĹ´": 6428,
      "åĳ¨æģ©": 6429,
      "å·²çŁ¥": 6430,
      "éķ¿çļĦ": 6431,
      "æıĲåıĬ": 6432,
      "è¤ĩéĽľ": 6433,
      "ä»¥åįĹ": 6434,
      "åĨ²çªģ": 6435,
      "å¸ĸ": 6436,
      "èĦĪ": 6437,
      "éĻ·åħ¥": 6438,
      "åĸ®æĽ²": 6439,
      "æļ´åĬĽ": 6440,
      "one": 6441,
      "Ġat": 6442,
      "IT": 6443,
      "çĲª": 6444,
      "æıĲåĩºäºĨ": 6445,
      "åĲı": 6446,
      "èĻ¹": 6447,
      "çļĦæ¦Ĥå¿µ": 6448,
      "çĽľ": 6449,
      "éĻ¢éķ·": 6450,
      "éĻĦè¿ĳçļĦ": 6451,
      "æĸĩçī©ä¿ĿæĬ¤": 6452,
      "ç«ĭæ³ķæľĥ": 6453,
      "åıĪåĲį": 6454,
      "ä¸Ģå¸¦": 6455,
      "æ³ķåºŃ": 6456,
      "ä¿ĿéĻ©": 6457,
      "éĬĺ": 6458,
      "ãĤ¹": 6459,
      "æŀĦæĪĲ": 6460,
      "use": 6461,
      "è¯Ħè®º": 6462,
      "åĮĹæµ·": 6463,
      "çŃĸçķ¥": 6464,
      "ica": 6465,
      "æĭĸ": 6466,
      "æĶ¿æ²»å®¶": 6467,
      "éģĵæķĻ": 6468,
      "æĵħ": 6469,
      "æĹ¥å¸¸": 6470,
      "å¥§åľ°åĪ©": 6471,
      "ee": 6472,
      "æ¸ł": 6473,
      "åľ°è´¨": 6474,
      "çĻ¼åĶ®": 6475,
      "æŃ¥åħµ": 6476,
      "çļĦæľĢ": 6477,
      "éĺ®": 6478,
      "Ġ2004": 6479,
      "äº¬éĥ½": 6480,
      "åħ¬å¼ı": 6481,
      "æĶ¯ä»ĺ": 6482,
      "æ¸¬è©¦": 6483,
      "åĽ½æ°ĳåħļ": 6484,
      "ä¸įè¦ģ": 6485,
      "å¸Įçī¹åĭĴ": 6486,
      "å¤±è´¥": 6487,
      "åİĺ": 6488,
      "é¢Ĺ": 6489,
      "å¥¥åľ°åĪ©": 6490,
      "ï¼İ": 6491,
      "ä¸įä¼ļ": 6492,
      "èĲ¨åħĭ": 6493,
      "æĸĩéĿ©": 6494,
      "è¾Ł": 6495,
      "åħ¨ä¸ĸçķĮ": 6496,
      "çĳľ": 6497,
      "çļĦä¸Ģç§į": 6498,
      "å¾ĹåĪ°äºĨ": 6499,
      "æīĢåľ¨åľ°": 6500,
      "å¾Īå°ĳ": 6501,
      "åĻ´": 6502,
      "ĠCl": 6503,
      "æ¡Īä»¶": 6504,
      "åħ¬çľ¾": 6505,
      "æĺĩ": 6506,
      "LE": 6507,
      "å¥İ": 6508,
      "iss": 6509,
      "æŃ»å¾Į": 6510,
      "å½°åĮĸ": 6511,
      "å®Ľ": 6512,
      "æł¹æľ¬": 6513,
      "é¨İå£«": 6514,
      "èºį": 6515,
      "æĬ«": 6516,
      "è¾ī": 6517,
      "åħ©å²¸": 6518,
      "è¥¿éĩĮ": 6519,
      "éĢĢä¼ĳ": 6520,
      "èĭ¯": 6521,
      "æ½Ķ": 6522,
      "è¯ļ": 6523,
      "ç¦ª": 6524,
      "1929": 6525,
      "æĸ¯å¤§": 6526,
      "æ¡Į": 6527,
      "éĨ«çĻĤ": 6528,
      "Ġ*": 6529,
      "é·¹": 6530,
      "tp": 6531,
      "åĨķ": 6532,
      "èĩªæĪĳ": 6533,
      "ç»ıåİĨ": 6534,
      "ä¸ĵå®¶": 6535,
      "ä¿±ä¹Ĳéĥ¨": 6536,
      "ä¸īåĽ½": 6537,
      "åľ¨éĤ£": 6538,
      "å¼·çĥĪ": 6539,
      "æīĺåĭĴ": 6540,
      "å¯ĵ": 6541,
      "æģĭ": 6542,
      "å°ıåŀĭ": 6543,
      "å¤§åŃ¸æł¡åıĭ": 6544,
      "æ¾Ħ": 6545,
      "Cl": 6546,
      "èĳµ": 6547,
      "å¤©åłĤ": 6548,
      "ĠCon": 6549,
      "å®´": 6550,
      "ä»£çłģ": 6551,
      "å¤ªéĥİ": 6552,
      "arl": 6553,
      "1912": 6554,
      "å¹¿è¥¿": 6555,
      "çļĦéĥ¨åĪĨ": 6556,
      "çĽĪ": 6557,
      "èµĭ": 6558,
      "éĻķè¥¿": 6559,
      "æĦıè¯Ĩ": 6560,
      "çłĶç©¶ä¸Ńå¿ĥ": 6561,
      "ä¸Ģç³»åĪĹ": 6562,
      "å°ĩæľĥ": 6563,
      "çĵ·": 6564,
      "Ġ16": 6565,
      "æİ¨ç¿»": 6566,
      "æĹ©åľ¨": 6567,
      "åį«çĶŁ": 6568,
      "å«Į": 6569,
      "çĤºæŃ¢": 6570,
      "éľ§": 6571,
      "é¢ĨåľŁ": 6572,
      "åıĮæĸ¹": 6573,
      "å±±èĦī": 6574,
      "æīĢè¬Ĥ": 6575,
      "æ¯ıæĹ¥": 6576,
      "å¨ĥ": 6577,
      "åĪĨä¹ĭä¸Ģ": 6578,
      "é«ĺæł¡": 6579,
      "å¥³æŃĮæīĭ": 6580,
      "å·²è¢«": 6581,
      "èķĥ": 6582,
      "ĠSch": 6583,
      "è¾ĸåĮº": 6584,
      "çĲĥåŃ£": 6585,
      "èĢĥèĻĳ": 6586,
      "ä¸ĵè¾ĳ": 6587,
      "èŃ¦æĸ¹": 6588,
      "Qu": 6589,
      "çī²": 6590,
      "åħ¥åı£": 6591,
      "ä¼°è¨Ī": 6592,
      "ãĢĤï¼ī": 6593,
      "çĶŁæĢģ": 6594,
      "æİ¥è§¸": 6595,
      "ood": 6596,
      "çĶľ": 6597,
      "ix": 6598,
      "å¸½": 6599,
      "èĸª": 6600,
      "è¯ķéªĮ": 6601,
      "çķ¶å¹´": 6602,
      "åĦĢå¼ı": 6603,
      "ä¸ľæĸ¹": 6604,
      "å¥¥è¿Ĳ": 6605,
      "gcolor": 6606,
      "âĢ§": 6607,
      "æ®·": 6608,
      "yst": 6609,
      "ä¹Ŀå¹´": 6610,
      "æĿĥåĪ©": 6611,
      "ãĢĭãĢĬ": 6612,
      "å½±åĥı": 6613,
      "åı«åģļ": 6614,
      "èĺĭ": 6615,
      "æİ¡åıĸ": 6616,
      "åĭĭç«ł": 6617,
      "ä½¿åħ¶": 6618,
      "ata": 6619,
      "æ´Ľåħĭ": 6620,
      "å¾ĹåĲį": 6621,
      "Ġ2003": 6622,
      "ple": 6623,
      "æ¬½": 6624,
      "åĪ°éģĶ": 6625,
      "åŃ¦ä¼ļ": 6626,
      "åĬłå·¥": 6627,
      "èī²å½©": 6628,
      "è«ĸæĸĩ": 6629,
      "IA": 6630,
      "éĻª": 6631,
      "æĶ¶è³¼": 6632,
      "åİŁåīĩ": 6633,
      "çĥ¯": 6634,
      "åħ«å¹´": 6635,
      "ä»¤äºº": 6636,
      "åħģè¨±": 6637,
      "å´Ļ": 6638,
      "ä¸Īå¤«": 6639,
      "08": 6640,
      "äººæĸĩ": 6641,
      "çī©ç¨®": 6642,
      "æĪĺçķ¥": 6643,
      "åįĹå®ĭ": 6644,
      "åĸĩ": 6645,
      "æīĵæĵĬ": 6646,
      "åĬŀäºĭ": 6647,
      "ç¾İè»į": 6648,
      "å¾ŀäºĭ": 6649,
      "Ġ2000": 6650,
      "åŃĺåľ¨çļĦ": 6651,
      "åĮĹæ´ĭ": 6652,
      "æ¯ıå¤©": 6653,
      "èŀįåĲĪ": 6654,
      "è§Ģåħī": 6655,
      "å°ıå¹³": 6656,
      "çī¹æĢ§": 6657,
      "ä»Ģéº¼": 6658,
      "æĭ¼éŁ³": 6659,
      "åŃ¸ä½į": 6660,
      "è´¡çĮ®": 6661,
      "çķĮçļĦ": 6662,
      "æł¼çļĦ": 6663,
      "å°¹": 6664,
      "åľ°åĲį": 6665,
      "çĲĨçĶ±": 6666,
      "å°±æľī": 6667,
      "æĽ´æĺ¯": 6668,
      "çģ«æĺŁ": 6669,
      "åı¯èĥ½æľĥ": 6670,
      "åĭķä½ľ": 6671,
      "èŃļ": 6672,
      "åĩºåĶ®": 6673,
      "åĮĹå¹³": 6674,
      "å°ıçµĦ": 6675,
      "ç·ļçļĦ": 6676,
      "æĸĩçī©ä¿ĿæĬ¤åįķä½į": 6677,
      "ãĢĭ(": 6678,
      "Ġ15": 6679,
      "ä¸Ĭä¸ĭ": 6680,
      "è¿ĩåİ»": 6681,
      "æĻºæħ§": 6682,
      "çī¹éĩĮ": 6683,
      "èĬ±èĵ®": 6684,
      "éĢĲæŃ¥": 6685,
      "è¨º": 6686,
      "æł¼æĭī": 6687,
      "åĽ½å®¶çļĦ": 6688,
      "åĶ¯ä¸ĢçļĦ": 6689,
      "åıĹæŃ¡è¿İ": 6690,
      "åĺĹ": 6691,
      "æªĶæ¡Ī": 6692,
      "æ´ĽæĿī": 6693,
      "æĶĿå½±": 6694,
      "è²¢çį»": 6695,
      "èĲ½æĪĲ": 6696,
      "å½¢æĪĲäºĨ": 6697,
      "æĦıå¤ĸ": 6698,
      "éĢ²æŃ¥": 6699,
      "ç¹«": 6700,
      "åĲĦåľĭ": 6701,
      "åľ¨ç¾İåĽ½": 6702,
      "æģ¨": 6703,
      "æģ°": 6704,
      "æ¨ŀ": 6705,
      "å®ĺæĸ¹ç¶²ç«Ļ": 6706,
      "æķĻå¸Ī": 6707,
      "ä¸»å¼ł": 6708,
      "å¹´åĴĮ": 6709,
      "ä¸Ģè©ŀ": 6710,
      "ä»¥åĮĹ": 6711,
      "æķ¸ä½į": 6712,
      "ame": 6713,
      "ï¼Īï¼Įï¼īï¼Į": 6714,
      "ĠPl": 6715,
      "æĶ¾åľ¨": 6716,
      "çĻ¾å¹´": 6717,
      "åĲīæŀĹ": 6718,
      "ç§©": 6719,
      "è¢«è¦ĸçĤº": 6720,
      "è³½åŃ£": 6721,
      "çī¹å¾µ": 6722,
      "èĮħ": 6723,
      "æł¹å»·": 6724,
      "åĩ°": 6725,
      "è¯¦": 6726,
      "ä¸Ĭæµ·å¸Ĥ": 6727,
      "æĹ©æľŁçļĦ": 6728,
      "åĳ½åĲįçĤº": 6729,
      "åĮĪå¥´": 6730,
      "å¤§åħ¬": 6731,
      "åĢĻéģ¸": 6732,
      "æ¾³å¤§åĪ©äºļ": 6733,
      "åıĻ": 6734,
      "æ½¤": 6735,
      "ĊĠĠĠ": 6736,
      "éģŀ": 6737,
      "å¸ĥæĸ¯": 6738,
      "å½¥": 6739,
      "æĮĩä»¤": 6740,
      "æĶ¹åĲį": 6741,
      "éĪ´": 6742,
      "ton": 6743,
      "çİĭä½į": 6744,
      "æĪ°åľĭ": 6745,
      "æµģåŁŁ": 6746,
      "èº«åĪĨ": 6747,
      "éĩĩåıĸ": 6748,
      "ç¢¼éłŃ": 6749,
      "çĤºä¸Ģ": 6750,
      "åĪĨæł¡": 6751,
      "åºĩ": 6752,
      "ä¹ĭåľ°": 6753,
      "çĩĥæĸĻ": 6754,
      "å¹¿ä¸ľçľģ": 6755,
      "æķĻåŃ¸": 6756,
      "æ¶¼": 6757,
      "é¾Ļæ±Ł": 6758,
      "èį£èªī": 6759,
      "æ·¨": 6760,
      "éĳĳ": 6761,
      "åį±æ©Ł": 6762,
      "700": 6763,
      "æľĪçĲĥ": 6764,
      "èĤ¡ä»½æľīéĻĲåħ¬åı¸": 6765,
      "çļĦéĩį": 6766,
      "å¨ģèĦħ": 6767,
      "åħĭæŀĹ": 6768,
      "æīĺåĭĴå¯Ĩ": 6769,
      "ele": 6770,
      "åº¸": 6771,
      "ä»£æĽ¿": 6772,
      "çĻ¾åĪĨ": 6773,
      "éĽĮ": 6774,
      "èĢĥè©¦": 6775,
      "ail": 6776,
      "éĢļè¨Ĭ": 6777,
      "çķĻåľ¨": 6778,
      "ç¶ĵé©Ĺ": 6779,
      "å¤§éĺª": 6780,
      "èĪªç©ºåħ¬åı¸": 6781,
      "è¹Ī": 6782,
      "åį¡æĭī": 6783,
      "åŁºéĩĳæľĥ": 6784,
      "ä¸ĵéĹ¨": 6785,
      "å¼ķåıĳ": 6786,
      "å¦ĸ": 6787,
      "éĸĥ": 6788,
      "åħ¬ç¤¾": 6789,
      "ä¸ļåĬ¡": 6790,
      "èģ²åĦª": 6791,
      "ç§ĳåŃ¸å®¶": 6792,
      "èĺĩæł¼èĺŃ": 6793,
      "ç¼ĸè¾ĳ": 6794,
      "Ġå°ı": 6795,
      "çļĦåľĭå®¶": 6796,
      "èĪĮ": 6797,
      "èĩªåĬ¨": 6798,
      "é¦Ļæ¸¯çļĦ": 6799,
      "çİĭå®¤": 6800,
      "æı´åĬ©": 6801,
      "æĪ¿å±ĭ": 6802,
      "çŃ¾ç½²": 6803,
      "æĿ±äºŀ": 6804,
      "åŃĹç¬¦": 6805,
      "æĪĲä¸ºäºĨ": 6806,
      "çľł": 6807,
      "èĻķæĸ¼": 6808,
      "å¸ĤæĶ¿": 6809,
      "èıĬ": 6810,
      "è¼ĥçĤº": 6811,
      "èŃīæĵļ": 6812,
      "éĩĳçīĮ": 6813,
      "çĻ¾å§ĵ": 6814,
      "ĠBr": 6815,
      "unt": 6816,
      "04": 6817,
      "å»¢éĻ¤": 6818,
      "è¶¨": 6819,
      "æŁ¬": 6820,
      "å¾ĭå¸«": 6821,
      "ick": 6822,
      "å¹ķåºľ": 6823,
      "æ¼ı": 6824,
      "åįģæľĪ": 6825,
      "ç¥ĸçĪ¶": 6826,
      "å¯¦è¡Į": 6827,
      "åĪºæ¿Ģ": 6828,
      "åħĥéŁ³": 6829,
      "èķ¾": 6830,
      "èĺĭæŀľ": 6831,
      "ä¸»ç¾©èĢħ": 6832,
      "äººæīį": 6833,
      "å½ĵæĹ¶çļĦ": 6834,
      "æĶ¶èĹı": 6835,
      "åĪĻæĺ¯": 6836,
      "æİĴåĪĹ": 6837,
      "åŁºéļĨ": 6838,
      "å¯¹å¤ĸ": 6839,
      "çĮľ": 6840,
      "åĬ±": 6841,
      "æľĢå¤ļçļĦ": 6842,
      "å¤©ä½¿": 6843,
      "é¡ŀåŀĭ": 6844,
      "ç²¤": 6845,
      "æ±Ģ": 6846,
      "çĻ¼èµ·": 6847,
      "isc": 6848,
      "çĤŃ": 6849,
      "ä¿¡å¾Ĵ": 6850,
      "å±ıæĿ±": 6851,
      "ãĢįï¼Ľ": 6852,
      "åĲĦåĽ½": 6853,
      "èª¿æķ´": 6854,
      "éĽ»è©±": 6855,
      "IV": 6856,
      "1918": 6857,
      "Ġé«ĺ": 6858,
      "åĲ§": 6859,
      "ç¾İè¡ĵ": 6860,
      "old": 6861,
      "åľŃ": 6862,
      "äººæŃ»äº¡": 6863,
      "å§¿": 6864,
      "ä»»æĦı": 6865,
      "æĬĦ": 6866,
      "...": 6867,
      "æĭĺ": 6868,
      "ç¦¦": 6869,
      "åĪĨåĪ¥çĤº": 6870,
      "å°¼åħĭ": 6871,
      "æĳ§": 6872,
      "æĪĲåĪĨ": 6873,
      "æķĻç·´": 6874,
      "æ»ĭ": 6875,
      "æĪ²åĬĩ": 6876,
      "åħ½": 6877,
      "å¹´å»ºç«ĭçļĦ": 6878,
      "çĮİ": 6879,
      "å£¯": 6880,
      "å¥³åħĴ": 6881,
      "éĻ¸çºĮ": 6882,
      "ä¾Ŀçħ§": 6883,
      "å¾©èĪĪ": 6884,
      "å±±èĦĪ": 6885,
      "åİ¿çº§": 6886,
      "åı¬éĸĭ": 6887,
      "æīĵçł´": 6888,
      "ç§»åĬ¨": 6889,
      "æ¶¦": 6890,
      "ç¡ķ": 6891,
      "æľŃ": 6892,
      "æľ¬ç§ĳ": 6893,
      "éĺ¿æł¹å»·": 6894,
      "è¯ºè´Ŀå°Ķ": 6895,
      "å¤§çľ¾": 6896,
      "å¾·æĭī": 6897,
      "è±¬": 6898,
      "åıĭå¥½": 6899,
      "çĲĥæľĥ": 6900,
      "ict": 6901,
      "é»ĥéĩĳ": 6902,
      "çµ¦äºĪ": 6903,
      "åı°åĮĹå¸Ĥ": 6904,
      "Î±": 6905,
      "å¯Įå£«": 6906,
      "å¤ļæķ°": 6907,
      "æĮģæľī": 6908,
      "èĴ²": 6909,
      "èĤħ": 6910,
      "ä¿ĦåĽ½": 6911,
      "ä½įç´ł": 6912,
      "ç§ĺä¹¦": 6913,
      "éĢĴ": 6914,
      "1919": 6915,
      "é«ĺåİŁ": 6916,
      "è¼»": 6917,
      "Ar": 6918,
      "è¿Ŀ": 6919,
      "çħĮ": 6920,
      "çļĦåķıé¡Į": 6921,
      "çļĦè§Ĵèī²": 6922,
      "æ°¸ä¹ħ": 6923,
      "Ġä¸ī": 6924,
      "å¹¶äºİ": 6925,
      "éĺ³å¸Ĥ": 6926,
      "å½¢æĪĲçļĦ": 6927,
      "åħįè²»": 6928,
      "å¤§æ¡¥": 6929,
      "æīĵç®Ĺ": 6930,
      "åįĹæµ·": 6931,
      "http": 6932,
      "åľĭèªŀ": 6933,
      "ç©ºåĨĽ": 6934,
      "://": 6935,
      "åĬłåĪ©": 6936,
      "åľ¨è¥¿": 6937,
      "æĢ§åĪ¥": 6938,
      "æĥľ": 6939,
      "åħĥé¦ĸ": 6940,
      "ä¸įæĺİ": 6941,
      "äºĭå®ŀ": 6942,
      "ä¼¼ä¹İ": 6943,
      "æĹ¶æľŁçļĦ": 6944,
      "æĬĵ": 6945,
      "ä¸ŃåĽ½çļĦ": 6946,
      "åį¸": 6947,
      "èĬĴ": 6948,
      "èº«äº¡": 6949,
      "åĽĽä¸ª": 6950,
      "è·ĥ": 6951,
      "å§Ķä¹¦è®°": 6952,
      "æĭĨéĻ¤": 6953,
      "ä¸Ģäºº": 6954,
      "ç³»çļĦ": 6955,
      "ä¸Ģéĥ¨åĪĨ": 6956,
      "ä¸Ģçº§": 6957,
      "äºĶæľĪ": 6958,
      "åľĭéļĽæ©Łåł´": 6959,
      "Ð°": 6960,
      "å°įæĬĹ": 6961,
      "å¹¶æ²¡æľī": 6962,
      "è³ĩæľ¬": 6963,
      "ä¼łè¯´": 6964,
      "åı¦ä¸ĢåĢĭ": 6965,
      "ä»įæľī": 6966,
      "åģļåĩº": 6967,
      "ç´ħèī²": 6968,
      "1914": 6969,
      "è²¼": 6970,
      "1925": 6971,
      "å¼ĹéĩĮ": 6972,
      "åĪĨéĴŁ": 6973,
      "å¤ªå®Ĺ": 6974,
      "èįĥ": 6975,
      "æĪĲçĨŁ": 6976,
      "è¾©": 6977,
      "åħ¶ä¸ŃåĮħæĭ¬": 6978,
      "å®¶äºº": 6979,
      "è§Ĩä¸º": 6980,
      "å¯ĨåĪĩ": 6981,
      "åĪĽåĬŀ": 6982,
      "é§ķé§Ľ": 6983,
      "å¹³æ°ĳ": 6984,
      "orn": 6985,
      "æİł": 6986,
      "è´µæĹı": 6987,
      "è¨»éĩĭ": 6988,
      "çİĩéłĺ": 6989,
      "é«ĺéĽĦå¸Ĥ": 6990,
      "è¸ı": 6991,
      "è¶ħè¶Ĭ": 6992,
      "è±¡å¾ģ": 6993,
      "åĽ¢ä½ĵ": 6994,
      "æĻĤæľŁçļĦ": 6995,
      "åŁ·æĶ¿": 6996,
      "æī£": 6997,
      "çĶŁæĸ¼": 6998,
      "éĻĦå±ŀ": 6999,
      "è§Ĥå¯Ł": 7000,
      "07": 7001,
      "èģ·æ£Ĵ": 7002,
      "å±ħä½ıåľ¨": 7003,
      "å¤ªç¥ĸ": 7004,
      "ç®¡åĪ¶": 7005,
      "èªªæĺİ": 7006,
      "èģĮåĬ¡": 7007,
      "è¼¸åħ¥": 7008,
      "çļĦä½įç½®": 7009,
      "éģİç¨ĭä¸Ń": 7010,
      "æ±Ŀ": 7011,
      "å··": 7012,
      "åĨĢ": 7013,
      "åĲįåĸ®": 7014,
      "DP": 7015,
      "æİĥ": 7016,
      "åĲĮå¿Ĺ": 7017,
      "æķĪçİĩ": 7018,
      "ä»ĳ": 7019,
      "ç»ıèĲ¥": 7020,
      "å·¨å¤§çļĦ": 7021,
      "ç´ĭ": 7022,
      "æĽ´å¤ļçļĦ": 7023,
      "é¡§åķı": 7024,
      "1922": 7025,
      "åħĭåħ°": 7026,
      "ä»ĭçŁ³": 7027,
      "åĭŁ": 7028,
      "æĤŁ": 7029,
      "è®Ńç»ĥ": 7030,
      "èģ²æĺİ": 7031,
      "åł¤": 7032,
      "éĽ£ä»¥": 7033,
      "åħĭèĺŃ": 7034,
      "éķ·åŃĲ": 7035,
      "é£ŁçĶ¨": 7036,
      "Ġ2007": 7037,
      "çļĦæŃ£": 7038,
      "çļĦæīĢæľī": 7039,
      "è®ļ": 7040,
      "ĠEd": 7041,
      "æ¸¬éĩı": 7042,
      "æ¡Ĩ": 7043,
      "äºĮæ¬¡": 7044,
      "DNA": 7045,
      "åĭ¸": 7046,
      "å°±è®Ģ": 7047,
      "æĶ¾å°Ħ": 7048,
      "éĳ½": 7049,
      "æ©Łåĭķ": 7050,
      "çļĦåŁİå¸Ĥ": 7051,
      "ç¦ıåĪ©": 7052,
      "éĸ±è®Ģ": 7053,
      "eng": 7054,
      "éĹľæ³¨": 7055,
      "è²©": 7056,
      "æ¨Ĥå£ĩ": 7057,
      "çĲĨæŁ¥": 7058,
      "ç£·": 7059,
      "ç»Ħå»º": 7060,
      "çļĦä¸Ģç¨®": 7061,
      "TS": 7062,
      "æľªæľī": 7063,
      "å¡ŀçĪ¾": 7064,
      "åĬłæĭī": 7065,
      "èµı": 7066,
      "è«¾è²ĿçĪ¾": 7067,
      "æ®¼": 7068,
      "è®Ĭå¾Ĺ": 7069,
      "å¹´é¦Ļæ¸¯": 7070,
      "05": 7071,
      "ä¿ĿåĬł": 7072,
      "èĥģ": 7073,
      "é½Ĵ": 7074,
      "å¼Łå¼Ł": 7075,
      "æī©å¤§": 7076,
      "å¯ĩ": 7077,
      "ç¶Ńäºŀ": 7078,
      "åĦĦç¾İåħĥ": 7079,
      "çŁ®": 7080,
      "èħ¿": 7081,
      "æµ·å³½": 7082,
      "å¼¥": 7083,
      "æľīçĿĢ": 7084,
      "æħ°": 7085,
      "ç¢°": 7086,
      "çīł": 7087,
      "æµ·ä¸Ĭ": 7088,
      "ç»ĵå©ļ": 7089,
      "æĸ°åĮĹå¸Ĥ": 7090,
      "å¹´å¼Ģå§ĭ": 7091,
      "æ§ĭæĪĲ": 7092,
      "è´§å¸ģ": 7093,
      "æĬµéģĶ": 7094,
      "åħ¬ç½²": 7095,
      "éĥ½è¢«": 7096,
      "æĿ±åįĢ": 7097,
      "1924": 7098,
      "éłĹ": 7099,
      "å°±æľĥ": 7100,
      "åĽļ": 7101,
      "åĬłåĵ¥": 7102,
      "åį¡æĸ¯": 7103,
      "çĶµåı°": 7104,
      "ç¼ħ": 7105,
      "ron": 7106,
      "æ²»çĸĹ": 7107,
      "æ»¡è¶³": 7108,
      "èĬĿåĬłåĵ¥": 7109,
      "é¡ĮæĿĲ": 7110,
      "æĢİ": 7111,
      "åĥļ": 7112,
      "à¸": 7113,
      "åĽĽåĢĭ": 7114,
      "èĪĩåħ¶ä»ĸ": 7115,
      "ç¥ŀè©±": 7116,
      "èĬ±åľĴ": 7117,
      "åĲĪåĶ±": 7118,
      "å¼ĹæľĹ": 7119,
      "åľ°éĲµ": 7120,
      "æĽ´åĲįä¸º": 7121,
      "èģļéĽĨ": 7122,
      "ãĤ¤": 7123,
      "çĶŁçĲĨ": 7124,
      "ä¸ĭä¸Ģ": 7125,
      "ç½Ĺé©¬å¸ĿåĽ½": 7126,
      "å¤§è§Ħæ¨¡": 7127,
      "å°ĪéĸĢ": 7128,
      "æĵ´å¤§": 7129,
      ")ï¼ļ": 7130,
      "çĵ¶": 7131,
      "æ±°": 7132,
      "æĮĸ": 7133,
      "è´º": 7134,
      "ç»´äºļ": 7135,
      "çī©ç§į": 7136,
      "åĭ³ç«ł": 7137,
      "çļĦå¤ļ": 7138,
      "æ°®": 7139,
      "äºĶåįģ": 7140,
      "å¨¶": 7141,
      "éģ¸æīĭ": 7142,
      "è²§": 7143,
      "ç·¬": 7144,
      "æĺİæĺŁ": 7145,
      "å¤§æī¹": 7146,
      "çĶŁæħĭ": 7147,
      "åŁİçļĦ": 7148,
      "æ¿ĢçĥĪ": 7149,
      "ç°½ç½²": 7150,
      "å®¶ä¸Ń": 7151,
      "èĤĿ": 7152,
      "æī©å±ķ": 7153,
      "æľĢéĩįè¦ģçļĦ": 7154,
      "äºĭä¸ļ": 7155,
      "CP": 7156,
      "èħ¾": 7157,
      "å¤¸": 7158,
      "ä¸Ńåľĭåħ±çĶ¢é»¨": 7159,
      "ä»İäºĭ": 7160,
      "éĺ³åİ¿": 7161,
      "å¯Įæ±Ĺ": 7162,
      "æ°ĳä¸»åħļ": 7163,
      "åı¸ä»¤éĥ¨": 7164,
      "ç°½è¨Ĥ": 7165,
      "æł¡åľĴ": 7166,
      "GB": 7167,
      "Pl": 7168,
      "ç©ºæ°Ķ": 7169,
      "éĶĻè¯¯": 7170,
      "æ¢Ŀä¾ĭ": 7171,
      "éĮ¯èª¤": 7172,
      "åĪĨæĪĲ": 7173,
      "æĹ¶çļĦ": 7174,
      "å¹´ä¸Ń": 7175,
      "1926": 7176,
      "ä¸»åĬĽ": 7177,
      "å²ģçļĦ": 7178,
      "ology": 7179,
      "å¸Ĥä¸Ńå¿ĥ": 7180,
      "å¯¦çı¾": 7181,
      "å»ºç¯īçī©": 7182,
      "ä¹ĭæĪĺ": 7183,
      "åŃ¸çļĦ": 7184,
      "äºĶä¸ĸ": 7185,
      "èĪ°éĺŁ": 7186,
      "è¾½å®ģ": 7187,
      "au": 7188,
      "ech": 7189,
      "åĶĲä»£": 7190,
      "éĻįæ°´": 7191,
      "NHK": 7192,
      "yn": 7193,
      "è³¼è²·": 7194,
      "çķľ": 7195,
      "æĶ¿åħļ": 7196,
      "å¥³ç¥ŀ": 7197,
      "æ¨ĻèªĮ": 7198,
      "åľ¨æĸ¼": 7199,
      "æĥ¯": 7200,
      "ç§ĳåŃ¦å®¶": 7201,
      "çĥ·": 7202,
      "02": 7203,
      "åĬ¿åĬĽ": 7204,
      "çļĦåĽ½å®¶": 7205,
      "ä»ĵ": 7206,
      "æ³°åľĭ": 7207,
      "èĪŀè¹Ī": 7208,
      "rans": 7209,
      "éĢĢå½¹": 7210,
      "åĪĽå»º": 7211,
      "éĦ°è¿ĳ": 7212,
      "ru": 7213,
      "æ¸¸æ³³": 7214,
      "æĸ¯å¤§æŀĹ": 7215,
      "ç¥ĸåħĪ": 7216,
      "æĺİä»£": 7217,
      "Ġ-{": 7218,
      "ĠHist": 7219,
      "å´ĩæĭľ": 7220,
      "æľĥéķ·": 7221,
      "è¯Ĺäºº": 7222,
      "åºļ": 7223,
      "ç©´": 7224,
      "ä¸ĭäºĨ": 7225,
      "çµĤæĸ¼": 7226,
      "å°įè±¡": 7227,
      "ãĥĪ": 7228,
      "çĦļ": 7229,
      "åĩ»è´¥": 7230,
      "å±±åĮº": 7231,
      "åıĹåĤ·": 7232,
      "æľīä¸ī": 7233,
      "å¸¶ä¾Ĩ": 7234,
      "Ġ2008": 7235,
      "çķ¶å±Ģ": 7236,
      "åľĺéļĬ": 7237,
      "ä¼ª": 7238,
      "åı¯è¦ĭ": 7239,
      "ä½¿çĶ¨äºĨ": 7240,
      "åĢ¼å¾Ĺ": 7241,
      "æ±Łèĭıçľģ": 7242,
      "èĵ¬": 7243,
      "ä¼Ĺå¤ļ": 7244,
      "å°ĳæķ°æ°ĳæĹı": 7245,
      "110": 7246,
      "éĥģ": 7247,
      "æĭ±": 7248,
      "æİ©": 7249,
      "çº¹": 7250,
      "èİ²": 7251,
      "èªįèŃĺ": 7252,
      "åĭĴæĸ¯": 7253,
      "æĶ¶éĽĨ": 7254,
      "æµĵ": 7255,
      "åĪĨä½Ī": 7256,
      "èĩªæŃ¤": 7257,
      "èĩ³æŃ¤": 7258,
      "hem": 7259,
      ");": 7260,
      "çļĦä»£è¡¨": 7261,
      "æ¸©åº¦": 7262,
      "çļĦæĦıæĢĿ": 7263,
      "çĶŁäºİ": 7264,
      "åĬłéĢŁ": 7265,
      "ç¼ĸçłģ": 7266,
      "èİİçĻ½": 7267,
      "å¸ĥå°Ķ": 7268,
      "èı²å¾ĭè³ĵ": 7269,
      "ä¸įä»ħ": 7270,
      "éĤı": 7271,
      "çļĦçĶŁæ´»": 7272,
      "able": 7273,
      "å¹»æĥ³": 7274,
      "åĩĢ": 7275,
      "çĶŁåŃĺ": 7276,
      "é¡ıèī²": 7277,
      "ĠEx": 7278,
      "ual": 7279,
      "ãĢĳ": 7280,
      "éĸĵçļĦ": 7281,
      "ãĢĲ": 7282,
      "åĽĬ": 7283,
      "åĬĩæĥħ": 7284,
      "åĥ¹æł¼": 7285,
      "æĺ¯çĤº": 7286,
      "æľĥåĵ¡": 7287,
      "å±±åľ°": 7288,
      "æ¡Ĳ": 7289,
      "æ«»": 7290,
      "åı°ä¸Ń": 7291,
      "ä¸¦å°ĩ": 7292,
      "ç®¡è½Ħ": 7293,
      "æĪĲç«ĭäºĨ": 7294,
      "ML": 7295,
      "å¤§å¤«": 7296,
      "æĿ±éĥ¨": 7297,
      "æĪĲçĤºäºĨ": 7298,
      "æıĲåĩºçļĦ": 7299,
      "èĦĬ": 7300,
      "çĶ¨ä»¥": 7301,
      "çĻ¼åĩº": 7302,
      "æŃ¦è£Ŀ": 7303,
      "03": 7304,
      "èĩŁ": 7305,
      "æ·µ": 7306,
      "é»ĳé¾Ļæ±Ł": 7307,
      "ä¸ĺéĻµ": 7308,
      "çĪ±å°Ķ": 7309,
      "ä¸§": 7310,
      "ç¦½": 7311,
      "ä¸ŃåľĭçļĦ": 7312,
      "å±į": 7313,
      "ç³§": 7314,
      "çı¾ä»»": 7315,
      "å³¡": 7316,
      "ç«ĭåł´": 7317,
      "åħ·ä½ĵ": 7318,
      "åĬŀäºĭå¤Ħ": 7319,
      "éĺ¿å¯Įæ±Ĺ": 7320,
      "ç½·": 7321,
      "æµ·åįĹ": 7322,
      "ç©ºæ°£": 7323,
      "æĪıåī§": 7324,
      "ll": 7325,
      "é¦ĸå¸Ń": 7326,
      "ç¥ŀç¶ĵ": 7327,
      "éĢłæĪĲçļĦ": 7328,
      "çĥŃå¸¦": 7329,
      "DVD": 7330,
      "ĠâĨĴ": 7331,
      "æĻ´": 7332,
      "éĢļçŁ¥": 7333,
      "è¦ĨçĽĸ": 7334,
      "1900": 7335,
      "å®ĭæľĿ": 7336,
      "è¿ĲåĬ¨ä¼ļ": 7337,
      "è²¨å¹£": 7338,
      "åĸ»": 7339,
      "ä¸»æµģ": 7340,
      "SA": 7341,
      "è¶ģ": 7342,
      "çĽ¸éĹľæ¢ĿçĽ®": 7343,
      "ï¼ļï¼ī": 7344,
      "ä¹ĭæĦı": 7345,
      "æ¸ħæ¥ļ": 7346,
      "ãĢĤãĢĮ": 7347,
      "éģ²": 7348,
      "çŁ¢": 7349,
      "ä¿Ŀç¾ħ": 7350,
      "å¨ģçĪ¾": 7351,
      "ä»¥çĤº": 7352,
      "ĠMar": 7353,
      "æĲŀ": 7354,
      "èº«ä¸Ĭ": 7355,
      "çŃ¾è®¢": 7356,
      "æ±ŁæĪ¶": 7357,
      "Ġal": 7358,
      "èĦī": 7359,
      "å¯¹åºĶ": 7360,
      "Ġfrom": 7361,
      "æĵ¦": 7362,
      "Ð¾": 7363,
      "å¸¶éłĺ": 7364,
      "å±±åįĢ": 7365,
      "ä¿±æ¨Ĥ": 7366,
      "åľ°é»ŀ": 7367,
      "ç¤¾åĮº": 7368,
      "ç²¾éĿĪ": 7369,
      "åŁ¹åħ»": 7370,
      "æĪļ": 7371,
      "1921": 7372,
      "åħĭéĩĮæĸ¯": 7373,
      "Ġ2002": 7374,
      "å¦¥": 7375,
      "è©Ķ": 7376,
      "å¤§æ©ĭ": 7377,
      "æĴ«": 7378,
      "ool": 7379,
      "09": 7380,
      "çļĦæĹ¥": 7381,
      "å¤©çİĭ": 7382,
      "äºļåİĨ": 7383,
      "èµ¢": 7384,
      "çĸĬ": 7385,
      "å®ľèĺŃ": 7386,
      "æĸ¬": 7387,
      "å·¥å»ł": 7388,
      "éģ®": 7389,
      "å§ĵæ°ı": 7390,
      "åħµåĬĽ": 7391,
      "ations": 7392,
      "Ġè¥¿": 7393,
      "åĩī": 7394,
      "æĮĤ": 7395,
      "çļĦæĥħæ³ģä¸ĭ": 7396,
      "å¤§å¸Ŀ": 7397,
      "åħ©èĢħ": 7398,
      "æĻ®åıĬ": 7399,
      "æł¼éĩĮ": 7400,
      "æĢ»çĿ£": 7401,
      "èµ°åĲĳ": 7402,
      "æĺĶ": 7403,
      "ç¯®": 7404,
      "çĮ´": 7405,
      "Ã¼": 7406,
      "å¢ŀåĬłäºĨ": 7407,
      "çĲĨå¿µ": 7408,
      "åŁİåł¡": 7409,
      "é©¾": 7410,
      "è±Ĳå¯Į": 7411,
      "éĮ¦æ¨Ļ": 7412,
      "åĸ·": 7413,
      "çĶ·å¥³": 7414,
      "è·ĭ": 7415,
      "å½¢çļĦ": 7416,
      "èªŀçļĦ": 7417,
      "ç´ĦçĤº": 7418,
      "æĶ»æīĵ": 7419,
      "æĮĳæĪ°": 7420,
      "èµĦäº§": 7421,
      "äºĨä»ĸ": 7422,
      "å°ıç»Ħ": 7423,
      "åį¡çĪ¾": 7424,
      "è¿½æ±Ĥ": 7425,
      "éĴĪå¯¹": 7426,
      "çļĦç¬¬": 7427,
      "äººæīĢ": 7428,
      "éĽĩ": 7429,
      "æĹ¥å¾Į": 7430,
      "å®¢è¿Ĳ": 7431,
      "éĩĮäºļ": 7432,
      "Ġæĺ¯": 7433,
      "æĸ°çķĮ": 7434,
      "åıĥéģ¸": 7435,
      "çĻ¾èĲ¬": 7436,
      "æħĪåĸĦ": 7437,
      "çĦ¡ç·ļ": 7438,
      "éĢĶä¸Ń": 7439,
      "åĤ³åªĴ": 7440,
      "æĢ§åĴĮ": 7441,
      "çı¾åł´": 7442,
      "ä¸¦ä»¥": 7443,
      "Ġalign": 7444,
      "æľĥçļĦ": 7445,
      "å°įå¤ĸ": 7446,
      "åķĨåºĹ": 7447,
      "è¶ĭ": 7448,
      "å¤©åľ°": 7449,
      "æĽ¿ä»£": 7450,
      "æĶ¹å»º": 7451,
      "ä¿Ŀå®ī": 7452,
      "åĪĴå½Ĵ": 7453,
      "çĳŁå¤«": 7454,
      "çĪ±å°Ķåħ°": 7455,
      "line": 7456,
      "ä¼Ļ": 7457,
      "åĩºæĿ¥": 7458,
      "å¤©çļĦ": 7459,
      "èĤĩ": 7460,
      "è¿Ļæ¬¡": 7461,
      "åıĥè³½": 7462,
      "åľĭå®¶çļĦ": 7463,
      "CH": 7464,
      "éģŃåıĹ": 7465,
      "å¤§æĪ°": 7466,
      "äººæķ°": 7467,
      "æľĪåºķ": 7468,
      "åģļæ³ķ": 7469,
      "æĸĹäºī": 7470,
      "å½Ĺ": 7471,
      "æ¬¡åħ¨åĽ½": 7472,
      "è¿½æº¯": 7473,
      "åŁĶå¯¨": 7474,
      "çĲīçĲĥ": 7475,
      "è¼»å°Ħ": 7476,
      "åĳİ": 7477,
      "ann": 7478,
      "é§ģ": 7479,
      "1917": 7480,
      "å±±å¸Ĥ": 7481,
      "æĶ¾å¼ĥ": 7482,
      "éĢ¾": 7483,
      "åŃĶåŃĲ": 7484,
      "æŁ¬åŁĶå¯¨": 7485,
      "Ġed": 7486,
      "ä¸ĬåįĪ": 7487,
      "æ±ķ": 7488,
      "æĹ¶ä»»": 7489,
      "éĥ½ä¼ļ": 7490,
      "æĭľåįł": 7491,
      "åĮĸçŁ³": 7492,
      "å°įæĩī": 7493,
      "çºªå½ķ": 7494,
      "æ¶Īè²»": 7495,
      "ase": 7496,
      "çĶµè§Ĩåī§": 7497,
      "èĹīçĶ±": 7498,
      "ĠæĹ¥æľ¬": 7499,
      "è©ł": 7500,
      "æ·ĺæ±°": 7501,
      "å¹´æľ«": 7502,
      "åĬłå¼·": 7503,
      "æħĭåº¦": 7504,
      "ä¸Ģéĥ¨": 7505,
      "1913": 7506,
      "è¶ķ": 7507,
      "ç»ıåħ¸": 7508,
      "é½¿": 7509,
      "å¹¾åĢĭ": 7510,
      "éĻ¢éķ¿": 7511,
      "èĸĩ": 7512,
      "ç¨®é¡ŀ": 7513,
      "åħįçĸ«": 7514,
      "è£Ŀç½®": 7515,
      "åĳ¼åĲ¸": 7516,
      "æ¹ĸåįĹçľģ": 7517,
      "åı¤å·´": 7518,
      ";\"|": 7519,
      "å¹´å¹³åĿĩ": 7520,
      "éĻ¤æŃ¤": 7521,
      "ĠãĢģ": 7522,
      "1923": 7523,
      "åĳ¨æľŁ": 7524,
      "ild": 7525,
      "è¿Ļæł·çļĦ": 7526,
      "è·Į": 7527,
      "è´«": 7528,
      "çĽĨåľ°": 7529,
      "åİŁåħĪ": 7530,
      "å°±åı¯ä»¥": 7531,
      "èµĦæľ¬": 7532,
      "äºĶä»£": 7533,
      "èĪĪè¶£": 7534,
      "åıįèĢĮ": 7535,
      "å¹´è½»": 7536,
      "åħ¶ä»ĸçļĦ": 7537,
      "å»¶ä¼¸éĺħè¯»": 7538,
      "çĲĥåĳĺ": 7539,
      "æł¼åĭĴ": 7540,
      "ash": 7541,
      "ç«ŀäºī": 7542,
      "åĬŀåħ¬å®¤": 7543,
      "æ²ª": 7544,
      "åĪ©æĸ¯": 7545,
      "æĸĩåĮĸçļĦ": 7546,
      "è´£ä»»": 7547,
      "è¡įçĶŁ": 7548,
      "ä¹ŁåĽłæŃ¤": 7549,
      "éĥ½ä¸į": 7550,
      "æķ£æĸĩ": 7551,
      "inux": 7552,
      "åıĤè°ĭ": 7553,
      "çľ¾å¤ļ": 7554,
      "æĹ±": 7555,
      "éĥ½åı¯ä»¥": 7556,
      "èĬĻ": 7557,
      "å±ķå¼Ģ": 7558,
      "å¹²éĥ¨": 7559,
      "å±±çļĦ": 7560,
      "çĭ®": 7561,
      "çµĦæĪĲçļĦ": 7562,
      "å¨ģèĥģ": 7563,
      "oci": 7564,
      "èĹ¥çī©": 7565,
      "éĢļè¡Į": 7566,
      "left": 7567,
      "ç¶²éłģ": 7568,
      "åľĭåĭĻ": 7569,
      "éģĭçĶ¨": 7570,
      "è½īæıĽ": 7571,
      "ç¦¹": 7572,
      "ä¸ĥæľĪ": 7573,
      "éĸ©åįĹ": 7574,
      "ros": 7575,
      "æ³¨åĨĮ": 7576,
      "éļĬçļĦ": 7577,
      "ä»ĭç»į": 7578,
      "ä¹Łåı¯": 7579,
      "çĴĭ": 7580,
      "æĵº": 7581,
      "æĻºèĥ½": 7582,
      "åĦĦåħĥ": 7583,
      "OM": 7584,
      "æĺ¯æľī": 7585,
      "åı¦ä¸Ģä¸ª": 7586,
      "çŁ£": 7587,
      "è»įçļĦ": 7588,
      "å¦ĤåĲĮ": 7589,
      "å¾Īå¤§çļĦ": 7590,
      "éĸĭè¨Ń": 7591,
      "amb": 7592,
      "åĳĪçı¾": 7593,
      "ä½ĨåĽł": 7594,
      "æ²¿å²¸": 7595,
      "æ¼³": 7596,
      "åĥĳ": 7597,
      "ç¨®æĹı": 7598,
      "åĪºåı²": 7599,
      "ĠĠĠĠĠĠĠĠĠĠĠĠĠĠĠĠ": 7600,
      "ãĢĮãĢį": 7601,
      "åŁºçĿ£å¾Ĵ": 7602,
      "åĬ£": 7603,
      "Ã¡": 7604,
      "æķĻç§ĳ": 7605,
      "ç¾İæľ¯": 7606,
      "ç»ıéªĮ": 7607,
      "èĮµ": 7608,
      "æķ´åĲĪ": 7609,
      "èĢģå¸«": 7610,
      "è©©äºº": 7611,
      "å¹´èĻŁ": 7612,
      "1911": 7613,
      "æĸĩèīº": 7614,
      "ĠĊĠ": 7615,
      "Ġ2001": 7616,
      "çļĦæīĭ": 7617,
      "æ¯Ĺ": 7618,
      "æ·±åħ¥": 7619,
      "ä¹ĭä¸Ĭ": 7620,
      "åıĬåħ¶ä»ĸ": 7621,
      "èĩªæ®º": 7622,
      "ä¹ĲéĺŁ": 7623,
      "åĴĮå¤§": 7624,
      "ä¸»ä¹īèĢħ": 7625,
      "éĢ±æľŁ": 7626,
      "çº¢èī²": 7627,
      "æĴ¤éĢĢ": 7628,
      "åĵĪå°Ķæ»¨": 7629,
      "çļĦè¥¿": 7630,
      "æĢ§æł¼": 7631,
      "éĢļå¾Ģ": 7632,
      "å®£åĳĬ": 7633,
      "çĸ«æĥħ": 7634,
      "çī¹åĪ«æĺ¯": 7635,
      "æĹ¥æŃ£å¼ı": 7636,
      "åĪĨè§£": 7637,
      "æĤ¬": 7638,
      "Ġ2009": 7639,
      "å¾Ļ": 7640,
      "è¯ı": 7641,
      "åĿĿ": 7642,
      "æĢ»éĥ¨": 7643,
      "æĭįæĳĦ": 7644,
      "åħ³æ³¨": 7645,
      "ime": 7646,
      "æĺ¯é¦Ļæ¸¯": 7647,
      "æīĩ": 7648,
      "ä¸ĬäºĨ": 7649,
      "ç£¯": 7650,
      "å¹¿åĳĬ": 7651,
      "èģ·åĭĻ": 7652,
      "ç¥Ĳ": 7653,
      "ism": 7654,
      "ç¬¬ä¸īæ¬¡": 7655,
      "ï¼Īï¼īãĢĤ": 7656,
      "åħ¬æĸ¤": 7657,
      "æľĥæľī": 7658,
      "ç½ļ": 7659,
      "å¦Ĥä»Ĭ": 7660,
      "åĨħéĺģ": 7661,
      "åĥıæĺ¯": 7662,
      "äº©": 7663,
      "ç»´å°Ķ": 7664,
      "ç§¯æŀģ": 7665,
      "æ±¶": 7666,
      "èħ°": 7667,
      "åĻ¸": 7668,
      "ĠWorld": 7669,
      "çļĦåİĨåı²": 7670,
      "çļĦåŁºæľ¬": 7671,
      "ä½ľæ¥Ń": 7672,
      "èªįåĲĮ": 7673,
      "çľŁå¯¦": 7674,
      "è²¬ä»»": 7675,
      "ä¸Ńæµ·": 7676,
      "ãĥ©": 7677,
      "æµĻæ±Łçľģ": 7678,
      "ä½ľè©ŀ": 7679,
      "éĶģ": 7680,
      "æħķå°¼": 7681,
      "ystem": 7682,
      "èĩªæ²»åĮº": 7683,
      "åĳ¨æģ©æĿ¥": 7684,
      "äºŀæŃ·å±±å¤§": 7685,
      "EN": 7686,
      "çļĦä¿¡": 7687,
      "åº¶": 7688,
      "ç¢©å£«": 7689,
      "âĢĿï¼ī": 7690,
      "é¦ĸä»»": 7691,
      "å°ĩéłĺ": 7692,
      "çī©çĲĨåŃ¦": 7693,
      "æĦıè¦ĭ": 7694,
      "è½°": 7695,
      "çĶ¨æĪ¶": 7696,
      "æ²ĻçĶ°": 7697,
      "ä¸īäºº": 7698,
      "å·¡è¿´": 7699,
      "æīĢéľĢ": 7700,
      "åı¸é©¬": 7701,
      "Ġåīį": 7702,
      "åľ¨ä»ĸçļĦ": 7703,
      "ç±³å°Ķ": 7704,
      "åĦªåĭ¢": 7705,
      "æĸĩèĹĿ": 7706,
      "äºĮæľĪ": 7707,
      "æĥ³æ³ķ": 7708,
      "éĻĦå±¬": 7709,
      "ï¼ļãĢĪ": 7710,
      "ä¿±æ¨Ĥéĥ¨": 7711,
      "éķ·åº¦": 7712,
      "çĮ«": 7713,
      "æķ´çĲĨ": 7714,
      "çŁ³åĻ¨": 7715,
      "é£Ľå½Ī": 7716,
      "å¤§éĥ¨ä»½": 7717,
      "å§Ķä»»": 7718,
      "åĿ¦åħĭ": 7719,
      "AD": 7720,
      "IM": 7721,
      "æĪĲéķ·": 7722,
      "å¾·èı¯": 7723,
      "ins": 7724,
      "äº¤æį¢": 7725,
      "èĴĻçī¹": 7726,
      "ç¾ħé¦¬å¸Ŀåľĭ": 7727,
      "æŃ¤äºĭ": 7728,
      "ä¸ĸçķĮæĿ¯": 7729,
      "æľįå½¹": 7730,
      "æĤ¼": 7731,
      "æĲ¶": 7732,
      "æįŁå¤±": 7733,
      "å¤§å®¶": 7734,
      "ä¹ĭçĤº": 7735,
      "åı°åįĹ": 7736,
      "å¼ĹéĽ·": 7737,
      "Ġ2010": 7738,
      "ans": 7739,
      "æ·³": 7740,
      "èĿ¶": 7741,
      "æ¸ħåįİ": 7742,
      "éºĵ": 7743,
      "é¸¿": 7744,
      "ĠåįĹ": 7745,
      "ï¼ĪãĢĬ": 7746,
      "ä¸įåĥħ": 7747,
      "AL": 7748,
      "å¼Ħ": 7749,
      "åĭĺ": 7750,
      "åľ¨åı°çģ£": 7751,
      "æĺ¯æľĢ": 7752,
      "åĽĽæľĪ": 7753,
      "ĠCo": 7754,
      "çī¹æĭī": 7755,
      "åħ«æľĪ": 7756,
      "è®°èĢħ": 7757,
      "åĩºçİ°äºĨ": 7758,
      "è¹¤": 7759,
      "Ġwith": 7760,
      "çŃīçļĦ": 7761,
      "çº³ç²¹": 7762,
      "åĽĽåįģ": 7763,
      "ĠBl": 7764,
      "èĭ¥å¹²": 7765,
      "ject": 7766,
      "å¤©åĲİ": 7767,
      "èģĶç½ĳ": 7768,
      "oll": 7769,
      "èīĻ": 7770,
      "çĢĳ": 7771,
      "çĹħéĢĿ": 7772,
      "åľ¨æĸ°": 7773,
      "Sh": 7774,
      "åĨĽå§Ķ": 7775,
      "å¥³ä¸»è§Ĵ": 7776,
      "æĪĲæŀľ": 7777,
      "åį°è±¡": 7778,
      "æľµ": 7779,
      "æ°Ł": 7780,
      "æĢ¨": 7781,
      "åħ¬æīĢ": 7782,
      "è·¯æ®µ": 7783,
      "ç¹©": 7784,
      "åĬłå¼º": 7785,
      "çª®": 7786,
      "å¸¸ä½ıäººåı£": 7787,
      "æľīåı¯èĥ½": 7788,
      "ç¬Ľ": 7789,
      "æĸĩå¸Ŀ": 7790,
      "æŃ»åĪĳ": 7791,
      "ä¸Ńèı¯æ°ĳåľĭæĶ¿åºľ": 7792,
      "æĸ¹ç¨ĭå¼ı": 7793,
      "ç¹ģæ®ĸ": 7794,
      "Ġ13": 7795,
      "å¹´é½¡": 7796,
      "æ°ĳä¼Ĺ": 7797,
      "å³¶å¶¼": 7798,
      "éĵģéģĵ": 7799,
      "åľĴåįĢ": 7800,
      "å·¥åķĨ": 7801,
      "ä¹¦éĻ¢": 7802,
      "ä¹¦ç±į": 7803,
      "çĶ¢çĶŁçļĦ": 7804,
      "åĤ¾åĲĳ": 7805,
      "æĺ¯æĹ¥æľ¬": 7806,
      "ç§°ä½ľ": 7807,
      "å¼ºè°ĥ": 7808,
      "å½¼æŃ¤": 7809,
      "è¥²æĵĬ": 7810,
      "åıĳè¾¾": 7811,
      "ï¼īãĢģãĢĬ": 7812,
      "éĨ«çĶŁ": 7813,
      "çĳªéºĹ": 7814,
      "çº¬": 7815,
      "èĵĦ": 7816,
      "Ġe": 7817,
      "è¢«èªįçĤºæĺ¯": 7818,
      "å½¢æĢģ": 7819,
      "ç¤¾æľĥä¸»ç¾©": 7820,
      "åĩłä½ķ": 7821,
      "åŁł": 7822,
      "edia": 7823,
      "éĢļè½¦": 7824,
      "æŃ²çļĦ": 7825,
      "éłĲè¨Ī": 7826,
      "ç»ıæµİåŃ¦": 7827,
      "åĨ¥": 7828,
      "éĩįè¦ĸ": 7829,
      "æ¿ķ": 7830,
      "ä¸¹éº¦": 7831,
      "åĲİæľŁ": 7832,
      "åĨħæĪĺ": 7833,
      "ä¸ĵåĮº": 7834,
      "æİ¢ç´¢": 7835,
      "å»ºåĪ¶": 7836,
      "ç¦Ħ": 7837,
      "æĶ¹åĪ¶": 7838,
      "å½ª": 7839,
      "ç¥Ī": 7840,
      "èįĬ": 7841,
      "æİĪæ¬Ĭ": 7842,
      "åĩºåľŁ": 7843,
      "å¾ĮèĢħ": 7844,
      "ç§ĳå¹»": 7845,
      "èį¯çī©": 7846,
      "æĮĩæİ§": 7847,
      "æ³¨éĩĭ": 7848,
      "æĸ¯åħĭ": 7849,
      "åĮĹéŃı": 7850,
      "éĿŀæ³ķ": 7851,
      "å¤§è¥¿æ´ĭ": 7852,
      "åĮħæĭ¬äºĨ": 7853,
      "è³ĩçĶ¢": 7854,
      "åĪĨåĪ¥æĺ¯": 7855,
      "çļĦæŃ·åı²": 7856,
      "ä¸ŃåŃĲ": 7857,
      "éĽ·æĸ¯": 7858,
      "é¢ľèī²": 7859,
      "éĩĮçļĦ": 7860,
      "ä¸įå¾Ĺä¸į": 7861,
      "å´ĸ": 7862,
      "æĿĨ": 7863,
      "1905": 7864,
      "åħ§åľ°": 7865,
      "è¡ĮæĶ¿åįĢåĬĥ": 7866,
      "ç³»ç»ŁçļĦ": 7867,
      "ãĢĤãĢĤ": 7868,
      "ç¢±": 7869,
      "åĵĪéĩĮ": 7870,
      "èĭıå·ŀ": 7871,
      "ç¥Ńç¥Ģ": 7872,
      "èĩĤ": 7873,
      "åħ¬äº¤": 7874,
      "çĽ®çļĦæĺ¯": 7875,
      "ç¬¬ä¸Ģæ¬¡ä¸ĸçķĮå¤§": 7876,
      "Ð¸": 7877,
      "ä¹ĭå¥³": 7878,
      "éĸĭå¹ķ": 7879,
      "ç¥ŀç»ı": 7880,
      "ä¾Ľæĩī": 7881,
      "ĠLe": 7882,
      "å¼ŁåŃĲ": 7883,
      "æ³ķä»¤": 7884,
      "æīĢè°ĵ": 7885,
      "å¤§è¦ıæ¨¡": 7886,
      "æ²Ļæ¼ł": 7887,
      "éĴ¦": 7888,
      "ĠRe": 7889,
      "ä¿ĥè¿Ľ": 7890,
      "!!": 7891,
      "iam": 7892,
      "èµĲ": 7893,
      "åĲĮä½įç´ł": 7894,
      "éĢĻæ¬¡": 7895,
      "Th": 7896,
      "ç©·": 7897,
      "çľĭæ³ķ": 7898,
      "èİ·å¾ĹèĢħ": 7899,
      "åĲİèĢħ": 7900,
      "äºĮæ°§åĮĸ": 7901,
      "åĻ¶": 7902,
      "ĠâĢľ": 7903,
      "åıįæĬĹ": 7904,
      "æĪ°çķ¥": 7905,
      "éĨī": 7906,
      "250": 7907,
      "åŁºæľ¬ä¸Ĭ": 7908,
      "åµĮ": 7909,
      "å¼ĵ": 7910,
      "æ³¢å£«": 7911,
      "åĨ¶": 7912,
      "ley": 7913,
      "çī¹åĪ¥æĺ¯": 7914,
      "att": 7915,
      "åľ¨ä¸Ńåľĭ": 7916,
      "åĮĹä¼Ĳ": 7917,
      "éĽ¢åŃĲ": 7918,
      "æĶľ": 7919,
      "è¯¾ç¨ĭ": 7920,
      "å¹´åĩºçīĪ": 7921,
      "enn": 7922,
      "æķ´é«Ķ": 7923,
      "å®¿èĪį": 7924,
      "ä¿ĥéĢ²": 7925,
      "éĲµéģĵ": 7926,
      "èŃīå¯¦": 7927,
      "Ġ1999": 7928,
      "äº¿ç¾İåħĥ": 7929,
      "æľīäºĨ": 7930,
      "çıĢ": 7931,
      "æŃ£éĿ¢": 7932,
      "æķ¸çļĦ": 7933,
      "éĩİçĶŁ": 7934,
      "åĢĻéģ¸äºº": 7935,
      "ä¸īæ¬¡": 7936,
      "æĸĩåĮĸå¤§éĿ©åĳ½": 7937,
      "åĺĹè©¦": 7938,
      "Ġi": 7939,
      "ä»ĸè¢«": 7940,
      "å®ļæľŁ": 7941,
      "æħĺ": 7942,
      "çļĦæľĢé«ĺ": 7943,
      "æĪĲäºº": 7944,
      "è¯´æĺİ": 7945,
      "Ġth": 7946,
      "çļĦäººåı£": 7947,
      "çļĦè©±": 7948,
      "ç¦ıå»ºçľģ": 7949,
      "Ġy": 7950,
      "æ¬Ħ": 7951,
      "ç¶ĵçĶ±": 7952,
      "æ±īæĹı": 7953,
      "è¾ĥä¸º": 7954,
      "æ¬¢è¿İ": 7955,
      "ä»¥ä¾¿": 7956,
      "æ²¿çĶ¨": 7957,
      "è·ĳéģĵ": 7958,
      "å°±åľ¨": 7959,
      "ä¹ĭåĲį": 7960,
      "éģŃéģĩ": 7961,
      "éĬ·éĩı": 7962,
      "å¤ļç¨®": 7963,
      "åı¯æĺ¯": 7964,
      "é«Ķç³»": 7965,
      "æĬĹèŃ°": 7966,
      "ç»ĦæĪĲçļĦ": 7967,
      "è¡ĮæĶ¿éķ·å®ĺ": 7968,
      "é»Ħæ²³": 7969,
      "åİĺç±³": 7970,
      "ï¼Īï¼Ľ": 7971,
      "ä¸įä½Ĩ": 7972,
      "æİ¨å»£": 7973,
      "çĪª": 7974,
      "æĩ¸": 7975,
      "ä¸ĭä¾Ĩ": 7976,
      "åĬ©çĲĨ": 7977,
      "ç¥¨æĪ¿": 7978,
      "åĩºçı¾åľ¨": 7979,
      "é°": 7980,
      "è£¡çļĦ": 7981,
      "æ²Īéĺ³": 7982,
      "gl": 7983,
      "Ġ14": 7984,
      "éĹĬ": 7985,
      "ç¦»åŃĲ": 7986,
      "åĨľæĿĳ": 7987,
      "âĢĿï¼Ľ": 7988,
      "æ¸¯å³¶": 7989,
      "ç¬¬äºĮæ¬¡ä¸ĸçķĮå¤§æĪ°": 7990,
      "è¢«æįķ": 7991,
      "å¼ĢéĢļ": 7992,
      "ç»´æĮģ": 7993,
      "æĬĢå·§": 7994,
      "åľ°åŁŁ": 7995,
      "æıĲçĲ´": 7996,
      "éĵº": 7997,
      "å¾ŀèĢĮ": 7998,
      "æ½®å·ŀ": 7999,
      "Ġéĩĳ": 8000,
      "çļĦç¬¬äºĮ": 8001,
      "æĭľåįłåºŃ": 8002,
      "ä¸īæľĪ": 8003,
      "ç¦ħ": 8004,
      "é¢¨éļª": 8005,
      "è¾ĵåħ¥": 8006,
      "æľºåĻ¨": 8007,
      "çĶµèĦĳ": 8008,
      "èĢ¶åĴĮ": 8009,
      "âĪĴ": 8010,
      "çļĦä½ľçĶ¨": 8011,
      "ä¸ĭæ¸¸": 8012,
      "ä¸ĢçĶŁ": 8013,
      "ä¼ļä¸Ĭ": 8014,
      "åīĩçĤº": 8015,
      "åĲĦä¸ª": 8016,
      "æĳĩ": 8017,
      "éļľç¤Ļ": 8018,
      "æĹ¥æ²»æĻĤæľŁ": 8019,
      "OV": 8020,
      "å°ĳå°Ĩ": 8021,
      "ä¸¤äºº": 8022,
      "å¯«ä½ľ": 8023,
      "æ¼«çĶ»": 8024,
      "çİĽä¸½": 8025,
      "æĺİç¡®": 8026,
      "åĵ¡å·¥": 8027,
      "èı²åĪ©": 8028,
      "ä½ĳ": 8029,
      "åĲĪç´Ħ": 8030,
      "æĮĩå¯¼": 8031,
      "é©¶": 8032,
      "æ¶Ĥ": 8033,
      "åįĢåħ§": 8034,
      "åħīç»ª": 8035,
      "é½ĭ": 8036,
      "æĦŁæĥħ": 8037,
      "En": 8038,
      "æ»©": 8039,
      "é®ĳ": 8040,
      "çļĦèĥ½åĬĽ": 8041,
      "è¢«è®¤ä¸ºæĺ¯": 8042,
      "åģ½": 8043,
      "èĩ´åĬĽ": 8044,
      "Ġbgcolor": 8045,
      "çļĦä¸ĸçķĮ": 8046,
      "å§ĭäºº": 8047,
      "åĨħèĴĻåı¤": 8048,
      "åĭ¾": 8049,
      "æĸ°å»º": 8050,
      "å°Ķçī¹": 8051,
      "äº¤æĺĵæīĢ": 8052,
      "ä½ĨçĶ±æĸ¼": 8053,
      "ames": 8054,
      "urn": 8055,
      "åĽ°éĽ£": 8056,
      "åħ¨å¹´": 8057,
      "åĽĽå·Ŀçľģ": 8058,
      "æ¸Ķ": 8059,
      "å£³": 8060,
      "åĽŀæĩī": 8061,
      "å¹¹ç·ļ": 8062,
      "æľīä¸Ģä¸ª": 8063,
      "å®ļäºĨ": 8064,
      "æŃ¤æ¬¡": 8065,
      "çİĩé¢Ĩ": 8066,
      "è«ĩåĪ¤": 8067,
      "å¾ŀæŃ¤": 8068,
      "çĹĩçĭĢ": 8069,
      "éĢļå¸¸æĺ¯": 8070,
      "æĶ¹ç¼ĸ": 8071,
      "ä¸ľæ±ī": 8072,
      "é©¬åħĭæĢĿ": 8073,
      "Com": 8074,
      "Ġ2012": 8075,
      "èĪĩåħ¶": 8076,
      "ç¤ģ": 8077,
      "å®īè£Ŀ": 8078,
      "é»ĳæļĹ": 8079,
      "ä¸įåıĹ": 8080,
      "èª¬": 8081,
      "åĪĹçĤº": 8082,
      "å±ķè¦½": 8083,
      "ĠAd": 8084,
      "ä¹ĲåĽ¢": 8085,
      "å¤§åŃ¦çļĦ": 8086,
      "ons": 8087,
      "å´Ĺ": 8088,
      "ç¿ħ": 8089,
      "çī¹åĪ¥è¡ĮæĶ¿åįĢ": 8090,
      "åį±æľº": 8091,
      "æĿ±äº¬éĥ½": 8092,
      "èĻĲ": 8093,
      "åłħæĮģ": 8094,
      "FF": 8095,
      "å°įæŃ¤": 8096,
      "çľģçº§": 8097,
      "éļ¨åį³": 8098,
      "ç§©åºı": 8099,
      "åħħåĪĨ": 8100,
      "Ġ{": 8101,
      "å¸¸çĶ¨": 8102,
      "å¼ºçĥĪ": 8103,
      "1910": 8104,
      "ä¼ļåľ¨": 8105,
      "ç³Ĭ": 8106,
      "é¨°": 8107,
      "åĬłçĽŁ": 8108,
      "èĳĹçļĦ": 8109,
      "éģĬè¡Į": 8110,
      "ç»´å¥ĩ": 8111,
      "ç´įç²¹": 8112,
      "æī°": 8113,
      "æĥ³è¦ģ": 8114,
      "ä¸¦çĦ¡": 8115,
      "è¦ıç¯Ħ": 8116,
      "æĥĬ": 8117,
      "åī§éĻ¢": 8118,
      "åİŁåĪĻ": 8119,
      "ä»·æł¼": 8120,
      "rid": 8121,
      "èĹ»": 8122,
      "æĩ¿": 8123,
      "éģĻ": 8124,
      "æīĢå±¬": 8125,
      "åľ°åĿĢ": 8126,
      "éĺĶ": 8127,
      "èĭ±è»į": 8128,
      "éģ¸åĩº": 8129,
      "åĳ¨éĤĬ": 8130,
      "å¥´éļ¶": 8131,
      "åħ¶ä¸Ńä¸Ģ": 8132,
      "çĬ¹å¤ªäºº": 8133,
      "çĻ¼éĽ»": 8134,
      "åĪĽç«ĭ": 8135,
      "ä¸ľäº¬": 8136,
      "è¬Ļ": 8137,
      "ãĤ¢": 8138,
      "åĴĴ": 8139,
      "åĽłåħ¶": 8140,
      "çİ°å®ŀ": 8141,
      "ç»ĦåĲĪ": 8142,
      "é«ĺçŃīæķĻèĤ²": 8143,
      "GN": 8144,
      "å·¥åİĤ": 8145,
      "é¢ĩ": 8146,
      "æľ«æľŁ": 8147,
      "å¸«ç¯Ħ": 8148,
      "Ġ1998": 8149,
      "æĶ¹åĲįçĤº": 8150,
      "åĽ¾åĥı": 8151,
      "æ£ĢæŁ¥": 8152,
      "çļĦåŁºç¡Ģ": 8153,
      "æĺı": 8154,
      "æĹŃ": 8155,
      "ä»ĸä¹Ł": 8156,
      "éĿ¢åĲĳ": 8157,
      "å¡Ĺ": 8158,
      "ä¸ģåł¡": 8159,
      "åį±éļª": 8160,
      "ç½ķé»ĺ": 8161,
      "æķĻå¾Ĵ": 8162,
      "è¾£": 8163,
      "ä½ĵåĪ¶": 8164,
      "æĶ¶è¦ĸ": 8165,
      "çªŁ": 8166,
      "round": 8167,
      "æħķå°¼é»ĳ": 8168,
      "æµģäº¡": 8169,
      "iel": 8170,
      "åĽŀæŃ¸": 8171,
      "æľĢæľī": 8172,
      "çľī": 8173,
      "åĲīä»ĸ": 8174,
      "äº«æľī": 8175,
      "éŀĭ": 8176,
      "åįĹè¶Ĭ": 8177,
      "ç¥ŀçļĦ": 8178,
      "åıĳèµ·": 8179,
      "æ´Ľä¼Ĳ": 8180,
      "æ¾İ": 8181,
      "ä¸»é¡ĮæĽ²": 8182,
      "ç¶ĵçĲĨ": 8183,
      "å°±ä»»": 8184,
      "æľªæĿ¥": 8185,
      "å¢ŀéķ·": 8186,
      "éģºçĶ¢": 8187,
      "é¶´": 8188,
      "å½Ļ": 8189,
      "åĩºçĶŁäºİ": 8190,
      "çĪĲ": 8191,
      "çĪ¾çļĦ": 8192,
      "çĦ¡è«ĸ": 8193,
      "ä¸įçŁ¥": 8194,
      "ä¾¿æĺ¯": 8195,
      "èŃ¦åĳĬ": 8196,
      "çº¢åĨĽ": 8197,
      "é«ĺå®Ĺ": 8198,
      "çı¾å¯¦": 8199,
      "æŃ»åĲİ": 8200,
      "çľ¾èŃ°éĻ¢": 8201,
      "åĪĨç¦»": 8202,
      "æ¬ł": 8203,
      "éķ¿åº¦": 8204,
      "æ¯ıä¸Ģ": 8205,
      "åĬŀåħ¬": 8206,
      "US": 8207,
      "æİ¥èĳĹ": 8208,
      "å¼Ģå±ķ": 8209,
      "è¦ªèĩª": 8210,
      "å¥§æŀĹåĮ¹åħĭ": 8211,
      "ĠComp": 8212,
      "å·´åŁº": 8213,
      "åĳ¨åĽ´": 8214,
      "æĥħåł±": 8215,
      "çķı": 8216,
      "æŃ¥æ§į": 8217,
      "è¾¦åħ¬å®¤": 8218,
      "é¹¤": 8219,
      "çļĦåħī": 8220,
      "å±¿": 8221,
      "è´ŀ": 8222,
      "è¶ħçº§": 8223,
      "è½ŁçĤ¸": 8224,
      "å¸Ĩ": 8225,
      "åħ¬æľĥ": 8226,
      "äº¤æıĽ": 8227,
      "æĽ´çĤº": 8228,
      "èĢĥå¯Ł": 8229,
      "å®ģæ³¢": 8230,
      "æµĭéĩı": 8231,
      "èĢ³æĽ¼": 8232,
      ";\"": 8233,
      "ãĢįï¼ī": 8234,
      "éĶĢåĶ®": 8235,
      "101": 8236,
      "ç©Ĩç½ķé»ĺ": 8237,
      "ver": 8238,
      "éĩĳåĥı": 8239,
      "ĠOr": 8240,
      "çĽĹ": 8241,
      "èĻŀ": 8242,
      "çĻ»ä¸Ĭ": 8243,
      "äºĨä¸ĢäºĽ": 8244,
      "åĵ¥ä¼¦": 8245,
      "æľĥèŃ°åĵ¡": 8246,
      "è¾²æ°ĳ": 8247,
      "çĪŃåıĸ": 8248,
      "Ġ1997": 8249,
      "NBA": 8250,
      "è¾±": 8251,
      "éŁ¶": 8252,
      "ä»ķ": 8253,
      "äºĨä»ĸçļĦ": 8254,
      "åħŃæľĪ": 8255,
      "è®ºæĸĩ": 8256,
      "åĿļæĮģ": 8257,
      "æĺİç¢º": 8258,
      "å¥¹åľ¨": 8259,
      "æµĭè¯ķ": 8260,
      "ava": 8261,
      "äººæ¬Ĭ": 8262,
      "æİ¥ä»»": 8263,
      "ç§įæĹı": 8264,
      "çļĦç¾İ": 8265,
      "åĪĨéĽ¢": 8266,
      "çĻ¼å¸ĥ": 8267,
      "å¦¹å¦¹": 8268,
      "æ°£é«Ķ": 8269,
      "äºĴèģĶç½ĳ": 8270,
      "éģ©åĲĪ": 8271,
      "åĦŁ": 8272,
      "çļĦä¸Ĭ": 8273,
      "æĹ¥ç¿¡ç¿łåı°": 8274,
      "èĨ¨": 8275,
      "éĩĭæĶ¾": 8276,
      "å°Ŀ": 8277,
      "ä¼ļåĳĺ": 8278,
      "å«©": 8279,
      "ç¨£": 8280,
      "å·´èµ«": 8281,
      "å®ļä½į": 8282,
      "è¿«ä½¿": 8283,
      "ä¼ĺåĬ¿": 8284,
      "ä»¥åħ¶": 8285,
      "å¸Ĥéķ¿": 8286,
      "éłĺå°İäºº": 8287,
      "åĩºèĩª": 8288,
      "åĪ©çļĦ": 8289,
      "çĶµåĬĽ": 8290,
      "æİ§èĤ¡": 8291,
      "èĢ¶ç¨£": 8292,
      "æĻļæľŁ": 8293,
      "äº¤æµģéģĵ": 8294,
      "éĺľ": 8295,
      "éħµ": 8296,
      "æ£ķ": 8297,
      "è¨Ģè«ĸ": 8298,
      "é²į": 8299,
      "ç³»çµ±çļĦ": 8300,
      "ä¸»é¢ĺ": 8301,
      "ky": 8302,
      "æ¸¯æ¾³": 8303,
      "é´ī": 8304,
      "ä¸»ç®¡": 8305,
      "å»ºåľĭ": 8306,
      "ä¹ĭçĪ¶": 8307,
      "é¦Ļæ¸¯éĽ»å½±": 8308,
      "è¯ŃçļĦ": 8309,
      "æĥħåĨµä¸ĭ": 8310,
      "çī©åĵģ": 8311,
      "éĩįçļĦ": 8312,
      "åħ©åľĭ": 8313,
      "åĽ½æ°ĳæĶ¿åºľ": 8314,
      "çŃĴ": 8315,
      "ç·¯": 8316,
      "åĭŀåĭķ": 8317,
      "èĦ«éĽ¢": 8318,
      "BM": 8319,
      "HT": 8320,
      "ä¸ŃçŃī": 8321,
      "itt": 8322,
      "ĠYork": 8323,
      "mm": 8324,
      "ä¸ĳ": 8325,
      "ä¸»åĶ±": 8326,
      "å®īå¨ľ": 8327,
      "ä¸¤æ¬¡": 8328,
      "ä¾ĿéĿł": 8329,
      "ä¾µçķ¥": 8330,
      "è»Ĵ": 8331,
      "èĭ»": 8332,
      "èįĨ": 8333,
      "æ¸ħæ°´": 8334,
      "æľīæľº": 8335,
      "éľľ": 8336,
      "è¨Ģäºº": 8337,
      "SM": 8338,
      "çīµ": 8339,
      "è¥¿åħĥ": 8340,
      "èĤ©": 8341,
      "è½¦è¾Ĩ": 8342,
      "éłĴçįİåħ¸ç¦®": 8343,
      "æĶ¹ç§°": 8344,
      "éĢ£ä»»": 8345,
      "çįİæľĢä½³": 8346,
      "ãĢīãĢĤ": 8347,
      "éĺ²ç¦¦": 8348,
      "ãģĦ": 8349,
      "åľ£ç»ı": 8350,
      "æĵ´å¼µ": 8351,
      "çĽ²": 8352,
      "çī¹çĤ¹": 8353,
      "åŀ£": 8354,
      "æº«æ³ī": 8355,
      "éĽįæŃ£": 8356,
      "æĪĺåĲİ": 8357,
      "å®¹éĩı": 8358,
      "è¶³çĲĥéģĭåĭķåĵ¡": 8359,
      "ä¹Įåħĭåħ°": 8360,
      "èĭĹæłĹ": 8361,
      "ç¿Ĵæħ£": 8362,
      "åľ¨åīį": 8363,
      "çĶµè¯Ŀ": 8364,
      "é§¿": 8365,
      "çļĦæĥħåĨµä¸ĭ": 8366,
      "ä¸ĸçķĮçļĦ": 8367,
      "->": 8368,
      "æĺ¯ä¸Ģä½į": 8369,
      "ç³ķ": 8370,
      "å¹³å®ī": 8371,
      "æĺİçļĦ": 8372,
      "å¤ĸäº¤éĥ¨": 8373,
      "æľĶ": 8374,
      "æĢ»éĿ¢ç§¯": 8375,
      "ç¢ºèªį": 8376,
      "å¥½åıĭ": 8377,
      "è§ĦèĮĥ": 8378,
      "ä¼ĺç§Ģ": 8379,
      "cy": 8380,
      "ican": 8381,
      "æİ¨åĬ¨": 8382,
      "è¯·æ±Ĥ": 8383,
      "åħĶ": 8384,
      "åľĭè»į": 8385,
      "ä¸ĬéĿ¢": 8386,
      "çĨĶ": 8387,
      "çµķå°į": 8388,
      "æĸĩæľ¬": 8389,
      "èģ°": 8390,
      "æ¼Ĩ": 8391,
      "ä½Ļäºº": 8392,
      "1908": 8393,
      "æĹłçº¿": 8394,
      "èĭıæł¼åħ°": 8395,
      "è³ªçĸĳ": 8396,
      "åı¯ä»¥çĶ¨": 8397,
      "åı¯ä»¥æĮĩ": 8398,
      "å¤Ł": 8399,
      "åľ¨ä¸Ĭæµ·": 8400,
      "æīĳ": 8401,
      "ä»ĸäºº": 8402,
      "æĶ¿åįı": 8403,
      "å°ıè¡ĮæĺŁ": 8404,
      "èĲ¬åħĥ": 8405,
      "éĸĴ": 8406,
      "æĹ¥æľ¬äºº": 8407,
      "è§Ĥæµĭ": 8408,
      "åį³æĺ¯": 8409,
      "ãĤ¯": 8410,
      "å¸¦æĿ¥": 8411,
      "æ®ºå®³": 8412,
      "ä¸»åł´": 8413,
      "å¸ĥéŃ¯": 8414,
      "Ðµ": 8415,
      "çļĦæĻĤéĸĵ": 8416,
      "åºŀ": 8417,
      "é«ĺåı¥": 8418,
      "æĮº": 8419,
      "åħīç·Ĵ": 8420,
      "å¥¥æŀĹåĮ¹åħĭ": 8421,
      "çĤ³": 8422,
      "ä»¥è¥¿": 8423,
      "å®¶åº·": 8424,
      "æĸĩçļĦ": 8425,
      "å¤ļåĲį": 8426,
      "åĿ¤": 8427,
      "é¦Ļæ¸¯æĶ¿åºľ": 8428,
      "åĬłåħ¥äºĨ": 8429,
      "åģĩè¨Ń": 8430,
      "der": 8431,
      "æ¼Ĥ": 8432,
      "ä½Ĩä¸į": 8433,
      "é«ĺéģĶ": 8434,
      "ä¿¡éķ·": 8435,
      "1907": 8436,
      "åİĭåĬĽ": 8437,
      "èµ¢å¾Ĺ": 8438,
      "å¤©é«Ķ": 8439,
      "åĪĹä¸º": 8440,
      "ä¹ĿæľĪ": 8441,
      "ome": 8442,
      "å¯ħ": 8443,
      "åĲĪçĲĨ": 8444,
      "æŃ£ç¢º": 8445,
      "ãĢģãĢĬ": 8446,
      "åįĹæĬķ": 8447,
      "éĽ»è»Ĭ": 8448,
      "éĻ¤æŃ¤ä¹ĭå¤ĸ": 8449,
      "è¿Ĳæ²³": 8450,
      "Ġcol": 8451,
      "å¹¶éĿŀ": 8452,
      "æĽ¾è¢«": 8453,
      "åħ©æ¬¡": 8454,
      "ĠMan": 8455,
      "æĬķæīĭ": 8456,
      "rop": 8457,
      "æĨĤ": 8458,
      "ç¶łèī²": 8459,
      "æł¡åįĢ": 8460,
      "ä»ªå¼ı": 8461,
      "åĲ»": 8462,
      "å¸¸åĬ¡": 8463,
      "è½¬ç§»": 8464,
      "å±łæĿĢ": 8465,
      "åŀĤçĽ´": 8466,
      "èµł": 8467,
      "ä¼ļçļĦ": 8468,
      "éĹľéĸī": 8469,
      "åĤµ": 8470,
      "æ¢Ń": 8471,
      "éľĸ": 8472,
      "åĪĽæĸ°": 8473,
      "Ġ2011": 8474,
      "ç§ĳçłĶ": 8475,
      "æŃ£æĺ¯": 8476,
      "åĸĿ": 8477,
      "ä¸Ńå¤®å§Ķåĳĺä¼ļ": 8478,
      "ç§»äº¤": 8479,
      "ãĥĥ": 8480,
      "éĿłè¿ĳ": 8481,
      "é¥Ń": 8482,
      "çļĦåħ¬": 8483,
      "åľ°ä¸Ńæµ·": 8484,
      "åĩºåħµ": 8485,
      "å·¥èīº": 8486,
      "æĹıäºº": 8487,
      "åį³åı¯": 8488,
      "æĶ¶è²»": 8489,
      "èµĦéĩĳ": 8490,
      "ç«ĭæ³ķå§Ķåĵ¡": 8491,
      "çļĦéĹ®é¢ĺ": 8492,
      "éķ·éģĶ": 8493,
      "å·´åĭĴ": 8494,
      "å¸¸è¦ĭçļĦ": 8495,
      "æ¬º": 8496,
      "åĪĳäºĭ": 8497,
      "åºŁéĻ¤": 8498,
      "Ġ2013": 8499,
      "ä¸»è¾¦": 8500,
      "éĩįéĩı": 8501,
      "åħ§æĪ°": 8502,
      "æīĭä¸Ń": 8503,
      "ç¸½è£ģ": 8504,
      "æ·»åĬł": 8505,
      "æĹ¥èĢ³æĽ¼": 8506,
      "æĻĤåł±": 8507,
      "çī½": 8508,
      "èı¯çĽĽ": 8509,
      "åīĩæľī": 8510,
      "çĻ»éĻ¸": 8511,
      "çľŁæŃ£çļĦ": 8512,
      "çķĶ": 8513,
      "èµ·åĪĿ": 8514,
      "æŃ¦å£«": 8515,
      "1906": 8516,
      "æ²¿éĿ©": 8517,
      "å©¦å¥³": 8518,
      "å¡ļ": 8519,
      "å¥¥å°Ķ": 8520,
      "èĢ¶å¾ĭ": 8521,
      "form": 8522,
      "èĩªä¸»": 8523,
      "çĭĲ": 8524,
      "æķĪæĩī": 8525,
      "èĻķçĲĨåĻ¨": 8526,
      "åĩĮæĻ¨": 8527,
      "çªĦ": 8528,
      "Ġï¼ī": 8529,
      "å¥¸": 8530,
      "å±¥": 8531,
      "3000": 8532,
      "å±±æĿ±": 8533,
      "å°įæĸ¹": 8534,
      "æ´Ľæĸ¯": 8535,
      "èħ¸": 8536,
      "è¿Ĳç®Ĺ": 8537,
      "UND": 8538,
      "èı¯çĽĽéłĵ": 8539,
      "äººçĶŁ": 8540,
      "æĶĢ": 8541,
      "å¸ĥæľĹ": 8542,
      "éĺ¿å§Ĩ": 8543,
      "æº¶æ¶²": 8544,
      "é£²é£Ł": 8545,
      "è´´": 8546,
      "ãĥ¼ãĥ": 8547,
      "å¤§å¤§": 8548,
      "å¤ªåİŁ": 8549,
      "æ¡ĤæŀĹ": 8550,
      "112": 8551,
      "è»įå®ĺ": 8552,
      "å°ĶçļĦ": 8553,
      "æ±īåŃĹ": 8554,
      "éĳ¼": 8555,
      "å·®å¼Ĥ": 8556,
      "æī§æĶ¿": 8557,
      "çĢĳå¸ĥ": 8558,
      "æĬ¥çº¸": 8559,
      "èĤ¯å®ļ": 8560,
      "åı¤æĭī": 8561,
      "æ³¢çī¹": 8562,
      "ä»İæŃ¤": 8563,
      "æĴĴåĨ·": 8564,
      "çľģçļĦ": 8565,
      "çłĶç©¶çĶŁ": 8566,
      "å©ī": 8567,
      "åĸľæ¬¢": 8568,
      "èįĥçģ£": 8569,
      "åħ¬ä½Ī": 8570,
      "èº«ä½ĵ": 8571,
      "ä¸»ä¹īçļĦ": 8572,
      "äºĭå¯¦ä¸Ĭ": 8573,
      "å¥ķ": 8574,
      "åĮºåĪ«": 8575,
      "ç½¢": 8576,
      "ĠAmer": 8577,
      "èĢ¶è·¯": 8578,
      "çĽĳçĿ£": 8579,
      "æľĪèµ·": 8580,
      "å¯µ": 8581,
      "æĸ¯æīĺ": 8582,
      "eth": 8583,
      "ograp": 8584,
      "ĠTr": 8585,
      "åĩºçİ°åľ¨": 8586,
      "æľĢçĤº": 8587,
      "æ°´æīģ": 8588,
      "æİ¥è§¦": 8589,
      "ç¨±ä½ľ": 8590,
      "åĨ³èµĽ": 8591,
      "èĢ¶è·¯æĴĴåĨ·": 8592,
      "ä¸Ĭæ¸¸": 8593,
      "è¡Ģæ¶²": 8594,
      "ç¹ĶçĶ°": 8595,
      "Ġ1996": 8596,
      "Ġ189": 8597,
      "å¥®": 8598,
      "çŁŃç¯ĩ": 8599,
      "éĢĻæ¨£çļĦ": 8600,
      "æĶ¯æµģ": 8601,
      "1909": 8602,
      "ç¾İçļĦ": 8603,
      "äº¤çķĮ": 8604,
      "ä¿Ŀè¯ģ": 8605,
      "èĤ¢": 8606,
      "é¤Ĳå»³": 8607,
      "è¿Ł": 8608,
      "1916": 8609,
      "åĲĮæĹ¥": 8610,
      "æĿ¥è¶Ĭ": 8611,
      "åĦªç§Ģ": 8612,
      "è·µ": 8613,
      "ç¡Ŀ": 8614,
      "ä¿ĿæĬ¤åĮº": 8615,
      "å°ĭæī¾": 8616,
      "éĤĵå°ıå¹³": 8617,
      "éĹľéįµ": 8618,
      "çħ®": 8619,
      "å¤«æĸ¯åŁº": 8620,
      "çįİå¾Ĺä¸»": 8621,
      "æľĢé«ĺæ³ķéĻ¢": 8622,
      "ä¸ĢæĹ¦": 8623,
      "æľĢä¸º": 8624,
      "åĸ®ä¸Ģ": 8625,
      "å·´åŁºæĸ¯åĿ¦": 8626,
      "Ad": 8627,
      "ä¸ŃçĴ°": 8628,
      "åĮł": 8629,
      "èģ¯ç¹«": 8630,
      "ited": 8631,
      "æ¶Īéĺ²": 8632,
      "ï¼ī-": 8633,
      "éģĵåħī": 8634,
      "åįĢèŃ°æľĥ": 8635,
      "æ®ºæŃ»": 8636,
      "äººåĿĩ": 8637,
      "æĺ¯åĽłçĤº": 8638,
      "åįĹä¸ĭ": 8639,
      "åıĪæľī": 8640,
      "å¨ģå°¼æĸ¯": 8641,
      "ä½ľçļĦ": 8642,
      "æ±ºèŃ°": 8643,
      "éĮĦéŁ³": 8644,
      "æĲįå¤±": 8645,
      "ä¸Ģè¯į": 8646,
      "æĪĲå¹´": 8647,
      "åħ¥å¢ĥ": 8648,
      "åı²æĸĻ": 8649,
      "ç´¢å°¼": 8650,
      "1901": 8651,
      "ç¥ŀè¯Ŀ": 8652,
      "éĢ£è¼ī": 8653,
      "çķ«å®¶": 8654,
      "ç«ĭæ³ķéĻ¢": 8655,
      "é¼ĵåĭµ": 8656,
      ")ï¼Ī": 8657,
      "å¤ļåħĥ": 8658,
      "æ©ŁçļĦ": 8659,
      "åĳ¨è¾¹": 8660,
      "è¶ĬæĿ¥è¶Ĭ": 8661,
      "çį²çįİ": 8662,
      "è§Ģå¡ĺ": 8663,
      "åĲĮæĢ§æĪĢ": 8664,
      "åĽłæĩī": 8665,
      "æıĲåĢ¡": 8666,
      "amp": 8667,
      "å¹²æ¶ī": 8668,
      "éıĪ": 8669,
      "è´Ńä¹°": 8670,
      "åĲĬ": 8671,
      "èĬŃ": 8672,
      "æŃ¦åĬĽ": 8673,
      "å¼ķåĬĽ": 8674,
      "ä¸ĩåĲ¨": 8675,
      "åĽ½éĻħæľºåľº": 8676,
      "ä¸Ģæ¢Ŀ": 8677,
      "èµ¦": 8678,
      "ä¸ĭåįĬ": 8679,
      "æĮĩå°İ": 8680,
      "ä½Ĩåħ¶": 8681,
      "äººå¤§å¸¸å§Ķ": 8682,
      "å®¦": 8683,
      "åĩŃ": 8684,
      "æºĲäºİ": 8685,
      "é¬Ĩ": 8686,
      "æ¯Ľæ¾¤": 8687,
      "æĿı": 8688,
      "äºļåİĨå±±å¤§": 8689,
      "ä»¥å¾Ģ": 8690,
      "æ¬¡åŃĲ": 8691,
      "èĪªç·ļ": 8692,
      "ç¶ĵæ¿ŁåŃ¸": 8693,
      "å¾ªçĴ°": 8694,
      "åĲįç¾©": 8695,
      "åĽŀçŃĶ": 8696,
      "çĮ¶å¤ªäºº": 8697,
      "ternational": 8698,
      "åľ°å¤Ħ": 8699,
      "çī©é«Ķ": 8700,
      "çĻ¼éŁ³": 8701,
      "åĪĹä¼ł": 8702,
      "ä¾¨": 8703,
      "é¦ĸåºľ": 8704,
      "é¦ĸçļĦ": 8705,
      "æķ°åŃ¦å®¶": 8706,
      "ç»´åŁĥ": 8707,
      "III": 8708,
      "Ġï½ŀ": 8709,
      "æĶ¹èī¯": 8710,
      "åĽłæŃ¤åľ¨": 8711,
      "å¾·åįİ": 8712,
      "æ²³åįĹçľģ": 8713,
      "æĺ¯åĢĭ": 8714,
      "èĩī": 8715,
      "å¸ĥé²ģ": 8716,
      "æ»ļ": 8717,
      "åľ¨åįĹ": 8718,
      "èŃ°é¡Į": 8719,
      "éĦīæ°ĳ": 8720,
      "æ´Ľä¼Ĳåħĭ": 8721,
      "äºĭçī©": 8722,
      "èįīæ¡Ī": 8723,
      "æ¯Ľæ¾¤æĿ±": 8724,
      "æŃ£æľĪ": 8725,
      "ç«ĻçļĦ": 8726,
      "ãĢĭï¼Īï¼ī": 8727,
      "æ¬¡åħ¨åĽ½äººåı£æĻ®æŁ¥": 8728,
      "ç·¨åĬĩ": 8729,
      "çĹķ": 8730,
      "åľŁå£¤": 8731,
      "æ½°": 8732,
      "Ġ1995": 8733,
      "å®Įæķ´çļĦ": 8734,
      "æ³ķå®ļ": 8735,
      "ç¬¬ä¸Ģéĥ¨": 8736,
      "è°ĪåĪ¤": 8737,
      "åħ¬ä¼Ĺ": 8738,
      "æĦıä¸º": 8739,
      "å¸³": 8740,
      "æī«": 8741,
      "ä¸ĸçļĦ": 8742,
      "å¸¶æľī": 8743,
      "ç§ĢåĲī": 8744,
      "è¯ģæį®": 8745,
      "äº§çĶŁçļĦ": 8746,
      "Sc": 8747,
      "éģĵå¤«": 8748,
      "æł¡èĪį": 8749,
      "å¹¶æľª": 8750,
      "çĽ´æĴŃ": 8751,
      "åŃ£å¾Į": 8752,
      "ä»įåľ¨": 8753,
      "ä¸ŃæīĢ": 8754,
      "æł¼æĸ¯": 8755,
      "èĩºçģ£çľģ": 8756,
      "æį·åħĭ": 8757,
      "åĬłåĪ©ç¦ı": 8758,
      "ç§įç±»": 8759,
      "ower": 8760,
      "ä¸»è¦ģæľī": 8761,
      "å°Ĭéĩį": 8762,
      "çĻ¼ä½Ī": 8763,
      "çĪ¾å¾·": 8764,
      "è¢Ńåĩ»": 8765,
      "åĬĽåŃ¸": 8766,
      "ĠII": 8767,
      "è¾¹çķĮ": 8768,
      "æĹ¥èªŀ": 8769,
      "ç¾İåľĭçļĦ": 8770,
      "âĢĿï¼ĮâĢľ": 8771,
      "çµĲæĿŁå¾Į": 8772,
      "EM": 8773,
      "èµ¶": 8774,
      "ance": 8775,
      "æ£ł": 8776,
      "Ġx": 8777,
      "æ©ŁåĪ¶": 8778,
      "æĪĲåĬŁçļĦ": 8779,
      "å¤§çĲĨ": 8780,
      "åĪĨåįĢ": 8781,
      "1902": 8782,
      "åŁĥå°Ķ": 8783,
      "æĬµè¾¾": 8784,
      "é»ı": 8785,
      "å®ļä¸º": 8786,
      "é¢±": 8787,
      "èĪ±": 8788,
      "çº¤": 8789,
      "æĮĩçļĦæĺ¯": 8790,
      "åĲĦåĢĭ": 8791,
      "åįģäºĮå¹´": 8792,
      "åºµ": 8793,
      "åıĳçĶµ": 8794,
      "å¤įåħ´": 8795,
      "ä¸»ç¾©çļĦ": 8796,
      "ford": 8797,
      "ald": 8798,
      "oft": 8799,
      "æ£®æŀĹåħ¬åĽŃ": 8800,
      "æ±ģ": 8801,
      "çĳ°": 8802,
      "è£ģåĪ¤": 8803,
      "ale": 8804,
      "ç»´æĬ¤": 8805,
      "Ph": 8806,
      "ä¸ŃåĽ½ç§ĳåŃ¦éĻ¢": 8807,
      "æŃ·ä»»": 8808,
      "ä½ıåľ¨": 8809,
      "æ¶Īè´¹": 8810,
      "æŃ²æĻĤ": 8811,
      "----": 8812,
      "è¯¢": 8813,
      "æľĥè¢«": 8814,
      "æł¼æŀĹ": 8815,
      "çī¹åįĢ": 8816,
      "å°ļä¹¦": 8817,
      "èĸ©åħĭ": 8818,
      "éĢ±å¹´": 8819,
      "å®īå¦®": 8820,
      "å£«åĿ¦": 8821,
      "å½ĵå¹´": 8822,
      "åĿĩæľī": 8823,
      "èĩªæĿĢ": 8824,
      "1904": 8825,
      "çŃīæĸ¼": 8826,
      "åīįèĢħ": 8827,
      "å®īè£ħ": 8828,
      "åĵ²åŃ¦å®¶": 8829,
      "å¨±": 8830,
      "æµİåįĹ": 8831,
      "å§Ĭå¦¹": 8832,
      "ä¾¶": 8833,
      "è·¯å¾·": 8834,
      "æĮĩæķ¸": 8835,
      "çīĪçļĦ": 8836,
      "èĢĥè¯ķ": 8837,
      "åįĥäºº": 8838,
      "éĤĢè¯·": 8839,
      "åı±": 8840,
      "åı¯åľ¨": 8841,
      "èĺĨ": 8842,
      "å·´æ¯Ķ": 8843,
      "æĺŁç³»": 8844,
      "æ£Ł": 8845,
      "ç¢į": 8846,
      "ĉĉ": 8847,
      "çģĺ": 8848,
      "çļĦåŃĺåľ¨": 8849,
      "ä½ľçī©": 8850,
      "å½±è¦ĸ": 8851,
      "ĠHe": 8852,
      "ï¼ļï¼Ī": 8853,
      "ä¸įåĪ©": 8854,
      "æ¢ĵ": 8855,
      "å·²æĸ¼": 8856,
      "åĻ¨å®ĺ": 8857,
      "åĽ°éļ¾": 8858,
      "ç«ĭéĻ¶": 8859,
      "å·´æĸ¯": 8860,
      "çīĽæ´¥": 8861,
      "ä¸Ńéĸĵ": 8862,
      "ä¸ŃéĹ´": 8863,
      "çºĸ": 8864,
      "éĥ½çĿ£": 8865,
      "ç§įæ¤į": 8866,
      "åĲ«éĩı": 8867,
      "å°ĳçļĦ": 8868,
      "éĩĳéĸĢ": 8869,
      "å¥³åĦ¿": 8870,
      "å½ĹæĺŁ": 8871,
      "GP": 8872,
      "äºĨä¸ĢåĢĭ": 8873,
      "è³Ĭ": 8874,
      "äººæ°ĳå¸ģ": 8875,
      "ä¸¹éº¥": 8876,
      "å¸ĪèĮĥå¤§åŃ¦": 8877,
      "è®¤è¯Ĩ": 8878,
      "æĪĺåĽ½": 8879,
      "éĢģåĪ°": 8880,
      "éģĩåĪ°": 8881,
      "æĤłä¹ħ": 8882,
      "ä¹ĭèĻķ": 8883,
      "èª°": 8884,
      "åĽŀå¿Ĩ": 8885,
      "æ³¢ç½Ĺ": 8886,
      "uk": 8887,
      "æĻļå¹´": 8888,
      "å²©çŁ³": 8889,
      "HE": 8890,
      "åıł": 8891,
      "ç©Ĩç½ķé»ĺå¾·": 8892,
      "çļĦä¸įåĲĮ": 8893,
      "çİĭæľĿçļĦ": 8894,
      "è¡Įä½¿": 8895,
      "ä¾ĨåĪ°": 8896,
      "é©¬æĸ¯": 8897,
      "å¾®è»Ł": 8898,
      "è¿«å®³": 8899,
      "éĩĮç¨ĭ": 8900,
      "èĸ¦": 8901,
      "å¬°": 8902,
      "æľīè¨±å¤ļ": 8903,
      "çº¿çļĦ": 8904,
      "æ¸¤": 8905,
      "æŃĲçĽŁ": 8906,
      "åĮ»çĸĹ": 8907,
      "çĬ¶åĨµ": 8908,
      "ĠHistory": 8909,
      "æĿİçĻ»": 8910,
      "å±±ä¸ľçľģ": 8911,
      "äººèĪĩ": 8912,
      "ä¹ĭè·¯": 8913,
      "äºĮæĪ°": 8914,
      "éĻ³æ°´æīģ": 8915,
      "ST": 8916,
      "ï¹": 8917,
      "1915": 8918,
      "æ°´çļĦ": 8919,
      "åĮħåľį": 8920,
      "å±ĢéĿ¢": 8921,
      "res": 8922,
      "sc": 8923,
      "åı£å²¸": 8924,
      "è§£éĻ¤": 8925,
      "çİĩä¸º": 8926,
      "åĲĽå£«åĿ¦": 8927,
      "å±¯éĸĢ": 8928,
      "åįĹæĸ¯æĭīå¤«": 8929,
      "æĴ¥": 8930,
      "æ£²": 8931,
      "åįİçĽĽ": 8932,
      "çľŁçĲĨ": 8933,
      "éĽģ": 8934,
      "åľ°ä¸Ĭ": 8935,
      "èĭ±è¶ħ": 8936,
      "æİ¥ç®¡": 8937,
      "éĽ¶åĶ®": 8938,
      "æµªæ¼«": 8939,
      "éĽķå¡ĳ": 8940,
      "å±±åİ¿": 8941,
      "æµ·åŁŁ": 8942,
      "ãĥª": 8943,
      "é©¬å°Ķ": 8944,
      "ç²®é£Ł": 8945,
      "æĻĤæ®µ": 8946,
      "å¢ŀè¨Ń": 8947,
      "ä¿ĥä½¿": 8948,
      "é¢±é¢¨": 8949,
      "ä¸įå¦Ĥ": 8950,
      "ä»»åħ§": 8951,
      "æİ¥æĽ¿": 8952,
      "åįİäºº": 8953,
      "ise": 8954,
      "åī¯ä¸»ä»»": 8955,
      "Ġ1993": 8956,
      "æ»ħäº¡": 8957,
      "å¤§åĲĮ": 8958,
      "åĢŃ": 8959,
      "è¾¹å¢ĥ": 8960,
      "ä¸ªéķĩ": 8961,
      "å®ĮåĸĦ": 8962,
      "æĴ°å¯«": 8963,
      "Ġå¤©": 8964,
      "åľ¨è¿Ļ": 8965,
      "æľīå¾Īå¤ļ": 8966,
      "æ°ĳæĶ¿": 8967,
      "çĪº": 8968,
      "åħĭåĪ©": 8969,
      "æ©¡": 8970,
      "ese": 8971,
      "å¤§åŃ¸çļĦ": 8972,
      "åĨĻä½ľ": 8973,
      "æª¢æŁ¥": 8974,
      "æ³Į": 8975,
      "åħ¶ä½Ļ": 8976,
      "è²ª": 8977,
      "æ¹ĸæ³Ĭ": 8978,
      "é£İæĻ¯åĮº": 8979,
      "é¸£": 8980,
      "åįİçĽĽé¡¿": 8981,
      "ç¾¤ä¼Ĺ": 8982,
      "éħįç½®": 8983,
      "é»Ħéĩĳ": 8984,
      "ä¸ŀçĽ¸": 8985,
      "éĮ¦æ¨Ļè³½": 8986,
      "åĸī": 8987,
      "è§Ĥä¼Ĺ": 8988,
      "IR": 8989,
      "åľ¨åĮĹ": 8990,
      "ä¸įåĪĹ": 8991,
      "çĿĽ": 8992,
      "æ¨ĤåĻ¨": 8993,
      "æĽ¸è¨ĺ": 8994,
      "ç·¨æĽ²": 8995,
      "èĳ£äºĭéķ·": 8996,
      "éģķåıį": 8997,
      "SP": 8998,
      "å¹´å¤ıåŃ£": 8999,
      "çİĭçļĦ": 9000,
      "ground": 9001,
      "æīŃ": 9002,
      "çĶŁèĤ²": 9003,
      "çºº": 9004,
      "ä¸ªæľĪ": 9005,
      "æŃ¤ä¸Ģ": 9006,
      "åħ³éĶ®": 9007,
      "åħ¶ä¸ŃçļĦ": 9008,
      "å¹³å®ļ": 9009,
      "ä¿Ŀéļª": 9010,
      "æ»ķ": 9011,
      "çļĩå®¤": 9012,
      "ç«ĭéĻ¶å®Ľ": 9013,
      "çºĤ": 9014,
      "ä¿Ŀç½Ĺ": 9015,
      "è³Ń": 9016,
      "å®£ç¨±": 9017,
      "ç§»å±ħ": 9018,
      "çªģåĩº": 9019,
      "Ġ1994": 9020,
      "çĶ»å®¶": 9021,
      "æĿ±åįĹäºŀ": 9022,
      "å¤¾": 9023,
      "ä¸ŃæĹ¥": 9024,
      "çĶŁç´ł": 9025,
      "åħĭèİ±": 9026,
      "èµ·äºĨ": 9027,
      "æµģéĩı": 9028,
      "å·¦æ´¾": 9029,
      "å®ĮæĪĲäºĨ": 9030,
      "é¸Łç±»": 9031,
      "å¹´æīį": 9032,
      "äººåı£çļĦ": 9033,
      "åı¬éĽĨ": 9034,
      "åĦĴå®¶": 9035,
      "èģ²ç¨±": 9036,
      "åĳ½åĲįä¸º": 9037,
      "ç¡ķå£«": 9038,
      "ts": 9039,
      "èµ£": 9040,
      "åľ¨äºİ": 9041,
      "ink": 9042,
      "å¯¹æŃ¤": 9043,
      "ä¸¤åĽ½": 9044,
      "å°Īå®¶": 9045,
      "çļĦäººçī©": 9046,
      "æĲĸæ»¾": 9047,
      "):": 9048,
      "å¤§è¿ŀ": 9049,
      "çĪ¬": 9050,
      "æķĻçļĦ": 9051,
      "çģ£ä»Ķ": 9052,
      "éģĭè¡Į": 9053,
      "é¹°": 9054,
      "çĥıåħĭèĺŃ": 9055,
      "æĹ¥çĽĬ": 9056,
      "RNA": 9057,
      "å¢¾": 9058,
      "æ¸ħå»·": 9059,
      "ution": 9060,
      "å¤§å¸«": 9061,
      "ä¿¡ä»»": 9062,
      "æķ¸ç¢¼": 9063,
      "åĨĽçļĦ": 9064,
      "éĵŃ": 9065,
      "éĩĬæĶ¾": 9066,
      "è·¯æĺĵæĸ¯": 9067,
      "è»įåľĺ": 9068,
      "åīĮ": 9069,
      "ç¥ŀç§ĺ": 9070,
      "æŁĵèī²": 9071,
      "ä»£æķ°": 9072,
      "åİŁæľī": 9073,
      "åħļåĳĺ": 9074,
      "éĻĦåĬł": 9075,
      "äººä¹ĭ": 9076,
      "å¡Į": 9077,
      "æĿ¥åĪ°": 9078,
      "åħ¨åĽ½éĩįçĤ¹": 9079,
      "éĽ²æŀĹ": 9080,
      "äº«å¹´": 9081,
      "é¡¾éĹ®": 9082,
      "å¸Ĥè¾ĸåĮº": 9083,
      "å·ŀåĪºåı²": 9084,
      "æĽ´ä¸º": 9085,
      "åĽŀæĨ¶": 9086,
      "åĬĩæľ¬": 9087,
      "rit": 9088,
      "ä¾Ĩè¶Ĭ": 9089,
      "è«ĭæ±Ĥ": 9090,
      "åĲĮæŃ¥": 9091,
      "èı¯èªŀ": 9092,
      "Mac": 9093,
      "å¤§åĬĽ": 9094,
      "éķĩåİĭ": 9095,
      "çļĦåĬŁèĥ½": 9096,
      "åŁºçĻ¾ç§ĳ": 9097,
      "UR": 9098,
      "ä¸įåı¯èĥ½": 9099,
      "é»Ľ": 9100,
      "èĭıç»´åŁĥ": 9101,
      "æĵ´å±ķ": 9102,
      "æĪ°é¬¥æ©Ł": 9103,
      "èĪªæµ·": 9104,
      "åĲīæĸ¯": 9105,
      "rist": 9106,
      "Ġ2014": 9107,
      "æĸ¼é¦Ļæ¸¯": 9108,
      "ä¿¡èĻŁ": 9109,
      "è´µå·ŀ": 9110,
      "åĢª": 9111,
      "åĩºçĻ¼": 9112,
      "çĦ°": 9113,
      "çī¹å®ļçļĦ": 9114,
      "éķ¿æĺ¥": 9115,
      "æĿ±æµ·": 9116,
      "çĶ·ä¸»è§Ĵ": 9117,
      "åł±ç´Ļ": 9118,
      "éħ®": 9119,
      "æĿ°åħĭ": 9120,
      "Bl": 9121,
      "æĥ¨": 9122,
      "æĩĤ": 9123,
      "çİ«": 9124,
      "æķĪåĬĽ": 9125,
      "è£ĿåĤĻ": 9126,
      "çļĦéĽ»": 9127,
      "æįī": 9128,
      "é¸Ń": 9129,
      "ä½µåħ¥": 9130,
      "ç½¹": 9131,
      "è£´": 9132,
      "ç¤¾ç¾¤": 9133,
      "åĵģè³ª": 9134,
      "éŀį": 9135,
      "è³½è»Ĭ": 9136,
      "çħī": 9137,
      "çļĦä¸Ńå¿ĥ": 9138,
      "åĵº": 9139,
      "å°ıå§Ĳ": 9140,
      "åħ¸åŀĭçļĦ": 9141,
      "èĹ¤åİŁ": 9142,
      "UT": 9143,
      "pen": 9144,
      "çĽ¸åºĶ": 9145,
      "å£°æĺİ": 9146,
      "éł»çİĩ": 9147,
      "ç±ĥçĲĥ": 9148,
      "åħ¶åŃĲ": 9149,
      "æĸ°ä¸Ģ": 9150,
      "ä¸ĭæĿ¥": 9151,
      "çĭ¹": 9152,
      "æĲº": 9153,
      "åĮĹéĥ¨çļĦ": 9154,
      "æĩ·çĸĳ": 9155,
      "èĽĭçĻ½è´¨": 9156,
      "å½¦": 9157,
      "è¡Įä¸ļ": 9158,
      "åħļçļĦ": 9159,
      "åĬĩéĽĨ": 9160,
      "æ»¡æ´²": 9161,
      "åħ¬è»Ĭ": 9162,
      "æ³ķäºº": 9163,
      "ä¹ŁæĽ¾": 9164,
      "FC": 9165,
      "åĴĢ": 9166,
      "å¤©æĸĩåı°": 9167,
      "ery": 9168,
      "æ²»çĲĨ": 9169,
      "ç±³çļĦ": 9170,
      "åĮ»åŃ¦éĻ¢": 9171,
      "æĻĤä»£çļĦ": 9172,
      "æŃī": 9173,
      "åĩºæ¼Ķ": 9174,
      "åıįå°Ħ": 9175,
      "è¾¦äºĭ": 9176,
      "å°ļæĽ¸": 9177,
      "åĮħåĲ«äºĨ": 9178,
      "æĥĳ": 9179,
      "åĲĦåľ°çļĦ": 9180,
      "æĶ¶åĪ°": 9181,
      "ç·ĬæĢ¥": 9182,
      "åı¤èĢģçļĦ": 9183,
      "éĩįè¿Ķ": 9184,
      "çĽ£å¯Ł": 9185,
      "ä»¥å¤ĸçļĦ": 9186,
      "å¦ĩå¥³": 9187,
      "èĢ¶åĴĮèı¯": 9188,
      "å»Ĥ": 9189,
      "èĭıä¸¹": 9190,
      "åıĺä¸º": 9191,
      "è½īç§»": 9192,
      "åģļçĤº": 9193,
      "å½¢çĭĢ": 9194,
      "æľºä¼ļ": 9195,
      "æİ¨çĲĨ": 9196,
      "}-ï¼Į": 9197,
      "ĠJohn": 9198,
      "ĠStud": 9199,
      "æķµäºº": 9200,
      "è¨»åĨĬ": 9201,
      "æľīä¸ĢåĢĭ": 9202,
      "ä¹Łä¼ļ": 9203,
      "æĪ°åł´": 9204,
      "å½¢æħĭ": 9205,
      "æ´Ľä¼Ĭ": 9206,
      "å¸¦æľī": 9207,
      "æ¹ĸåĮĹçľģ": 9208,
      "å¥¥è¿Ĳä¼ļ": 9209,
      "ç¨ļ": 9210,
      "ä¸Ńå¿ĥçļĦ": 9211,
      "åŃ¸å£«": 9212,
      "æĺİæ¸ħ": 9213,
      "è¶Ĭä¾Ĩè¶Ĭ": 9214,
      "éĤ£éº¼": 9215,
      "å¹´æĪĲç«ĭ": 9216,
      "ä¸»å°İ": 9217,
      "Ġ1990": 9218,
      "Go": 9219,
      "ä¸Ģå¤©": 9220,
      "é¤ħ": 9221,
      "æ¯ıæ¬¡": 9222,
      "çīŁ": 9223,
      "ä¸ĭåĪĹ": 9224,
      "ä»»å¤©åłĤ": 9225,
      "èįĢ": 9226,
      "éĢłåŀĭ": 9227,
      "ound": 9228,
      "å¤§è¡Ĺ": 9229,
      "æłĸ": 9230,
      "éĥ¨ç½²": 9231,
      "rod": 9232,
      "åıĺå¾Ĺ": 9233,
      "ĠGe": 9234,
      "èĿł": 9235,
      "ä¼°è®¡": 9236,
      "çĪ¾çī¹": 9237,
      "ç¶Ńå¤ļ": 9238,
      "éĻįèĲ½": 9239,
      "ä½Ĩæĺ¯åľ¨": 9240,
      "åįĢåĪĨ": 9241,
      "æıĲäº¤": 9242,
      "æł¡åĽŃ": 9243,
      "back": 9244,
      "çļĦä½¿çĶ¨": 9245,
      "ä¸ĢæĶ¯": 9246,
      "çĽĴ": 9247,
      "èĦı": 9248,
      "äºĭåĭĻæīĢ": 9249,
      "ĠColle": 9250,
      "Ġan": 9251,
      "åģ¿": 9252,
      "æĽ´åĲįçĤº": 9253,
      "åŀĭèĻŁ": 9254,
      "AA": 9255,
      "çļĦå¾Į": 9256,
      "ä¸īä½į": 9257,
      "ini": 9258,
      "åįĶå®ļ": 9259,
      "oph": 9260,
      "å¯¦é©Ĺå®¤": 9261,
      "ç¨±ä¹ĭçĤº": 9262,
      "æĪĲç»©": 9263,
      "ç©Ģ": 9264,
      "åħµåĽ¢": 9265,
      "æ¡¿": 9266,
      "æĶ¾éĢģ": 9267,
      "åıĺæĪĲ": 9268,
      "ĠåĮĹ": 9269,
      "äºĭæĥħ": 9270,
      "èģ¯è»į": 9271,
      "å±ĢçļĦ": 9272,
      "åįĥå¹´": 9273,
      "Ġ1992": 9274,
      "æļ«æĻĤ": 9275,
      "åı¯æ±Ĺ": 9276,
      "æ»´": 9277,
      "åŁİå¸ĤçļĦ": 9278,
      "åĨ³è®®": 9279,
      "å¾®åĪĨ": 9280,
      "æĴ²": 9281,
      "ç¥ŀç¤¾": 9282,
      "åĤ³å¥ĩ": 9283,
      "æĦĽæĥħ": 9284,
      "ife": 9285,
      "æ¸Ĭ": 9286,
      "æ³ķè¯Ń": 9287,
      "å¹¶å°Ĩ": 9288,
      "ç°§": 9289,
      "ç§¯åĪĨ": 9290,
      "UNDAM": 9291,
      "éĵ¸": 9292,
      "çĤ¹çļĦ": 9293,
      "æĸ½è¡Į": 9294,
      "å®ĭä»£": 9295,
      "æĸ°äºº": 9296,
      "æķ´ä½ĵ": 9297,
      "éĬħéĳ¼": 9298,
      "è¼©": 9299,
      "Ġ1991": 9300,
      "çľ¼çĿĽ": 9301,
      "æľįåĬ¡åĻ¨": 9302,
      "å¹´æĺ¥": 9303,
      "æĺ¯ä¸Ńåľĭ": 9304,
      "åĵŃ": 9305,
      "éĩĮåħĭ": 9306,
      "æµģåĤ³": 9307,
      "æĻ¯é»ŀ": 9308,
      "ä¾¿åĪ©": 9309,
      "tel": 9310,
      "å¯¡": 9311,
      "ç½©": 9312,
      "è·¯çº¿": 9313,
      "ç´Ħæľī": 9314,
      "éĤıè¼¯": 9315,
      "åī¿": 9316,
      "ä¸ĸä»£": 9317,
      "ç¾İåĽ½æĢ»ç»Ł": 9318,
      "åħ¸åŀĭ": 9319,
      "éĬĢæ²³": 9320,
      "å±±åı£": 9321,
      "æ¨ĤåľĴ": 9322,
      "æĻ®é²ģ": 9323,
      "åħŃä¸ĸ": 9324,
      "éĩĳåīĽ": 9325,
      "ç§°åı·": 9326,
      "æĽ¸ä¸Ń": 9327,
      "è¢ģä¸ĸ": 9328,
      "ä¸ľé£İ": 9329,
      "æ§ĭéĢł": 9330,
      "æķĳæı´": 9331,
      "èªĺ": 9332,
      "çłĸ": 9333,
      "æ¨ĤéļĬ": 9334,
      "çĮª": 9335,
      "co": 9336,
      "ç§ī": 9337,
      "æĸ°å¢ŀ": 9338,
      "æµģéĢļ": 9339,
      "æ¨¡ä»¿": 9340,
      "èī¯å¥½": 9341,
      "ç¬¬äºĮæ¬¡ä¸ĸçķĮå¤§æĪĺ": 9342,
      "IF": 9343,
      "åĭī": 9344,
      "èĥĥ": 9345,
      "èĤĨ": 9346,
      "arr": 9347,
      "åŃĺçļĦ": 9348,
      "ä¼łè¾ĵ": 9349,
      "æ¤Ĵ": 9350,
      "çĥĪå£«": 9351,
      "åıĳçİ°äºĨ": 9352,
      "å¹´æĹ¥æľ¬": 9353,
      "åĬłæĸ¯": 9354,
      "åħĭèĲĬ": 9355,
      "åŁİå¢Ļ": 9356,
      ";}-ï¼Ī": 9357,
      "çĤºåħ¶": 9358,
      "åįĹæľĿ": 9359,
      "èĬ½": 9360,
      "åĴĮä»ĸçļĦ": 9361,
      "ç¾İéºĹ": 9362,
      "é´¨": 9363,
      "ç»´ä¹Ł": 9364,
      "é¦ĸåº¦": 9365,
      "çĦ¡éĻĲ": 9366,
      "å¯¼å¼¹": 9367,
      "éĩ£": 9368,
      "åİĿ": 9369,
      "å¢ľ": 9370,
      "å·´å¡ŀ": 9371,
      "çĶŁæĹ¥": 9372,
      "èµ·ç¾©": 9373,
      "é¦ĸæī¹": 9374,
      "æ¤İ": 9375,
      "çļĦåħ³ç³»": 9376,
      "è¥¿æ±ī": 9377,
      "å°±åĥı": 9378,
      "çłĶçĻ¼": 9379,
      "ä¿Ħåľĭ": 9380,
      "æĬĳåĪ¶": 9381,
      "ä»ĸè¿ĺ": 9382,
      "éĤĬçķĮ": 9383,
      "äº²çİĭ": 9384,
      "ove": 9385,
      "åĬĿ": 9386,
      "åŃ¸ç§ĳ": 9387,
      "æĽ¸å¯«": 9388,
      "ings": 9389,
      "çĶĺèĤĥ": 9390,
      "å¨±ä¹Ĳ": 9391,
      "åħĥå¸ħ": 9392,
      "æİ¢æµĭ": 9393,
      "éļ¶å±ŀ": 9394,
      "Linux": 9395,
      "è¡Įé§Ľ": 9396,
      "ä¼ļéķ¿": 9397,
      "è£ħå¤ĩ": 9398,
      "ä¸Ģæĸ¹éĿ¢": 9399,
      "ade": 9400,
      "è®ĬçĤº": 9401,
      "çļĦèĢģ": 9402,
      "éķ¿å®ī": 9403,
      "æ²³åĮĹçľģ": 9404,
      "è¾Ĳ": 9405,
      "äºĶå¤§": 9406,
      "æ¸¤æµ·": 9407,
      "çĪ½": 9408,
      "æĸ°åįİ": 9409,
      "çļĦåħ¨": 9410,
      "å¼§": 9411,
      "éĢļè®¯": 9412,
      "æĶ¿åºľåľ¨": 9413,
      "éļĬéķ·": 9414,
      "af": 9415,
      "iew": 9416,
      "ä¹Łèĥ½": 9417,
      "å¹³è¡Į": 9418,
      "åĵĪæĭī": 9419,
      "TVB": 9420,
      "GDP": 9421,
      "è¿Ħ": 9422,
      "ä¸ºä¸Ģ": 9423,
      "éĵħ": 9424,
      "åĨĻçļĦ": 9425,
      "çļĦæĶ¿çŃĸ": 9426,
      "è³ĩéĩĳ": 9427,
      "å¹´ä»£åĪĿ": 9428,
      "å°ģå»º": 9429,
      "èĨ½": 9430,
      "ĊĠĠ": 9431,
      "åĮĸå·¥": 9432,
      "æ©ĺ": 9433,
      "å¡µ": 9434,
      "ç¶ĵåľĭ": 9435,
      "åĬ¨åĬĽ": 9436,
      "æ¤ħ": 9437,
      "æĲľç´¢": 9438,
      "åīĸ": 9439,
      "æ´ģ": 9440,
      "è¡Įäºº": 9441,
      "äººæ°ĳä»£è¡¨å¤§ä¼ļ": 9442,
      "æĻ®éŃ¯": 9443,
      "æŀĦéĢł": 9444,
      "Ġ2016": 9445,
      "ony": 9446,
      "åıĸå¾ĹäºĨ": 9447,
      "æĬ¢": 9448,
      "å·¥ä½ľçļĦ": 9449,
      "æĽ¼èģ¯": 9450,
      "ç·¬çĶ¸": 9451,
      "æ²¼": 9452,
      "åº¦ä½¿": 9453,
      "åİĨä»»": 9454,
      "åĲīå°Ķ": 9455,
      "åĤ¬åĮĸ": 9456,
      "åĢļ": 9457,
      "è¥¿èĺŃ": 9458,
      "ç·ł": 9459,
      "åį¡çī¹": 9460,
      "æĨ¤": 9461,
      "æľĪä¸Ń": 9462,
      "ä»¥èĩ³": 9463,
      "åķ¤": 9464,
      "å´Ľ": 9465,
      "ute": 9466,
      "çī©çĲĨåŃ¦å®¶": 9467,
      "çĽ¸éĹľçļĦ": 9468,
      "åĭģæŃĮ": 9469,
      "Ġ<": 9470,
      "çī¡": 9471,
      "ç»¥": 9472,
      "çĶŁæķĪ": 9473,
      "æħ¶ç¥Ŀ": 9474,
      "angu": 9475,
      "æŀ¢çº½": 9476,
      "èĪľ": 9477,
      "æĢĿèĢĥ": 9478,
      "åĮª": 9479,
      "ä¸įåľ¨": 9480,
      "åħ©ä½į": 9481,
      "çľŁçļĦ": 9482,
      "ç¢ºä¿Ŀ": 9483,
      "ç¨ĭåº¦ä¸Ĭ": 9484,
      "ä¸Ľ": 9485,
      "çĶ°ä¸Ń": 9486,
      "éĽ»è¦ĸç¯ĢçĽ®": 9487,
      "Ġ2015": 9488,
      "çļĦåĽĽ": 9489,
      "æĪĬ": 9490,
      "åĪĨè¡Į": 9491,
      "æĢ»ä¹¦è®°": 9492,
      "ç«¶éģ¸": 9493,
      "æµ·å³¡": 9494,
      "æİĴè¡Įæ¦ľ": 9495,
      "å¤§è¡Ľ": 9496,
      "è·¯åĨĽ": 9497,
      "ä¸ĢæĹ¥": 9498,
      "åĽ½åĨĽ": 9499,
      "ãĢĮ-{": 9500,
      "ç¶ŃèŃ·": 9501,
      "åĮ»çĶŁ": 9502,
      "ç§ĳåŃ¦æĬĢæľ¯": 9503,
      "åıĳåĬ¨æľº": 9504,
      "èħĵçī¹": 9505,
      "ç¦į": 9506,
      "éļ¾ä»¥": 9507,
      "Ġch": 9508,
      "ä¹ĭä¸º": 9509,
      "çĲĨæĢ§": 9510,
      "åı¤è¹Ł": 9511,
      "éģ¸çĤº": 9512,
      "çº¿æĢ§": 9513,
      "æĹ©ä¸Ĭ": 9514,
      "æĸ½å·¥": 9515,
      "æ¾³å¤§åĪ©äºŀ": 9516,
      "ÑĢ": 9517,
      "æľĿæĹ¥": 9518,
      "ç¬¬åįģä¸Ģ": 9519,
      "å¾ªçİ¯": 9520,
      "Mar": 9521,
      "éĽĨçļĦ": 9522,
      "km": 9523,
      "å¤§æ°£": 9524,
      "èĤª": 9525,
      "æİĪæĿĥ": 9526,
      "åıĹåĪ°äºĨ": 9527,
      "åįģäºĮæľĪ": 9528,
      "æ¡Ĩæŀ¶": 9529,
      "æ³īå·ŀ": 9530,
      "1895": 9531,
      "å°¸": 9532,
      "çĽ´å±ŀ": 9533,
      "çľģä»½": 9534,
      "èĵī": 9535,
      "å¤ªå®Ī": 9536,
      "éĢıéľ²": 9537,
      "é«ĺç´ļä¸ŃåŃ¸": 9538,
      "çļĦéĩĳ": 9539,
      "ä½įåħĥ": 9540,
      "åįİåĮĹ": 9541,
      "ãĢīï¼ī": 9542,
      "äº§çĶŁäºĨ": 9543,
      "æĸ°çĶŁ": 9544,
      "æľŁåĪĬ": 9545,
      "é»ĳäºº": 9546,
      "å£°ç§°": 9547,
      "èĦĤèĤª": 9548,
      "çĤ¼": 9549,
      "èĩªç«ĭ": 9550,
      "çİĭåĲİ": 9551,
      "ä¸¦èĪĩ": 9552,
      "é¦ĸåĢĭ": 9553,
      "æ°Ķä½ĵ": 9554,
      "æĥħæ³ģä¸ĭ": 9555,
      "çķ¶ä»£": 9556,
      "åħ´è¶£": 9557,
      "è¨Ĭæģ¯": 9558,
      "å·¨äºº": 9559,
      "www": 9560,
      "ç¿Įå¹´": 9561,
      "SD": 9562,
      "æĸ¯é¡¿": 9563,
      "åĲįè©ŀ": 9564,
      "åħ¨é«Ķ": 9565,
      "æ¿ģ": 9566,
      "å·¥ç¨ĭå¸Ī": 9567,
      "æ´ªæ°´": 9568,
      "Ð½": 9569,
      "èį¡": 9570,
      "èįĲ": 9571,
      "ç±³çĪ¾": 9572,
      "å°Ĩé¢Ĩ": 9573,
      "èªªæĺ¯": 9574,
      "1903": 9575,
      "éĽ¨éĩı": 9576,
      "è¡Įèµ°": 9577,
      "æ°´åºĵ": 9578,
      "åı²å¯Ĩ": 9579,
      "çį²å¾ĹäºĨ": 9580,
      "æ´ĽæĿīç£¯": 9581,
      "éĺ²å®Ī": 9582,
      "ãģ¨": 9583,
      "å·´åĭĴæĸ¯åĿ¦": 9584,
      "åĩºéģĵ": 9585,
      "ä½Ĩä»į": 9586,
      "æ¨¡çī¹": 9587,
      "æ°¸éģł": 9588,
      "éĲµè·¯è»Ĭç«Ļ": 9589,
      "Play": 9590,
      "Ġis": 9591,
      "ï¼Įï¼Ī": 9592,
      "ç«£": 9593,
      "ä¸īéĥ¨": 9594,
      "æ®ī": 9595,
      "è¶³å¤ł": 9596,
      "Ġet": 9597,
      "ç»µ": 9598,
      "é«ĶåĪ¶": 9599,
      "åİ¿åŁİ": 9600,
      "é¡ĺæĦı": 9601,
      "èħĵçī¹çĥĪ": 9602,
      "åĨĽå®ĺ": 9603,
      "æĩ¼": 9604,
      "ä¼ģåľĸ": 9605,
      "è«¸èĳĽ": 9606,
      "èĬ¬åħ°": 9607,
      "åŃ£å¾Įè³½": 9608,
      "ius": 9609,
      "åħīæĺİ": 9610,
      "å±Ģéķ·": 9611,
      "é¢ĳçİĩ": 9612,
      "ma": 9613,
      "ä¸ºä¸ŃåĽ½": 9614,
      "çĶ³è¯·": 9615,
      "è»ĬéļĬ": 9616,
      "çĵĬ": 9617,
      "ĠéĻ³": 9618,
      "çļĦé¦Ļæ¸¯": 9619,
      "èĪīè¡ĮçļĦ": 9620,
      "å·´æĭī": 9621,
      "å®¢æĪ·": 9622,
      "åĵ¥åĵ¥": 9623,
      "çļĦå¤§åŀĭ": 9624,
      "èįīåİŁ": 9625,
      "çļĦæĹ¥æľ¬": 9626,
      "çļĦéĽ»å½±": 9627,
      "æł½": 9628,
      "å»ºæľī": 9629,
      "æ¥ł": 9630,
      "ç§°åĳ¼": 9631,
      "æĥħæĬ¥": 9632,
      "é©¬æĭī": 9633,
      "ä¿®è¨Ĥ": 9634,
      "åĵ¥ä¼¦æ¯Ķäºļ": 9635,
      "åľ°åľĸ": 9636,
      "èı©èĸ©": 9637,
      "æĿİçĻ»è¼Ŀ": 9638,
      "de": 9639,
      "ä¾Ħ": 9640,
      "è¶³ä»¥": 9641,
      "èĩºåįĹå¸Ĥ": 9642,
      "éłĮ": 9643,
      "ä¸¹å°¼": 9644,
      "Ã¤": 9645,
      "ä¸įå¤ļ": 9646,
      "èĩªç¨±": 9647,
      "å¾·æĸ¯": 9648,
      "è«¡": 9649,
      "åįİä¸ľ": 9650,
      "å¥¥æĸ¯åį¡": 9651,
      "è¸ª": 9652,
      "ç¸½çĿ£åºľ": 9653,
[...]
